#version: 0.2
▁ |
▁ d
▁ A
▁ B
▁ e
▁ G
▁ c
< b
r >
<b r>
▁ f
▁ g
▁ F
▁ (
: 1
▁ E
@ @
▁| "
▁ D
▁ a
▁d 2
▁A 2
▁ :
▁G 2
▁B 2
/ 8
/8 <br>
K :
M :
▁: |
▁c 2
L :1
▁ X
 

▁ @@
<br> L:1
:1 <br>L:1
▁X :1<br>L:1
▁@@ @
▁e 2
/ 4
B A
e d
▁X:1<br>L:1 /8<br>
▁( 3
▁ z
<br> K:
▁g 2
B c
▁f 2
7 "
e f
m "
▁e d
G "
▁B A
▁D 2
▁X:1<br>L:1/8<br> M:
/4 <br>K:
D "
▁F 2
▁ b
▁E 2
▁ "
▁| |
c /
B /
▁d c
▁ [
f e
▁c A
▁A G
▁:| 

▁: :
▁a 2
f g
/ 2
▁d B
▁ C
▁f d
c d
A /
▁B G
d /
▁| :
c A
e /
F A
B d
> A
f /
<br> M:
> d
G A
C "
a g
▁G A
A "
▁B d
▁d 3
▁| ]
4 /4<br>K:
▁| 1
▁|" G"
e c
▁A F
▁:| 2
▁G 3
> B
▁A 3
> c
▁|" D"
f d
▁c d
G /
▁a g
▁ ^
g /
E D
▁|] 

B G
/8<br> K:
E F
▁z 2
> e
▁B 3
▁|| 

c B
▁F A
Q :1
" ^
▁G F
▁ .
▁B ,
▁X:1<br>L:1/8<br>M: 4/4<br>K:
B ,
F "
a f
0 <br>M:
▁f g
6 /8<br>K:
▁f ed
▁B /
> G
> f
▁g f
▁e c
] 2
▁ =
▁c BA
▁c 3
F /
▁A /
> g
▁d ef
▁X:1<br>L:1/8<br> Q:1
▁A B
G B
A A
= 1
▁e f
▁e g
▁B c
▁|" C"
▁A Bc
) (
▁A ,
▁e 3
▁|" A
E m"
▁A d
▁A c
▁E F
▁d /
▁B cd
d B
" D"
e g
G F
▁d 4
▁A 4
D 7"
▁d f
▁g 3
▁e fg
> F
▁F D
▁c /
" G"
▁G 4
d 2
b "
▁f e
▁X:1<br>L:1/8<br>M: 6/8<br>K:
m i
▁c e
▁X:1<br>L:1/8<br>M: 2
▁e /
c 2
{ g
▁c B
▁G E
d e
▁( A
▁d e
▁|" A"
E /
] [
B 2
▁d BA
▁f 3
a /
▁E D
A ,
d c
▁g e
▁b 2
▁e cA
▁E 3
▁G /
G E
/2 <br>K:
▁G B
▁D 3
A F
▁(3 (
▁ T
3 /4<br>K:
▁f a
mi n
▁F 3
▁C 2
▁g fe
B/ c/
▁ !
▁dB G
" A
c e
e 2
▁c '
▁AG F
▁f /
▁|" B
G 2
▁a f
▁A BA
A 2
g e
▁BA G
▁| {
A B
c '
f 2
▁B 4
▁|" F"
▁G ,
G 7"
▁d g
▁AF D
Bc d
B/ A/
▁|"A m"
▁dc B
" A"
^ c
a b
▁" ^
▁c 4
▁D E
D m"
▁|" Em"
▁g fg
▁g ed
{g }
" C"
G G
▁d ed
▁e a
▁F GA
> E
g 2
/4 =1
▁b g
D /
▁e A
> a
▁ed c
▁X:1<br>L:1 /4
a t
▁gf ed
▁a fd
▁e 4
▁F /
▁a 3
/8 =1
▁F G
g f
G ,
▁B/ c/
▁|" E
f/ e/
▁G Bd
d f
A G
▁F E
▁|" D7"
▁|" ^
▁g /
) .
e e
▁e >d
d d
▁d >
C 7"
d/ c/
▁D 4
▁X:1<br>L:1/8<br>M:2 /2<br>K:
e/ f/
> D
▁" G"
▁ed B
▁D FA
▁B E
" B
▁dc BA
▁GA B
▁E G
1 6
▁B >A
▁( d
▁a b
▁X:1<br>L:1/8<br>M:2 /4<br>K:
2 /4<br>K:
B B
E G
▁A D
ef g
▁" D"
" E
▁A FA
/ 16
▁d A
[ M:
▁X:1<br>L:1 /16
▁g b
▁G >A
▁g d
F 2
▁BA B
▁D F
▁X:1<br>L:1/8<br>Q:1 /4=1
2 0<br>M:
▁|"A 7"
▁E /
o r
a !
A c
m at
fe r
fer mat
fermat a!
▁ed cB
▁X:1<br>L:1/8<br>M: 3/4<br>K:
▁F ED
▁E 4
▁|" G7"
▁d >c
▁D G
G m"
"A 7"
ag f
G )
f/ g/
▁d d
▁X:1<br>L:1/8<br>M:4/4<br>K: D
▁(3 A
▁X:1<br>L:1/8<br>M:4/4<br>K: G
a 2
d }
▁d/ c/
▁X:1<br>L:1/4 <br>M:
f a
▁A A
▁F 4
" D7"
▁A >B
▁D EF
▁c Bc
▁A >
▁g 4
▁A Bd
▁B, 2
▁cd e
▁g a
F D
▁(3 Bcd
▁ _
▁B <
d or
▁dc d
▁|" Dm"
▁G G
c BA
▁X:1<br>L:1/8<br>Q:1 /8=1
▁ag f
/4 ]
▁g >
▁(3 d
▁f 4
B )
3 /2
▁! fermata!
D E
▁c >d
▁A, 2
▁e fe
▁D /
▁X:1<br>L:1/16 <br>M:
▁( B
▁X:1<br>L:1/8<br>M:6/8<br>K: G
▁cBA G
" Em"
▁A <
▁cA F
▁c c
" F"
▁d >B
▁BG G
" _
[ K:
b /
a )
D D
e }
▁d G
▁B >c
▁cA A
C E
▁d >e
▁efg e
▁a /
▁B e
▁A >G
▁g ec
F #
d/ e/
▁d '
▁" C"
^ cd
▁c <
▁( c
▁G ED
c }
E 2
▁|"B b"
^ g
▁BA F
▁X:1<br>L:1/8<br>M:6/8<br>K: D
: 3
▁def g
▁|" C7"
▁B/ A/
▁AG E
a }
{ d}
▁GA Bc
▁" A
▁| [M:
^ F
▁ged B
0<br>M: 4/4<br>K:
▁( g
▁( e
B "
A/ B/
▁|"B m"
2 /2<br>K:
"A m"
▁( F
> !
▁fd B
▁c >A
▁f/ g/
▁AG A
D F
) "
▁(3 g
▁d <
▁A/ B/
▁fed c
▁b a
▁cA G
B b
▁B B
G }
▁( G
▁e >
] 3
▁f ef
<br> Q:1
Q :3
b a
/8 =
D 2
▁ABc d
^ d
▁e/ f/
▁e >f
c )
▁BG E
▁b ag
f }
BA G
a/ g/
▁f >e
▁g dB
E E
▁a >g
▁g ag
▁! >!
▁X:1<br>L:1/8<br>M:4/4<br>K: A
▁e <
BA )
] 4
▁A/ A/
Bc )
▁GF E
▁f >d
ed )
▁Bcd B
▁BG B
▁c >B
▁dB GB
▁F ,
▁" A"
▁f >
d '
b g
▁a 4
0<br>M: 6/8<br>K:
^ f
▁|" Gm"
▁f >g
"E 7"
G/ F/
▁dB d
c/ d/
▁Bd B
▁fd d
cB )
c c
▁G/ A/
▁GF G
▁X:1<br>L:1/8<br>Q:1/4=1 20<br>M:
▁X:1<br>L:1/16<br>M: 2/4<br>K:
▁cd ef
{ e}
▁( f
▁f <
d )
▁c' 2
▁(3 F
▁ABc A
▁EF G
▁G 6
^ G
▁f/ e/
▁B g
G/ A/
▁f af
E min
▁c >
▁e >c
▁^ c
▁E A
G ]
c/ B/
▁X:1<br>L:1/8<br> Q:3
▁dBA F
▁e B
▁ed e
▁E AA
▁d/ e/
▁c/ B/
▁def d
e )
. "
B }
▁F EF
▁BA GF
▁B >
▁d 6
▁e e
▁a >
▁( dc
A }
mi x
▁BA Bc
{ c}
D ]
/4 =
▁c/ d/
▁ v
▁a e
F F
▁D ED
C /
▁[ M:
▁G, 2
e A
▁ u
▁fg a
▁f A
ed c
▁g ab
▁B3 /2
▁e AA
▁g g
▁|"E 7"
▁ed ef
▁GA G
▁B >d
▁A 6
o n
▁G >F
▁d3 /2
▁d AF
▁A >c
▁A3 /2
▁G D
▁|"E "
▁g >f
fe )
▁X:1<br>L:1/8<br>M:4/4<br>K: C
( 3
▁[ E
▁fd ec
▁d fe
▁ag fe
▁A >F
"^ (
▁X:1<br>L:1/8<br>Q:1 /2
▁B >G
e/ d/
{ a}
ef )
][ K:
▁dc A
▁(3 efg
▁C E
▁f f
▁(3 cBA
, ]
▁X:1<br>L:1/8<br>Q:1 /8=
▁fg af
, 2
▁g >e
" G7"
▁E >F
B, D
▁G >B
" Dm"
d g
▁C 3
▁E C
▁F >A
F 7"
b 2
= c
▁c3 /2
i n
▁afd f
▁Ac e
▁Bcd e
▁[ A
E/ F/
▁A/A/ A
▁ef ed
▁AGF E
"B m"
▁B cB
▁dBA G
▁" Em"
▁G c
▁a/ g/
▁D C
▁A )
▁FD D
A )
▁F F
▁G3 /2
▁(3A Bc
▁[ D
▁G <
fg e
GA B
▁^ F
▁" F"
▁"A m"
▁fd f
t r
▁e fd
▁Ad d
▁X:1<br>L:1/8<br>M:6/8<br>K: A
▁" B
GF E
D .
▁A E
▁c Bcd
▁A/ G/
▁| {g}
▁e/ d/
f A
f ed
▁dc de
▁A >A
▁F >G
a e
▁= c
▁ag e
▁ABA G
▁X:1<br>L:1/8<br>M:2/2<br>K: D
▁( B/c/
▁z /
g d
D EF
▁ec e
▁F/ G/
▁A BG
▁GA BG
ef d
e "
. d
a a
B g
C m"
▁BA FA
▁GF GA
"^ B"
▁GF ED
] /
▁F <
▁d >f
▁AG AB
▁ABd e
▁df ed
▁X:1<br>L:1/4 <br>Q:1
▁A AA
▁X:1<br>L:1/8<br>Q:3 /8=1
ec e
▁G BA
▁f B
{ A}
d A
▁G/ F/
0<br>M: 2/2<br>K:
▁( gf
<br>M: 4/4<br>K:
▁d )
▁d Bc
▁z 4
▁eg e
▁g B
▁FGA B
▁ed Bd
▁cd ec
▁D D
9 /8<br>K:
▁X:1<br>L:1/8<br>M:2/4<br>K: G
▁B )
0<br>M: 2/4<br>K:
▁c >e
▁d fd
▁c f
▁X:1<br>L:1/8<br>M:2/2<br>K: G
▁X:1<br>L:1/4<br>M: 3/4<br>K:
▁( D
▁G/ G/
▁dB B
C D
▁[ K:
g )
▁( T
▁fd cA
F E
▁d >d
{ B}
▁d/c/ B/A/
"E "
fg )
▁gfg a
▁a d
▁( E
C ]
d/ B/
▁(dc )
"B b"
▁C 4
▁B cA
▁E E
▁EF GA
. A
▁a >f
▁d ^cd
▁EF E
▁ed BA
▁AF E
▁BA GB
cd )
▁E/ F/
" C7"
f/e/ d/
▁" E
▁a fge
f )
3 /4]
▁X:1<br>L:1/4<br>M: 4/4<br>K:
▁ea ag
F# m"
▁GA Bd
d/c/ B/
g B
▁( BA)
A min
▁BG Bd
B/A/ G/
▁E ,
g a
F G
▁b 3
{ G}
tr "
ef e
▁AFD F
▁A f
c E
▁E <
▁cA FA
▁GE E
F )
D. C
GA )
▁c )
▁X:1<br>L:1/8<br>M:3/4<br>K: G
▁E FA
▁X:1<br>L:1/8<br>Q:1/2 =
. c
{ f}
▁d/ d/
▁B/ B/
> C
ef }
▁(3 fg
▁^ c2
▁B/c/ d
▁cA BG
2 /4]
▁df a
▁g c
▁B ee
▁b agf
▁G3 -
▁B D
d F
▁( d2
▁( cB)
▁f efg
▁ecA c
▁cA GE
ag )
cd e
GF )
▁b /
▁fg f
▁D GG
▁a fe
▁e )
▁F B
dB )
cA )
a c
▁d eg
▁D A
▁( ed)
▁|"E b"
b 7"
▁d F
▁BG AF
de )
▁D B,
= B
▁c 6
▁f c
G d
▁Ac BA
fd )
▁B 6
▁[ GB
▁^ G
▁F >
▁[ BG
AA A
. B
▁( a
▁(3g fe
▁e3 /2
E/ D/
▁(A G)
▁dBA B
▁cd c
a r
E )
▁DEF G
▁cA c
▁X:1<br>L:1/16 <br>Q:1
▁G >G
▁X:1<br>L:1/8<br>M:2/4<br>K: D
▁G )
E dor
a d
▁" D7"
G/ )
▁g/ f/
▁e >g
g/ f/
▁D >E
# "
▁cA Bc
o "
▁c ec
A d
. e
▁f> ed
▁d2 d2
Bd )
▁( Bc)
F ,
▁c G
▁( [
▁ged c
▁X:1<br>L:1/8<br>Q:1/8=1 8
▁AG EG
▁ED E
B >A
▁(A B)
▁B, D
▁Bd d
▁c E
▁df af
▁a A
b ag
▁B F
▁( f/g/
▁G >
▁g >a
▁e cd
▁A cA
▁X:1<br>L:1/8<br>M: 9/8<br>K:
▁X:1<br>L:1/8<br>M:3/4<br>K: D
▁ded B
▁D 6
▁ag a
BG )
▁( B2
▁dBc A
▁GBd B
▁fed f
▁X:1<br>L:1/8<br>Q:1 /4=
▁(A 2
▁ded c
f f
▁a c
▁"^ A"
Bd B
▁d> ed
▁(3d cB
" Gm"
▁G g
▁G BAG
▁G BG
, 4
▁d' 2
ED )
▁g efd
▁= c2
A ]
▁(3F ED
▁|: "^
F# "
▁D/ D/
EF G
▁d3 -
▁F >E
▁eg fe
▁( e/f/
▁A3 -
▁Bc BA
g/ a/
▁A> BA
▁C /
▁C D
▁|| [M:
▁(3A BA
A e
▁B> cd
▁A ^
▁A >d
▁^ d
▁e ag
▁[ FA
▁(3d ef
▁. d
ec )
▁FGA F
▁gb ag
▁ab a
▁:: [K:
▁f3 /2
▁"A 7"
▁X:1<br>L:1/8<br>Q:1/8= 2
FA F
B >c
▁( d/c/
▁e 6
▁c> BA
▁( A/
▁^ cd
eg e
▁g <
▁dc Bc
▁^ f
fg }
▁e >A
▁b ge
▁bg af
B, /
. f
▁FA A
6 /8
20<br>M: 6/8<br>K:
▁g fd
{ /
▁G d
▁F d
▁g >d
▁AD FA
▁a a
▁dA FA
▁gfg e
▁d> ef
▁ab ag
▁gec e
C 2
dc }
F ]
1 "
^ fg
0<br>M:4/4<br>K: G
0<br>M: 3/4<br>K:
▁B >B
▁( ef)
▁c a
F }
▁( fe)
▁ag ed
▁(3 AAA
B E
▁( c2
▁|" F7"
▁E 6
▁" Dm"
▁f ec
on e
▁c/ c/
B/A/ )
▁d dd
▁( e2
▁z 3
▁|: "G"
▁F3 /2
▁ea a
▁|: "D"
▁ABA F
>B ,
▁E >D
▁D >
, 3
▁d >A
▁( A/B/
▁f ag
▁DG BG
g g
n one
▁fg fe
▁d2 )
▁BA A
e >c
B min
▁f )
cd }
▁= f
>e 2
B/c/ d/
▁" G7"
▁d >g
▁EF GE
▁gag e
▁A> Bc
▁( b
▁efg a
▁Bd ef
▁X:1<br>L:1/8<br>M:2/2<br>K: A
▁A a
▁dG BG
▁(3( A
▁BE E
p !
> b
▁A e
Bc B
>d 2
▁(3 efe
▁e>d c
g c
c' /
▁BA GA
/ G/
▁DFA F
▁c >c
▁( G2
▁. d2
▁B< d
0<br>M:6/8<br>K: G
▁BA Bd
▁[ AF
b }
/ B/
▁g3 /2
/ "
▁E/ E/
e/f/ g/
B/ d/
▁gf ef
▁|" Cm"
▁AF F
. g
>A 2
G" D"
= f
▁. e
▁F/ E/
▁[ cA
▁(gf )
▁D <
. G
▁Ad fd
▁FD F
▁ed cd
i on
▁G2 )
▁g/ a/
▁Be ed
▁c F
▁X:1<br>L:1/8<br>Q:1/4=1 0
c "
! fermata!
ge )
▁A2 )
▁A B/c/
▁( ed
▁AF EF
>B 2
B, C
2 /2
▁c< e
▁|{ d}
▁F )
▁DE G
▁E >G
A D
▁(3 BAG
▁g eg
▁gb g
B e
▁X:1<br>L:1/8<br>Q:1/4=120<br>M: 4/4<br>K:
▁[ A,
( d
▁g> fe
▁X:1<br>L:1/4<br>Q:1 /4=1
▁F 6
▁[ ce
▁[ AA
▁e/ d/c/B/
l i
]/ [
= g
BB B
▁( cd)
▁D >F
▁Ad dc
: 2
3 /8<br>K:
{g ef}
▁cBA B
▁G GG
▁(3 fed
▁B, 3
0<br>M:4/4<br>K: D
▁[ G
▁ce e
▁|| "^
▁gfe g
▁( fd)
▁G >E
B >G
f >e
S O
▁FA d
▁A2 -
▁gd Bd
▁d (
^ c/
▁fd ed
▁Ad c
▁AGF G
▁ED EF
▁f b
m 7"
▁BG GB
i t
▁T B2
▁DE FA
3 "
▁fed B
>f 2
▁Bd g
▁b 4
▁G e
▁DE GA
▁B>A G
▁(3 DEF
▁F >D
B, A,
▁A, 3
▁( f2
▁e/ e/
▁( de)
▁c< A
▁G2 G2
▁dfe c
]2 [
▁af a
▁eA cA
▁_ B
▁AG G
▁FD FA
a/ f/
▁f agf
▁a ^g
▁( F/
▁f >a
>c 2
▁e2 d2
F d
▁ag ef
"^ tr"
▁a/g/ f/e/
E ,
_ B
▁d2 -
= e
▁G/G/ G
▁fd c
6 /4<br>K:
▁[ c
>d )
b )
▁|{ c}
A/ A/
▁FA F
▁"B b"
▁ {
l o
▁E B
! p!
▁. c
▁( GA)
▁( dB)
▁d e/f/
▁D ,
4 "
▁|] :
s "
▁ecd B
>c )
▁B/B/ B
▁A2 A2
▁b >g
▁^ G2
▁[ G,
▁def e
▁B2 )
>B )
▁^ g
▁d D
▁BG d
▁ed /
▁. B
▁"B m"
▁[ ec
E b
dd d
▁dc AG
▁^ F2
▁E )
D G
* "
e >f
>A )
▁AG ED
▁( d/e/
▁ec c
▁(3 BcB
▁(3fg a
▁B ed
▁(3( d
▁[ d
▁. A
"B 7"
▁( Bd)
efg )
▁X:1<br>L:1/8<br>Q:1/8=1 6
f/e/ )
▁( fg)
▁E c
▁A< F
r e
▁d/d/ d
▁( c/d/
▁c/ B/A/G/
M :1
▁A g
5 "
▁G2 -
EF )
▁|"B 7"
▁( BA
▁DEF D
▁B< G
▁ M
▁efe c
▁cBA c
lo w
▁ec BA
▁g/ f/e/d/
▁E3 /2
D.C ."
▁g )
0 ]
^ A
^ de
>e )
G dc}
( A
▁GED E
▁[ dB
B >d
▁X:1<br>L:1/16<br>M:2/4<br>K: G
0<br>M:6/8<br>K: D
e r
▁( BG)
▁d ^c
▁fa fd
▁|: [K:
▁(3 EFG
▁e G
D ,
▁e >e
▁a <
▁D/ E/
▁fd ef
▁e ^d
▁c2 )
▁cd ed
▁( g2
▁cA B
▁ED C
▁D B
3 2
▁c2 A2
▁[E c
▁:|2 "G"
▁= F
▁e '
▁Ac ec
▁B2 G2
▁c ed
▁X:1<br>L:1/8<br>Q:3/8=1 20<br>M:6/8<br>K:
▁af ed
a/g/ f/
e >d
▁AG EF
▁gab g
▁|"A b"
C ,
▁b >a
▁F/ F/
▁B BB
DD D
▁F, 2
▁|" D
D min
▁c eg
▁[ ee
▁G EF
▁b f
▁B, 4
e B
▁( GF)
▁(3 GFE
▁d< B
▁|1 "G"
▁c2 c2
▁" C7"
▁" _
AG )
▁eA ce
{ F}
s t
/4 )
▁cd cB
▁|{ a}
▁f< d
▁e> fg
a >f
▁AD D
▁Bd cB
▁ed d
E A
m /
▁eg dB
▁c edc
▁E GB
▁|1 "D"
▁|1 ,3
▁( cA)
4 /4]
▁f< a
▁(B/c/ d)
▁B2 B2
▁ed cA
/4 ][K:
E "
= F
▁= B
▁a ec
li de
▁g agf
). d
▁B2 A2
▁DA FA
"^ /"
s lide
ce )
▁= g
▁d2 B2
▁= cA
dc )
M:1 2
▁ {g}
▁G>A G
▁g 6
▁c/B/ A
▁. B2
▁a> b
▁cA eA
6/8 ][K:
B/c/ )
cd c
▁:|2 "D"
▁A, 4
slide !
c f
▁a >e
▁DFA d
▁ P
▁A, B,
▁ab af
Bcd )
e a
▁c GE
▁|"^ (
▁X:1<br>L:1/8<br>M:4/4<br>K:A dor
▁|| [K:
7 )"
D.C .
9 "
▁(3 agf
▁D/D/ D
▁f/e/ d/c/
▁" Gm"
▁. c2
▁X:1<br>L:1/8<br>M:4/4<br>K: F
▁. e2
▁. f
▁cd B
▁fed e
▁X:1<br>L:1/8<br>Q:1/2 =1
af )
▁D3 /2
{ b}
▁|{ e}
GG G
( g
▁[ df
"^ C"
▁:|2 ,4
▁d b
▁|" _
▁b e
▁X:1<br>L:1/16<br>M: 3/4<br>K:
▁FA D
▁(3 c
c' b
G min
▁e2 e2
▁GE G
▁[ B
a/ b/
▁fa a
▁|{ f}
▁D d
▁C C
▁GBA F
. a
▁|" F#m"
▁g A
= G
▁( ag)
▁f2 d2
▁T c2
▁e/f/ g
▁d ec
D/ E/
FA )
▁"^ S
▁C ,
▁gd BG
e n
eg )
G >B
▁(3 ddd
"B "
A ]2
M:12 /8<br>K:
▁f cA
▁= f2
d/ d/
▁(3d ed
▁|[M: 2/4]
▁(F G)
▁A (
▁d2 f2
Bc }
▁f 6
F" G"
B/ B/
▁! slide!
A, /
▁B3 -
de r
▁ed Bc
c' 2
▁X:1<br>L:1/8<br>M:2/4<br>K: C
▁b d
c/ A/
3 /2<br>K:
▁c2 B2
▁(3 f
G/ G/
▁E/E/ E
< d
32 <br>M:4/4<br>K:
▁( G/A/
▁B, /
▁X:1<br>L:1/8<br>M:6/8<br>K: C
" F7"
▁^ GA
▁B/ d/
▁( c/B/
C #
c F
▁Ad f
F/ G/
▁eg fa
▁X:1<br>L:1/8<br>M:3/4<br>K: C
▁A, D
▁d2 c2
▁|{ B}
▁|"^ 1
▁B2 d2
f B
▁F GF
▁[GB ]2
c/ e/
▁G 8
>g 2
▁( ec)
a l
▁X:1<br>L:1/8<br>M:4/4<br>K: Emin
A, A,
▁G2 B2
▁. A2
▁FEF G
▁[ fd
G >A
▁:|2 "C"
F >A
▁( a/g/
▁(B/c/ )
a n
/ A/
> .
▁( .
▁a )
▁GF EF
▁|[M: 3/4]
▁. G2
m )"
▁Bd AF
▁(d 3
cBA )
▁Bd BG
▁FA df
▁Bd gd
▁|:"^ A"
▁GE C
▁c g
▁. G
▁e2 )
G/F/ E/
▁c2 e2
▁. f2
▁fa af
c/ c/
▁AG FA
▁E >A
▁(G 3
▁[ e
▁e> fe
▁ s
▁d> cd
▁GBd g
] )
▁d AG
▁bg ag
▁b af
GB )
"E b"
▁(3( g
▁|: "C"
< e
^ C
ag }
df )
BA B
▁D >G
▁( F2
▁X:1<br>L:1/8<br>Q:1/8=2 32<br>M:4/4<br>K:
▁(3fg f
▁cd eg
▁AF ED
▁e (
▁cA AB
▁X:1<br>L:1/16<br>M:2/4<br>K: D
▁|1 "C"
). B
). e
A 7"
▁(3 B
▁A 8
▁e/ f/g/
▁_ B2
▁g2 g2
▁fd df
▁(3( efg)
▁deg a
e/f/ )
D ]2
{g cd}
▁c' b
▁f2 e2
▁fd ad
▁d AA
▁. g2
▁B/A/ G/F/
! f
▁X:1<br>L:1/16<br>Q:1 /4=1
▁[ B,
▁A/B/ c
▁(3F GA
G c
▁D )
▁BG F
▁. g
▁f BB
2/2 ][K:
▁B, C
B/c/ d
g/ e/
g "
▁|"B "
E C
BG B
▁dB BA
DE )
▁cBc A
▁e< c
▁f >f
{g f}
▁( ^
▁:| "^
▁ag eg
>f )
fa )
>G )
▁ed BG
▁(3 edc
▁A< A
w ed
▁B2 -
▁(A F)
wed ge
▁:| [K:
D.C. !
" F#m"
1 2
< a
▁dc dB
▁ge e
▁X:1<br>L:1/8<br>M:2/4<br>K: A
▁dc df
▁G ^F
o der
▁a ece
▁g> ag
▁G/A/ B/c/
▁ABc e
e '
GA G
F B
! D.C.!
▁(A c)
C #"
D )
{ Gd
▁T f2
oder at
▁( e/d/
▁ecA F
▁d E
▁A2 G2
▁(f/g/ a)
/8 ]
▁FD EF
2 8
▁E ,2
▁ec Bc
▁GB B
0<br>M:2/2<br>K: G
f c
▁( ge)
▁F> GA
▁A B/A/
> [
▁X:1<br>L:1/8<br>Q:3 /8=
"_ c"
▁ce Ae
D C
▁(3 DDD
GE )
▁( fe
▁c3 -
▁fg ag
< A
▁dB GA
▁BA GE
▁efg f
▁D >D
▁"E 7"
▁X:1<br>L:1/4<br>M:4/4<br>K: G
▁cA GF
▁E GE
▁( Bc
▁( ag
▁[ GE
de }
low "
[ Q:1
▁d GG
▁cA ce
F m"
▁B, E
▁X:1<br>L:1/8<br>Q:1/2= 9
b e
▁ed ce
▁afe c
▁e2 c2
▁B (
<br>M: 2/4<br>K:
▁( cB
▁f2 f2
▁"E "
/ f/
▁g> fg
b/ a/
▁(3 G
▁(3 cde
▁BG AG
< g
▁eg dg
▁d>c B
▁e> cA
▁BGd G
▁( e/
▁g >g
< d)
E c
l y
▁( ef
▁E >
A/ G/
▁|"^ 2
▁FA dA
▁G, 4
▁Ad de
c >A
▁e ee
gf )
▁ t
▁ged e
wedge !
▁C DE
▁dBA c
▁AD FD
▁E/ D/
▁EAA B
▁e f/g/
▁B/c/ dB
in e"
▁dG Bd
c G
▁BG dB
>G 2
. F
▁(3 GAB
c' a
a "
▁a3 /2
d "
▁e f/e/
▁G, 3
= cA
, ]2
EE E
). f
A, B,
▁F >F
▁(3(A Bc)
d/ )
▁d 8
▁f ece
>c '
0<br>M:2/4<br>K: G
▁( u
▁(e/f/ g)
▁fd e
GF G
( c
▁^ d2
▁ in
▁X:1<br>L:1/8<br>M:4/4<br>K: Edor
< B
B/c/ A/
▁X:1<br>L:1/4<br>M:3/4<br>K: G
▁b >
▁G4 -
d i
▁(A 3
▁ad fd
▁T e2
▁D GB
b f
▁"^ A
▁B FAF
▁|{ A}
▁(3 cdc
▁A4 -
▁e< g
>A ,
"^ D.C."
▁Bd f
). A
] 6
▁AGF D
g b
▁X:1<br>L:1/8<br>M:2/4<br>K: F
▁FGA c
▁d/ B/
▁f2 )
= Bc
▁d< f
▁e/e/ e
▁E e
▁fA eA
▁(3A GF
▁( E2
▁^ f2
▁d c/B/
▁fe e
▁dg gf
A m"
▁cA Ac
▁(3( Bcd)
▁(B 3
▁D3 -
▁X:1<br>L:1/8<br>Q:1/8= 3
0<br>M:2/2<br>K: D
▁g G
▁g dd
▁c> Bc
▁fd de
▁e >a
▁fd fa
▁c/c/ c
▁T c
▁B f
▁[ Ac
▁(3 BBB
D B
G ]2
▁[ cE
e/ e/
"^ 4"
▁G>A B
> "
▁dc AF
AB )
^ GA
▁X:1<br>L:1/8<br> M:12/8<br>K:
▁X:1<br>L:1/4<br>M: 2/2<br>K:
^ cA
" Cm"
▁[ CE
▁d^cd e
( f
G" D7"
▁ED B,
ar i
▁B >g
▁f/g/ a
( B
▁(A/B/ )
▁eg ec
<br>M: 6/8<br>K:
▁e2 -
A f
▁X:1<br>L:1/8<br>M:4/4<br>K:A min
< c
F# 7"
▁[ GG
▁X:1<br>L:1/16<br>Q:1 /4=
i l
)( d
▁(3 GGG
▁( cd
GA G}
E ]2
▁A, C
▁F< A
▁af ef
▁g/ g/
▁( C
▁( a2
▁Bd c
/ F/
▁d a
▁GF GB
{ fg}
▁fg e
▁(3g ag
▁g2 f2
▁X:1<br>L:1/8<br>Q:1/2=1 0
▁dB gB
▁B/c/ d/B/
▁fd AF
▁. !fermata!
). c
▁(c 3
▁(F E)
▁DG Bd
B, 2
M T
▁(3 D
▁gfe c
▁ged g
at ion
▁def a
▁[ FD
a >g
▁d ge
28 <br>M:4/4<br>K:
▁c>d e
▁(d/c/ )
▁EAA G
)( AG)
( e
▁B >e
▁A "
▁E A,
▁X:1<br>L:1/8<br>Q:1/4=120<br>M: 2/2<br>K:
▁G >c
▁E3 -
FD )
0<br>M:2/4<br>K: D
▁X:1<br>L:1/8<br>Q:1/4=120<br>M: 6/8<br>K:
▁[D B
▁A^ GA
> u
▁X:1<br>L:1/8<br>M:6/8<br>K: Emin
▁ag ab
Bd }
▁GE A
ari ation
▁^ A
▁(3( F
d/c/ )
▁cc c
▁B, A,
▁A/ c/
). g
▁"^ M
▁|"^ tr"
▁. a
▁f >A
P MT
▁F2 )
▁gfg d
▁G A/B/
▁C B,
/ a/
▁[ Fd
▁= F2
▁ED D
▁e cB
SO O
SO SOO
▁X:1<br>L:1/8<br>M:6/8<br>K:A dor
▁c B/A/
▁f2 a2
▁[ dF
▁X:1<br>L:1/8<br>Q:1/8=1 28<br>M:4/4<br>K:
▁( DE)
C] "C"
▁.!fermata! PMT
▁( EF)
E }
▁ce Ac
▁ag fg
▁A/ B/c/d/
▁(dc )(
▁g f/e/
F/ A/
ab a
G/ B/
▁efd B
▁g ef
▁E >E
▁d> BA
T e
^ f/
f >d
▁A, /
▁ed ^c
▁F2 A2
▁c' 3
▁X:1<br>L:1/8<br>M:3/4<br>K: F
▁|" F#"
▁c>d c
▁F GE
▁( fg
E >F
▁DG GF
d >B
▁(d <
▁G< B
▁[ C
▁X:1<br>L:1/4<br>Q:1 /2
7 /
▁f/ f/
▁(g a)
{ Gdc}
▁dg g
▁( =
▁E2 )
"^ *"
▁A>G F
▁d >G
▁:: "D"
▁X:1<br>L:1/8<br>M:6/8<br>K: F
AB }
ab )
▁( d/
][ BG
▁||[M: 3/4]
c a
▁X:1<br>L:1/8<br>Q:3/8=1 0
▁g dc
▁b b
▁cBc e
▁X:1<br>L:1/8<br>Q:1/2= 8
^ ce
▁(3( fg
▁[A e
▁= G
( F
▁C A,
▁F3 -
▁g >B
▁c/ e/
▁[ Bg
▁C >E
▁g2 )
>g )
▁BE A
/ E/
▁( c/
( G
▁^ cA
<br> Q:3
E ]
▁( g/a/
▁fa ec
▁ec gc
▁ce cA
B F
▁:: "^B"
▁Ac eg
▁BA /B/
▁|"D b"
^g a
2 "
< f
C C
▁a 6
▁X:1<br>L:1/8<br>M:4/4<br>K:A mix
▁( ce)
▁E GG
▁bg eg
▁g ^fg
▁dc Bd
B f
▁BG A
]2 )
▁FA c
at h
C O
fd f
▁cA d
▁ed/ c/
▁= B2
▁B ^
▁ed eg
▁ea af
▁GF D
F] "F"
> )
▁f e/d/
▁( eg)
▁D2 -
▁A2 d2
▁eA fA
▁d4 -
{d} A
+ "
▁A cd
)( g
▁A2 c2
▁Bd cA
▁BAF E
▁G >D
▁BA /G/
▁a AA
g/ )
▁. a2
▁T e
G/F/ )
c /4
▁A> GA
)( ed)
▁"^M oderat
A dor
▁Ad B
▁F< D
▁( dB
F/ E/
▁(A/ G/)
▁f> ef
▁[K: G]
>F )
▁( df)
▁( g/
▁c2 -
^ D
>a 2
▁(3 bag
▁X:1<br>L:1/8<br>Q:1/4=1 4
▁X:1<br>L:1/8<br>Q:1/4= 9
u t
>F 2
▁f >c
▁AF d
▁Ad e
▁c/d/ e
▁(f/g/ )
= d
▁A >D
▁C >D
▁c/ A/
▁G/ B/
▁d2 (
▁a2 g2
f/g/ )
i m
▁F FF
▁( g/f/
▁A< c
b d
▁fd cB
▁c (
▁(3( cBA)
▁^ fg
20<br>M: 4/4<br>K:
▁ag fa
B /4
▁ABd f
{ Bc}
▁D DD
▁:: "^
▁f AA
▁T A2
"_ >
▁d fg
▁d2 e2
cc c
▁[FA ]2
▁E CE
▁dAF D
▁T A
▁ae cA
n d
▁D 8
▁= e
▁T B
▁dcd A
▁X:1<br>L:1/8<br>M:9/8<br>K: G
▁( GA
< A)
▁(e/f/ )
▁cd cA
)( A
▁[M: 3/4]
f "
▁d DD
▁T f
▁( B/A/)
▁b c'
c/ )
▁BG AB
▁e3 -
▁b/ a/g/f/
< G
G, ]
▁d>c B>A
▁E2 -
▁gb a
▁EFA B
d /4
▁A cB
▁( DF
G, /
▁B>A B
▁[D d
▁G/F/ E/D/
▁ m
▁a c'
FA c
<br>M: 2/2<br>K:
▁(3 e
▁|: "F"
f/ f/
▁|"^ 5"
ee e
▁a2 a2
▁g2 e2
▁B c/B/
▁D ,2
▁BG GA
▁(3 :2
▁Bcd c
▁|: "A"
G/ E/
di m"
▁d -
u s
▁. F
▁GD G
▁:|2 "F"
▁ABc B
▁X:1<br>L:1/8<br>M:6/8<br>K:A min
▁B gf
▁| [K:
▁a^g a
▁|" G
6/8 ]
▁:: "G"
▁(A/B/ c)
{ ag}
▁fd dc
▁F/ A/
Te il
▁( Bd
▁( fd
▁[ fA
▁b ab
▁eg g
▁|[M: 4/4]
▁fag e
/ e/
▁G Bc
▁D2 )
▁fd cd
▁gab a
▁A -
▁( FA)
▁A^ GAB
g >e
▁d2 ef
▁cA ec
▁F/F/ F
▁( D2
▁Bcd f
▁( f/e/
▁A2 F2
▁( EG
▁ag bg
▁d/ e/f/g/
▁B>c B
▁[ce ]2
▁C EG
Bb ]
▁( GB)
▁ce a
t en
▁X:1<br>L:1/16<br>M: 4/4<br>K:
0<br>M:4/4<br>K: C
▁||[M: 2/4]
▁:| "^B"
A" G"
▁(ed )(
▁( fa)
▁( cA
▁f2 ed
^ F/
▁e^d ef
r i
▁d e/d/
▁B c/d/
▁( ED)
▁A/ G/F/E/
▁f e/f/
▁fd Bd
G, G,
▁a/ b/
▁F c
r it
▁DF D
▁[A f
▁(d/e/ )
▁e/f/g/ e/
▁fef a
E/F/ G/
▁[ Bd
▁d FF
▁BA BG
▁| {g
▁ge cA
" D
4 /4][K:
▁X:1<br>L:1/8<br>M:4/4<br>K: Bmin
▁e ^de
▁Bd dB
▁e/f/ ge
: "
<br>M: 3/4<br>K:
▁FA DF
( E
▁c >f
▁c B/c/
▁[ ge
_ e
c >B
▁AF GE
▁X:1<br>L:1/8<br>M:9/8<br>K: D
▁eg ed
▁|{ G}
{Gd G}
▁dfe g
▁(G/A/ )
▁cBA F
▁"E b"
▁cA AG
▁dB g
▁|1 "F"
▁(c/B/ )
▁dg fg
2/2 ]
▁dg f
▁X:1<br>L:1/8<br>Q:1/4=120<br>M: 3/4<br>K:
▁.!fermata!PMT u
▁c BG
▁Be ef
"_> Teil
k "
▁^ g2
v e
▁(3 EEE
▁d2 g2
▁dc AB
B b"
▁e BdB
▁T d
▁|: "Em"
▁|{ /
▁|: "Am"
▁Bd e
▁Bd Ad
G" C"
▁|"B b7"
> A/
▁B/A/ G
er s
g/ g/
▁d' c'
[Q:1 /8=1
GB ]
▁g (
G" Am"
▁(3 E
▁Bd ce
▁bg b
▁X:1<br>L:1/8<br>Q:1/8=1 5
▁EF D
0<br>M:3/4<br>K: G
▁C F
> B/
▁E GAB
^c )
▁G< E
▁( GF
▁a >a
▁dg fe
▁X:1<br>L:1/4 <br>Q:3
] >[
ed B
fd B
▁eg f
▁c' a
▁^ C
f/g/ a/
▁C <
A >B
▁[M: 6/8][K:
d/e/ )
▁E d
0<br>M: 6/4<br>K:
▁BAF B
. E
▁d2 A2
e/ c/
▁( af)
▁dg bg
▁FA AB
▁. ab
f /4
▁C 6
▁g< e
▁g>fe >d
▁ED CE
E B
▁fd A
▁f/g/ af
▁f/e/ d
▁B/c/ B/A/
▁(c/d/ )
▁ea ab
"^( A
{ ef}
▁c' /
< e)
e /4
▁a >d
B, B,
▁X:1<br>L:1/8<br>Q:3/8=1 1
E >D
▁= g2
>E )
aa a
in e
▁a fg
▁X:1<br>L:1/8<br>M:2/2<br>K: C
▁A ^G
C )
▁B b
▁(A <
▁[ gB
e >g
f/ d/
▁g/ e/
▁.ab c
▁E GFE
▁G (
▁fg ab
▁A/ B/A/G/
l l
▁E GA
▁[ DF
▁a2 )
▁Ad fa
▁bf af
▁c' 4
▁f (
▁|"^1 3"
/ c/
▁A2 B2
A, 2
▁AFA B
▁a>g f
▁X:1<br>L:1/8<br>Q:1/4=120<br>M: 2/4<br>K:
)( dc)
▁FE E
▁X:1<br>L:1/4<br>Q:1/2 =1
G )(
▁e/ g/
▁e< a
▁dg Bg
▁fe cA
▁A >f
▁(e 3
▁[M: 2/4]
"^( D
▁ac gc
▁FD AD
▁!slide! [
). G
▁X:1<br>L:1/8<br>M:3/4<br>K: A
{e} A
▁ x
▁BG D
▁DFA c
▁FED F
▁g ^f
▁ec ec
][ AF
▁b/ a/
▁e>dc >B
▁A/ B/c/A/
▁gb eg
▁D A,
B D
▁a >A
▁C ,2
▁cd Bc
bg )
▁e/ f/e/d/
▁.!fermata!PMTu CO
▁( E/F/
▁BA AG
▁df f
▁(A B
▁G, B,D
▁gb af
▁G -
: 4
▁d c/d/
▁( B/A/
G" ^
▁G> Bd
▁ag ec
▁a dd
▁B4 -
▁E EE
▁X:1<br>L:1/8<br>M: 3/8<br>K:
▁EF GB
▁c/ B/A/
][ cA
▁ED B,D
▁X:1<br>L:1/16<br>M:2/4<br>K: A
▁A2 AB
▁D4 -
▁(e <
▁"^S low"
i c
▁E 8
▁(e/d/ )
▁F >B
▁GA GF
▁FED E
▁B2 c2
▁B/A/ B/c/
▁eB e
▁fef d
g A
af a
>a )
▁B 8
▁[Ec ]2
▁a> fd
▁(3B ^cd
▁A2 (
Bc A
▁:|2 "A"
▁ed/ e/
▁a2 f2
▁T g
▁T g2
▁e BB
▁|1 "A"
▁AF G
C# 7"
▁d2 >e2
▁d =
▁( GE)
▁e2 >d2
▁FD DF
▁G f
^ G/
)( c
▁A, CE
▁dA d
▁df Bf
▁X:1<br>L:1/8<br>M:6/8<br>K: Edor
o t
▁B, ,
] -
▁= G2
> d/
EF E
▁^F G
▁GE ED
cA c
f/ a/
▁g3 -
▁GE CE
▁[AA ]2
▁( v
▁GBA c
▁A ag
▁fa ef
20<br>M: 2/4<br>K:
a st
▁A/ F/
▁G>A B>c
▁_ e
!f !
▁BE ED
"B b7"
▁a> ba
▁[K: D]
b re
> c/
▁F GFE
▁u e
▁e E
▁E4 -
)( e
▁(b a)
▁d/c/ d/e/
▁BcA B
>E 2
▁( de
▁= Bc
▁[BG ]2
o !
▁c2 d2
▁F2 -
▁d< g
▁X:1<br>L:1/4<br>M:3/4<br>K: C
▁[AF ]2
▁ecA G
▁B -
▁FA Bc
▁FAD A
ten ut
▁c 8
▁a ed
ec >A
▁. [
▁(d >e)
▁E B,
▁g2 -
)( f
ly "
▁B =
▁( FD)
▁dB Bd
▁g> b
▁X:1<br>L:1/16<br>M:2/4<br>K: C
▁X:1<br>L:1/4<br>M:4/4<br>K: D
][ ec
d/e/ c/
▁fd fd
D/ D/
A /4
D }
▁C DEF
agf )
bre ath
▁D B,D
▁B2 AG
▁ge be
▁g/f/ e
B/ G/
> e/
▁d d/d/
▁BG EF
▁A A/A/
^F G
▁F f
ar t
tenut o!
C ]2
▁c ege
BA F
▁(3 GAG
▁dc Ac
▁dBA d
breath !
▁[df ]2
6 "
▁|" Fm"
▁d2 cB
)( dB)
e y
{ AB}
▁B, G,
▁(BA )(
▁AFA c
3/2 ]
▁GA BA
▁gd g
▁g af
▁e2 a2
a A
▁g <b
▁ag af
▁f >B
ed c)
A/ B/c/
▁B/ G/
▁G, /
G D
▁FD E
▁A< d
▁F/E/ D
▁X:1<br>L:1/8<br>M:6/8<br>K:D mix
▁E Ac
▁[ EG
][ FA
▁! breath!
▁(A ,
▁AFD E
). a
B, ]
▁AB GA
▁ag ae
G" A"
▁(3g fg
▁X:1<br>L:1/8<br>M:4/4<br>K:D mix
▁(3(F ED)
▁e >B
▁c d/e/
▁F >d
▁a ee
G/ B"
A/B/ )
▁G2 A2
d' /
▁efd e
▁F/G/ A
][ D
▁FED C
▁a/ a/
d >c
▁F C
▁fd ge
▁(d >c)
▁d/e/ d/c/
▁D GA
▁|| "D"
c >e
▁^ de
▁e2 >f2
▁B, >D
▁BD AD
! wedge!
> (
▁( D/E/
▁e2 g2
"A b"
d/B/ )
▁( ec
▁B >F
▁ed gd
▁dB dB
▁X:1<br>L:1/8<br>M:4/4<br>K: Bb
▁ED EG
▁(F 3
▁ae a
S "
▁g2 fe
▁BG EG
▁(d '
▁=c 3
▁c >G
▁Bc e
c/B/ )
][ ce
▁GEF D
▁(d/c/ B/A/)
▁e ^c
.A .A
▁( ge
▁b B
▁BG FG
▁bag e
p l
▁c EE
▁F2 D2
▁(3( f
▁(c/d/ e)
▁GA F
▁Ac BG
i g
▁. F2
▁X:1<br>L:1/8<br>Q:1/8= 8
= B/
▁D >C
cd B
(3 (
▁eag a
▁[ee ]2
▁A >E
▁ag /f/
▁T d2
b b
▁AG /A/
▁X:1<br>L:1/4<br>M:3/4<br>K: D
▁c2 BA
▁fg fd
▁ S
▁ec eg
cB }
▁A>A A
2 0
▁|: 

▁D2 D2
▁e2 A2
▁e2 f2
▁[BG ]
"^ A"
▁B, B,
▁Ad cd
▁c >a
▁GA GE
▁AF cF
▁T F2
▁(3(fg a)
▁GE cE
▁G, A,
▁. E
▁c' ba
▁(f 3
▁FD AF
"^ s
▁T E2
▁d/e/ f
f/ )
▁f g/f/
▁G2 E2
BA G)
▁(3 ccc
{g Bd}
d' 2
▁fde ^c
▁E AG
▁(3 a
▁Bd GB
▁e/ c/
▁bg ec
.d .d
▁g c'
▁A2 Bc
▁AFA d
▁A "G"
F/ F/
▁A> Bd
c >d
p i
▁D >A
^ c2
▁F> ED
▁D> EF
▁(3(d ef)
▁FG EF
▁(3 BdB
▁af af
▁FE FA
▁a >c
▁cB B
▁f3 -
▁e af
! >!
"^ D
▁ce A
▁d> fe
▁X:1<br>L:1/8<br>Q:1/4=1 1
▁(G >A)
▁( ba
▁(3 eee
▁|{ Gdc}
D/ F#"
N B
▁b> ag
][BG ]
▁C 3/2
▁(A >B)
▁d> ^c
▁Add ^c
c' )
▁B ^cd
▁[ F
▁B BA
▁f2 -
)( B
][ dB
▁g> ab
▁gc ec
▁|"^2 1"
▁ed fd
▁A, A,
/ d/
{ E}
▁g a/g/
▁gg g
▁dB e
df a
it h
▁GA c
▁eg fd
▁af f
▁dg d
▁"^ B"
f >g
▁( f/e/)
▁(3 aba
▁fd af
AF )
▁X:1<br>L:1/8<br>Q:1/4= 8
▁D> ED
▁X:1<br>L:1/16<br>Q:1/4=1 0
▁|| "G"
0<br>M: 3/8<br>K:
▁ec ce
▁X:1<br>L:1/8<br>Q:1/8=1 20<br>M:6/8<br>K:
▁c' bag
▁B2 (
cA F
0<br>M: 9/8<br>K:
▁X:1<br>L:1/8<br>Q:1/8=16 0<br>M:6/8<br>K:G
▁gA fA
▁c/d/ e/f/
▁[ec ]2
{ cd}
▁X:1<br>L:1/4<br>M: 6/4<br>K:
▁F, 4
▁(3g gg
▁cA GA
{g fg}
▁GB e
▁E >C
▁D E/F/
▁AG GF
▁X:1<br>L:1/8<br>M:4/4<br>K:G min
▁f G
▁b2 a2
▁(3( cd
▁!fermata! d
F ine"
▁( BG
▁AF dF
▁FA dc
▁X:1<br>L:1/8<br>Q:1/8=18 0<br>M:4/4<br>K:G
▁(B >c)
▁[GB ]
▁C/ C/
▁B FD
▁|: "Dm"
▁d>ef >g
▁F2 F2
>G ,
▁G/ E/
▁|[M: 2/2][K:
▁X:1<br>L:1/8<br>M:2/2<br>K: F
ers ion
▁ed dc
▁cA dc
▁^ D
▁f>g a
▁F BB
▁DG GA
▁(EG )
▁X:1<br>L:1/8<br>Q:1/2= 7
▁e ^f
▁(d/e/ f)
▁A >e
▁Ac c
E/ E/
▁(g 3
▁cAG c
▁G< G
▁X:1<br>L:1/4<br>Q:1/4=1 20<br>M:
FE )
▁^c 3
▁d2 cd
▁AF FA
▁ag fd
▁d/c/ B
▁g> ed
▁F 8
▁cA dB
D/ E/F/
Q u
^ GB
▁A2 "G"
▁f>ed >c
^ d/
▁e =
▁f '
▁c c/c/
▁fg ef
▁D> FA
▁d d/e/
▁G G/G/
▁t im
▁(dc)( BA)
▁e b
▁|| "^B"
▁c/ B/c/d/
{g a}
▁f/g/ a/f/
▁X:1<br>L:1/8<br>Q:1/4=120<br>M:4/4<br>K: G
v ariation
▁Bd ed
▁v ar
< a)
> G/
▁c4 -
"^ /
"^( E
▁B2 AB
▁bd ad
{ GAG}
▁d AB
▁g2 d2
▁cA cA
▁FA G
▁X:1<br>L:1/8<br>Q:3/8=120<br>M:6/8<br>K: G
▁ff f
E/D/ )
▁(DF )
▁ p
Bd e
D ,]
G ][
▁( b2
▁X:1<br>L:1/8<br>M:4/4<br>K:D min
C ,]
▁f =
▁B^ AB
g /4
▁d2 >c2
▁|| 1
N B"
▁B a
▁^ ga
or i
Gd G
▁A2 >B2
▁AG /F/
▁( c'
▁c2 (
G" G"
▁BG GF
▁(3d cd
▁d >F
▁A A/B/
▁a (
▁fa d
0<br>M:2/4<br>K: C
▁[cA ]2
▁:| [M:
Bd f
▁FA B
F" Em"
▁e4 -
al "
▁(A c
▁|"^ 9"
▁BE GB
▁(3(d cB)
= E
DEF )
▁" Cm"
▁B< A
▁B B/B/
▁BA FD
e/ g/
▁ab c'
▁Ad ^c
▁|{ F}
▁EG D
▁A =
▁G C
▁f/ e/f/g/
▁afe g
▁[dB ]2
▁Ad cA
▁GA cd
▁BG BG
g >f
▁fd Ad
d >e
▁G >g
e/d/ )
▁e -
"^ S
▁e/ d/c/
▁(gf )(ed)
o d
▁e2 (
fe c
eg n
▁!fermata! c
▁X:1<br>L:1/8<br>M:6/8<br>K:A mix
▁::[K: G]
▁(F/ G/
B, )
▁c d/c/
▁e2 dc
▁FA de
▁D c
▁fa df
▁! wedge!
▁|[M: 6/8][K:
▁a< f
A, ]
▁[M: 4/4][K:
{ cB}
▁( B/
▁BG DG
▁Bd de
"E b7"
▁ec '
0<br>M:6/8<br>K: C
▁E< A
7 /2
▁g >c
G) "
▁" F7"
▁^ A2
c h
▁A >a
A >F
▁G2 F2
GA }
d2 )
{d} c
▁:: [M:
▁c>BA >G
▁g f/g/
▁"^ V
▁eAA B
▁X:1<br>L:1/8<br>Q:1/8=18 0<br>M:4/4<br>K:D
▁[AF ]
▁e' 2
▁ced B
C/ B,/
ine !
▁G/A/ B
▁(B/c/d) B
▁d2 de
ed "
▁E/ G/
▁M S"
▁g efg
▁E AB
C/ D/
▁E/F/ G
▁Bed B
▁= d
^c }
▁f/g/ f/e/
▁d>B G>B
▁A, G,
G, 2
▁e>d B
▁EG ce
. b
u g
▁ef a
▁A>F D
= "
▁X:1<br>L:1/8<br>Q:1/2= 6
▁(cB )(AG)
ll eg
▁B >E
▁fB BA
egn o"
▁cA FD
▁!fermata! B
▁d>B G
▁[cA ]
▁(ag )(
▁e 8
, ,]
▁(3( ef
B/c/ B/
!f ine!
= C
▁G2 (
▁a2 -
▁ddd d
▁d/ ^c/
▁f>g f
▁fed ^c
▁AcA F
▁(3f af
0 "
▁( eg
▁G2 >A2
" G
▁c =
▁B2 Bc
▁ABG E
< F
E b"
▁g BB
▁(e >d)
A mix
▁FA AF
"^ f
▁X:1<br>L:1/8<br>Q:3/8=120<br>M:6/8<br>K: D
▁c2 Bc
▁!fermata! G
z d
a B
▁c D
▁F/ G/A/
ee l
0<br>M:3/4<br>K: D
ef >d
▁T F
▁(3(g fe)
( D
▁B eg
▁G >d
▁BA AB
▁. b
▁X:1<br>L:1/8<br>M:6/8<br>K: Bb
][ fd
c' }
▁(B >A)
▁B, CD
B, ]2
D/ A"
▁X:1<br>L:1/4<br>M:4/4<br>K: C
▁(F/ G/)
▁ed ^cd
▁b )
E/ )
{ de}
▁E >c
▁ce ae
▁"^ 1
▁X:1<br>L:1/4<br>Q:1 /4=
= A
▁g/ f/e/
▁BE EF
▁X:1<br>L:1/8<br>Q:1/4=120<br>M:4/4<br>K: D
a/ a/
▁AE A
▁AG BG
▁Ac f
6 /4]
A GAG}
A/ F/
▁X:1<br>L:1/16<br>M:2/4<br>K: F
_ E
▁X:1<br>L:1/4<br>M: 3/2<br>K:
▁FD DE
▁[ eg
▁^ ce
▁(d g)
▁c ef
▁[D A]2
F, /
u r
A/ c/
][ GE
d >f
▁( G/F/)
▁z 8
▁B< e
▁[M: 2/2][K:
▁F e
▁X:1<br>L:1/8<br>M: 3/2<br>K:
▁fd gf
▁f/ d/
▁DE GB
> v
▁( B,
][ E
▁af bf
▁B< B
▁|[M: 2/2]
▁G6 -
c ]
▁c -
▁|| 2
▁Ac ef
▁FD C
▁(A d)
▁B< g
▁E< C
▁FA dB
▁fa eg
▁B/c/ d/e/
▁e>d e
▁X:1<br>L:1/8<br>Q:3/8= 9
▁ce ag
▁AB BA
▁EA cA
▁AAA A
][ec ]
▁f2 >e2
]2 -
▁bg g
▁DF F
▁X:1<br>L:1/8<br>Q:1/8=1 0
▁ab g
▁X:1<br>L:1/8<br>Q:1/4=1 6
"_ b"
▁Bg B
▁GBG B
▁( af
▁X:1<br>L:1/8<br>M:2/2<br>K:A dor
^ g/
▁Bd gf
▁(3F GF
p "
▁Bd ge
▁[A a
A a
▁B2 e2
▁FA FA
▁B, <
d' b
▁(A F
d/c/B/ )
2 /4][K:
u e
)( G
Qu ic
< G)
▁(3 GFG
▁cA AA
2 :3
^ cB
▁A cde
▁a ef
▁var ."
▁B< E
▁g/g/ g
▁d =c
▁B ^A
ed e
)( cA)
▁X:1<br>L:1/8<br>M:6/8<br>K: Bmin
▁EG DG
c/d/ )
▁( FA
>D 2
▁D/ E/F/G/
G] SOSOO
a j
a >e
▁GF EG
▁d/c/ B/c/
▁( G/
ag e
▁d/ f/
2:3 :2
A E
▁z 3/2
▁:: "A"
d/ f/
▁dA BG
▁a>g f>e
▁(3c Bc
pl us
G e}
c g
▁bag b
6 0]
▁| {gef}
▁e agf
▁= cBA
A, C
▁ge af
variation s"
> b2
G /4
)( F
▁G, B,
▁X:1<br>L:1/8<br>M:2/4<br>K: none
▁c>d e>f
0<br>M:4/4<br>K: A
▁X:1<br>L:1/8<br>Q:1/8=16 0<br>M:6/8<br>K:D
▁(3 EFE
][ df
an t
][cA ]
BA B)
G" F"
▁u d
A" D"
▁X:1<br>L:1/8<br>M:2/4<br>K: Bb
{Gd Ge}
" F#7"
F" A"
▁(d< B)
▁Bd AB
▁. b2
▁= E
▁c' c'
▁(3F FF
▁::[K: D]
h or
▁dc BG
▁c/ d/c/B/
▁afd e
▁g> ec
▁(E 3
][ GB]
▁G, G,
▁dfd f
▁g2 fg
▁:: "C"
G/ D"
▁FA FD
"^ A
▁ge eg
A >c
▁A aa
▁[ af
▁cA BA
▁. E2
▁BD GB
plus !
D ][
e ]
A/ G/)
▁(3g ab
▁E< G
b m"
▁|" F#7"
▁ge a
3/2 )
▁d< d
▁dE BE
▁X:1<br>L:1/8<br>M:12/8<br>K: D
▁e GdG
▁( 2:3:2
▁AG Ac
/ g/
▁c ac
▁eg de
Ac )
▁BAF G
▁dfd B
▁(g/f/ )
( [
▁BG GG
▁fA df
▁A>Bc >d
▁|"^1 7"
▁(3G Bd
" A/
▁f BdB
▁(3 C
{g} A
G, ]2
▁_ e2
▁( df
b a)
▁[A, E]2
\ "
▁e e/e/
▁[ dg
▁eg fg
▁c/ d/e/c/
▁. D2
B2 )
GFE )
E >G
▁(A >G)
▁EG c
▁X:1<br>L:1/8<br>Q:3 /4=
▁gfd c
c'/ b/
▁[ec ]
r o
▁G2 AB
▁ec ac
▁ec ge
▁G/F/ G/A/
^ FA
ED C
▁AFA F
▁[FA ]
▁c b
). F
▁B2 >A2
▁e2 ef
▁e< A
▁de cd
▁E>F E
▁^cd ef
▁d B/c/d
▁g ^
▁|{ b}
▁!fermata! d2
▁G> BA
▁D >d
▁(B 4
▁!>! c2
▁[E A]2
][AF ]
▁g2 (
▁|] [K:
ri s
▁B "D"
▁TB 3
▁( bg)
▁EC C
f/e/d/ )
▁fcA c
▁"^Moderat e"
▁X:1<br>L:1/4<br>Q:3 /4=
B m"
▁X:1<br>L:1/8<br>M:3/4<br>K: Amin
▁B ^c
▁GF GE
B, ,
▁=c 4
▁[CE ]2
C )"
▁B, ,2
0<br>M:6/8<br>K: A
▁CE Ac
▁(3 BAB
▁dB ge
▁EG BG
▁F4 -
▁e< f
▁eag e
▁ea e
^cd )
0<br>M:4/4<br>K: F
▁[ eA
▁a2 gf
▁d2d2 d2
▁(a/g/ f/e/)
▁B >D
>d '
▁. D
▁[dB ]
▁e ^cA
▁( fa
▁ed ge
▁= A
▁(e >f)
Quic k"
E 7"
▁D AA
▁(c >B)
▁!>! d2
▁age a
▁X:1<br>L:1/8<br>Q:3/8= 8
▁G ce
▁(3 ege
"^ c
▁= C
▁GE BE
▁"A b"
▁[DB ]2
5 <br>M:4/4<br>K:
▁:: 

A, ]2
▁ {d}
▁A ^c
)( fd)
▁A6 -
▁c >E
▁d2 ed
▁" F#m"
▁d' 3
^F )
Bg B
▁dF cF
▁Ag fe
p o"
▁(3 A/B/c/
▁f2 (
cA G
▁= e2
▁FD EC
▁F/G/ A/B/
▁(3(ef e)
▁Bd BA
▁D/ F/
▁cc cc
▁A >g
▁E2 D2
▁[ DD
▁A, ,
. e/
▁A C
▁( 4
▁[ a
▁(B <d)
) d
> F/
▁[ BE
)( ec)
▁fa ea
▁"B 7"
▁(3(f ed)
▁F BA
▁" D
▁FA cA
F" A7"
▁|{ fg}
▁A>c e
▁(D 3
f >a
▁e BG
▁d2 >B2
▁GED B,
g/f/ )
z A
▁d2 Bd
▁FGA G
▁(d 4
▁X:1<br>L:1/8<br>M:3/4<br>K:D min
"^ +"
▁gb ge
▁(3(A BA)
B ]
▁E2 E2
▁ecA B
▁B< c
]3 -
d' c'
▁G2 GA
▁Bcd g
▁D< G
▁A ece
▁E GF
BA }
▁FA GF
_ A
▁G GA
▁e2 ed
ag a
▁FA EA
a) "
)( gf)
▁DF Bd
▁(ed)( cB)
▁d GB
▁( b/
▁|| "C"
20<br>M: 2/2<br>K:
▁E ^
▁G2 g2
▁X:1<br>L:1/4<br>M:3/4<br>K: F
▁[Fd ]2
"_ D.C."
▁f/f/ f
d E
s s
d/ e/f/
▁!fermata! A
8 0]
▁E F/G/
▁= fd
▁= fed
▁f/ a/
:3 :4
▁Ace a
▁X:1<br>L:1/8<br>Q:1/8=2 0
. c/
t t
u s"
▁dB de
▁|] [M:
▁eg ge
{g} B
▁a> fe
d ^c
g fe
m aj
▁G B/c/d
>F ,
▁_ E
^ c/d/
{ ed
▁D dd
AF D
▁|[M: 3/2]
F >D
▁B ef
)( ge)
▁[fd ]2
9 /8]
> f/
▁^ fd
G, B,
a/g/ )
ff f
][dB ]
▁A gf
▁[ g
▁Bd fd
▁Bc BG
▁ce ef
▁cB BA
> ^
▁ {a}
▁E2 G2
ED E
▁A, E
▁A, >B,
▁|"E b7"
▁g/ f/g/a/
▁EB BA
- ]
▁( b/a/
▁f2 ef
▁b 3/2
▁dB ed
▁X:1<br>L:1/8<br>M:2/2<br>K: Bb
▁GGG G
▁cA GB
][ Ac
▁X:1<br>L:1/8<br>M:2/2<br>K: Emin
▁(3A cA
▁[Bg ]2
▁F, 3
▁E>F G
▁(4 :3:4
FA d
▁b2 g2
pi rit
▁( ce
▁Bd Ac
▁f ^
▁:: "Am"
A" A"
▁ED CD
e2 )
▁[K: C]
▁(g/a/ b)
. d2
<br> M:12/8<br>K:
▁D >B
▁D >B,
▁|1 "Am"
▁(A G)(
▁DFA B
▁X:1<br>L:1/8<br>Q:1/4=1 3
▁fd "A"
▁GF /E/
G/A/ )
▁e/d/ e/f/
> =
{ dc}
▁B2 BA
▁"^ s
▁|[M: 6/8]
▁ {c}
▁( ab)
▁BA ^G
▁C )
▁Bd eg
▁|1 "Em"
▁(A 4
▁(g >f)
NB 1"
▁B2 g2
▁a2 >g2
▁B>cd >e
▁[G, G]2
▁G cc
▁D -
▁dg ed
▁|"^ /"
▁d> Bc
▁e< d
▁e/d/ c
▁C/ D/
▁AB/c/ d
▁d>cd >e
( a
F ]2
▁F (
▁:|2 "Am"
▁[M: 4/4]
▁c FF
GA B)
▁AB ^c
▁v e
) e
▁g GG
▁^ GB
▁ge ag
▁A/G/ A/B/
▁d>ef >d
g }
▁( f/
▁A2 f2
▁[K: C]"C"
▁| (
▁f -
▁GF /G/
▁(c >d)
▁CD EG
E, /
▁e "D"
▁D GF
▁cA e
GA F
F" D"
▁Bg dg
▁d2 dc
▁D2 F2
)( cd)
▁!>! f2
▁[Ae ]2
▁[Dd ]2
A2 )
▁(f >e)
▁ w
▁e ^
▁z 6
B/ )
Bd g
▁(3( BAG)
▁cAA g
G >F
▁d f/g/
▁e cde
▁|:[K: G]
▁B BBB
▁e2 fg
▁(3c ec
] "^
u "
▁c >F
▁d2 G2
▁"^ (
c ]2
▁g2 b2
▁D2 G2
▁EF ED
▁dg b
▁(3D ED
▁G "D"
▁(3 [
▁dc c
e/ )
▁c'/ b/
▁ce ec
▁bg dB
▁X:1<br>L:1/8<br>M:6/8<br>K:G min
▁B> GA
▁D< D
▁[ce ]
][FA ]
▁D (
▁[ ac
▁AF cA
)( a
▁A, <
▁|{ Bc}
▁BA cA
▁g> ef>d
▁[c a
G" Em"
EF G)
▁G>F G>A
C ][
^ G)
▁B ge
▁B d/B/
▁f g/a/
▁b d'
G, A,
fe }
▁AF EG
▁cBA ^G
▁A> ^G
▁X:1<br>L:1/16<br>M: 3/8<br>K:
▁G A/G/
▁" B"
▁GB EB
B/d/ )
▁X:1<br>L:1/8<br>Q:1/8=232<br>M:4/4<br>K: D
D" G"
▁[ Be
▁:: "Em"
▁Bd G
▁:|2 "Em"
▁edB e
▁g/a/ b
? "
▁Ad dB
▁X:1<br>L:1/8<br>Q:1/8=1 4
▁B>cd >B
^ df
▁f2 g2
▁Bd Bd
▁c' >b
]4 -
▁( ab
▁D ,4
▁A2 >G2
▁c2 >B2
▁e>fg >e
▁[GE ]2
. d/
= cB
▁(3 aaa
▁Ac Bd
▁GB ed
▁dg dB
▁X:1<br>L:1/8<br>M:3/4<br>K: Bb
{d} B
▁! plus!
▁(c 4
▁u A
.B .c
C# m"
# m"
▁d z
▁B DD
0<br>M: 3/2<br>K:
▁B>A B>c
▁d< e
▁fb b
▁ge ef
^d )
▁!>! B2
e G
▁B FF
▁a aa
▁A< B
▁(c <A)
o l
▁e2 de
▁FD B,
▁d' 4
▁Bg ec
▁EDC B,
▁Bd dg
▁G/ A/B/
▁FE ED
▁X:1<br>L:1/8<br>M:3/4<br>K: none
▁A/G/ F
▁G/F/ E
▁"^S low
{ ^
▁A< a
▁c/B/A/ B/
< B)
▁F2 G2
▁df ag
▁(e a)
▁[Ac ]2
▁c2 cd
▁g2 >f2
▁F2 E2
▁A EE
▁ec g
▁d/ e/f/
▁fa ag
▁X:1<br>L:1/8<br>Q:1/4=1 5
▁EA ce
▁(GF )(
B >g
▁A AB
▁b 6
▁Bd Gd
▁T E
▁c' g
▁|[M: 5
▁C3 -
▁DC D
▁f f/f/
▁BG cA
{g} c
{ D}
▁(3 A,
▁|: "G7"
▁(3( agf)
▁dBd g
▁FEF D
▁( D/
▁_ A
▁(f <a)
▁d "A"
▁Ad A
▁df Bd
▁"^ 2
▁AAA B
][ce ]
▁G >e
▁g -
▁Ac fc
▁!>! e2
▁X:1<br>L:1/4<br>M:4/4<br>K: F
a/b/ )
. f/
> ed
▁c FAF
▁AF GA
▁de e
▁"^A lleg
D A
l ast
▁EF GF
"_c" c
▁G "D7"
▁C B,A,
EF }
F" C"
▁a3 -
▁A< G
"_ f
▁A/B/ cA
▁F>G F
b >g
▁B2 >c2
A" ^
b/ g/
▁X:1<br>L:1/4<br>M:2/2<br>K: G
▁(3:2 :2
h r
▁d FAF
▁G cB
▁( G/F/
▁^ D2
▁X:1<br>L:1/8<br>M:2/2<br>K: Edor
▁G^F GA
▁X:1<br>L:1/4<br>Q:1/2=1 0
▁DF BF
▁G ge
▁G G/A/
▁G2 c2
▁c' e
/4=1 0
▁EG FA
▁(fe )(dc)
▁tim e"
= fd
▁a dfa
▁C A
A/ )
▁gfg b
▁c< f
▁(G 4
▁EC EG
▁.d (
▁gfd e
▁c =B
▁E (
▁E BGB
▁d2 dd
▁[ B,D
▁Ad F
▁( GB
▁E BB
▁d2 fd
▁A/ G/F/
^g }
▁!>! d
▁X:1<br>L:1/4<br>Q:1/4=1 0
▁B B/c/
▁B2 E2
▁A/ B/A/
▁T B>A
▁A/B/ A
. .
▁e ed
▁T G2
▁!fermata! G2
▁eB BA
▁E, 4
▁FB BA
▁c fe
"^ >"
▁gfg f
▁A> FA
▁Af f
▁(f/g/a) f
▁!slide![ ee
. B/
C hor
"^ 1"
▁EG cG
▁ga fg
^f )
G 3
R eel
▁a efd
▁A2 a2
G" A7"
▁ag /a/
▁ef fe
▁F, /
▁F< B
▁=cA G
][fd ]
▁X:1<br>L:1/8<br>M:4/4<br>K:D dor
▁c< AA
▁B/A/ G/A/
)( Bc)
▁e> cd
▁f>g a>f
"^(D )"
▁(D/E/ )
> ^c
▁B2 "D"
/4 c/4
▁Ac Gc
▁ea ca
▁(E/F/ )
▁dB fB
▁eg b
▁bg dg
▁_ BA
▁DC B,
▁[GG ,]
▁c "G"
D" A"
▁C a
▁fg ec
E/ G/
▁X:1<br>L:1/4<br>M: 2/4<br>K:
▁GD B,D
▁DC B,A,
▁g< c
▁||[K: G]
▁Te 3
. c2
F /4
▁(3 =
▁fd dd
▁BG FE
▁^ C2
▁BcA F
▁B>AG >F
: 5
▁A fe
▁A2 GA
▁FA ,
▁d6 -
▁GD B,
▁cGE G
<br>M:6/8<br>K: G
▁( EF
▁Bd AG
)( ag)
▁Ac fa
a2 )
▁d =cA
▁X:1<br>L:1/8<br>M:2/2<br>K: Amin
▁X:1<br>L:1/8<br>M:6/8<br>K:D min
B/A/G/ )
g >a
▁A af
▁dB eB
▁GBd f
▁d> ^cd
▁(g b)
0<br>M:6/8<br>K: F
▁(D G)
▁.!fermata!PMTuCO M
maj 7"
h "
{ BA}
▁B =G
▁^ c/
▁eg d
▁!fermata! A2
▁f> ec
D] SOSOO
▁[cE ]2
▁g2 B2
▁cAA e
.f .e
▁X:1<br>L:1/16<br>M:3/4<br>K: D
nd ant
) A
▁E2 "D"
▁E2 A2
▁AG ^F
▁C >B,
▁(3( Bc
▁Bg fg
. A2
▁ {e}
▁[fd ]
▁[GG ,
▁(g/a/ )
h e
▁d {e}
▁e ^fg
▁B2 Bd
▁A/ d/
▁ge ^c
. C
▁B "D7"
)( BA)
▁ED B,A,
▁G>A B>G
▁DF B
▁G>F G
0 <br>M:12/8<br>K:
7 /8<br>K:
▁c =Bc
▁G2 Bd
▁= cB
▁|{ ag}
▁DC DE
▁X:1<br>L:1/8<br>Q:1/4= 20
" G/B"
^ AB
▁c2 >d2
▁cA cd
)( AF)
▁b2 b2
▁! tenuto!
▁A>Bc >A
▁X:1<br>L:1/16<br>Q:1/4= 8
. e2
= c/
▁d2 {e}
▁ea ec
▁X:1<br>L:1/8<br>Q:1/8=3 0
▁g2 a2
▁A, DD
e2 d2
▁D/ C/
▁X:1<br>L:1/16<br>M:2/4<br>K: Bb
.G .G
= ef
▁d B/d/
▁[ f
"^ D"
▁(3( DEF)
▁ABd B
▁c< a
▁B> cA
D ]4
] d
▁fd dB
Bd c
"^ 3"
▁= cd
▁GE EG
▁DF E
▁(F/ E/)
▁(a/g/ )
" F#"
s :"
▁a ^
▁b ege
▁BG Bc
▁GE EF
▁afd B
▁(gf ed)
▁gfd B
▁X:1<br>L:1/8<br>Q:1/4=120<br>M:6/8<br>K: G
z e
▁B {c}
)( ef)
{g de}
▁!fermata! c2
"^( G)"
▁E< E
▁=f 3
b )"
▁E ee
▁AF dB
▁AB =c
▁eg ce
{g AGAG}
{g} f
▁c< F
▁[E A
▁d>ed B
▁X:1<br>L:1/8<br>Q:1/4=120<br>M:2/2<br>K: G
▁B B/A/
▁C >C
▁fd Bc
▁m s"
I "
▁[ F,
▁!>! g2
C/ G"
0<br>M:2/2<br>K: C
▁(dc) BA
0<br>M:3/4<br>K: C
▁X:1<br>L:1/8<br>M:12/8<br>K: G
▁F/G/A/ F/
▁:|2 "D7"
"_ g"
▁a/ f/
▁F>GA >B
▁[Af ]2
▁| {gcd}
▁fd AG
F/ C"
][ Ae
▁v d
▁^F 3
▁X:1<br>L:1/4<br>Q:1/4=120<br>M: 3/4<br>K:
" Fm"
C A,
V ariation
v b"
▁A ee
▁e AB
▁c2 Ac
▁e2 fe
▁!fermata! e
"_ e"
▁fec B
▁G2G2 G2
][GE ]
▁e> ^d
▁gB fB
{G} A
▁a2 e2
"_ Fine"
)( fg)
▁(F >G)
20<br>M:4/4<br>K: G
▁(3 b
▁f2 {g}
▁B, DF
▁"^ W
▁D/E/ F
▁[GE ]
<br>M:2/4<br>K: G
▁(3(fg f)
a /4
▁cAF G
▁G>F E
< E
▁ 1
D" Em"
▁f4 -
▁v A
) B
b >a
▁c cd
▁C G
▁fd fg
▁FA Ac
▁ec a
▁(d A)
▁A< FF
"_ d"
▁(c <e)
▁eAA A
m/ F"
▁p art
▁c ece
▁a eg
▁a2 af
▁d> cA
▁DF G
▁Bg g
▁a/g/ f
B/c/d/ )
▁[G e
G e
▁(3 Bc
▁g2 {a}
▁C 8
▁G3 )
▁(3( c
▁(3( edc)
"A b7"
c' d'
▁bg d
▁F> EF
▁X:1<br>L:1/16<br>Q:1 /8=1
▁f a/f/
F/ )
▁FD FG
B2 "
▁Bdg b
Chor us"
. A/
^ a
d -
r "
▁X:1<br>L:1/8<br>M:4/4<br>K: E
▁|{ ef}
▁d> Bd
ba >g
0<br>M:2/2<br>K: A
f >A
▁d de
▁c >g
▁eg a
G2 )
▁|"^ *"
▁u e2
▁B,D GB
▁(c/B/ A)
▁A,D FA
"D b"
[Q:1/8=1 60]
▁(A< F)
▁f2 fe
D" A7"
"^ T
▁|"A m7"
▁dg ga
▁!fermata! g2
▁d' b
▁f>d e>c
ur n
D B,
z B
▁G2 GG
▁(3 BGB
▁(3 fff
▁F/ D/
d ]
▁e e/f/
▁c2 cA
▁Ad dd
▁(d >
F# /
{/ d}
3 /8]
▁EF DE
][ ge
▁EG DE
▁X:1<br>L:1/4<br>M: 4
▁gfd f
▁X:1<br>L:1/8<br>M:2/2<br>K:A mix
e/f/g/ )
▁G B,
▁E -
▁|: "Gm"
▁:|2 "A7"
GE G
▁!fermata! D
▁B>B B
a ^g
▁ o
▁E >e
▁c2 cB
▁e2 "D"
▁AG F"G"
▁fd a
▁^ c/d/
)( de)
▁X:1<br>L:1/8<br>M:3/4<br>K: Emin
"_ f"
▁|[M: 6/4]
▁F, F,
.d .c
▁m od
Reel ."
. B2
3 3
▁d ^cA
▁G B/c/
fg >e
▁Bd A
▁Ad FA
▁dA df
▁(g a
▁(g d)
▁(e 4
a/g/f/ )
▁(e/f/g) e
▁g^fg a
C B,
▁d dc
▁A/ )
▁fa ab
▁B EF
▁g ege
▁b c
▁^ cde
▁dg B
▁(a >g)
{/ e}
A >d
p hr
▁B =c
▁E g
▁D G,
▁D BB
/4 B/4
▁fe ef
][ Q:1
{d} G
▁EA, CE
"^(A 7)"
▁"^W ith
▁F B,
▁F E/D/
▁E F/E/
D" C"
▁GB EG
{ed }
/ g/)
~ "
▁A ed
▁e >G
▁( !>!
▁A, B,C
). E
▁GED G
Amin ]
▁EFA c
▁[Ec ]
▁X:1<br>L:1/8<br>Q:1/8=232<br>M:4/4<br>K: G
▁d B/c/
▁c2 ec
▁AB B
][ A
▁!fermata! g
▁ {f}
▁(e/ d/c/B/)
▁"^A ndant
▁mod al"
s p
▁d "A7"
▁ABd A
▁B< GG
▁X:1<br>L:1/8<br>Q:1/4= 7
▁"_ vb"
▁BFD F
▁a cA
▁f2 fg
▁fd BG
▁eg dc
▁GE GA
▁e>d e>f
▁d>ed >B
▁A,B, CD
▁X:1<br>L:1/16<br>M:3/4<br>K: G
g/e/ )
▁:|[K: D]
A Bc
f !
▁f Bde
▁g g/g/
▁d2 dB
▁G2 D2
▁a2 (
▁C >F
"^ d"
)( AB)
A, D
>D )
▁(f <d)
▁::[K: C]
▁dE cE
▁C ,4
▁X:1<br>L:1/8<br>Q:1/8=18 0<br>M:6/8<br>K:G
▁G> ^F
▁eee e
▁e F
▁( !fermata!
/4 d/4
▁^ FA
▁df fe
▁fa fe
0<br>M:4/4<br>K: Emin
E/F/ )
][df ]
z 2
▁ed ec
▁B, 6
▁|{ de}
▁=c Bc
▁e/f/g/ a/
^ fa
▁a B
▁ced f
▁(3f ef
▁A,/ A,/
▁Te 4
▁a>fd >f
e >A
▁d d/c/
▁( cBA
▁|" ^c
▁T e>d
FD ]
▁G^F G
= ge
▁E cB
▁d2 "A"
)( fe)
▁[B D]2
ug ge
▁(3(Bc B)
= B,
▁G B/d/
▁dB BB
▁cBA 2
▁df ef
▁cde a
▁(f >g)
▁^c 4
▁[dF ]2
▁(F/G/ A)
▁G DE
▁( _
▁c2 a2
▁a2 A2
"^ d
▁c>A F>A
▁d< c
▁d>ef >e
▁a^g ab
▁[FD ]2
g >B
▁d "G"
▁B2 "A"
▁g2 >a2
▁E2 F2
▁efg b
ab g
▁|"^ >"
▁|"_ c"
▁[fA ]2
▁a/a/ a
( M
>E ,
▁(B >A
▁^c >d
▁c>Bc >d
▁Tc 4
▁(3(cd e)
ugge st
= fe
C }
d it
{ GA}
▁c c/B/
▁E >B
▁:: "F"
ag >f
▁|] "^
▁X:1<br>L:1/8<br>Q:1/4=1 8
▁GD GB
▁(A/ G/
C, ,]
F G}
▁( E/
▁Ad cB
an "
- "
B ]2
▁D D/D/
▁G2 BG
▁dB ec
▁f< af
▁C c
▁d3 )
▁T a2
▁ea {b}
▁[BG ,]
▁:|[K: G]
▁X:1<br>L:1/8<br>Q:3/8=10 0<br>M:6/8<br>K:G
▁(BA)( GF)
. f2
< f)
▁e =d
▁f F
▁BA BA
▁^ AB
▁de ed
▁g4 -
0<br>M:4/4<br>K: Bb
▁(3(g ag)
/ c'/
▁:| "B"
▁fdd g
▁a> ec
▁u f
g/a/ )
▁|:[K: D]
▁A, >C
▁|{ cd}
▁cAA d
CD )
{/ g}
▁.d2 (
G >E
▁A ^F
▁B >f
▁f 8
▁a =g
▁f2 df
▁:|2 "Dm"
▁!>! e
▁F< F
\ n
f '
i ve
▁F -
▁|" C
▁f2 fd
▁b fdB
▁B/ )
)( BG)
▁A< D
D. S
▁B,/ C/
▁X:1<br>L:1/16<br>Q:1/4=1 20<br>M:2/4<br>K:
ori al
uggest ion
/ 3
▁ab /a/
.B .A
. D
B 3
▁G gf
▁( C2
▁A2 FA
▁g2 eg
▁BA dB
▁FA GE
)( cB)
▁fe ed
). D
▁bag a
▁Bg fe
▁X:1<br>L:1/8<br>Q:1/4= 6
# dim"
g >d
t urn
z /
▁g2 gf
ED E)
B, E
▁DF ED
2 0]
> g/
G #"
▁F Bd
▁B2 GB
▁de ^f
▁eA BA
▁X:1<br>L:1/8<br>M:2/4<br>K: Emin
▁e EE
▁d2 F2
▁!fermata! e2
<br>M:4/4<br>K: G
{/ c}
▁Tc 3
▁A>GF >E
[Q:1/8=1 80]
▁C< E
C F
▁c efg
▁a -
▁" Bb
▁AG AF
c2 )
][ Bd
ab c'
▁!>! A2
▁u c
.c .c
d cB
▁B2 dB
▁de =f
▁af cA
FD F
a/f/ )
▁X:1<br>L:1/16<br>Q:1/4= 9
▁[Bd ]2
▁X:1<br>L:1/8<br>Q:1/4=120<br>M:3/4<br>K: G
▁[gB ]2
" D/F#"
▁BA )
▁dc e
▁eg gf
▁G/ ^F/
▁(dc BA)
B,/ C/
▁[d G,
▁A,B, DE
G ]4
▁B G"D"
▁dB GE
▁fd g
▁bg fg
▁c> ed
.B .B
none <br>K:
▁e>cA >c
- )
7 /4
A >G
B a
I n
[ D
▁B, >C
▁fe ^d
▁"^ Quick"
▁Gd Bd
▁B2G2 G2
/ d/)
A b
D ]3
▁d "C"
▁B ege
▁D ^C
▁A2 Ac
▁:| "D"
▁|1 "Dm"
). b
▁[Ac ]
▁X:1<br>L:1/8<br>Q:1/4=120<br>M:6/8<br>K: D
> E/
i s
▁A c/d/
▁G EFG
▁BA dA
▁|: "D7"
EG )
▁[E C]2
" C#7"
{ c'}
▁d2 "^
▁e/ f/e/
▁ge cd
▁X:1<br>L:1/8<br>Q:1/8=1 20<br>M:2/4<br>K:
▁c>A B>G
▁AE Ac
▁cf af
▁fc ec
Bb] "Bb"
▁X:1<br>L:1/16<br>M:4/4<br>K: C
▁Ca po"
z c
{ fe}
▁d Bcd
▁A "D"
▁A =F
▁c aa
▁c2 de
▁F/ E/D/
▁DG GB
▁[D A]
▁efd f
▁Gg g
▁CDE C
) g
▁B ^G
▁|" C#7"
▁a nd
▁(3 d/e/f/
▁[ dA
▁C EE
F >G
F >E
a 3
▁c FAc
▁a2 >f2
▁GB FB
▁G, ,
▁(3F EF
▁(D >E)
▁(a 3
. g/
d G
▁c2 f2
▁|: "Bb"
▁Ad fe
eg f
▁(3( EFG)
▁"^ 9"
▁d> D
▁eAA G
m/ Bb"
d >A
z G
▁A AG
▁c efe
▁|: "Bm"
▁(d e/f/)
▁(B e)
0<br>M:4/4<br>K: Amin
▁=F 4
( Bc)
3 /4][K:
▁A EF
▁D2 FA
D" D"
▁X:1<br>L:1/4<br>Q:1/2 =
▁A>GA >B
▁[M:6/8][K: G]
▁(A 3/2
▁BAG ^F
b/ Eb"
▁[K:G] "G"
u d
▁d ori
d/ ^c/
][ GB
▁b2 )
▁A< f
▁.e (
▁e g/e/
▁g 8
▁G2 "D"
▁b >b
▁B, EE
▁(3( b
▁C2 )
▁d< BB
▁v ersion
▁G,B,D G
D mix
▁b >f
▁AF /G/
▁"^ F
g2 )
▁_B 4
re tt
▁(G/A/ B)
) c
▁e {g}
▁A2 AA
▁cA ^F
▁dB fd
▁GA AG
▁Bd dd
▁(e A)
▁f/g/ a/g/
(3 Bcd
A/A/ A
▁"^Moderat e
▁F dd
▁cA EA
▁[GB ]3
▁^G 3
▁[B D]
▁s uggestion
N o
▁ n
▁e Bd
▁b >c'
▁dB Bg
G/ A/B/
▁ec ef
▁A/ ^G/
{d} c/
▁[K: F]
ris k"
> BA
▁| !f!
▁c c/d/
▁dB Bc
▁eg cg
▁ce eg
{g dc}
▁(3( GFE)
b/ F"
▁!>! c
< g)
▁d dB
▁g de
▁g efe
▁(3 efd
▁(3 cAc
▁g2 ge
▁X:1<br>L:1/8<br>M: 6/4<br>K:
▁A3 )
▁ec cB
{e} B
▁X:1<br>L:1/8<br>M:2/2<br>K:G min
▁g>fg >e
▁A fd
▁c GG
▁:| "C"
▁|1 "A7"
"^ 2"
▁(3A ce
DE }
▁|"^2 9"
G ]3
▁D dc
▁d2 "C"
▁f2 >g2
▁(A d
B2 A2
▁[A D,
▁[D A
▁A>BA F
▁(gf) ed
▁fcA F
▁(ef /g/)
"^(A )"
▁dori an"
= e/
▁c C
▁( DE
▁BA cB
▁= ef
GF G)
▁E/F/ G/A/
▁B,/ B,/
▁(g/ f/e/d/)
9 0<br>M:6/4<br>K:
▁A2 E2
▁e2 {g}
▁ed A
▁|{ E}
▁c< c
in g"
▁FDD A
▁E, 3
▁X:1<br>L:1/8<br>M:3/4<br>K:G min
▁^f 3
▁TB 4
G -
^ CD
▁G DD
▁E BE
▁A2 D2
▁e2 ce
/4 f/4
FA ]
)( af)
▁Ac GE
▁eA e
▁gb e
▁X:1<br>L:1/8<br>Q:3/8=11 0<br>M:6/8<br>K:G
▁(e< g)
▁d>Bc >A
▁|" G/D"
▁b ee
▁ec Bd
▁(A B/c/)
▁"^ L
▁!>! f
▁A2 BA
▁|| "A"
▁Bd gB
▁FA cf
f2 )
▁"^ tr"
▁d> b
▁EC CE
▁||[K: D]
▁[FD ]
A -
▁c _
▁A2 >c2
▁g2 ag
▁_ d
▁c>d e>c
▁ba fe
▁E>F G>A
▁ece a
▁[ee ]
ri o"
▁"D b"
b c'
c D
r o"
▁c cB
▁F G/A/
▁(3 B,
▁" F#"
▁BG /B/
)( T
CE C
▁fdd A
▁ff ff
▁X:1<br>L:1/4<br>Q:1 /8=
▁.d .d
▁(3D FA
▁(3:2 :4
▁a/b/ a/g/
▁X:1<br>L:1/4<br>M:4 /2<br>K:
▁g2 ga
fg a
▁B, >E
▁ED /E/
▁GB E
▁FE CE
▁gd fd
▁gd cB
▁G>G G
▁D6 -
c/A/ )
▁g/f/e/ f/
$ "
C min
a >c
▁d2 D2
▁BG FD
a/ )
▁C2 -
▁(B <G)
▁Gg fe
▁[cE ]
▁d afa
▁d2 "G"
▁|: "^B"
▁|1 "D7"
▁AF /A/
▁gfe ^d
▁bg bg
▁gd ec
▁!fermata! B2
▁c>A A
▁(G >F)
▁(B/c/ d
▁(3(d ed)
▁d>BA >F
"^f ine"
! tenuto!
▁:| "G"
▁(3 c/
AA A)
▁|{ AB}
▁"^ m
▁dA Bc
▁(B 3/2
▁e/f/ e
▁F/G/ AF
▁Ae cA
[Q:1 /8=
▁d2 >f2
▁A2 GF
▁dg fa
"^( G
▁Aag a
▁ {A}
▁e "G"
▁e =c
▁c cA
▁|] "^B"
▁= d2
▁ABA B
▁(c 3/2
▁Bg dB
▁b/a/ g
dit orial
i c"
q u
▁F dF
▁d2 "A7"
▁c2 >A2
▁BA AA
▁DED C
▁X:1<br>L:1/8<br>Q:1/8=18 0<br>M:6/8<br>K:D
<br>M:2/2<br>K: G
( ed)
E /4
▁= fe
▁T BA
▁eA Bc
▁BE dE
▁dA cA
▁u g
"^( B
▁X:1<br>L:1/8<br>Q:1/8=120<br>M:6/8<br>K: G
) f
3 /4
▁B Bc
▁F E/F/
▁g2 >e2
▁X:1<br>L:1/8<br>M:4/4<br>K:G dor
▁c/d/ ec
▁B6 -
▁::[K: F]"F"
.f .g
▁Aa ag
▁[dF ]
"^(D 7)"
ast "
S low"
▁e c/e/
▁b >d
)( A/G/)
▁af fa
"_ a"
▁!>! g
▁[E ,
▁Gc Ec
▁Add A
▁[K: F]"F"
.c .A
▁X:1<br>L:1/8<br>Q:3/8=120<br>M:6/8<br>K: C
D dor
▁cA AF
A, ,
▁c< d
^g )
"^( C)"
in g
▁X:1<br>L:1/8<br>M:2/2<br>K:D mix
▁Dd dc
▁s ig
▁e2 ec
▁A, 6
▁G/ )
gf ed
▁B/c/ B
▁(c 6
Emin ]
▁c/B/ c
▁[AA ]
▁ {B}
▁d "D7"
▁c c/
▁c2 "G"
D" ^
▁fd eg
▁B3 )
"^ 0"
▁|"^( D
▁X:1<br>L:1/8<br>Q:1/8=3 6
"A/ C#"
. [
< D
a in
▁f2 c2
fg f
▁GE GB
▁(3( AAA)
▁"^ (E
{g} d
m/ C"
▁(3(cd c)
D >G
▁e e/d/
▁|" C#"
▁. c'
▁GAB ^c
▁G< c
▁cG c
▁_B 3
▁=cA GE
▁d2f2 d2
▁s pirit
▁X:1<br>L:1/8<br>Q:1/4=120<br>M:2/4<br>K: G
u l
▁f f/e/
▁|" A/
▁B2 "D7"
▁Bd -
▁FA AA
][ cE
▁X:1<br>L:1/8<br>M:2/4<br>K: Amin
▁fag b
▁[A, E
> cd
▁E "D"
▁B2 cB
▁B, >A,
▁ef f
▁FGA d
▁A> ^GA
▁f< g
"^( F
▁E, /
)(g a)
▁A/B/A/ F/
4 !
5 /
{ EF}
▁B "C"
▁( G,
▁GA FG
▁ag gf
▁afd A
▁gb b
Bb B
▁(G 3/2
▁(E >F)
"^4" e
▁X:1<br>L:1/8<br>Q:3/8=10 0<br>M:6/8<br>K:D
▁|[K: D]
( ag)
▁f {g}
▁g >A
▁A2 {g}
▁|1 "Bb"
▁Bc Bc
▁G, C
▁bg ab
▁AD DE
▁!fermata! F
▁(g >a)
▁f> af
▁GD EF
▁(T BA)
▁C4 -
▁ecd c
▁TA 4
turn !
= B)
▁B2 >d2
][ AA
▁(3( GAB)
▁BE GE
▁Be ec
{c} BA
▁(T A
▁(a e)
▁[e G]
▁X:1<br>L:1/8<br>Q:1/8=232<br>M:4/4<br>K: A
( T
. g2
[ BG
▁c2 "D"
▁ed dB
▁cA /c/
▁(F E
▁a> fg>e
A,A, A,
▁[GG ,]2
▁Td 3
▁X:1<br>L:1/8<br>M:3/8<br>K: G
][Ac ]
▁|[M:5 /4]
_ b
▁A =B
▁a l
▁D2 EF
▁AF B
"^ g"
▁G, >B,
▁|[M: 9/8]
▁!>! G2
▁f< e
▁X:1<br>L:1/8<br>M:9/8<br>K: Emin
▁[CE ]
▁o f
▁ed g
▁C FA
<br>M: 3/8<br>K:
▁cd cd
▁(A G
▁|"E m7"
▁Gc ec
▁[D ,
{A} e
▁(T c
▁E/F/ GE
▁fb ba
▁c2A2 A2
▁g>ag e
▁G>Bd >B
d >g
e t
▁( 5
▁X:1<br>L:1/8<br>M: 7/8<br>K:
A/ d/
▁ED DE
▁"^ P
▁g/ a/g/
▁D/ G/
▁d' c'b
▁e> fd
▁^F 4
▁^d 3
▁|:[K: F]"F"
▁Ee ed
▁[fA ]
= EF
▁F F/F/
▁A2 "D"
▁G2 >B2
▁dc cB
▁^ GAB
▁GF DF
▁ef ef
▁EG GA
▁ab ge
▁e> ^c
▁E, E,
▁d'c' ba
▁f ^g
▁b a/g/
▁dB gd
▁GA A
▁fed 2
)( D
▁c/ )
▁"^ D
▁(3A BG
▁A/A/ A/A/
▁a/g/ f/g/
ae a
0<br>M:2/4<br>K: F
▁DB, G,
<br>M:2/4<br>K: D
▁"^1 7"
u A
▁c "D"
▁G2 e2
▁b >e
▁fed A
▁(d >c
d/e/ d/
0<br>M:4/4<br>K: none
▁ba fd
▁f/e/ d/e/
▁faf a
0<br>M:2/2<br>K: F
0<br>M:2/4<br>K: A
rett o"
. G2
> Bc
▁( bg
▁e2 >c2
▁" G
▁[ bd
▁FA BA
▁B/ >A/
▁G4 )
▁cBc B
▁a> ^g
]) [
N B2"
▁G dd
▁c e/c/
▁g {a}
▁( CE
▁|| "F"
▁AF FE
▁(A Bc)
][ G
▁(3A GA
▁c< B
▁f< dd
▁A>c e>c
▁(D C)
▁||"^ C"
▁[DF ]2
▁G2 FG
/8 ][K:
▁ed de
▁fd "A7"
▁eg bg
▁efg d
▁de B
▁GB eB
▁gc eg
▁D< F
Ec ]
# 7"
= GB
▁A fed
▁a d'
▁A2 dc
▁d/e/ d
▁aA a
▁E6 -
▁[ee ]3
▁X:1<br>L:1/8<br>Q:1/4=120<br>M:2/2<br>K: D
▁(ag)( fe)
G 4
▁A "D7"
▁f "A"
▁F BdB
▁A2 cA
▁|: "C7"
ec "D"
▁AF BF
▁g/ a/g/f/
▁(E A)
▁aA gA
▁X:1<br>L:1/8<br>Q:1/8=2 4
▁be ef
▁[M:6/8][K: D]
8 <br>M:3/4<br>K:
z f
▁E ^F
▁c2 G2
▁b fdf
▁a2 ga
▁gf af
▁EG Bd
▁_ E2
▁cAA f
<br>M:4/4<br>K: D
▁gB aB
▁{ Gdc}
▁fad a
a >b
▁ -
▁d =e
▁B FA
▁F ^
▁( GE
▁D ,3
▁(3 AB
▁FA GB
▁FD FD
▁ge ed
ce ]
cBA G
b/ Bb"
▁u a
▁d>f a>f
▁[B, G]2
▁X:1<br>L:1/8<br>M:2/4<br>K:A dor
▁[Bd ]
▁|{g Bd}
▁b>ag >f
▁G/A/B/ G/
▁(3 cdB
▁f2 af
▁A, ,2
▁f< B
▁|"D m/F"
▁e>fe >d
▁|{g a}
▁(e< c)
/4=10 0<br>M:6/4<br>K:
e ^c
▁G2 "D7"
▁cA E
▁:|2 "Bb"
▁B, G
)( e/d/)
c' ba
▁bg ef
▁(d ^c)
▁[ge ]2
{ A
▁g g/f/
▁A2 {GdGe}
▁= B,
▁ce af
▁(B 6
▁(g >e)
▁(G >A
▁X:1<br>L:1/4<br>Q:1/4=1 1
^c/ d
D >F
▁[ fa
C" D"
▁(d g
▁e< e
▁cG BG
{d}A {e}A
.A.A .A
▁d/e/f/ d/
1 )"
2 )
k ey
▁A =c
/4 g/4
▁fd BA
▁. C
▁fed "A"
▁dd '
▁!fermata! E
▁!fermata! f
▁d< G
d' )
0<br>M:6/8<br>K: Bb
O )"
▁c Bd
▁E E/E/
)( GA)
▁Ac FA
][ ee
▁GB DG
f2 e2
▁(d >B)
▁_ ed
▁e> ^de
▁CE GE
▁deg e
▁C/ B,/
▁A,D FD
▁TA 3
▁d>fe >d
▁[dg ]2
u c
{ ^c}
▁B ec
▁E >d
▁g2 c2
▁a2 d2
▁(F 4
▁f/e/ f
tr ath
▁[GB ]4
▁|:[K: C]"C"
▁cAB ^G
▁gdd g
▁Tf 4
▁g>ed >B
trath sp
a k
▁d "D"
▁( E/D/)
▁|" D/A"
)( ce)
▁b2 >a2
▁c< ee
▁d/e/ fd
▁B> ^A
C/ E"
▁B>G B>d
▁X:1<br>L:1/4<br>M:3/4<br>K: none
▁g< d
▁G>Bd >g
▁part "
trathsp ey
> ^G
▁ 2
▁a cc
▁(3 fdf
BG }
▁"^ B
▁g> ^f
▁b/ b/
▁e>A c>A
.g .g
▁X:1<br>L:1/8<br>Q:1/8=128<br>M:4/4<br>K: A
▁afg f
( fe)
6 4
a 4
▁d2 df
▁d2 >d2
▁g2 G2
▁df b
▁(d 3/2
▁AA cA
▁A< E
▁^G 4
▁[G, D]2
▁.B (
▁.!fermata!PMT CO
{d}A 3/2
▁(A/B/c) A
▁e/d/c/ d/
▁| !
▁f cc
▁f2 A2
"^ NB"
▁Ac Bc
▁a4 -
▁AE AB
▁eaa ^g
( fg)
- ]2
F ,]
▁G GB
▁d2 {g}
▁A2 AG
▁B2 BG
▁e2 B2
▁BA G"D"
▁[ C,
▁a2 ag
/2 =
▁dB BG
20<br>M: 3/4<br>K:
▁cBc G
▁(B E)
▁u B
▁.e .e
▁=B 3
▁[df ]
▁"^Moderat o"
▁F2 d2
][ e
▁dA BA
▁!fermata! f2
▁(c >d
▁(G c)
▁gg gg
▁AE GE
>b )
▁[DB ]
▁CEG c
▁afg a
K ey
▁| !p!
▁G FA
▁^ FD
▁eg c
▁GE EE
c' c'
▁BE B
20<br>M: 9/8<br>K:
▁DEF E
CE ]
▁(f >d)
▁d>ed >c
D, /
▁g>fg >a
▁|"^2 5"
▁X:1<br>L:1/4<br>M:2/2<br>K: D
<br>M:6/8<br>K: D
▁|{g fg}
>( !
. D.
= e)
▁f f/g/
▁g cc
▁( d/B/)
▁|" G/B"
▁c2 cc
▁cA f
▁Bcd A
▁v c
▁Gc eg
▁.c (
▁^GA Bc
20<br>M:4/4<br>K: D
▁bab g
▁c= Bcd
E >c
▁| S
▁e (d
▁c ag
▁f =e
▁( cBA)
▁eA c
▁fB Bc
{/ f}
▁(ed cB)
▁[d D]2
>) !
c /4)
d ef
▁e Bc
▁g =
▁E =
▁A2 ce
▁B2 "C"
fd >B
▁FA Ad
▁X:1<br>L:1/8<br>M:4/4<br>K: Eb
ce "
f/g/ f/
▁e< cc
0<br>M:6/8<br>K: Emin
▁GD GA
▁||[M: 4/4]
▁X:1<br>L:1/8<br>Q:1/4=120<br>M:4/4<br>K: C
er y
▁(d< f)
▁C/C/ C
▁A B/d/
▁e !p!
▁F G/F/
▁D2 (
▁|| "Em"
)( b
▁fa ed
▁(d cB)
▁AD BD
▁GED C
▁fc f
▁X:1<br>L:1/16<br>Q:1 /8=
▁AcA c
[ GB
a m
i m"
▁D BA
▁D AF
▁c2 dc
▁a2 >b2
▁C DF
▁Ad ce
▁c/ d/c/
▁|{ ^
▁|{ D}
▁[A D]
▁[FA ]3
▁g>d B>G
▁=F 3
▁Tf 3
▁E A,A,
▁D f
▁(3 G,
▁ea aa
▁(3d Bd
▁(3d ^cd
▁(e >
0<br>M:6/8<br>K: Amin
▁DGG G
▁e>dc >d
▁d( e/f/)
▁Bdf b
/e/ )
▁X:1<br>L:1/8<br>Q:1/8=15 0<br>M:2/2<br>K:G
▁add ed"
▁tim e
g ]2
i v
▁F >c
▁|" D/F#"
▁a 8
▁|] "D"
▁GB BB
▁d> edc
▁EG GF
▁B< GB
▁Be ^d
▁(g 4
▁(ed) cB
▁g>ag >e
▁X:1<br>L:1/8<br>Q:1/8=128<br>M:4/4<br>K: D
a y
▁. c'2
▁def "G"
▁Ad AF
▁Bcd 2
▁gd de
C/ )
▁BcA c
<br>M:2/2<br>K: D
▁"^m oderat
2 4
^ f2
u n
▁( ED
▁D AG
▁F2 "G"
▁A, B,D
▁af cf
▁cde ^f
fA f
▁ABG B
FE }
B>A )
▁|:[K: C]
"^s egno"
0<br>M:9/8<br>K: G
"^(E m)"
A >f
{ =
▁ W
▁|" C/G"
▁|" F/C"
▁dB df
▁(3( Bd
▁X:1<br>L:1/8<br>Q:1/4=10 4
▁.f (
' e
( ef)
( AG)
, ,
A b"
{ AG
▁ 2"
▁c _B
▁( a/
▁C "
)( fa)
▁A, DF
▁FD ED
D/ F/
"_ ="
b/ )
▁!>! a2
▁dcA d
▁fc fa
▁[Ec ]4
▁f2d2 d2
▁baf a
▁!fermata!B 4
D.S .
1 7"
F >B
[ GB]
^ G2
▁d >a
G" Dm"
GA c
▁bg ed
F2 )
▁BGG c
▁(T g
▁^cd ec
{/ a}
:2 :5
rit ."
"^S egno"
9 /4<br>K:
g ]
▁[ FB
A" D7"
▁cBA "G"
)( d/c/)
▁A4 )
▁EAA c
▁(gf ).e
▁A>BA >G
▁.f .e
trathspey ."
^ e
▁( FD
▁BA G2
▁BG ED
▁= D
▁= C2
▁af c
▁X:1<br>L:1/8<br>Q:1/8=1 3
▁d' a
▁EC A,
▁EGB e
▁baf b
▁(3(b ag)
c >f
f i
▁c2 ce
▁e2 eg
▁Bd df
▁B, 3/2
▁df cf
▁X:1<br>L:1/8<br>M:6/8<br>K: E
{g} e
▁|"^ 4"
▁B/A/ B
▁ae ef
▁[M: 2/4][K:
.d .e
▁DB, A,B,
▁[Ae ]
▁e>cd >B
l an
▁G ed
▁E GAG
▁f2 gf
▁b fd
"^ F
▁|"^ +"
▁BE EE
{c} d
▁[M: 6/8]
▁[A D,]
▁(cB) AG
▁([ de
▁(d/c/ )(
▁d>BA >G
(F G)
▁f>ef >g
! >)!
^ d2
c >a
f /4)
▁ {gef}
▁G2 FE
▁FA dF
▁gf a
▁|"A b7"
e/f/ g
▁X:1<br>L:1/16 <br>Q:3
▁A> BAG
"_ #"
▁(dc ).B
▁DB, A,
▁E> FA
▁(d/ e/f/g/)
0 0
F ED
▁f "G"
/4 A/4
▁[ dd
▁cA /B/
▁C FAF
)( eg)
▁af fe
▁(c >A)
ba r
{B} A
▁b/ a/g/
▁!slide![ AA
F#/ C#"
< c)
V B"
s us
z g
▁( .G
▁E ^G
▁fd /f/
▁eg eg
][ af
▁B4 )
▁FE C
▁gd ed
▁X:1<br>L:1/8<br>Q:1/4=1 12
▁_ b
▁[E C
▁[K: A]
▁E>D E
▁=f 4
▁[AA ,]
▁(3(g fg)
ive ly"
r ot
▁A "A7"
▁f cd
▁A2 "D7"
▁b <g
▁|: [M:
BG E
"^ I"
▁d/ >c/
{g} a
▁!fermata! D2
▁(f c)
▁X:1<br>L:1/8<br>Q:3/8=11 0<br>M:6/8<br>K:D
▁(GF)( ED)
0 !
g /4)
{ FG}
▁g >G
▁( B/d/)
▁(3 ece
GA ]
)( Bd)
▁(d G)
▁!>! A
▁B>G G
"^(E 7)"
. B)
> D/
B 7"
l e
▁g BdB
▁( ^F
▁( Bcd)
▁dc '
▁AG B
▁:: "Dm"
▁AF FF
▁ec BG
▁AB =cA
e2 f2
▁|"^ f
▁d' >c'
▁b/ c'/
(g a)
0<br>M:3/8<br>K: G
▁"Bb 7"
" D/A"
B >e
E A,
{ ^g}
)( df)
▁c/ >B/
▁e/ >d/
▁(A D)
][ Be
▁c' af
▁ded e
▁B/c/ d/c/
▁|"^ s
▁B< dd
{a} ge
▁X:1<br>L:1/4<br>M:4/4<br>K: A
▁D< d
▁X:1<br>L:1/8<br>Q:1/4=120<br>M:4/4<br>K: A
▁CC C
^ CE
_ ed
v ersion
▁g a/b/
▁a f/g/
▁d2 "D"
▁[ =
▁df ba
▁F/ E/F/G/
▁AD ED
▁(g d
Q:3 /8=1
▁(f 4
{a} gf
▁[AA ]4
▁|[K: G]
][D A]
▁D>A F>A
▁g>ec >e
* *"
1 !
B 4
▁A _B
▁G2 Bc
/4 e/4
▁dc ed
▁cA -
e/ d/c/
▁B/ >c/
▁Ac ed
▁FD A
▁e/ ^d/
▁c' d'
▁AFD A
▁F/ )
▁(3g bg
▁EA GE
▁[A E]2
▁f>ed >f
▁GBG E
▁::[K: A]
▁[G, G]
.d.d .d
{AG }
▁f fe
▁F A"
▁Ad {e}
▁fa e
▁fA gA
▁eAA c
▁cE BE
▁A>BA >F
▁E^ DE
"_f #"
) G
_ BA
{ FE}
▁| {gf}
▁d ba
▁G "C"
▁A2 >A2
▁f2 fa
▁|| "Am"
Bd or
▁ec G
][ Af
▁edc "D"
▁|"^ (A
▁d> efd
▁X:1<br>L:1/8<br>Q:1/8=1 1
▁v g
C/ C/
dg )
▁^d ef
▁::[K: C]"C"
\" "
▁(5 :2:5
. G/
t "
▁G GF
▁^ df
▁B, >B,
▁dA de
▁GG BG
▁GG GB
▁G< A
▁"^Andant e"
▁ea{b} ag
▁"^F ast"
[ df
_ B/
<b )
▁a aaa
▁d2 Bc
▁D2 E2
▁A/ >B/
)( E
▁ce ac
▁G, F,
▁dg Bd
▁(g b
▁B/B/ B/B/
▁B>GA >F
▁version "
E ][
f ]2
o s
▁G G/F/
▁( c'b
▁|" C#m"
▁f2 >d2
▁D2 DE
▁C >A,
▁|1 "E"
▁FA Bd
F/ G/)
▁d4 )
][ FD]
▁G/ >A/
▁c' >a
▁G, ,2
▁d>c BA
▁(e >d
▁(3g eg
▁d/d/ d/d/
▁e) d
▁[FA ]4
▁[AA ]3
▁A2A2 A2
▁[B, ,
▁(E/F/ G)
▁|[M:2/2][K: G]SOSOO
][ge ]
▁ {G}
▁( ^cd)
▁E ed
▁B2 cd
▁dc )
)( GF)
▁df "A"
▁af b
ab a)
▁ea c
f/g/ e/
▁^G >A
▁A^ ce
▁||[K: C]
▁(3e cA
▁(f/e/ d/c/)
▁d= cBA
8 <br>M:2/4<br>K:
▁D >c
▁D GFG
▁G2 "C"
▁e2 "G"
▁F2 >G2
▁a2 {g}
▁AF dA
▁cd d
▁ag ag
▁^ f/g/
▁! turn!
▁|"B m7"
ab }
▁g/ b/
▁edB g
▁E< F
.a .g
_ _
_ d
▁d ^c/d/
▁F GB
▁F dB
▁D F/A/
▁cd e2
▁A, F
▁(3( e
▁dg ba
Ac f
▁BGG d
▁(g fe)
▁[M: 3/2]
▁d>d d
0<br>M:3/4<br>K: F
B,C )
▁(e/d/ )(
▁X:1<br>L:1/8<br>Q:1/8=3 20<br>M:6/8<br>K:
▁[DF ]
< A2
< E)
▁d ag
▁A z
▁G2 d2
▁D2 >E2
▁:: "G7"
▁Bd cd
c2 B2
▁|"B bm"
▁d< BA
▁Bg ed
"^( C
▁D< B,
▁a< d
▁(dB )(AG)
▁.!fermata!PMTuCO (M
][E A]
( BA)
B D]
F c
▁d bag
▁f ba
▁d2 d
▁G2 GF
▁(3 FAc
Bc A)
▁E2 (
▁cA dA
▁|: "_
"^ G
"^ a
▁Ad Fd
][ eg
▁GBd c
▁(e a
DF )
▁[A D]2
▁Gd BG
▁[G B,
▁Tg 3
▁w ith
▁"^(E ditorial
f ]
▁E cc
▁a a/a/
▁A, >A,
"A m7"
▁GBd e
EG c
▁_ A2
▁(g >
▁f> ec>A
bg b
▁eB gB
▁X:1<br>L:1/4<br>M:3/4<br>K: A
▁deg d
▁B,D G
▁::[K: F]
▁e6 -
^f/ )
▁|"G b"
▁A,CE A
▁A>Bd >e
▁g^ fe
▁n ot
G ^F
▁B "A"
▁G dB
▁( efg)
▁A2 A
▁G2 GB
▁B2 {c}
▁ed /B/
▁dc ec
▁fd "G"
g/ f/e/
"^ Fine"
▁ec cc
GF }
▁df ce
▁e>d ef
▁Be B
▁[E A]
▁cf f
▁(BA GF)
.C ."
▁X:1<br>L:1/16<br>Q:3 /8=
/ D/
▁B d/c/
▁( c'2
▁( ([
▁( CD)
▁:|2 "E"
▁c3 )
B2 d2
▁dg ge
▁"^ 1"
▁c4 )
). d/
▁d/e/ d/B/
▁F< d
dA d
▁DB, B,
{/ A}
▁d>A F>A
▁DB BA
▁A>FD >F
▁[M:2/2][K: G]
^ g2
p e
▁d <b
▁d2 a2
▁ed )
▁dc dc
"^ #"
"^ u"
▁ce Be
▁B/c/ de
▁B>A F
▁|[M: 3/8]
▁G/A/ G/F/
▁X:1<br>L:1/4<br>Q:1 /8=1
▁Fd AF
▁X:1<br>L:1/16<br>Q:1/4= 6
▁TA >G
▁(AF )(
▁(cBA G)
A >e
▁A fA
▁c fa
▁f Bdf
▁B2 {d}
▁ed ^ce
▁dB gf
▁ag ^f
▁FA ce
▁B, ,4
▁eg ag
{g d
▁c' >
▁ged f
▁d>c B>c
▁BGG g
▁d^cd f
▁(d/c/ B)
▁[ce ]3
B,A, G,
▁[Ec ]3
▁(D/E/ F)
▁[Aa ]2
[ G,
▁f cdB
▁d2 b2
▁B, DD
▁A/ B/c/
▁ce Bd
▁(3( A/
▁F/ G/F/E/
"_ >"
▁EAA A
▁fB eB
b/a/ )
▁(3(F GA)
▁X:1<br>L:1/8<br>Q:1/4=120<br>M:2/4<br>K: D
▁e/g/ f/e/
▁X:1<br>L:1/8<br>Q:1/8=8 0<br>M:4/4<br>K:none
▁[M:4/4][K: G]
▁"^1 3"
. d)
5 <br>M:3/4<br>K:
^ A/
g >b
▁d ^cB
▁B ^d
▁e c/d/
▁AG GA
▁dB ^G
▁ag g
▁c' 3/2
▁"^ T
>D ,
▁G>F G>B
▁d^cd B
▁g< g
▁(fe) dc
▁e/e/ e/e/
▁(c/ B/A/G/)
▁X:1<br>L:1/8<br>M:3/8<br>K: C
▁!fermata!c 4
▁A/G/F/ G/
B /4)
C >E
▁A AF
▁A agf
▁c c'
▁C FAc
▁ded A
EG ]
▁(c f)
{e} G
"^( a)"
{A} GF
▁X:1<br>L:1/8<br>Q:1/8=2 8
▁|"^( a)"
▁A,D DE
▁Ee ef
▁[Fd ]
[ A
d D
▁F F/G/
▁d2 {c}
▁Bd dc
▁^ CD
▁b2 ag
▁d' d'
^cd e
▁X:1<br>L:1/8<br>M:2/2<br>K:D min
▁g>d B>d
▁|[M:6/8][K: G]SOSOO
.B.c .d
, ][
. c'
u a
▁A f/g/
▁g AA
▁g ce
▁F dc
▁c2 >e2
▁ed ed
▁[ c'
▁fd '
▁:|2 [M:
)( GB)
ce ]2
▁|"^ D
▁(G 6
0<br>M:6/8<br>K: none
▁f< c
▁[M: 2/2]
▁.d .c
▁b>g a>f
Dmin ]
▁t o
▁(ba )(gf)
▁g gf
▁F BAF
▁A2 e2
▁D2 d2
▁[ bg
▁a2 c2
▁a2 ab
▁C B,C
▁= GA
▁A/ >G/
▁"^ In
▁dA fd
▁!fermata! F2
▁fef e
▁a>g e
▁(E 4
{/ B}
▁{ ag}
▁dD FA
▁c2c2 c2
▁(ag fe)
▁(3E GB
▁[EG ]2
▁(c/d/e) c
[ A,
▁A A/G/
▁G dc
▁(3 A/
▁dB f
▁fd ^c
▁fg fg
▁AB F
▁GB eg
▁AA Bc
▁gag d
▁^F GA
Gmin ]
▁[Af ]
▁A,/A,/ A,
D.S. !
= cd
▁A ec
▁B Bd
▁F "G"
▁( M
▁BA ^GB
▁|: "E"
▁|1 "Bm"
▁:|2 "G7"
F/ D/
AA >B
▁d/ )
▁G, A,B,
▁bg fe
▁edc BAG
▁DF EF
▁(f ed)
▁e>A A
▁X:1<br>L:1/8<br>Q:1/4=10 0<br>M:2/4<br>K:G
▁(Bc /d/)
▁(C 3
▁ue2 00
"^T rio"
. G)
> ^f
c <e
▁F2 (
▁E2 >F2
▁[ eB
g/ b/
▁Bc )
▁Ad BA
▁fe a
▁cB )
][ DB
▁dA Bd
▁fb af
"^C" "F"
▁(Bc )(dB)
▁dfg a
' "
) F
E >A
d ]2
▁A A"
▁d2 >A2
▁G2 "G"
▁ed f
▁E2 C2
▁= E2
▁eg ga
▁A, 3/2
▁FD CD
▁bg a
▁bg f
▁gfed "A"
▁dd cB
▁dG eG
▁v d2
▁DED B,
Eb ]
B/B/ B
▁G2B2 G2
▁fee l
▁(3:2 :1
▁X:1<br>L:1/4<br>Q:3 /4=100<br>M:6/4<br>K:
▁ue200 3
h ak
▁B C
▁e =f
▁g Bd
▁a ^f
▁C FF
▁fd gd
▁^ cB
▁gf fe
▁ABc "D"
▁"^ C"
▁eA aA
EG U
▁edcB "A"
▁(3d BG
DF ]
▁a> ef
▁FDD g
▁G< g
▁c6 -
▁e' d'
▁X:1<br>L:1/16<br>M:3/4<br>K: Dmin
▁"^V ery
▁g2 "D"
▁" Fm"
"^ ="
▁GF F
▁B, )
B, }
F" Gm"
B2 G2
▁[E C]
Bg ]
▁(F/ E/
▁=cA F
▁G>BA >G
< D)
e /4)
{ d
fe >d
▁A, >
▁A, >D
▁C2 E2
▁|"^ O)"
fA ]
▁E< D
▁X:1<br>L:1/8<br>Q:1/4=10 0<br>M:2/4<br>K:D
▁:|[K: C]
▁FFF F
▁!fermata!G 4
][Ae ]
hak e"
^ fg)
{ DE}
▁B2 BB
▁e2 >e2
▁(3 D/E/F/
▁(3 EDE
G" G7"
▁GA E
▁d' /
^F }
▁X:1<br>L:1/16<br>M:2/4<br>K: none
▁c'2 c'2
▁u A2
▁(a 4
▁X:1<br>L:1/8<br>M:2/4<br>K:D min
▁D, D,
▁.G 3
▁X:1<br>L:1/8<br>Q:1/8=120<br>M:6/8<br>K: D
▁e/f/e/ c/
! D.S.!
9 /8][K:
a s
▁ J
▁A A/
▁A =G
▁c BGB
▁E dc
▁F2 >E2
▁cA fA
"^ B
▁Bc ef
▁(A >
▁|{ GA}
▁c>d B
▁d>e g>a
▁X:1<br>L:1/8<br>M:6/8<br>K:D dor
▁c>A B>c
▁f/g/ f
▁CE AE
▁Af cf
▁g< a
ion "
0<br>M:9/8<br>K: D
▁X:1<br>L:1/4<br>Q:3/4= 90<br>M:6/4<br>K:
< d2
= gf
▁E ^D
▁B2 A
▁e2 ee
▁(3 BA
▁ed fe
▁E2 EF
▁cA )
▁GF FE
▁B, G,G,
▁= A2
E/ B"
▁"^ *"
▁X:1<br>L:1/8<br>Q:1/8=18 0<br>M:2/2<br>K:G
▁a< A
▁e>fg >a
▁E>A ,
▁(3(g ab)
B/c/A/ )
▁[Bg ]
▁aAA B
▁a>ba >f
. c)
▁B bag
▁D g
▁(3 _
▁(3 ef
▁(3 B/c/B/
▁|] "C"
▁cd f
▁FA -
▁(A <d)
▁gfe "D"
▁B>A A
▁DF GA
▁g> be
▁dBB e
dF ]
▁(cB) A
ac a
{/ G}
▁[d G,]
▁(fe ).d
▁|[M:2/2][K: D]SOSOO
▁!>!d 4
( dc)
G >c
▁d f/e/
▁b (
▁a2 fa
▁^ E
▁Ad ef
de ]
A, G,
▁GB BG
▁gfe 2
▁af fd
▁dg fd
). f/
▁d> ec
▁BE cE
▁X:1<br>L:1/8<br>M:2/4<br>K: Eb
▁X:1<br>L:1/8<br>M:3/4<br>K: Eb
▁X:1<br>L:1/8<br>M:6/8<br>K:G dor
re ss
.a .a
▁[ca ]2
E >C
▁| 2
▁B BG
▁B fdf
▁c {d}
▁A2 g2
▁A2 "A7"
▁f2 B2
▁cA "G"
▁AG BA
▁a2 {GdG}
▁BG -
ag a)
▁B, F
▁df A
d2 c2
▁c' f
▁g/ ^f/
b/ c'/
E, E,
▁CB, CD
▁[eA ]2
Variation s:"
. A)
> ef
a >d
▁A "Em"
▁A eA
▁a s
▁c2 {e}
▁e2 dB
▁[ Bb
▁:|2 "Bm"
▁cd fg
▁dA eA
▁G>A B>d
▁X:1<br>L:1/8<br>M:3/4<br>K: Bmin
▁g> fd
▁!fermata! a2
▁(B >d)
▁B>c B>A
▁G>F E>D
(3 cBA
▁X:1<br>L:1/8<br>M:9/8<br>K: A
▁X:1<br>L:1/4<br>Q:1/4=1 20<br>M:4/4<br>K:
▁(GA B)
▁X:1<br>L:1/8<br>Q:1/8=15 0<br>M:2/2<br>K:D
, ,]2
▁d "Em"
▁e ef
▁e >E
▁G z
▁:| "A"
▁:: "^C"
▁C >
▁ge Be
▁afd g
▁GG GA
c/B/ A
▁[A E
▁Aa A
▁Ae ed
▁X:1<br>L:1/8<br>Q:1/2=1 1
▁X:1<br>L:1/8<br>Q:1/8=128<br>M:4/4<br>K: G
▁||[M:3/4] "^B"
▁|"G m/Bb"
= FA
m f!
{ C}
▁G cA
▁(3 abc'
▁^ F/
"^ C
▁ec fd
▁T fe
▁"^ Reel."
▁DE E
▁|"^ 3
▁X:1<br>L:1/16<br>M: 6/8<br>K:
d/B/ G/
▁AFE C
▁E/F/ G/E/
▁(3(A GF)
▁[G B,]2
▁[ee ]4
al l
]- )
▁g>ab >g
▁D>FA >F
" C
▁A _
▁f ^d
▁F Bc
▁(3 FAF
▁. D.
▁ef =g
▁e3 )
▁FD DD
▁(3( D
{g} c/
▁B>A B>d
▁X:1<br>L:1/8<br>M:2/4<br>K: Edor
▁gd gb
▁dd ef
▁(g <e)
▁(e >c)
DF B
▁d< D
▁v A2
▁[BG ]3
▁(BA G)
▁(G/A/ B/c/)
▁X:1<br>L:1/8<br>Q:3/8= 6
F/E/ )
f/g/a/ )
= c)
[ d
t er
▁ key
▁G =
▁a !p!
▁A2 {B}
▁AG cG
▁BG dc
▁^ G/A/
▁Bc c
). c/
▁X:1<br>L:1/8<br>M:2/4<br>K: E
fa }
▁D/ E/F/
▁f>d e
▁(f >g
▁(f edc)
▁eB ef
▁[M: 5
▁(dc) B
▁g/a/ g
Fd ]
▁DB FB
{gcd} c
▁t he
▁Td 4
▁"^2 1"
( gf)
7 /8]
< F)
^ C/
▁D cBA
▁D DDD
▁(3 EDC
▁[ cc
▁= B/c/
▁= ge
▁ef ae
▁EF DF
▁GB Bd
▁GB "D"
▁|"B b/F"
▁gb /g/
▁A>B G
▁f> b
▁AE CE
▁A>d f>d
▁[cA ][BG]
▁X:1<br>L:1/4<br>Q:1/4=1 6
f>e )
▁.A 3
▁|"^( E
▁A>GF >G
e/4 f/4
▁D>EF >G
▁d>^cd >e
▁AF/G/ A
▁"^moderat e"
= b
f b
▁d (3
▁e x
▁G cBA
▁F a
▁E AF
▁^ fe
)( ba)
▁ce ee
▁|{ ^c}
GG ,]
D/ G/
▁X:1<br>L:1/8<br>M:2/4<br>K: Bmin
▁AD F
▁d< A
tr o"
▁d>BA >B
▁X:1<br>L:1/16<br>Q:1/4=10 0<br>M:2/4<br>K:D
m 6"
▁f "A7"
▁F >C
▁( ^c
▁BA c
▁d/ g/
▁fe cd
▁GB -
). B/
▁e>d B>G
▁(B >c
▁c/d/ c
▁B>G B
▁"^A" "C"
▁(e/f/ g
B,/ A,/
▁c>c c
▁(ed ).c
▁B2B2 B2
▁||[M:3/4] "^C"
▁X:1<br>L:1/16<br>M:4/4<br>K: D
▁[EG ]
▁aef a
][Bd ]
"^(F )"
( b
A /4)
▁e =g
▁BA d
▁FA DE
▁GF DE
)( Ac)
G, ,
▁DF EG
▁(e 3/2
▁c> =B
▁BF B
▁(f/g/ a
▁G> ED
{gef} e>d
▁[Dd ]
f/a/ )
"^D C"
▁A,E CE
▁TE 4
( u
( AB)
E d
[ AA
a m"
▁B ff
▁G2 "F"
▁B2 >B2
G/ ^F/
"^ P
"^ a"
▁f< ae
▁d>f a
▁G/F/ G
▁cee a
C, /
▁"^S trathspey."
▁e>cA >F
▁X:1<br>L:1/8<br>Q:1/4=120<br>M:2/2<br>K: A
ro g
▁(3(c Bc)
( g/
C >D
^ "
^ DE
▁d af
▁B "Am"
▁B B/d/
▁c FA
▁F "A"
▁D dB
▁G2 >F2
▁|: {g}
▁de cA
▁"^ G
▁ABd F
▁BGE C
▁f>d d
0<br>M:2/2<br>K: Bb
▁(E C)
▁Bdd ^c
▁X:1<br>L:1/8<br>Q:1/4= 5
▁Gg fg
m/ G"
▁a>b af
▁||[K: F]"F"
c/4 d/4
▁EGF D
▁(AG)( FE)
▁[dG, ,]
EGU E"
[ ee
_ a
▁ Quick"
▁B "Em"
▁G ^
▁b c'b
▁C A,A,
A" E7"
"^ E
▁GE AG
▁ED FA
▁(F >E)
▁CE C
{G} c
▁BD AF
▁e>g f>e
A] SOSOO
▁D, /
▁B,C DE
<br>M:2/4<br>K: C
(G {A}
▁(b/ a/g/f/)
> ^d
e m
| :
▁g ge
▁( .B
▁D F/G/
▁A2 "A"
▁(3 .A
▁F2 >A2
▁dc B2
▁dB F
▁= FD
▁df bf
▁GE GE
▁af bg
▁|"^ 1"
▁G>A BG
▁dd fd
▁(3d fd
▁X:1<br>L:1/8<br>Q:1/8= 6
▁afe a
▁g>fe >f
▁"_ Slow"
▁(g/f/ e)
C/B,/ A,/
▁[ac ]2
[ c
f <a
r eel
▁B B,
▁G "F"
▁c bag
▁f BbB
▁e2 ge
▁(3 e/f/g/
▁f2 ff
▁D2 >F2
▁F2 ED
▁cA ag
F" C7"
▁ec cA
▁A/ B/c/B/
c2 A2
▁(B e
▁Bg gf
▁CE A
dg d
▁GBA B
▁D< GG
.G .A
▁X:1<br>L:1/8<br>Q:1/4=120<br>M:4/4<br>K: F
▁(BA B)
▁BBA A
▁|:[K:G] "G"
▁(3Bc ^c
][cE ]
' s
. a2
▁A "C"
▁B edc
▁c "D7"
▁f ege
▁f (d
▁D cB
▁d2 "Em"
▁f2 "A7"
▁AF "G"
▁ef ^g
▁Bc cB
▁A, A
▁|"A b/Eb"
▁! p!
▁gd eg
eA ]
▁AAA c
▁X:1<br>L:1/8<br>Q:3/8=1 20<br>M:9/8<br>K:
▁b3 -
▁([ FA
▁Aa ec
▁|1,3 "D"
▁(c/B/ )(A/G/)
G/B/ )
▁f^ ef
^ ab
o c
▁A A,
▁e z
▁e ^g
▁g e/g/
▁E EF
Bd >B
<br>M: 9/8<br>K:
▁|] "G"
▁. d)
▁(A >c)
▁G/ c/
▁af ba
▁G, 6
▁G, >G,
). e/
▁ab ga
▁A> ^c
▁AGE A
Bb )"
▁u E
▁GD EG
▁B,D GA
▁fag a
▁F6 -
▁[G c]2
▁Ec Gc
▁a< e
> fg
F >d
^ F2
▁A "A"
▁E E/F/
▁B2 F2
▁c2 {d}
▁cA Bd
fd c
"^ ~"
▁ec af
▁e/ ^f/
▁gd gd
▁A>G E
▁(G >B)
D2 )
▁fdd ^c
▁CE AB
▁"^A" "^
.F .F
▁bc' d'
▁[M:4/4][K: D]
▁X:1<br>L:1/4<br>M:3/2<br>K: G
▁d d/
▁G >f
▁G =F
▁( a/b/
▁dB FD
▁fd /e/
▁FD GE
▁GE BG
▁(3( aba)
f2 d2
▁A> GAB
▁v G
▁eAA e
▁[E A,
▁b/ g/
▁DB, DE
c'/ d'/
{gef} e>c
^c/ )
▁|]: [K:
▁(3(d cd)
▁||[K: F]
>. d)
▁X:1<br>L:1/8<br>Q:1/4=120<br>M:3/4<br>K: D
▁::[K:G] "G"
▁suggestion )"
▁d ^d
▁B "
▁B z
▁G cd
▁( =f
▁( c/e/
▁d2 "D7"
▁G2 {A}
▁E2 g2
▁:|2 "Gm"
F" E"
eg b
▁ge bg
▁(3( G
▁! 4!
▁d> cde
▁AD E
▁_ B,
▁X:1<br>L:1/8<br>Q:1/8=1 20<br>M:4/4<br>K:G
▁c>d e>d
▁(e B)
▁gab c'
(3 AAA
"^( a)
▁G< F
▁AcA G
▁c/c/ c/c/
▁f) d
▁[G, E]2
re s
▁A/c/ B/A/
▁B^ GE
▁[ge ]
▁f= efg
▁[M:2/2][K: D]
[ E
^ f/g/
p ress
▁d AAA
▁a BgB
▁ed c2
▁BA ^GA
▁dB "D"
"^ D.C.
▁gf )
▁Ad Ad
D/ f
▁dd de
▁(e '
▁(B/c/ dB)
▁dBc B
▁(T d
.f .f
▁d( c/B/)
▁.A (
▁EDB, E
▁TE 3
B -
p li
t h
▁e {f}
▁A2 FG
▁(3 .A.A.A
▁C ,3
ec ]
▁ef af
▁_ b2
▁!>! F2
▁CE AG
▁G< EE
▁DGG ^F
▁BEE B
▁[ee ]2)
).d .d
G/F/E/ )
▁X:1<br>L:1/8<br>Q:1/4=14 0<br>M:4/4<br>K:G
G/E/ )
' s"
5 /4<br>K:
A g
▁ re
▁A "E7"
▁E ED
▁E >g
▁c2 E2
▁f2 ga
▁[ Gd
▁:: "D7"
▁|1 "Gm"
▁ec f
▁ec "D"
▁fe )
▁ge "D"
▁ge ae
▁"^ C
▁|"E b/Bb"
▁f> ag>f
▁(3F GE
▁eAA f
▁DC B,C
dF d
▁Gg gf
▁[ce ]4
▁=G 4
▁(g/ f/e/
d a
u b
▁A A/c/
▁c fAf
▁( ^g
▁( .e
▁a c'a
▁c2 F2
▁[ b
▁a2 ba
▁BG GE
▁^ GE
"^ e"
▁fe ^de
▁X:1<br>L:1/8<br>M:6/8<br>K: Eb
▁GB BA
▁f/ >e/
▁ab c'a
E2 )
▁v B
▁([ D
▁geg a
▁e>fe >c
▁.g .g
DC B,
0<br>M:3/8<br>K: C
▁X:1<br>L:1/8<br>Q:1/2=7 5
▁f= ed
{gd G}
3 )
g G
| "
▁A B/
▁c fec
▁A2 >F2
▁F2 GA
)( f/e/)
or "
▁X:1<br>L:1/8<br>M:4/4<br>K:G mix
▁B< F
▁ba ag
▁u d2
▁A>c B>A
in al"
{G} B
▁bagf ed
▁C, C,
▁FGF D
▁B,CD B,
)(F G)
▁(d/c/)( B/A/)
^ fd
▁d EE
▁G "G"
▁f bag
▁|" F
▁F2 "A7"
▁a2 b2
▁DE ED
g2 f2
▁X:1<br>L:1/8<br>M:2/2<br>K: Bmin
▁gb ef
▁gd Bc
▁g>f ed
▁[E B
▁(AB) cd
▁.c .c
▁[d b
▁(a/g/ f)
▁X:1<br>L:1/8<br>Q:1/2=9 0<br>M:4/4<br>K:G
▁x 2
▁(B/A/ )(
▁[af ]2
"^c r"
▁"^Alleg ro"
0<br>M:12/8<br>K: D
"^(B m)"
▁feel ing"
. a/
^ c'
a c'
▁G cAG
▁c ^c
▁F FA
▁F "A7"
▁( B,D
▁a {b}
▁e2 >g2
/4 G/4
▁BA eA
▁AG )
▁C G,
BG ]2
F/ A"
▁GB D
{g} ed
▁gfed "A7"
▁c< Ae
▁BB BA
▁f>d A>F
▁f>g f>e
▁a> ec>A
▁[E B]2
▁(ef) ge
.g .f.e
D, ,]
▁X:1<br>L:1/16<br>M:3/4<br>K: A
▁[B, D]
di m
▁X:1<br>L:1/16<br>Q:1/4= 5
▁!fermata!d 3
▁d/^c/ d
▁[Ge ]2
\n \n
reel "
^ fe
e -
e ]2
▁g "D"
▁( .c
▁(3 Bdg
Bc e
▁fg ed
▁df ff
▁ED B,C
{g} B/
▁edc =B
▁E/ )
▁(F G)(
▁(3g ec
▁F, >F,
▁ad bd
▁Bee ^d
▁"_ VB"
▁(GA Bc)
▁X:1<br>L:1/4<br>M:6/4<br>K: G
▁[Be ]2
▁A>^GA >B
[ C
f ul
▁B ag
▁e "A7"
▁a ag
▁cd A
▁^ GF
"^ NB1"
▁FD GF
c2 e2
▁c' )
B/A/ B/
▁AA GA
▁X:1<br>L:1/8<br>Q:1/8=1 20<br>M:2/2<br>K:
▁(3g dB
▁ee ef
▁F< E
▁B) A
0<br>M:2/4<br>K: Bb
▁FB Bc
▁f>ed >e
▁BF dB
▁C/ E/
▁[dB ][cA]
).d .B
▁(3G BG
<br>M:6/8<br>K: C
▁ac' ba
▁[gB ]
▁D>FA >d
▁X:1<br>L:1/8<br>Q:3/8=9 0<br>M:6/8<br>K:G
▁!>!e 4
. F2
q u"
▁d =f
▁A G"
▁g2 ec
▁BA AF
▁b <
G/ c/
][ A,
B2 c2
A, )
▁(3( B
▁cAA a
▁c< eA
▁(g fg)
▁G/G/ G/G/
gB ]
▁A>d f
▁d>g B>g
▁[A, ,
▁[G c
▁GEF E
▁.G (
▁A,/ B,/
im pli
▁X:1<br>L:1/16<br>M:4/4<br>K: G
▁(A< c)
"A/ E"
▁(3A, B,C
▁"^Alleg retto"
▁!>!f 4
) a
3 !
▁e ec
▁( .d
▁(3 EF
▁C >A
▁fd =cA
▁GF E2
▁fg a2
d2 e2
▁ce ed
▁(A >F)
][ B,
dc BA
▁b2 bg
▁ea ae
▁edc "G"
"E m7"
▁gd ef
▁(f 3/2
▁gg fg
▁B>cd B
▁[AF ]3
▁X:1<br>L:1/8<br>Q:1/2=9 0<br>M:2/2<br>K:D
▁cBG F
▁X:1<br>L:1/4<br>Q:3 /4=1
▁(d/e/f) d
▁(3C B,A,
▁spirit "
8 -
> )(
d /4)
{ Bd}
▁d FAd
▁f cB
▁d2 (3
▁e2 {A}
▁(3 cAF
▁F2 FG
▁BG cB
▁B, EG
▁efg 2
▁E3 )
▁(3( u
▁dg gg
▁e>d B>d
▁(d >e
▁c>d ec
▁(e cA)
▁f>ed >B
▁fec f
▁X:1<br>L:1/4<br>Q:1/4=1 4
▁|:[K: F]
▁X:1<br>L:1/16<br>M:3/4<br>K: C
en der
▁X:1<br>L:1/8<br>Q:1/4=120<br>M:2/2<br>K: C
{Gdc} d
▁f' 2
▁TF 3
▁[B,D ]2
▁(3(A/ B/c/)
impli fi
! <
( c/
D /4
▁d B/A/
▁A ef
▁A c/A/
▁( .A
▁D D/E/
▁g2 bg
▁^ e
▁gf f
)( 3
▁GE c
▁! f!
^c >d
D/ C/
▁|"^ A
▁(d cd)
▁(d BG)
▁_ Bc
▁A< e
b/ b/
▁(F 3/2
▁BB Bd
▁c'2 b2
▁F/E/ F
▁[A, A]2
▁[A, F]2
▁.B .B
/a/ )
CC C
▁X:1<br>L:1/8<br>Q:1/4=14 0<br>M:4/4<br>K:D
▁BGD B,
ot t
▁c'/b/ a/g/
6 <br>M:4/4<br>K:
i r
▁c af
▁E2 FG
cd e)
▁= EF
GF D
▁T ed
▁fa c
▁BAB ^c
▁!fermata! E2
▁BF Bd
▁X:1<br>L:1/8<br>Q:1/4=10 0<br>M:4/4<br>K:G
▁gef ^d
▁B^A Bc
▁[DD ]2
▁w rit
▁X:1<br>L:1/4<br>M:2/4<br>K: G
▁"^Moderate ly
[ B,
e s
g s
▁A d/c/
▁G B/A/
▁c ^
▁f <b
▁B2 >G2
▁ed df
▁E2 c2
▁a2 fd
▁|"A m/C"
▁Ac cA
▁fe af
▁ce "G"
▁d/c/ d
3/2 {d}c/
▁(B g)
▁!>! b2
▁(T e
▁ad a
▁X:1<br>L:1/8<br>Q:1/8=18 0<br>M:6/8<br>K:A
▁aA ce
▁[A, E]
▁B>AG >B
▁E/D/ E/F/
▁a>ba >g
▁d>fe >c
▁!>!g 4
▁(3(Bd B)
pe at
> ^g
i g"
▁f {a}
▁g =f
▁F >f
▁F dAd
▁G2 AG
▁(3 .e
▁F2 EF
▁:: {g}
A" C"
▁:|2 "E7"
▁Ad ^cd
▁dBA =c
▁C2 C2
▁G, <
{d} B/
▁d< gB
▁G/A/ B/A/
Bg ]2
▁c>BA >c
▁^f 4
▁X:1<br>L:1/4<br>Q:1/4=1 8
▁{ fg}
▁d>cd >f
▁F>GA >F
▁(ag ).f
▁e= fe
" C#"
> GA
B >F
_ ec
h ar
▁ {gcd}
▁E cBA
▁:| "Em"
▁(3 c'ba
▁g2 gg
▁X:1<br>L:1/8<br>M: none<br>K:
▁dB -
▁AF c
g/ f/e/d/
"^ $"
▁(A BA)
][ M:
][ Ec]
▁ge B
▁ecA e
▁T cA
▁B>A Bc
▁AGE C
▁e> fge
▁v f
Ae ]
B>c )
▁[e G]2
▁(g/f/ )(e/d/)
sus 4"
( cB)
e >a
▁A d/e/
▁A edc
▁c cBA
▁f fd
▁F A/B/
▁a af
▁c2 c
▁(3 aga
▁f2 b2
▁ec ae
AF ]
▁BAG D
▁FE EF
▁BE GA
▁GAB e
▁GAB "D"
▁AD EF
▁d>B B
^g b
▁fdB e
▁BB Bc
▁BABc "D"
▁X:1<br>L:1/8<br>Q:1/8= 4
▁GEE A
g/a/ b/
▁B,3 -
▁"_ A
▁(GF ED)
▁a>fe >d
▁e^ fge
▁X:1<br>L:1/4<br>Q:1/4=120<br>M:3/4<br>K: G
implifi ed
/ c/)
5 /2
= B/c/
e <g
▁c "E7"
▁F "C"
▁(3 B/c/d/
▁|| "Dm"
▁:: "A7"
▁|: "A7"
cA c)
▁^ F/G/
▁ec fe
▁ce -
][ C
▁dBG d
▁|"^ a"
). d2
▁AA eA
▁f/g/ a/b/
▁gdB g
▁f/e/ d/B/
▁age ^f
:2 :
▁.B .A
▁||[K: C]"C"
▁cg ec
ly ."
▁X:1<br>L:1/8<br>Q:1/2=10 4
>u B
▁[Fd ]4
▁EGA c
0<br>M:3/8<br>K: D
od a"
▁(B/c/d ).B
e ^d
▁B "F"
▁c ce
▁E =C
▁d2 BG
▁e2 cA
BA c
▁= fg
▁ABc 2
▁d/ >e/
▁df cA
▁fe ae
▁ecA g
▁(3( E
{g} fe
▁g> ba>g
▁A< Ac
"_ h"
▁(G c
▁G/A/ G
▁defd "A"
▁u D
▁G< BB
▁(b 3
▁a< g
>. B)
▁[C A]2
B,B, B,
▁A2( Bc)
▁A,CE C
"^D a
▁!fermata!d 4
▁e BGB
▁a ege
/4 a/4
▁ed -
▁AG -
▁C -
B/c/ d)
▁ea ed
C/ E/
.d .B
▁X:1<br>L:1/8<br>Q:3/8=1 12
▁d) B
▁(D 4
▁ac ec
▁|:"^ variations"
▁[AA ]2)
▁de/f/ g
>. c)
▁Tc >B
▁(cd /e/)
▁da fd
▁d>G B>G
▁G,/ G,/
▁X:1<br>L:1/4<br>Q:1/4=120<br>M: 6/4<br>K:
0<br>M:12/8<br>K: G
^ E
^ gf
a -
▁ l
▁A Ac
▁e BBB
▁c e/f/
▁e2 "A7"
▁F2 "A"
▁dc cc
d/ e/f/)
FA ]2
"^ -
▁GF DC
▁ec "G"
▁AFD c
▁ea ce
a2 g2
▁(B >G)
a) f
▁[M: 3/4][K:
▁FDD c
▁e>A f>A
▁(. G2
.E .E
▁!fermata!c 3
▁!slide![ee ]3
▁g/a/g/ e/
][af ]
( e/f/)
/ )
2 !
> =B
▁e eg
▁f _
▁g ddd
▁A2 {c}
▁f2 "A"
▁ed dd
A" E"
▁|1 "E7"
"^ 4
▁B, B
▁Bc "D"
▁Ac fe
▁D3 )
▁B,2 -
▁c>d cA
▁e>f ed
▁[M: 6/4]
▁^F E
▁c>e A>e
>C 2
▁gc ge
▁g/f/ g
▁.d .e
▁g/a/ bg
▁[df ]3
▁A( F
▁fBB f
▁X:1<br>L:1/4<br>Q:1/2= 9
▁"^L ively"
2 <
= B2
D G,
E -
▁g Bdg
▁F2 AF
▁^ a
af >d
▁ec Gc
▁Ac cd
d2 f2
▁F3 )
A2 G2
"B m7"
▁dA dA
▁f< f
B,/ B,/
▁|"^( G)"
▁(cB ).A
Ador ]
bb b
▁|[M:6/8][K: D]SOSOO
▁(3C DE
▁"^s low"
▁|[M:5 /8]
▁|"A/ E"
▁ex press
. ."
/ !
= Bd
> ^F
{ b
▁d ece
▁f BAB
▁d2 fg
▁g2 g
▁BA G"Am"
▁" ^c
▁:|2 "C7"
▁FA EF
▁= gf
▁FD /F/
▁fe ^df
). g/
▁AD DD
▁(3A Bd
b/ Ab"
▁e< gd
▁d/e/ f/e/
.c .e
▁DB, DF
▁c>BA >B
▁^cd ed
.G .F
D/E/ )
▁B,/ A,/
ers e"
▁!fermata!G 3
▁|"^(D )"
_ B,
e m"
z F
▁A {c}
▁A {d}A{e}A
▁f egf
▁( !
▁e2 E2
▁(3 ^c
▁BG Ac
▁ag ^fg
▁B, >G
▁fg eg
▁Bc ^c
][ F
▁fa ba
▁! 0!
▁G, 3/2
▁(d 6
▁(d ef)
efg a
▁AA FA
▁cde A
▁ga ag
▁_ BG
▁B< Gd
{e} dc
▁F>A d>f
▁g/f/ ed
▁g< f
▁ca Bg
]/[ BG
▁a^g af
▁.c2 (
▁E/D/ C/B,/
▁X:1<br>L:1/4<br>M:2/2<br>K: F
G"^ tr"
G][ Q:1
▁X:1<br>L:1/8<br>Q:3/8=8 8
▁DG, B,D
, ]3
/ G/)
o p
z a
{ GF}
▁d d/f/
▁A c/e/
▁B {cB}
▁e e/
▁G {A}
▁c agf
▁A2 "C"
▁(3 T
ef a
▁F2 FA
▁BG /A/
FA >F
▁ag ba
▁^ DE
B, >D
▁ec cd
▁EF F
▁! 1!
▁|"^ d"
▁_ d2
▁g> ec>A
▁bag ^f
▁F>A d>A
▁(E A
▁c) A
F, F,
▁d>g f>e
▁.B 3
).e .c
▁.g (
▁B,E GE
▁X:1<br>L:1/8<br>Q:1/2=9 0<br>M:4/4<br>K:D
▁X:1<br>L:1/8<br>Q:1/8=3 33
▁bb b
▁GGA A
▁!>!c 4
▁(3AB ^c
D FA
^ ef
u B
{ ab}
▁ on
▁ 1"
▁B "A7"
▁B BAG
▁c gg
▁F >e
▁A2 (3
▁B2 b2
▁BA Ac
▁fd )
▁^ fa
▁FA E
▁g3 "D"
d2 B2
▁(A >B
▁G/ e/
▁ea ^ga
▁eA dA
▁GBd G
▁(F B)
▁ba a
▁G/A/ BG
▁G/F/ E/F/
▁(BA) GF
▁Bee e
▁.c .A
▁:|2,4 "D"
▁A8 -
>u d
▁B,A, G,
▁X:1<br>L:1/8<br>Q:1/2=8 0<br>M:2/2<br>K:G
▁.F 3
▁|[K: C]
▁EB, E
▁G,A, B,D
" E/
▁d c/
▁A G"D"
▁e BA
▁( (
▁D2 B2
▁D2 DD
▁dB "C"
▁cd dc
▁def 2
▁e/ >
▁cB Bc
▁ED FE
▁ab ae
{d} BA
aa >g
▁X:1<br>L:1/8<br>M:2/4<br>K:G min
▁(a <f)
▁X:1<br>L:1/8<br>Q:1/8=18 0<br>M:2/2<br>K:D
▁g/a/ b/g/
Eb )"
>c' 2
▁c>dc >B
G,G, G,
▁C< A,
▁!breath! !fermata!
▁aee a
▁X:1<br>L:1/8<br>Q:1/8=8 0<br>M:6/8<br>K:none
▁(3a fd
. F/
. e)
C A
s tr
▁d f/d/
▁B BGB
▁G Bcd
▁a f/a/
▁B2 {g}
▁(3 DCB,
▁[ GA
▁C D/E/
▁GA FA
▁df fd
▁c/ f/
▁c/ d/e/
e2 c2
▁FGA g
▁F/ >G/
▁EG cd
▁EG cB
▁dA fA
"_ a
F# min
▁(g fg
B,A, )
▁X:1<br>L:1/16<br>Q:1/4= 7
▁(f/e/ d)
▁X:1<br>L:1/8<br>M:3/2<br>K: D
n at
{ B,}
▁ O
▁d FA
▁d A/d/
▁g g/
▁g g/a/
▁( B,2
▁D e
▁D ^F
▁(3 ed
▁cA fc
▁GA GA
"^ 1
"^ M
▁eg B
▁FD B,D
▁(A 6
▁(A ^G)
▁fa aa
▁dBG D
▁c' 6
▁dcB "D"
G, )
▁|"^ B"
▁(d >f)
▁A,2 -
▁(F <A)
▁f>d c>d
▁f>g af
▁e>c e
▁u G
▁fc fg
▁E>D C
▁[AF ]4
▁X:1<br>L:1/8<br>Q:1/4=10 0<br>M:4/4<br>K:D
▁[A, F
▁[d D]
▁e( c
▁EGE G
>u A
▁=G 3
▁(f/e/ f/g/)
▁!fermata!B 3
▁A,< A,
lan gs
B <G
D d
] B
^ G/A/
▁B BdB
▁BA Ad
▁a2 >e2
GA G)
▁f3 )
▁edB "D"
▁gedB "Am"
▁A/B/ d
▁gag a
▁e< B
▁FDD B
▁gc ac
▁B,D GD
▁ca ec
▁.e .d
▁(. d2
▁d>cd >B
▁(AB )(cd)
▁Tg 4
▁[eg ]2
▁(3= cBA
, F
A 3
e b
g '
▁A c/B/
▁G ee
▁( DEF)
▁D DE
▁BA "G"
▁a2 "G"
▁fd Af
▁A3 "G"
BG B)
▁= FA
▁= BG
▁df Ad
▁c/ B/c/
▁ge ec
▁B/c/ BA
▁(d A
▁gb fa
▁DG FA
▁(3A df
▁_ BAG
▁g> ef
▁A< FA
▁B> ^AB
▁FDD G
▁X:1<br>L:1/4<br>M:3/4<br>K: Bb
▁EFE C
▁(a >f)
▁CD C
▁X:1<br>L:1/8<br>Q:1/4=120<br>M:4/4<br>K: Amin
▁{ F}
▁[G, D]
C, ]2
/f/ )
▁Tc >d
▁A>ce >a
▁B,DF B
9 0]
▁d >E
▁B >a
▁B agf
▁G FAF
▁G G/B/
▁g '
▁E G/E/
▁a ce
▁[ ^
▁GA B2
A" Em"
▁AF FD
▁d' /c'/
▁c> b
▁[E A,]2
{a} g
▁(BA) G
▁[c C,]
▁dD cD
▁[ec ]3
e>f )
▁X:1<br>L:1/8<br>Q:3/8=120<br>M:6/8<br>K: A
▁db d
▁D>G B>G
DC )
▁g>fg >d
▁X:1<br>L:1/4<br>M:2/2<br>K: C
▁BGA F"G"
▁(3e ^fg
"^(A m)"
▁B= A
▁DE/F/ G
▁(c' b)
▁a>ec >e
▁B,/B,/ B,
5/ 64
▁(e/d/)( c/B/)
e s"
z "
▁d A/A/
▁A gg
▁A cdc
▁B BAB
▁f BBB
▁( c/A/)
▁E BA
▁B2 {cB}
▁(3 d2
▁b >B
▁dB FB
▁Bd ga
▁fed "A7"
▁df B
▁GE /G/
▁c' d
▁|"^ /
▁edB ^c
/16 <br>K:
▁FED B,
▁c>d B>c
▁c< Ac
▁d< Bg
▁fA ec
▁G>F GA
▁[A E]
▁F< DD
▁(A/ B/c/d/)
▁(ed c)
▁g>fe >g
▁.c 3
en "
▁.G2 (
▁:|[K: A]
▁X:1<br>L:1/8<br>Q:1/2=10 0<br>M:3/2<br>K:
▁X:1<br>L:1/16<br>Q:1/4=10 0<br>M:2/4<br>K:G
▁dB/c/ d/B/
os o"
8 0<br>M:6/4<br>K:
u f
▁A {B}
▁D BG
▁B2 gf
▁B2 "Am"
▁c2 eg
▁(3 AA
▁f2 >f2
▁fd -
▁def b
)( FA)
▁Ad Bd
▁GE CD
▁(A f)
▁de =fd
][ d
▁f/ e/f/
▁afd c
G, ]3
▁e>d B>A
▁G>A Bc
▁dd ed
▁A>G E>F
▁GED B
▁(F >A)
▁ae ed
▁FDD C
▁AAA G
▁d) c
▁[K: Bb]
▁d2B2 B2
▁A( B/c/)
C# /
e' /
▁!fermata!A 4
5 0]
7 -
F GA
P "
▁d aa
▁d d/B/
▁B fdB
▁e {e}
▁e ece
▁(3 edB
▁f2 ag
G" _
▁D2 C2
c/ B/A/
▁Bd fa
▁^ dB
▁^ cc
▁. d/
▁B, EF
▁B/ g/
▁A/ c/A/
▁eg gg
▁Ac -
▁(3( d/e/f/)
▁"^ 4"
▁gd ga
▁(c G)
▁fef c
▁a>g a
▁ABG F
0<br>M:2/2<br>K: none
▁[BG ,,]
▁BF Bc
▁[cA ]3
▁||"^ 9"
er "
▁"_ No
an d
▁dAA G
e' e'
▁X:1<br>L:1/8<br>Q:1/2=9 0<br>M:2/2<br>K:G
DB D
▁E>E E
▁(f/e/ )(d/c/)
▁Bc/d/ B
e/4 f/4)
▁G,B,D B,
▁(B/A/ B/c/)
"^(E )"
▁E^ DEF
pirit ed"
{g}c <e
▁(f/g/a ).f
< C
= f/
= E/
= CE
G dor
d >F
▁| [
▁d bg
▁E G,
▁a a/g/
▁a edc
▁B2 {G}
▁D2 "C"
▁|| "B"
▁dB GF
▁|1 [M:
fd ]
▁^ cBA
▁B, >
▁fed cBA
▁eg ab
▁e/ )
▁d> fd
▁dA GF
20<br>M: 3/8<br>K:
▁|[M: 2/4][K:
▁c>A c
▁f/g/ ag
▁^c >e
G] /
▁F< G
▁[BG ]4
▁X:1<br>L:1/8<br>M:9/8<br>K: Edor
▁X:1<br>L:1/8<br>M:3/4<br>K:D dor
▁E>D E>F
▁g/a/ b/a/
▁||"^ 17"
▁.B2 (
▁X:1<br>L:1/8<br>Q:1/2=10 0<br>M:4/4<br>K:G
▁bc' ba
▁(3E GE
▁(de ).f
▁[a A]2
▁X:1<br>L:1/8<br>Q:1/8=120<br>M:2/4<br>K: D
" G/D"
- -
9 /4
{ a
▁d GGG
▁A fg
▁G edc
▁G B/G/
▁D AFD
▁d2 ^c2
▁G2 "Am"
▁(3 f/g/f/
▁(3 B,A,G,
▁ed "G"
▁E2 e2
▁|| "D7"
▁[ gb
cd f
▁gf ag
▁ce Bc
▁GE AF
▁T G3
c' g
▁eA f
). c'
▁dA c
▁dA f
▁B< dA
▁(3d '
▁!fermata! [
▁cc cd
▁dG dB
▁c< G
▁(3g fg)
B,D B,
▁DC A,
▁(T B2
{G} ED
Gd G}
▁X:1<br>L:1/8<br>Q:1/8=18 0<br>M:4/4<br>K:Emin
▁X:1<br>L:1/8<br>Q:1/2=1 20<br>M:2/2<br>K:
▁X:1<br>L:1/16<br>M:3/4<br>K: F
▁c2e2 c2
▁[B, E]2
▁Bf fe
▁X:1<br>L:1/8<br>Q:1/8=128<br>M:4/4<br>K: F
▁B= GB
▁(3B, CD
▁(TA >G)
▁(CE )
! >(!
2 d
< [
C ]3
] "
c 3
▁B B/
▁e "A"
▁a >c'
ed >c
▁(3 ^
▁FA AG
"^ ?"
F" E7"
▁B/ ^c/
▁ec GE
▁AB ^cd
▁Ac "G"
▁b2 -
A2 d2
f2 f2
G, ,]
▁(3d cA
▁(c >
▁ee ed
▁e/d/ e
d/B/ d/
▁(BA) Bc
▁E< c
▁X:1<br>L:1/8<br>M:9/8<br>K: Ador
▁g< ee
▁ca Aa
▁B>AG >A
▁(ef ).g
▁.a (
▁d/^c/ d/e/
][E C]
▁B,< D
"_d" d
▁F/E/D/ C/
4 /4
= g)
B 3/2
D >E
G g
P art
▁f FF
▁a AAA
▁d2 ^cd
▁G2 BA
ed B)
▁AG GG
▁dB =G
▁dB =GB
"^ c"
"^ Chorus"
▁fg gf
▁ec fc
)( GE)
▁A, )
][ DF]
▁b2 ba
▁c' >c'
A2 B2
▁"^ 5"
▁DE C
/4=1 20]
▁dd cd
▁(g B)
▁(G <B)
▁c'2 )
▁ae eg
▁g>e "D"
>C ,
▁Bee B
▁fedf "A"
▁"^A" "G"
▁[A, D]2
▁|"D m7"
▁[df ]4
▁fBB g
▁X:1<br>L:1/8<br>Q:1/8=3 5
▁[DB ]3
▁bab c'
▁B,G, B,D
▁g>ab >a
D][ Q:1
"^(G 7)"
▁A,> CE
F 3
▁A EG
▁c fed
▁F GG
▁( ^cd
▁( D/E/F/
▁|" F#/C#"
▁e2 "A"
▁(3 Bdf
▁(3 FAd
▁g2 >d2
▁:: "Gm"
▁C B
▁ag b
▁^ G/
▁de Bd
AF ]2
▁"^ E
▁ba ^g
▁!>! E2
d' }
▁^F GAF
▁(B/c/ d/B/)
▁AAA 2
0<br>M:2/2<br>K: Emin
▁E/F/ E/D/
▁cec B
▁cE GE
0<br>M:3/4<br>K: A
e/f/g/ e/
re st
▁g( f/e/)
= eg
I ris
p o
▁d {d}
▁B fd
▁c c/A/
▁f "C"
▁F ine"
▁( c'/b/
▁A2 de
▁:| "^C"
▁(3 dfa
▁(3 A,A,A,
▁AG AG
▁:: "Bm"
▁cBA G"D"
▁Ad df
▁d/ A/
▁df -
][ dA
F2 A2
▁A>G E>D
▁a> bag
▁fdec "D"
▁ff ed
▁cF dF
]/[ ec
(g fe)
(g fg)
▁X:1<br>L:1/16<br>M:3/4<br>K: Gmin
▁B,E ED
▁(d< g)
▁X:1<br>L:1/8<br>Q:1/2=8 0<br>M:2/2<br>K:D
▁C< F
f/4 g/4)
▁a>d f>d
▁1 /4
▁F^ EF
, "
= f2
y "
▁B fe
▁e BcA
▁c DD
▁c c/e/
▁F A"G"
▁A2 "E7"
▁e2 G2
BA 2
▁" F#7"
▁dc "G"
"^ g
▁. e)
▁B/ ^c/d
GB ]2
▁e/ >f/
▁GB ef
▁|{ =
▁G, E,
▁bg gb
D/ )
▁|"^ NB"
▁E/ C/
▁(B /4c/4
"_ (
▁c>A F
▁f>d a>f
▁FEF E
▁v a
▁edef "G"
"^( F#
▁AFE A
▁(d/c/ d/e/)
▁(ef) ed
▁=f edc
▁gbg b
▁|]: [M:
>. A)
▁e( f
e' 2
▁[GG ,,]
>u c
>u e
7/ C#"
▁f/f/ f/f/
▁X:1<br>L:1/4<br>Q:1/4= 20
▁X:1<br>L:1/8<br>Q:3/4= 4
( {
< e2
▁d "Am"
▁A [
▁c BdB
▁d2 >g2
▁:| "Am"
▁c2 g2
▁(3 G/A/B/
▁f2 {gf}
▁BA /
▁[ d'
▁AG Bd
▁|1 "G7"
BG ]
▁ec ag
▁cBA G"D7"
▁c/ =B/
▁ED DC
▁T f>e
g2 e2
▁(d ef
▁DF Bc
▁g> agf
▁GED F
▁EAA E
▁B>d c>B
▁[GB ][GB]
▁|:"^ S
▁(fe) fg
▁BAA g
▁.A .A
▁dAA B
▁t h
▁g/g/ g/g/
▁[Fd ]3
▁[C A]
B/4 c/4
▁A= FA
▁G>BA >F
▁(b/a/ )
rot "
▁g>be >g
( fd)
( Ac)
^ dc
b >f
n e
▁d FG
▁G GAB
▁F D"
▁E cE
G" B7"
B/ G/)
▁a2 >a2
▁|: "Cm"
▁Bd "D"
B, G,
▁= gfed
▁def ^g
▁Bc ^d
)( e/
▁(3( GAG)
▁fa b
ce }
▁|"^ g"
▁A,2 )
▁[M: 9/8]
▁Gc cB
▁FF G
▁X:1<br>L:1/8<br>M:2/2<br>K:D dor
▁F< AA
0<br>M:2/4<br>K: Emin
▁cf fe
▁E, >E,
▁(b >a)
=f c
▁||"^ variations"
▁[G, G]3
▁eG ce
C, ,]2
▁|1,3 "G"
▁G8 -
▁|:"^A" "G"
G,/ G,/
▁a>fe >c
▁A>FA >d
▁.!fermata!PMTCO M
= c2
A >D
C ]4
b 4
▁f c'
▁E EEE
▁Bd "C"
"^ b"
▁(A BcA)
▁(3( EF
▁AGF 2
▁B/c/ dc
▁|"^ f"
▁B>A F>A
▁(d <B
▁FED 2
▁c>d e/f/
▁BGG f
▁EA E
▁efd c
▁E< A,
▁b>g d>B
▁[B C,]
▁(ag) fe
▁(3f ag
▁e>fe c
▁(e/d/ c)
▁B( G
im e
▁c/B/A/ c/
▁B= cB
▁g>ed >c
▁FBA c
Dmix ]
▁suggestion "
" C/E"
( !
( fa)
. E2
D A,
▁d zd
▁c EGc
▁B2 "F"
▁c2 {GdG}
▁(3 ede
▁f2 >a2
▁ed ^cB
▁cA ed
▁cA F"G"
▁dB )
▁dB G"D7"
▁^ f/
▁= D2
▁cB BB
▁"^ reel"
▁DG Bc
▁dd dB
▁cc cA
▁BGG D
▁d< GB
▁e> ^f
▁gag "D"
▁BGB "D"
▁f>g a>g
▁(f B)
▁Bg Af
G/A/ F/
▁B) d
=B ^c
▁AFEF "D"
▁X:1<br>L:1/4<br>Q:1/4=1 3
▁[G D]2
>c2 )
▁ceg f
d/d/ d
F/A/ )
▁g= fed
. g)
A GF
G >d
G >G
▁B =g
▁f AAA
▁a efe
▁B2 "G"
▁(3 AFD
▁(3 Acf
▁[ gd
▁:: "C7"
▁a2 {b}
▁fd ce
ec '
▁B3 "D"
▁B, ,3
▁(A ,2
▁ea c'a
▁F/ d/
"B bm"
▁G>A B/c/
▁(3A FA
b/ a/g/
=c G
▁ege "G"
▁cf c
▁E< e
▁([ GA
▁|:"^ C"
]/[ AF
▁efec "D"
A,/ G,/
▁X:1<br>L:1/8<br>Q:1/2=9 0<br>M:4/4<br>K:C
).g .f
▁[dF ]3
▁(fg /a/)
▁X:1<br>L:1/8<br>Q:1/2=8 0<br>M:4/4<br>K:G
D/D/ D
ig ."
▁(b/a/ g)
▁X:1<br>L:1/16<br>Q:1/8=1 8
{d}G 3/2
▁c>ed >c
V ersion
b c
▁d g/f/
▁d _B
▁A =Bc
▁g Bc
▁( g/e/
▁|" F#
▁A2 fe
▁A2 AF
▁:| 3
ed 2
ed e)
▁(3 e/
▁(3 DFB
▁b aba
f/ d/)
A" A7"
▁cd Bd
▁gf =e
▁= BA
▁= Bd
▁(A /4B/4
][ EG]
▁(3( dd
▁|"^ 4
d/c/ B/A/)
▁D/ C/B,/A,/
"_ c
▁e/f/ ed
▁f> edc
{e} f
▁fA fA
▁B>d B>G
▁A>c e>g
▁GD BD
{a} fe
▁[D G,]
▁A>A A>B
▁X:1<br>L:1/8<br>Q:1/4=10 0<br>M:2/4<br>K:C
▁F>D F>A
▁|"G m7"
▁|{/ d}
ine ."
▁eb ge
Amix ]
▁TF 4
▁"^Slow ."
▁e=d cB
▁(gf).e .d
D/f +"
, D,
. d'
B >f
^ g/)
e E
▁d e/
▁B {d}
▁B B/c/d
▁G A/
▁f fdf
▁F A/F/
▁A2 {GAG}
▁G2 EG
▁:| 4
▁F2 FE
▁GF GF
▁fed "G"
▁eg df
)( ^
A2 A2
▁dA fe
▁F4 )
▁(B >
▁B/A/ G/B/
▁f< ad
▁EFG c
▁a> ^ga
▁GD B
▁[A C]2
▁=c E
▁"E b7"
▁[BG ][cA]
▁.d .B
▁[cA ,]
▁[G e]
m/ D"
▁A,4 -
▁c>Bc >A
▁[Bg ]4
▁[gB ][
▁B^cd B
▁X:1<br>L:1/16<br>M:3/8<br>K: G
"^d .C."
▁X:1<br>L:1/8<br>Q:1/8=120<br>M:2/4<br>K: G
har p
Iris h
- A
0 0]
> d/)
B <d
G 3/2
▁d "F"
▁A "C7"
▁( B/d/
▁( a/b/)
▁G2 >G2
▁|| "Bb"
cA >F
cB )(AG)
▁A, >G,
▁Ac cc
▁g3 )
▁efg "D"
A, E
▁G/ >F/
▁dg a
▁|"^ D.C."
▁B>A Bd
▁cBc 2
▁(B <e)
"_ d
▁(G e)
G/F/ G/
^G >A
{A} G
▁d) e
▁[BG ][AF]
▁cABc "D"
▁(A/ c/
li ch
▁[c C,,]
▁.B .c
▁ceg a
▁=g 3
▁g6 -
▁X:1<br>L:1/8<br>Q:1/8=232<br>M:4/4<br>K: F
)(d >e)
▁(cd e)
▁[C A
▁::"^ D"
▁Ed cB
{e}A 3/2
▁f= ef
▁(af ).d
{^ d}
[BG ,]
( ec)
> ^c2
c <A
▁B /4c/4
▁G /4
▁f Bc
▁f >F
▁F2 B2
▁E2 DE
▁" C
▁cA /
▁:: "Bb"
cA ]2
ec ]2
▁. c)
▁B, >G,
▁cBA d
)( dc
)( FD)
▁Ac eA
▁fe eg
▁G/ >G/
▁G, D
{g} dB
▁E4 )
▁(3A ^GA
"_ g
▁GFG D
▁e>c c
▁B> ^G
▁gg ge
▁Gc Bc
▁ege ^c
▁d>g f>g
▁(c/d/ e/f/)
{F} ED
▁|"_ >"
▁be eg
▁[e G][
▁[B, G]
▁F>F F
▁d8 -
▁[DB ]4
▁X:1<br>L:1/8<br>M:3/8<br>K: D
C/D/ )
"_b" B
▁"^2 5"
▁f>af >d
▁b/b/ b
.D. D.
][eg ]
" D/
4 <br>M:3/4<br>K:
> a/
▁c CC
▁f {gf}
▁g z
▁A2 "C7"
▁E2 >D2
▁BG c
▁AF GF
▁= FE
▁A, 8
▁dBA F"Em"
▁c' abg
▁G, E
▁FGA 2
▁eA cd
▁|"^ d
▁EG Bc
▁EG GE
▁X:1<br>L:1/8<br>Q:1/8=1 20<br>M:3/4<br>K:
a/g/ f/e/)
▁(f A)
▁B>d f
(3 efg
▁[D B,]2
▁X:1<br>L:1/4<br>M:3/4<br>K: Amin
▁(D G
c'/ )
]/[ cA
▁e>e e
▁[GB]2 )
>. f)
▁b> ab
▁[Bg ]3
▁(B/A/ G/F/)
{GAG} A
▁a( g/f/)
▁"^Moderate ."
][AA ]
▁(3(dd d)
= f)
> _
^ !
f -
▁ &
▁ 4
▁B d/e/
▁e edc
▁B2 D2
▁(3 A2
▁F2 f2
▁[ de
▁BG e
▁ag ge
"^ 2
▁B/ d/c/B/
▁= GB
▁df "A7"
▁ge ee
▁T ED
▁fa -
c' b)
▁G, >A,
▁dg ec
▁eA de
▁d> efg
d/c/ B/A/
▁dd g
▁^c 3/2
▁v D
▁v E
▁X:1<br>L:1/4<br>M:4/4<br>K: Emin
▁cG ce
▁X:1<br>L:1/8<br>Q:1/8=18 0<br>M:4/4<br>K:Amin
▁EDE C
▁Gg dB
▁(A/ c/)
▁F>D E>F
▁{ b}
▁.c .e
▁[G, D
▁cGE C
▁.f .f
▁db ca
▁C, /
▁[fd ][ec]
▁(. F
▁X:1<br>L:1/8<br>Q:1/2=10 0<br>M:2/2<br>K:G
▁Acd f
B/4 c/4)
▁X:1<br>L:1/4<br>Q:1/2=1 1
][D d]
▁"^T ender
4 -
= a
G Bd
d 3/2
{ AGAG}
▁d {f}
▁c {e}
▁c Bdc
▁f BgB
▁( agf)
▁D "
▁D >g
▁b eg
▁E2 B2
▁[ fB
▁cA EC
▁C EF
▁|] "^C"
ec >e
▁. C2
B, ][
▁ef "G"
▁T a>g
c' e
▁"^ variations"
▁F/ >E/
▁d> =c
▁d> efe
d/c/ d/
▁D4 )
▁DF DF
▁A> Bcd
"_ D
▁d>e g
▁gec g
▁fdB f
▁eB gf
{c} B
▁(T f
E/D/ C/
▁(Bc) de
▁cE Ac
▁(fe) d
▁=f ef
▁A>Bc >B
▁A>Bc >e
▁G>E E
▁d( B
▁^g b
▁[cE ]4
Af ]2
)(d A)
▁dgg ^f
▁DA, D
▁d= cB
).a .f
▁X:1<br>L:1/4<br>M:6/4<br>K: D
▁(G/F/ E/D/)
▁(ed).c .B
▁(g/f/e/ f/)
) !
7 /8
A [
B >B
^ GF
▁ 3"
▁B ba
▁B "E7"
▁G G,
▁c DBD
▁g "C"
▁ed gB
▁D2 DF
▁E2 FE
fe g
▁cA fd
▁cA ^FA
▁fd ag
▁BG cG
C" G"
)( ED)
)( EG)
▁A, F,
▁gfe a
e2 g2
A2 c2
▁e4 )
▁(c Bc)
▁(e A
▁ba ^ga
▁BAGF ED
▁dfe ^c
▁CE EG
B,D G
▁[A C]
▁^F 3/2
▁(B/c/ B)
▁(E 3/2
▁[d D]4
▁e( f/g/)
▁c>Bc >e
▁(fg a2)
7/ F#"
▁[Dd ]4
▁Bb b
▁X:1<br>L:1/8<br>Q:1/4=8 8
▁e^f ^g
▁[eg ]
▁d^cA G
▁[A,E ]4
▁(dc).B .A
( A/
= Bc)
w ith
▁d df
▁g g/e/
▁c2 "E7"
▁(3 .B.c.d
▁F2 "C"
▁|| "G7"
G/ b"
▁^ ab
▁= ce
dB }
{g BG}
▁ED )
▁dg gd
▁|"^ e"
▁(3A GE
▁_ a
CE A
▁a/ ^g/
▁|[M: 4/4][K:
▁Bg d
▁G< e
▁GFGA Bc
▁cf ag
▁cf Ac
▁(T B>A)
▁(E >D)
▁e>dc >e
c'/ c'/
(d cd)
0<br>M:4/4<br>K:D min
▁D/E/ FD
▁|"^( F
G/G/ G
▁e( d/c/)
▁e/f/g/ f/
▁g>ag >f
▁B,E GB
▁(g/ f/g/a/)
▁(f/g/) a
▁^fg af
▁X:1<br>L:1/8<br>Q:1/4=120<br>M:2/4<br>K: C
▁(A, B,)
(D )"
F/4 G/4
ain t
▁e>^de >f
" C#m"
' b
= F/
> =e
c )"
▁d _e
▁A /4B/4
▁B "G"
▁e e/c/
▁c gc
▁( 6
▁E cAF
▁B2 "A7"
▁e2 {d}
▁(3 bbb
▁ed "A"
▁E2 >G2
▁AF "A"
▁B, A,B,
▁fed "C"
▁cBA a
▁A/ >A/
▁Bcd "A"
▁ecA d
▁(3( BAB)
▁|{ ^g}
▁dg eg
▁ded ^c
▁|"^ S
▁E/ >F/
▁D/ B,/
"_ -
▁d' bg
▁d' >b
▁!>! B4
▁e< ac
▁u F
▁[E B]
▁d>f B>d
▁dfd A
▁E< AA
▁(cB) cd
▁X:1<br>L:1/8<br>M:9/8<br>K: C
▁X:1<br>L:1/8<br>Q:1/4=120<br>M:4/4<br>K: Bb
▁d( f
m/ B"
▁a>e e
▁cg eg
▁B,E EF
▁=e 3
▁X:1<br>L:1/8<br>Q:1/8=15 0<br>M:4/4<br>K:G
▁B,, B,,
▁AA/B/ c
▁G>BA >c
▁=fd cA
.G.G .G
"_e" e
[Q:1/8= 3
B risk"
{ ^F}
▁A EFG
▁B (A
▁e GG
▁G GFG
▁c f/g/
▁c "G7"
▁g "D7"
▁D E/D/
▁d2 "Am"
▁(3 AG
▁(3 .d.d.d
▁BA E
▁|: S
A" Bm"
▁^ fed
▁. A)
▁= cde
)( EF)
)( g/f/)
▁e/ g/e/
▁(A Bcd)
▁(3( eg
▁|{ c'}
▁B/c/ d/
▁FE )
▁(B <A)
{d} A/
▁BdB "D"
▁c'2 a2
▁v B2
▁EC B,C
▁X:1<br>L:1/8<br>Q:1/2= 5
▁fc af
▁(a >g
▁X:1<br>L:1/8<br>Q:1/4= 2
▁||[M: 2/2][K:
▁::[K: Bb]
▁Fd cB
>d2 )
▁(gf) e
]/[ dB
▁d( g
▁|"^( C)"
▁X:1<br>L:1/16<br>M:3/4<br>K: Amin
▁dAA d
e' d'
▁e>a c>a
▁A,C EG
▁X:1<br>L:1/8<br>Q:1/2=10 0<br>M:2/2<br>K:D
▁a>gf >g
▁(d' c'
▁G,A, CD
▁X:1<br>L:1/8<br>Q:1/2=7 5<br>M:4/4<br>K:
▁X:1<br>L:1/4<br>Q:1/4= 9
em po"
' )
8 "
^ A)
_ e/
b /4
d {g}
f G
o ur
▁A {g}
▁e e/g/
▁G b
▁f =g
▁( ^d
▁( c/A/
▁( B,C)
▁D Bc
▁A2 >d2
ed >B
▁(3 afa
▁ag /e/
g/ a/g/
▁. B/
▁ef ^d
)( ed
▁A, >F
▁EF ^GA
][ EA
][ Gc
][ CE]
▁ge )
▁AD A
▁AA BA
▁efe ^c
▁a>g e>c
▁e>c B>A
▁EA GB
FF F
▁fga e
▁[E A,]
▁=c >d
0<br>M:2/2<br>K: Gmin
▁(AB) c
▁A>Bc A
▁[A, A
▁[G D]
▁ed/ d/
▁.G2 )
▁dAA F
▁d2( cB)
▁(3:2 :5
>A/ )
▁Bb fd
▁X:1<br>L:1/8<br>M:3/8<br>K: F
>e/ )
▁Aaa ^g
▁ccd d
▁"^In tro"
7 5
▁ {gf}
▁A )(
▁B fed
▁e "D7"
▁c z
▁D "C"
▁d2 fe
▁e2 ag
▁(3 CCC
▁ed =c
▁BA -
▁D2 A2
▁a2 ge
▁fd b
▁fd ^cd
FA B
<br>M: 6/4<br>K:
▁|] "A"
▁ag f2
▁X:1<br>L:1/8<br>M:4/4<br>K: Bdor
▁fg )
▁d/ >
▁FD A,D
▁c/ >d/
▁de ^c
][ Aa
▁ge '
▁gfe ^c
▁DG BA
▁(B g
▁A< dd
▁B/A/ B/d/
>! tenuto!
▁ba r
▁dAF G
dg b
▁fdf "A"
▁(T G
Ae ]2
B,/ D/
{/ b}
▁{ Bc}
>. e)
>. g)
▁C< C
▁(AB )(cA)
A/4 B/4
▁g>ab g
▁e= ce
▁"^V ariation
▁B,< G,
G,A, )
▁B2E2 A2
▁[AD, ,]
▁[M:5 /4]
. A,
/ 1
= c'
▁d ^ce
▁c G/G/
▁f z
▁F =
▁F cAF
▁( DEF
▁( g/e/)
▁( G/B/)
▁E "G"
▁E GGG
▁E ^GB
▁|" E/B"
▁f2 "G"
▁D2 B,2
▁AG GE
fd >f
▁ag d
▁= c/
▁= GF
▁df ab
▁ED B
A, }
▁GB g
▁T b2
▁c' aa
▁gd dc
▁dd d2
▁X:1<br>L:1/4<br>M: none<br>K:
▁cde "G"
▁agf "G"
▁g> ^fg
▁c>d cB
▁efe ^d
▁X:1<br>L:1/16<br>M: 2/2<br>K:
▁gec B
▁(F <D)
▁f>d c>A
▁X:1<br>L:1/16<br>M:2/4<br>K: Amin
▁c> ec>A
▁v F
▁c>e A>c
▁(D G)(
▁(a >b)
.e .e
▁([ ce
▁A^ FD
C2 O
▁(A/B/ c
▁b>g e>c
▁[Ec ]6
▁|"^( B
"^C" "C"
▁(a/g/ f/e/
▁e>cA >G
▁|{/ e}
▁(d' 2
▁e/d/c/ B/A/G/
▁X:1<br>L:1/8<br>M:3/2<br>K: G
▁B=G GB
▁A<FF >A
▁(F/G/A) F
▁"^P l
][Be ]
▁(F/E/ D)
▁J ig."
▁"_A lleg
> EF
D #"
^ D/
l "
▁A "^
▁f e/
▁c2 >c2
▁[ _
ec B
▁^ ef
▁= c'
)( DE)
▁cB ^A
GE C
▁c' c
▁"^ D"
▁FG GF
G, ][
). g2
efg }
▁A> cd
▁!fermata! C
▁X:1<br>L:1/8<br>M:6/8<br>K:G mix
"_ F
▁fdB F
▁(G ^F)
▁(3F ,
▁u c2
▁fA dA
▁B>d c>e
▁B>G E
▁EC DE
▁age ^c
▁(E <A)
▁(b 4
▁BEE c
▁e>dc >A
▁{ ef}
▁ed/ ^c/
▁=g fg
A,/ B,/
▁X:1<br>L:1/8<br>Q:1/4=9 6
▁d2( ef)
▁(GA )(Bc)
)(A d)
"^(D m)"
E/E/ E
▁[Aa ]
▁eBG E
"^1" a
][e G]
▁(^F G)
( cA)
A BA
^ B
_ Bc
a ]2
d >G
o m
z D
▁A e/f/
▁B DF
▁e ba
▁G gd
▁c "C7"
▁c {e}A
▁B2 ed
▁BA dc
d/ f/)
▁^ d/
▁. A/
▁. d'2
F" _
▁fg g
▁gf "C"
▁Bc ec
▁Ac Fc
][ fa
▁ED BA
▁T BAB
G2 G2
▁ABA "G"
▁G, >F,
▁dg dg
▁|"^ ="
▁BE G
▁EG DC
▁(d ^c
a! p!
▁ga a
▁B< EE
▁X:1<br>L:1/8<br>Q:1/8=1 20<br>M:4/4<br>K:D
▁cc ec
▁d>B "D"
▁(e ^d
▁(e ^d)
▁(G A/B/)
▁!>! a
▁F, E,
{e} d
▁(3F G
▁v G2
"^( b)"
▁X:1<br>L:1/4<br>M:4/4<br>K: Bb
>C )
▁DB, G,B,
▁F> GAB
▁[BG ,]2
▁e>g e
▁X:1<br>L:1/8<br>M:9/8<br>K: Bmin
▁"^A" "F"
▁.d 3
▁[AF ][BG]
>A2 )
▁||"^ D"
▁[ec ][dB]
▁ecc g
▁e' 3
▁e>fg >f
m/ E"
▁:|2,4 "G"
>. G)
▁(e/ g/
d/4 e/4)
▁g/e/ d/c/
▁X:1<br>L:1/4<br>Q:1/2=1 20<br>M:2/2<br>K:
▁(B/ G/)
][DB ]
2 6
= C"
D b"
D >D
^ EF
s ic
▁B (d
▁c e/g/
▁f AB
▁g e/f/g
▁( .f
BA F)
▁BA /A/
c/ d/e/
▁AG D
▁fd eB
cA ]
▁^ c)
ED F
▁= B/
▁d/ B/A/G/
▁fe ec
▁T ag
▁T E>D
▁|{ EF}
▁afd a
df ]2
▁BE EG
▁X:1<br>L:1/8<br>M:3/4<br>K: Ador
▁dd Bd
▁B,2 D2
▁B< dB
▁GG Bd
"_ *"
▁B>c BA
▁(c >e)
▁(g <b)
▁(F >G
▁AGA d
▁(G D)
▁EA Bc
▁ede a
▁v e2
▁EC EF
▁a/g/ a/b/
▁A/G/ A
▁fb f
a/f/ d/
▁EB DB
▁[ec ]4
▁e^d eg
▁X:1<br>L:1/8<br>Q:3/8=120<br>M:6/8<br>K: F
▁|1,3 "A7"
).d .e
▁P c2
▁cdB "A"
▁X:1<br>L:1/8<br>Q:1/2=1 12
▁f6 -
c/c/ c
▁X:1<br>L:1/8<br>M:2/4<br>K:A mix
<br>M:6/8<br>K: F
)(A E)
▁f( e/d/)
▁[eA ]
▁X:1<br>L:1/16<br>Q:1/4=120<br>M:2/4<br>K: G
"^(G m)"
▁!>!A 4
▁(B/A/)( G/F/)
"^4 "A
2 c
g -
i mat
▁d =B
▁F BBB
▁F cAc
▁D A,A,
▁D >A,
▁D ^CD
▁A2 {BA}
▁B2 B,2
▁f2 F2
▁BA G"C"
▁dc cA
▁dB G"D"
▁ag "D"
"^ rit."
▁GF )
▁A, A,A,
▁EF FE
▁GE B
▁GE cA
B2 B2
a/ e/
▁GB ec
▁dcB "D7"
g2 g2
▁|"^ G
▁|"^ 3"
▁gb gd
▁gd bg
▁dd cA
▁AA ce
▁g> af
▁efe "G"
▁(c >B
▁(G <E)
▁bag "D"
▁!>! G4
▁f>d e>f
G/A/ G/
▁[M: 9/8][K:
▁fA ed
▁G< GG
▁G> EF
▁edd ^c
▁e2e2 e2
▁s harp
▁f2f2 f2
▁|"^2 "
▁gef a
▁(c/ B/A/
▁A2( AB)
▁Tg >
▁(3c/ d/e/
][Af ]
).c/ .B/
( C
( eg)
F G)
e 3/2
o ."
▁f a/g/
▁d2 {ed}
▁c2 AB
▁f2 e
▁b fa
▁cA "D"
▁AG /
d/ g/
▁ag )
"^ H
"^ p
▁. d'
▁def {a}
▁Ac F
▁d/ >d/
▁FD -
▁fe ee
▁(3( GFG)
▁FE EA
d/c/ d/)
Ac ]
a2 f2
▁(B F)
▁e/f/ gf
▁Bg Bg
▁eAA g
"^( Bb)"
▁gB eg
▁(T ED)
▁(T gf)
▁EFA F
▁DA D
▁^d efg
▁(A/ F/)
▁(3(A cA)
▁(ed /c/)
▁(cd) ef
▁|]: "D"
▁(c/d/ e
▁|"_ f"
▁[B D][
▁(ec) A
oderat o"
)(g B)
▁c( B/A/)
▁B8 -
▁B^c ^d
▁|][M: 4/4][K:
▁A,< D
▁[dA ]2
"^(C 7)"
all eg
▁express ion"
- ][ee
2 -
> C/
G /4)
▁ I
▁e edB
▁c GA
▁F =EF
▁d2 c
▁B2 GA
▁e2 d
▁e2 (3
▁(3 BAF
▁D2 f2
▁E2 "G"
▁|| "A7"
B/ F#"
▁a2 aa
▁GA ce
▁|1 "C7"
▁B, 8
▁B, DE
▁= B,C
▁AB )
▁AB ^G
▁ABc "G"
▁A, >A
▁df Af
▁GE /F/
▁dg BG
{g} ec
▁ea fe
▁|"^ F
▁cc ce
CE )
▁e< E
▁e< Ac
"^( Eb)"
▁e/d/ B
▁E/F/ E
▁(a A)
▁(AG) F
▁Gg ga
{/ F}
▁Fd Ec
0<br>M:3/4<br>K: Amin
/B/ )
>B2 )
▁[AA ,,]
▁(de) fg
▁[dB ]3
er t
▁(GF) ED
c'b a)
▁A( B
▁|:"^A" "D"
"_c" c/
▁X:1<br>L:1/8<br>Q:1/2=9 6
▁gG Bd
▁[cE ][
▁[ge ][fd]
▁c/B/A/ ^G/
▁(e< a)
▁X:1<br>L:1/4<br>Q:1/4=120<br>M: 2/2<br>K:
▁Beg f
▁(f/ d/)
▁d=cA G
.d.c .B
▁G/^F/ G
▁W rit
= dc
= ce
[ FA]
▁d GAB
▁B <b
▁B G"D7"
▁G "
▁c "F"
▁c aaa
▁f fg
▁D GE
▁A2 cB
▁e2 "D7"
▁f2 ec
▁b -
▁E2 ED
▁|| "C7"
▁dc =B
cA 2
cA >c
▁Bd FA
fd ]2
B, ]3
▁fed g
▁ABc f
)( d/B/)
▁efg B
c2 c2
▁(A E)
][ ac
][ Fd]
▁! ^!
▁"^ R
▁c>d ef
^g a)
▁|[M: 7/8]
▁(g >f
▁(g 3/2
▁BB BG
▁(f >e
▁EAA ^G
▁B>G D
▁FDD e
▁AE C
▁cf ef
▁^c2 d2
▁A^ G/A/
▁A>d d
▁(e2 d2)
▁X:1<br>L:1/8<br>Q:1/4=120<br>M:4/4<br>K: Emin
▁[AA ,]2
▁ecc a
▁X:1<br>L:1/8<br>Q:1/8=16 0<br>M:6/8<br>K:Amin
▁X:1<br>L:1/16<br>Q:1/4=1 1
▁fBB a
).f .d
▁(fg a)
▁::"^ variations"
▁Tf >ed
▁|"G #m"
▁|{/ g}
▁[K:D] "D"
▁(3a ed
>v A
).d/ .c/
).f/ .e/
!< )!
▁(3(EF E)
( Bc
5 d"
E phr
b ."
c b
g >c
▁G dFd
▁c ba
▁c age
▁E >B,
▁D DF
▁A2 cd
▁B2 f2
▁f2 {e}
c/ f/
▁dc =Bc
A/ C#"
▁c/ >c/
▁fa "A"
G2 A2
▁dcB "A"
▁EG GB
▁X:1<br>L:1/8<br>Q:1/4=1 7
▁A< Ae
"_ 2"
▁"A m7"
▁C/ D/E/F/
▁dcBc dB
▁AFF c
▁X:1<br>L:1/8<br>Q:1/4=10 0<br>M:4/4<br>K:
▁Ag ec
▁P B2
▁:|2,4 "A7"
▁a) g
▁X:1<br>L:1/8<br>Q:3/8= 5
▁[cE ]3
▁.a .g
7/ B"
▁BGA ^F
▁D8 -
▁dDD F
▁cBG E
▁x 4
"^S EGUE"
▁|][K: G]
▁[GG, ]3
▁[EA ]3
][A E]
▁[DA ]3
= FD
A >E
^ A2
▁d c/A/
▁B e/d/
▁e /4f/4
▁( .g
▁E D"
▁E BAG
▁|" D/
▁D ^
▁B2 "Em"
▁e2 {GdG}
ed it
G" Bm"
C" Dm"
>B ,2
▁. B)
▁def "A"
▁AB BB
▁eg -
▁ce "D"
▁ce AB
▁c' >d'
▁FGA =c
▁gfed cB
). G2
▁X:1<br>L:1/8<br>Q:1/4=120<br>M: 9/8<br>K:
▁B> cde
▁v c2
▁v g2
▁v ariation
(3 g
.d .f
▁dfed "A"
▁fB Bd
▁X:1<br>L:1/4<br>M:4/4<br>K: Amin
▁[G, G]4
▁^g 3
▁^g 4
▁X:1<br>L:1/8<br>Q:1/8=16 0<br>M:4/4<br>K:G
▁X:1<br>L:1/8<br>Q:1/8=16 0<br>M:6/8<br>K:Emin
▁|"^( a)
"^C" "Bb"
▁db b
▁[B, E
▁[B, G]4
▁g2f2 e2d2
▁Te il
▁[Dd ]3
▁(fa) fd
{gBd} B
▁ceA g
▁e= fed
▁GC EG
▁Beg b
▁X:1<br>L:1/8<br>Q:3/8=9 0<br>M:6/8<br>K:D
▁=cBA G
▁B>cA >B
▁|"^(E m)"
5 /8<br>K:
< G2
= AB
= FE
> ED
> .A
E 3
[ ce]
{ fa}
▁ H
▁d ^f
▁B af
▁F "Em"
▁( ae
▁( G/E/)
▁D "D"
▁D B/c/
▁d2 cA
▁d2 gf
▁B2 {GdGe}
▁b BB
▁E2 "A7"
e/ g/)
▁^ ge
▁. e/
F" Dm"
▁A/ >
▁AB -
AA )
▁eg c'
▁Ac GA
▁Ac cB
▁d/ f/e/d/
▁efg "G"
▁FD AG
▁(A a)
][ FD
A, ]3
▁ge BG
▁(3( a
▁c' ge
▁f/ >g/
A2 F2
▁bg "D"
▁bg gf
e/f/ g)
▁X:1<br>L:1/8<br>Q:1/8=1 20<br>M:4/4<br>K:
▁!fermata! z
▁c< ec
▁(c /4d/4
▁EAA F
▁EC GE
▁G< d
▁(E >F
▁BcA G
f) }
▁(ed) c
▁^cd eg
▁g>d B
▁[AF ][GE]
▁[G _B
m/ Eb"
▁:|2,4 "A"
).e .f
▁X:1<br>L:1/8<br>M:12/8<br>K: Ador
Af ]
7/ E"
▁.!fermata!PMTu C2O
f/d/ f/
▁(3(f af)
"^f #"
▁!>!d 3
▁X:1<br>L:1/4<br>Q:1/8= 2
! mf!
' 2
( ge)
. f)
2 A
2 <br>M:3/4<br>K:
> c/)
d 3/2)
▁A efg
▁A 12
▁e [
▁f f/
▁F Bdf
▁a ve
▁A2 fg
▁B2 df
▁g2 >g2
▁ed d2
▁E2 EG
▁dc -
d/ A/
Bd im"
▁cd BG
▁^ CE
"^ p"
F" Bb"
)( d'
▁Ad G
▁(A FD)
][ bg
▁ecA "D"
▁G/ D/
▁GB EF
▁fa de
▁C2 A,2
▁af "G"
▁dg ^fa
▁ea 2
▁g/ f/g/
ee >f
▁e>d d
dd '
▁cc Bc
▁(f /4g/4
▁c> =Bc
▁eB Bc
▁u ce
▁X:1<br>L:1/8<br>Q:1/8= 9
▁(gf ).g
{B} AG
▁Af fe
▁X:1<br>L:1/16<br>Q:1 /2=
▁(f/g/ f)
▁^d 4
▁(A/ B/c/A/)
▁B,/ D/
▁f2e2 d2
▁:|[M: 3/4]
"G b"
▁X:1<br>L:1/8<br>Q:3/4= 90<br>M:6/4<br>K:
▁g^ f/g/
▁CB,A, G,
▁ccB B
5/ 32
▁CDF G
▁|"^f ine"
"^a ."
▁X:1<br>L:1/4<br>Q:3/4=1 20<br>M:
▁f_ edc
( {d}
( EF)
^ ge
^ G/)
f inal"
g ^f
n "
o w
{ cBA
▁A "E"
▁c EF
▁c (A
▁D AB
▁D BAG
▁e2 {f}
▁(3 G2
▁C FG
▁BG DC
d/ F/
)( B>c)
▁A, >E
▁A, ,4
▁FD )
{g f)}
][ c
▁b2 e2
▁ecA 2
B/A/ G
▁DFA D
▁dd A
▁ga e
▁d>B g>B
▁dG d
▁Be -
▁A>G E>G
▁d< a
▁BB B2
▁(f >a)
▁(T E2
C] SOSOO
▁cG e
▁=B 4
a/b/ c'/
en t
▁^GA BG
▁(. B2
▁X:1<br>L:1/8<br>Q:1/8=232<br>M:4/4<br>K: Bb
▁.g .e
▁EGE C
e/e/ e
▁(3D GB
a>g )
▁C6 -
▁DB,D G
!wedge! B
"^s ic"
▁!fermata!g 3
▁|"^c "
▁X:1<br>L:1/4<br>Q:1/4=11 5<br>M:4/4<br>K:
▁X:1<br>L:1/16<br>Q:1/8= 8
▁|:[K:C] "G7"
▁DF/G/ A
▁(Te >d)
( {a}
4 <br>K:
= D
T cA
e ."
{ G
▁ Reel."
▁B FG
▁B fB
▁g Bg
▁( ^f
▁( ^G
▁( d/B/
▁E /4
▁D >f
▁a <b
▁d2 BA
▁(3 f2
▁(3 B,B,B,
▁g2 "D7"
▁BA B2
▁D2 "G"
▁F2 GF
▁F2 DF
▁b ef
▁b >c
▁E2 "D7"
▁[ ^c
▁cA /A/
▁fd "Em"
A/ c
Bd ]
▁GA AB
▁^ d/e/
▁= eg
▁eg "D"
)( ab)
▁(A e)
▁ecA a
B/c/ d/B/)
c' ]
B/A/ F/
▁"^ p"
BB B)
▁DF FE
▁c>d c>A
▁dG BA
▁(F G
▁BGE d
▁a>g a>b
▁f< de
▁^c >A
▁ae ae
▁A3/2 {d}c/
▁G>B ,
▁G>B E
▁efd A
"^B" "G"
▁||[M: 6/8][K:
▁d>A F
st it
▁=g fe
▁gA f
C# dim"
^C )
▁[CE ]4
7/ G#"
▁CA, CE
^F/ )
▁Td >c
▁(A< G)
ll "
][D A
▁(ge )(dB)
▁:|[M: 6/8][K:
▁(F/G/ A
▁[BE ]
▁X:1<br>L:1/16<br>M:3/8<br>K: C
▁X:1<br>L:1/4<br>Q:1/2=10 0<br>M:3/2<br>K:
/4=10 0]
▁1 st
▁!fermata!D 4
][Q:1 /4=
▁X:1<br>L:1/4<br>Q:1/2= 8
▁A/^G/ A
▁(3G, A,B,
__ __
▁ec/d/ e
{g}c/ {d}A3/2
ter nat
ub stit
][dA ]
/ C/
2 e
8 v
B >
I D
[ GG,]
^ d/)
a /4)
u E
▁d _
▁B (3
▁G ^G
▁d2 fa
▁c2 "Bb"
▁(3 ^cde
▁D2 "A7"
▁F2 F
▁[ EE
▁cA ^G
▁fd /d/
A/ c/)
▁Bd D
▁Bd ^cd
"^ f"
▁. f/
▁B/ e/
▁Bcd "C"
"G" _
▁dBA F"D"
▁(3( EDE)
▁|"B b
▁edc "E7"
). c2
▁EG C
▁EG DF
▁d>c B>d
▁A< AA
▁(g ab)
▁^F GAB
tr ag
▁dfed "G"
▁gB e
▁X:1<br>L:1/4<br>M:3/4<br>K: Dmin
▁(T f>e)
▁X:1<br>L:1/8<br>M:9/8<br>K: F
▁^d >e
▁^f >g
▁e>A c>e
0<br>M:3/4<br>K: Dmin
▁Aa ^ga
▁(cd) cB
▁g) e
▁X:1<br>L:1/8<br>Q:3/8=120<br>M:6/8<br>K: Bb
▁ADD A
▁aec a
▁P g2
▁cg Bg
▁(e/ c/)
▁A^GA c
▁c/e/ d/c/
▁f>ef <a
=B/ ^c/
▁.E 3
▁d>fe >g
▁D>FA >B
0<br>M:4/4<br>K:A b
▁!fermata!A 3
▁Ddd ^c
▁X:1<br>L:1/16<br>M:3/8<br>K: D
▁!fermata!e 3
▁[EC ]3
.D.D. D
! plus!
" F#
= A/
^ d/e/
^ de)
a ]
n d"
n pi
v A
▁ {gfg}
▁A f/e/
▁A "Bm"
▁A EEE
▁B ece
▁e Bde
▁e bgb
▁f "Em"
▁g GB
▁D gfe
▁d2 AG
▁c2 ed
▁g2 {f}
▁g2 c'2
▁Bd F
▁AF BG
F/ G/A/
)( e>f)
▁FD d
▁c/ a/
▁(A >G
GG )
▁e>d cB
▁FED ^C
"_ S
▁ba af
▁bag 2
▁!>! a4
▁F, <
▁v f2
▁u G2
▁F>A d>e
▁G< GB
▁(T F
▁(T BAB)
▁eag b
▁Aa fd
▁.e .c
AD ,]
▁{ cd}
▁e^d ec
▁B,4 -
m/ A"
▁|1,3 "A"
▁Dd cd
en !
▁X:1<br>L:1/8<br>Q:1/8=232<br>M:4/4<br>K: C
▁X:1<br>L:1/8<br>Q:1/8=232<br>M:4/4<br>K: Amin
▁X:1<br>L:1/8<br>Q:1/2=10 0<br>M:4/4<br>K:D
▁X:1<br>L:1/8<br>Q:1/4=120<br>M:6/8<br>K: A
▁dfg f
d/4 e/4
ten "
!wedge! d
▁bB aB
"^s hake"
▁ga/g/ f/e/
▁X:1<br>L:1/4<br>M:6/4<br>K: F
▁[BE ]2
D.S ."
<br>M:3/8<br>K: G
[A D]
▁G>ED >E
op en!
▁|[ M:1
▁(D/E/F/ G/)
▁"^Tender ly"
/1 <br>K:
. B,
8 <br>M:4/4<br>K:
T BA
b d'
d ed
▁f eg
▁F ^G
▁F F/E/
▁( _B
▁c2 "D7"
▁(3 ^d
▁(3 GFG)
▁BA dF
▁D2 >D2
▁b ^g
▁[ fc
▁cA a
▁:|2 "Cm"
▁cd )
F" Bm"
▁= Bcd
▁A, DE
▁Bcd "A7"
▁c/ d/e/d/
d2 d2
▁GE =C
▁(A GA)
▁! 3!
▁c' afa
▁af )
▁"^ with
▁|"^ p"
▁G>A BB
▁gd BA
▁agf "A"
▁D/ )
▁dG GA
{d} cA
▁(g c)
▁c>A "G"
▁d< BG
▁e> Bc
▁a>g a>e
▁F, G,
▁X:1<br>L:1/16<br>M:2/4<br>K: Dmin
▁ede ^f
▁ee '
▁DC A,C
▁G< D
▁X:1<br>L:1/4<br>M:4/4<br>K: Dmin
▁(Bc) d
▁(Bc) dB
▁B,D A,D
▁ecd f
▁|:"^ A
g/a/ b
▁gfd g
Be B
▁(F/ A/)
▁[G, E
▁|:[K: Bb]"Bb"
▁|"D b/Ab"
▁EGB E
▁A,B, CE
▁f/e/d/c/ B/A/
▁D>G G
▁f2a2 f2
▁X:1<br>L:1/8<br>Q:3/8=10 0<br>M:6/8<br>K:C
▁^cA G
"D #dim"
▁(c/B/) A
▁(AB ).c
▁(de )(fg)
!wedge! c
▁A= FF
▁g2( fe)
▁G/A/B/ d/
.. ."
▁d>cA >F
qu 's"
▁|"A/ C#"
▁c/d/c/ d/
langs am"
( Bd)
, /
< c2
< a2
G mix
[ F
^ f}
c -
▁e "E7"
▁c ge
▁f {f}
▁g BG
▁F "D"
▁F FD
▁BA Ae
ED B,
"^ \
▁. f)
▁AB e
)( de
▁Ad -
▁Bcd G
dB ]
▁de )
▁ED ED
▁G, )
f/e/ d/c/
▁d> (
▁dcBA "G"
▁ab f
▁B,2 )
▁ga eg
E2 F2
(3 gfe
▁F>A d
▁A) G
▁(T F2
▁(T fe)
▁D>E G>A
▁aA aA
▁.d .f
▁g< B
0<br>M:3/4<br>K: Emin
▁[G C,]
▁[G c]
▁a>b c'
▁|"^( b)"
c/e/ c/
▁.G2 .B2
▁[e C,,]
▁f>f f
Ec ]2
▁^A 3
▁C>D E>F
▁(e/f/) g
<br>M:2/2<br>K: A
▁X:1<br>L:1/8<br>M:9/8<br>K:D mix
▁|{/ c}
▁A2B2 c2
▁_e 3
▁AEE A
▁[EA ]4
ain "
▁!fermata!E 4
▁|"^3 7"
{gcd}c {e}A
. E/
2 B
4 <br>M:4/4<br>K:
5 5/64
: M
= GA
B ^G
[ B
_ G
a i
u m
z z
▁d "E7"
▁e "Bm"
▁e ede
▁g df
▁F "C7"
▁d2 dA
▁G2 "A"
▁c2 d
▁c2 ef
▁(3 cd
▁z /4
▁g2 gb
▁ed "A7"
▁ed dg
G" Bb"
▁BA ce
▁F2 Ac
▁|| "Bm"
▁fd Ac
▁Bd FB
▁FA EG
▁ef )
▁Bc ^cd
▁(A GF)
][ GA]
GE ]
▁T cB
▁fa ce
▁af ab
▁G, 8
▁G, CEC
▁gfg "D"
GG ,
▁|"^ ~"
▁AA d
▁B< =G
▁cc c2
▁(g a/b/)
▁(e >f
▁fedc "G"
▁ba a^g
▁f>d "A7"
▁f>g fd
▁EA ^G
▁u D2
▁B>G d>B
▁[D B,]
▁AE cA
▁B) c
▁AFF B
▁(ed B)
{gef} e2
▁(GA) Bc
▁ecc f
▁|:[K: A]
▁=g edB
▁||[K: Bb]
▁.G .A
▁E>A A
).B .c
{gcd} ce
▁X:1<br>L:1/8<br>Q:1/2=9 0<br>M:2/2<br>K:C
▁g>fg a
B/4 A/4
▁|[K: F]
][D d
▁dd/e/ f
▁X:1<br>L:1/8<br>Q:1/2=6 0<br>M:2/2<br>K:G
▁X:1<br>L:1/4<br>Q:1/4= 2
"_f ine"
▁(B>A G)
▁(3.A .c.A
:2: 6
▁(3FG ^G
. E)
= ed
F ,2
G C
I =
I :M
r am
z E
▁ L
▁d B/
▁G G/
▁G GE
▁G "Am"
▁G 12
▁c fg
▁c e/d/
▁g >c'
▁g BgB
▁F edc
▁( efg
▁( =c
▁E =F
▁E gfe
▁a df
▁d2 {gdc}
▁c2 {g}
▁(3 ^g
▁(3 fdB
▁BA G"D7"
▁dB G"C"
cd 2
▁BG /G/
▁Bd fg
▁Bd eB
▁AF FG
▁:|2 [K:
▁B3 "A"
"^ NB2"
▁. G)
)( ag
GF ED
▁GE FA
][ gB]
▁GB "D7"
▁af ff
▁|{ DE}
▁|{ GdG}
▁G, G,G,
▁dg dc
▁"^ alleg
▁ged ^c
▁eA gA
▁|"^ NB1"
▁g/ f/g/e/
dd )
▁AFA "G"
▁ga )
B) "
▁c>A G
D2 D2
▁F, ,2
▁f>g e
▁X:1<br>L:1/16<br>M:2/4<br>K: Emin
▁f< ac
▁c> BAG
▁u E2
▁fA f
▁GD BG
(3 FED
▁[E G,]2
▁DC DF
▁FF E
▁d>f A>f
▁X:1<br>L:1/4<br>M:4/4<br>K: Eb
▁(a fd)
▁aA cA
▁.d 4
▁d>g b>g
▁FAd ^c
>f2 )
▁A,3 -
▁d2B2 G2
c/A/ c/
▁[e C,]
▁[GE ][FD]
▁[dF ]4
▁EGG c
[Q:1/8=1 50]
▁p rog
F,/ F,/
▁B,< E
▁g^ fge
▁||[K:G] "G"
▁F>EF >G
.B.B .B
"^(B 7)"
▁X:1<br>L:1/16<br>Q:3/8= 5
rog :
ID I=
I:M IDI=
▁prog ram
D 3
[ sic
_ B2
_ B)
c >F
u G
▁ 3
▁A "Gm"
▁G "A7"
▁G D/G/
▁( .a
▁a "G"
▁c2 "F"
▁e2 "E7"
▁g2 ef
Bc 2
▁b BAB
▁|"D" {c}
▁^ gf
▁^ g/a/
"^ 1)"
▁eg af
)( bg)
▁Ad dg
▁Ac fA
▁c' >e
▁f/ a/g/f/
▁|{ FG}
▁|"^ bar
▁dcBA GF
▁gb d
▁d/c/ A
▁A> C
▁f>d a>d
▁Bg gg
▁B> ^c
▁B>d B
{a} f
▁gB BA
▁gB eB
▁dfd "A"
▁(D FA)
▁Af cA
{f} g
▁deg b
▁dF BF
▁(a ^g)
▁dBAB "G"
▁aA fA
▁d>ed A
▁D/D/ DD
▁||[M: 6/8]
▁A>d f>a
^fg a
▁ca Ba
▁(c2 B2)
▁[cA ]4
▁X:1<br>L:1/8<br>Q:1/4=10 0<br>M:3/4<br>K:G
▁f>a d>f
A/A/ A/
▁{ AB}
!p! !p!
▁b>g e>g
▁[B D]4
▁a) f
▁B/A/G/F/ E/D/
EC )
▁:|"^ 2"
▁:|"^ last
▁X:1<br>L:1/8<br>Q:3/8= 7
▁(cd )(ef)
▁G>c E>c
▁(d< c)
▁(c/ B/c/d/)
▁G>D G>B
▁c/A/ B/c/
{ag} a2
▁|{/ A}
▁d= fed
▁(BA)( Bc)
).a .g
=B/ )
ch ne
▁::[M: 6/8]
▁F/G/A/ c/
▁X:1<br>L:1/8<br>Q:3/4= 5
▁X:1<br>L:1/8<br>Q:3/8=8 0<br>M:6/8<br>K:G
▁f^ dB
▁AAB B
▁[GG, ,]2
"^3" c'
▁a^ fge
.c.c .c
▁X:1<br>L:1/4<br>M:4/2<br>K: G
.g.g .g
▁E= CE
▁(e/f/g ).e
▁(6 :2:6
trag en"
! 4!
. D2
7 b
D >A
F f
I N
[ FA
b A
▁e c/c/
▁c GF
▁c GAB
▁g BBB
▁( f/d/
▁E ^C
▁D a
▁G2 >E2
▁z !D.C.!
▁D2 c2
▁AG A"G"
BG 2
EF D
B, G
▁= B,2
▁Ac a
▁FD GD
][ FB
▁ge =c
▁fa {b}
▁DE )
▁afd "A"
▁gb /a/
▁X:1<br>L:1/8<br>M:3/4<br>K: E
▁dd dc
▁g> bg
▁(3d fe
▁D/ >E/
▁f>g f>d
▁c> Bcd
▁u B2
▁eAA a
▁CE A,C
=c ^c
▁Gc Bd
▁=c Bcd
]/ )
▁(D B,)
{f} ed
▁^c2 A2
▁DA Bc
▁G) A
▁cG GA
▁[cA ][dB]
▁X:1<br>L:1/4<br>Q:1/4=1 5
▁.c .B.A
▁.B .d
▁(BA ).G
▁EDC A,
▁e' 4
▁ced e
(g {a}
▁[df ][df]
▁X:1<br>L:1/16<br>M:3/4<br>K: Bb
A,/ A,/
▁|"^1 )"
▁ecBc "A"
▁(cB )(
f/4 g/4
▁(3(f ef)
▁X:1<br>L:1/8<br>Q:1/4=11 5<br>M:4/4<br>K:
NB 3"
▁X:1<br>L:1/4<br>M:6/4<br>K: C
▁::[K:D] "D"
▁X:1<br>L:1/16<br>Q:1/4=120<br>M:2/4<br>K: D
▁d>ec >d
( B/c/)
/ b/
= BA
D c
c o"
d 3
u F
v "
▁A /4
▁B2 (3
▁:| "F"
▁c2 "G7"
▁dc "D"
▁cA af
▁AG GB
Bd >f
▁Bd fe
▁FA cd
▁. A,
▁fg d
▁def "Em"
▁AB "C"
][ Bg]
▁ecA "G"
▁GB DB
▁|{ C}
{g} A>B
▁BE BE
▁DG GE
a2 a2
▁(3d BA
▁(G >E)
▁!>! c'2
▁BcdB "D"
▁f< ag
▁f/e/ d/^c/
▁A>F E>D
tr eb
▁fB aB
▁(dc) Bc
{f} e
▁X:1<br>L:1/8<br>M:2/4<br>K:D mix
▁(AB) AF
▁B,D GF
0<br>M:3/4<br>K: Bb
>e2 )
.g .e
▁X:1<br>L:1/8<br>Q:1/4=120<br>M:4/4<br>K: Gmin
]/[ fd
]/[ cE
▁{ de}
▁[dB ]4
▁g2g2 g2
▁c'b ab
▁.g .f
▁:|"^ 9"
▁(Bc )(de)
▁(ef e)
DB ]
)(d F)
▁[FD ]3
▁c>de >g
▁X:1<br>L:1/8<br>Q:1/4=120<br>M:6/8<br>K: C
▁(3(F GF)
▁(dc)( de)
▁d>BA F
)(A >B)
d/4 c/4
▁(cA )(GF)
▁[gB ]4
▁(e/d/) c/B/
▁c/B/c/d/ e/f/
▁var .
▁e/d/c/ A/
▁A>a a
▁X:1<br>L:1/4<br>M:3/2<br>K: D
▁.D 3
▁B>GA >B
▁!slide![ee ]2
▁FdF d
▁[bd ]2
ubstit ut
A d}
^ f/e/
^ F/G/
g 3
▁d {g}
▁B B,B,
▁e c/
▁c "E"
▁c aea
▁( P
▁a eee
▁G2 G
▁B2 "E7"
▁e2 d^c
▁[ BA
▁cA "E7"
▁cA =F
▁AG F"Em"
▁C >c
ag ^f
A" Am"
▁AF -
B, >C
▁= cc
▁cBA E
▁c/ G/
▁(3( BBB)
▁T G4
▁c' >g
▁gfg "C"
▁a3 )
Ac ]2
▁A> ^F
▁GG G2
▁!fermata! a
▁(B E
▁A< FE
▁cAF c
▁d>B "A"
▁d>e {g}
▁d' f
▁(c a)
▁(g ^f)
▁(F GA)
▁BB g
▁e/f/ )
▁e>c B>c
▁(Bc) BA
ff !
▁d'2 c'2
▁(b ag)
▁(b c')
▁||"^ last
▁[d D,
▁P d2
e' c'
[Q:1 /4=
).A .A
▁X:1<br>L:1/8<br>Q:1/4=120<br>M:6/8<br>K: Gmin
▁f>A e>A
▁X:1<br>L:1/8<br>Q:1/8=128<br>M:4/4<br>K: C
7/ G"
▁(d/ ^c/
▁(d/ f/)
▁X:1<br>L:1/8<br>Q:1/2=8 0<br>M:4/4<br>K:D
▁A2F2 F2
▁|{/ B}
▁X:1<br>L:1/8<br>Q:3/8=11 0<br>M:6/8<br>K:C
▁(ge )(dc)
▁abc' d'
▁A,G, A,B,
▁a^ gf
[D A]
▁(DE )(FG)
▁X:1<br>L:1/4<br>M:4/2<br>K: F
▁G,C EG
{A dB}
iv e"
{b a}
C#/ A"
/ d'/
= G/
A >A
T c
v d
▁ li
▁d g/a/
▁B {B}
▁c gf
▁f Bd
▁F =E
▁a de
▁d2 {d}
▁d2 d^c
▁(3 age
▁BA "D"
▁E2 >g2
▁" _B
▁Bd "D7"
fd A
▁B/ =c/
)( e/f/)
eg }
▁c/ B/c/A/
▁ge ^ce
▁G/ B/d/
▁(3( c/
▁fa Ac
G2 F2
▁af "A"
▁bg gg
▁|"^ C"
). A2
e/f/ d/
▁ab c'b
▁AD DF
f/g/ a/f/)
▁(B {cB}
▁d' )
{d} ce
▁(e <d)
▁(e >g)
▁c>A A>c
▁F, D,
▁(f >
▁EA cB
▁a> =g
(3 BBB
"^( b)
{a} ed
▁fgaf "A"
=c E
0<br>M:2/4<br>K: Amin
▁e) c
▁(AB) AG
▁X:1<br>L:1/8<br>M:9/8<br>K: Amin
▁ca fd
▁d>A F>D
▁(b agf)
▁fb fd
▁[c G]
EA ]2
▁|"^( G
▁A( G
▁(. e2
▁c'b c'
▁X:1<br>L:1/8<br>Q:1/8=128<br>M:4/4<br>K: Bb
)(g d)
▁d2e2 f2
▁X:1<br>L:1/16<br>M:4/4<br>K: A
▁a>A a
▁(B/A/ G)
▁(FD) FA
▁(f/e/) d/c/
▁X:1<br>L:1/8<br>Q:1/2=6 0<br>M:2/2<br>K:D
"G #7"
A/F/ )
▁X:1<br>L:1/4<br>Q:3/4= 80<br>M:6/4<br>K:
▁DAA G
▁[Be ]
▁eed d
▁X:1<br>L:1/4<br>M:2/4<br>K: D
▁A,DD C
"_g" g
][ee ]
▁fcd f
Q:3/8=1 20]
"^(C m)"
▁g/^f/ g
▁D/E/F/ D/
).B/ .A/
[sic ]"
" "^
= FG
= B,C
b >e
c >E
▁d GA
▁d "_c"c
▁A G"C"
▁B Bcd
▁e g/f/
▁G a
▁G (3
▁G "G7"
▁E ^FG
▁|" C/E"
▁a Ac
▁A2 B
▁G2 ce
▁G2 {B}
▁c2 AA
▁(3 FDF
▁(3 .g.f.e
▁g2 dB
▁BG G2
▁cd =e
▁z2 !D.C.!
"^ :
▁. c/
▁fed d
▁B/ >B/
)( [
▁FD G
▁e/ a/
][ dF]
▁G, ,4
▁"^ p
▁B/c/ )
▁g/ >f/
▁(d cd
▁d/c/ B/
▁DEF B
▁B< dc
▁Be eg
▁gec G
A/B/ G/
▁(G >F
▁GFE C
▁^c 6
▁u F2
(3 DDD
(3 dcB
▁DC B,D
▁GBA G"D"
▁(D >F)
▁E< AA>B
▁dfa d'
▁DGG F"G"
▁(a ^g
▁(AG) FE
▁dfaf "A"
▁f) e
▁BEE d
▁[ec ][ec]
▁[dB ][cA
▁[dB ][ec]
▁ceg c'
▁ADD B
▁(3f (ed)
>. a)
▁(. f2
▁.G 4
▁(^ fg)
▁(^ GA)
▁(Bc de)
▁(e/ g/)
▁CA, C
▁Tf 3/2
▁(DF )(AF)
<br>M:2/2<br>K: C
▁.F .A
▁a/b/ a
▁a/b/ a/f/
▁EFD B,
▁g/e/ c/e/
▁X:1<br>L:1/4<br>Q:1/2=1 12
▁G,A, B,C
▁(3a ^ga
▁[F c
▁dAB F
▁A>g f>e
▁BFF B
▁!slide![ee ]4
▁ddc c
▁"^B risk"
▁|! >(!
▁[FB ]
▁([de -]
▁|:"_ Slow"
ful ly"
ott ed
( {e}
= e2
A F"G"
B >E
D 4
a ce
f 3
▁A fec
▁B _B
▁B d/d/
▁e f/
▁G B/
▁G "Em"
▁G B/B/
<br> M:1
▁f f/a/
▁g e/f/
▁( f/a/)
▁( C/D/)
▁A2 "Gm"
▁(3 DE
▁b y
▁b ^a
▁E2 EE
▁dc cd
▁fd AB
▁Bd d2
0<br>M: 9/4<br>K:
▁cBA g
)( dg)
▁ge Bg
▁ecA E
▁dBG g
▁afd '
▁e>d e>g
▁X:1<br>L:1/8<br>M:2/2<br>K: E
▁(d cA
▁G>A Bd
▁cBc "D7"
▁d>B g>e
▁a/ e/
▁d' afa
▁B/A/ G/E/
▁(G ^F
▁f>d B>d
▁f>g fe
▁^F >G
"^B" "C"
0<br>M:2/2<br>K: Dmin
▁B) G
{G} F
BE ]
>A2 "
▁g>fe >c
▁fdc f
▁Bed e
▁a< c
▁"_ Key
▁G>AG >F
▁be ed
▁Dd AF
▁.A2 (
▁[fd ]3
▁.G .G
).B .G
{gf} g
▁:|[K: C]"C"
▁D>D D
▁[GE ]3
▁(d/c/) B/A/
▁^fg ag
▁DDD 2
▁eE EF
▁(ba) gf
▁::[M: 6/8][K:
▁X:1<br>L:1/4<br>M:3/2<br>K: F
{^ f}
▁A/G/F/ A/
▁TB>A B
▁=cd ef
[A, E]
▁(3e/ f/e/
( e/
- B
/ /!
< A/
^ GA)
n o
▁ or
▁A b
▁A (3
▁A A,A,
▁e efe
▁e bag
▁e =cA
▁G "A"
▁G (F
▁c >D
▁c {dc}
▁f =f
▁D "G"
▁A2 "E"
▁(3 GA
▁(3 ^F
▁(3 EDE)
▁g2 fd
▁f2 "C"
ef r
▁D2 "D"
▁E2 GB
▁cA ae
▁AG /E/
/2 =1
FA ,
▁GA cG
▁Bd GA
▁d3 "C"
▁|] "B"
"^ ,"
▁. v
▁fed "Em"
▁def c
▁Ad ^ce
▁Ac =fc
▁d/ =c/
▁c/ >
▁GE -
][ CE
][ Bg
A, ]4
▁(3( fd
▁T c>A
▁dg {a}gf
▁"^ in
▁"^ last
). d'
▁e>d "A7"
▁(d b)
▁cAF E
▁cc cB
b/ g/)
{d} cB
▁ba =g
▁fef "G"
▁f> ag
▁v [
▁[E C][
▁EC DB,
▁Gc cd
fed B
▁F/G/ F
▁E, G,
▁c) B
▁c) d
▁(ed) Bd
▁[BG ,,]2
F, ,
▁(AB) cA
▁d'2 d'2
▁Gd G
▁[A, F]
▁X:1<br>L:1/4<br>Q:1/4=1 20<br>M:4/4<br>K:G
{gef} ed
▁F>D D
▁X:1<br>L:1/8<br>Q:1/8=16 0<br>M:9/8<br>K:G
▁d^c ed
▁=cA GB
▁.f .a
▁s low"
▁(cB )(cd)
.F .G
▁X:1<br>L:1/4<br>M:2/2<br>K: A
▁^fg a
▁bc' d'b
[Q:1/8=1 20]
e/4 d/4
E>D )
▁X:1<br>L:1/16<br>M:2/4<br>K:A mix
ig h
▁ceA a
"^/ D"
>v B
▁[af ]
▁"^s implified
▁A,B,C A,
▁G/^F/ G/A/
▁D^C DE
▁e/^d/ e
▁D<GG >A
▁(c/e/ )
( df)
( AF)
) E
< d/
T B
V ar
X "
c 4
f >c
p p!
▁A ge
▁e c/B/
▁G fed
▁G GAG
▁c "C"
▁f _e
▁( C/
▁G2 "Dm"
▁e2 "Dm"
▁(3 AF
▁g2 "G"
▁f2 {a}
▁ed "D"
▁dc d2
▁dc c2
▁|] "Am"
▁cd fa
"^ L
"^ version
▁Ad BG
▁Ac fg
▁Ac ce
▁EF G2
b" _
b" A"
][ Ec
▁ge -
▁fa d'
▁c' b/a/
▁G, >G
▁"^ 2"
▁eA ed
). A/
▁dcBA "E7"
or e
▁g> aba
▁(B <g)
▁BGG e
▁gec "D"
▁e< gf
▁e< ae
▁f< dc
▁f/e/ d/
▁CE GB
E/F/ E/
▁=c EE
▁(dc) de
▁dF Bd
▁cAc f
Edor ]
▁(f/g/ f/e/)
▁|:"^ Reel."
▁B>cd >c
▁(A/ G/F/E/)
▁E>G E
▁d( c
▁b4 -
▁[c G]2
▁(d/e/ d/c/)
▁.A .F
▁X:1<br>L:1/8<br>Q:1/8=16 0<br>M:9/8<br>K:D
▁d^c BA
▁a< a
C, C,
M:12 /8]
▁dec B
▁:|[K: F]
▁(e/d/ ).c/.B/
▁F>GA >c
G/B/ G/
▁(ed)( dc)
▁c'/ c'/
▁(AB )(AG)
▁(e< f)
▁F2F2 F2
>v d
▁(3c/ d/c/
[GB] G
▁d<Bg >B
▁e/g/e/ c/
( dB)
. b2
E g
d cd
p rog:
u nd
▁e bg
▁e (A
▁G ec
▁G c/B/
▁c GAG
▁F A/A/
▁( B,/C/
▁D /4
▁D cc
▁D DEF
▁d2 {f}
▁d2 Ad
▁A2 df
▁A2 "Em"
▁G2 A
▁c2 {dc}
▁e2 cd
ed cB
▁(3 cAG
▁ed dA
▁ed =cB
G" C7"
D" Bm"
▁cA eg
▁AG ^FG
▁GA _B
▁cd BA
F" Eb"
▁ec -
▁= "
▁cBA BcA
▁A, ,3
▁(A >d)
▁ge b
▁GB FA
▁(3( v
▁(3( FA
▁T a3
▁C2 DE
▁c' e'
). e2
▁E/ A/
▁_ a2
▁dG GB
▁AGE ^F
▁(e 6
▁(G Bd)
]3 )
▁f>d A>d
▁ff fe
▁F< f
cE c
▁[BG ]2[
▁[FA ][FA]
▁::[K: Bb]"Bb"
▁g>d g
▁gfef ge
▁cBAc "G"
▁d^c =c
▁|"D #m"
▁||[K: A]
▁"^S pirited"
al z
▁(a/g/ )(f/e/)
>. F)
▁(. A2
).e .d
▁.g .f.e
▁:|"^ 3"
).A .B
▁X:1<br>L:1/8<br>M:12/8<br>K: A
>u f
▁.a .a
▁[C c
{Gdc} d2
{Gdc} d>e
▁d2( cd)
▁[Af ]4
▁|{/ f}
A/4 B/4)
▁::[K:G] "D7"
▁X:1<br>L:1/8<br>Q:3/4= 6
▁^fd cA
]"^ prog:
▁Eee ^d
{g}f <a
▁dde e
▁(d> ed)
▁|:[K:D] "D"
▁a=g fe
▁sig .
▁(3ef ^g
"E/ G#"
▁|"^(B m)"
▁"_Alleg ro"
( FE)
( ba)
/ [
2 <br>M:4/4<br>K:
= d/
= F)
E B,
^ f/g/)
▁ {gBd}
▁ Key
▁A zA
▁A {BA}
▁B G"C"
▁B B/G/
▁E BG
▁D d/c/
▁A2 GE
▁A2 "Bm"
▁A2 A,2
▁B2 {B}
▁c2 {B}
▁(3 de
▁g2 ab
▁|| {g}
▁Bd )
▁|1 "Cm"
"^ qu"
▁B/ d/B/G/
▁gf "A7"
)( a/g/)
▁Bcd "D"
dB ]2
▁(A g)
][ EB
dc '
▁b2 f2
▁! 2!
{g} e>f
▁ded cBA
▁ea fd
▁FG )
▁(d ed)
▁(d efg)
▁BAB "D"
▁DF FF
▁ABd g
▁_ B/
▁A< A,
"_ p"
▁efge "G"
▁a/ f/e/d/
▁f/g/ a/
▁A/B/ AG
▁F, ,
▁(f b)
▁faf c
▁FEF B
▁ABde "D"
▁(D <G)
▁AcBA "G"
▁([ AF
▁([ G,
▁[FA ,]2
▁aba ^g
▁d>ef >a
>B, )
▁=f efg
▁(ed e)
D, D,
▁.f .g
▁(3c eg
▁(. E
▁A<A eA
▁A2G2 G2
▁(fe )(dB)
▁(3G ce
▁E/D/ C
▁EDB, G,
G"^ 4"
▁f>B B
▁G2( AB)
▁g/f/e/ ^d/
{g}A 3/2{d}c/
▁e^ d/e/
▁|:[K:G] "D7"
.. ..
▁.d2( de)
▁(3c/ B/A/
▁g>A f>A
▁f^g af
▁[Bb ]2
▁re peat
).g/ .f/
" F/A"
> =c
B ).B
B <A
C >A,
G <B
T ed
[ G
c <a
f >B
▁A {A}
▁G _A
▁f ^ga
▁f f/d/
▁F ff
▁E a
▁d2 e
▁d2 "E7"
▁A2 {d}
▁G2 GE
▁B2 a2
▁c2 {c}
▁e2 {e}
▁D2 GA
fg a)
A/ E"
▁GA d
▁cd -
▁ag /
g/ d/
▁. B,
B, >A,
F" D7"
▁= ec
▁ef ff
▁ce Af
▁cB GA
▁de BA
E/ A/
A, ,]
▁C2 D2
▁! //!
f2 a2
▁G, G
▁dg {a}
▁AFD 2
▁dcB ^A
ab c')
▁"^ NB"
▁ea -
▁edc G
▁X:1<br>L:1/8<br>M:3/4<br>K: Edor
agf }
▁_ ED
▁!fermata! z2
▁D/ >D/
▁B/A/ G/^F/
0<br>M:4/4<br>K: Ador
▁(g 6
▁c>A e>A
▁e> ag
▁ABcd ef
▁!>! b4
▁u a2
▁gg fe
▁A>F d>B
b2 a2
▁A) B
▁[D G,]2
▁(B/c/ B/A/)
▁d) f
▁cdec "D"
▁dF d
▁aA eA
▁D/D/ D/D/
▁E>D EF
▁=f >g
▁Ae eg
▁X:1<br>L:1/8<br>Q:1/4=10 0<br>M:4/4<br>K:C
▁X:1<br>L:1/8<br>Q:1/4=120<br>M:4/4<br>K: Dmin
(d cB)
▁[ce ][ce]
]/[ GE
(A Bc)
▁DB D
▁.e2 .e2
▁Dd dB
▁s low
▁(Bc B)
▁(e/ c/
▁g>g g
▁ef/e/ d
▁B>e e
>u G
▁(3(F EF)
▁d>G B>d
{d}A {g}
▁X:1<br>L:1/8<br>Q:1/8=15 0<br>M:4/4<br>K:D
▁E8 -
▁Aag e
▁B/G/ B/d/
▁S low"
▁|[M:2/2][K: A]SOSOO
▁X:1<br>L:1/4<br>Q:1/4= 8
▁(B<d) d
▁c'/b/ a
F#/ D"
▁(3A/ B/A/
oc al"
▁(cB).A .G
treb l
' ]2
( f/g/)
1 5
3 3"
= BG
= ga
g ec
n imat
x "
▁d [
▁A "^/"
▁B efe
▁G CEC
▁c EG
▁c (3
▁c /4d/4
▁( !tenuto!
▁D "D7"
▁d2 FG
▁g2 {g}
▁g2 "C"
▁f2 dB
▁a2 fg
▁a2 "A"
>A ,2
▁GA =B
▁^ f)
"^ l
▁= B)
▁A/ F/A/
▁ef c
▁eg "G"
)( =
][ eA]
▁(3( DDD
▁gfe B
▁AFD C
GG G)
). B2
▁(d F)
▁AD FG
▁edcB "A7"
▁dd df
▁A> (B
▁A,2 A,2
▁A< aa>g
▁B>c e
d/e/ d/)
▁(c f
▁(c E)
▁"A b/Eb"
▁(F ED)
▁(3g (ag)
▁EA -
▁ede "D"
▁B> ^d
▁A>F E>F
▁B>G D>G
▁A) F
▁[D G]
▁(B/c/ d/e/)
▁DD FA
▁dfd c
▁dBB a
▁e>g c>e
▁([ G-
▁ecd A
▁X:1<br>L:1/8<br>M:9/8<br>K: Amix
▁aa af
▁.d2 .d2
▁[cA ][BG
B>G )
▁Adc "D"
▁P f2
▁A,B, DF
▁!slide! B2
▁d2c2 B2
).B .d
wedge !f
▁gG GA
▁(dc)( cB)
▁A2c2 A2
▁(dB ).G
F/E/ D
▁Tf >g
▁X:1<br>L:1/16<br>M:4/4<br>K: F
▁(DF) AF
▁(ag)( gf)
▁!fermata!G 6
▁FDC F
▁f2( ed)
▁dGB g
▁E>FG >E
▁[ac ]
ol o"
▁X:1<br>L:1/8<br>Q:1/8=30 0<br>M:6/8<br>K:D
▁!>!e 3
▁X:1<br>L:1/16<br>Q:1/4=9 0<br>M:2/4<br>K:G
▁[bd ]
▁X:1<br>L:1/8<br>Q:1/8=11 0<br>M:6/8<br>K:G
▁X:1<br>L:1/8<br>Q:1/8=320<br>M:6/8<br>K: D
▁G^ F/G/
zz ."
▁(3(DDD )
( A,
D >B
T d
_ D
_ ba
c ."
e tt
▁| O
▁d B/B/
▁c fd
▁E edc
▁D "A7"
▁a z
▁a dgd
▁c2 "C7"
▁(3 BG
▁(3 c'
▁ed gf
▁b >d'
▁E2 E
c/ a/
▁cA EF
C" ^
▁GA ,
▁G3 "D"
▁GF -
▁GF "G"
▁. M
▁B, A
▁B/ d/c/
▁B/ ^A/
▁= ga
▁A/ f/
)( E/D/)
▁cB -
▁(A GFE)
GE ]2
A2 "
▁FG Bd
▁B/c/ dg
▁G>A B>A
▁ga fd
▁dcd efg
▁X:1<br>L:1/8<br>Q:1/8=1 7
▁defg "A"
▁c>A c>e
▁!>! B3
▁f> =e
▁X:1<br>L:1/8<br>Q:1/4=120<br>M: 3/8<br>K:
▁B>d g>f
▁X:1<br>L:1/8<br>M:4/4<br>K:C dor
▁ff fd
▁E>F GA
0<br>M:2/2<br>K: Amin
▁DB, B,D
Gd im"
▁G) B
▁A^ A
▁^f 6
▁.d2 )
▁D< B
▁[A, D]
▁[A, A]
▁Ge cA
▁(de) fd
▁a^g ae
▁e2d2 c2
▁dD FD
▁Ag A
▁g) d
▁B2A2 A2
▁Dd cB
▁FGF G
▁.f2 )
▁(ef )(ge)
▁b> af
>u F
▁ecB e
▁A>D F>D
▁(A< F
!wedge! A
▁S ig
"^/ B"
▁c2( BA)
"^c rot"
▁!>!c 3
▁|{^ d}
▁fd/e/ f
▁(B,D )
▁l ine
▁|"^(F )"
[Q:1/8=3 60]
▁"_B risk"
! slide!
" G/
2 f
a 3/2
t ime
▁d c/c/
▁B G"Am"
▁B _A
▁e a/g/
▁c {B}A
▁F B,B,
▁( c'a
▁E f
▁a a/b/
▁d2 eg
▁A2 {A}
▁:| 33
▁c2 AF
▁F2 AA
▁|| S
▁C C/C/
▁Bd dA
▁^ A/
▁AB FA
)( dB
)( ge
)( FE)
▁FD /E/
][ DD
▁dBA G"D"
▁ED ^C
▁GB "A"
▁(3( C
▁T G
▁T b
▁T AG
▁f/ a/f/d/
▁ABA E
▁dg ^fg
g2 a2
G, ]4
▁|"^ E
▁g/ ^
▁EG cE
▁(d >B
BB )
▁G>A GE
Ac }
▁DG {A}GF
▁X:1<br>L:1/4<br>M: 5/4<br>K:
▁Be ^de
B" Dm"
▁fdB g
▁f/g/ )
)" G7"
▁e< cB
▁BdB F
▁c> ec
▁u f2
▁B>d d
▁c3/2 )
▁[A C][
▁a/g/ f/d/
▁^F )
▁AE GA
0<br>M:2/4<br>K: none
▁(D 6
▁dBB f
▁"E m7"
▁Af ef
▁E< GG
▁BD B
▁^G >B
▁(a c)
▁(AG) AB
▁cE A
▁X:1<br>L:1/8<br>Q:1/8=2 5
▁(de) dc
▁(3(d Bd)
▁g) fe
▁F/F/ F/F/
>g2 )
▁[fd ]4
▁.G2 .G2
▁E>A c>A
]) )
▁X:1<br>L:1/8<br>Q:1/8=232<br>M:4/4<br>K: Emin
▁(Ac) BA
>G2 )
>u g
▁[C c]
▁X:1<br>L:1/8<br>Q:1/2=8 0<br>M:2/2<br>K:A
▁::"^B" "G"
▁C>D E
▁(ed)( ef)
{GdG} c
▁_e 4
▁(A, C)
▁(d' /c'/
g/4 a/4
▁:|[M: 6/8]
▁|][K: D]
B,, /
▁bc ac
▁(B>A B)
▁[dA ]
▁spirit ."
▁"^P art
▁c/d/c/ A/
▁d'a fd
▁af/g/ a
.a.a .a
"^(F# m)"
▁AG/ ^F/
{cBA }
trebl e]
( af)
. ^c
1 0]
4 <br>M:2/4<br>K:
< E2
F C
{ d'}
▁d B/G/
▁A aca
▁B /4
▁G DF
▁G CC
▁G G,G,
▁G zG
▁c DEF
▁f "D"
▁f ce
▁E "D7"
▁E G/A/
▁A2 Bd
▁G2 "B7"
▁e2 gf
▁g2 dc
▁g2 >b2
▁b efe
▁[ aA
▁AG /G/
▁a2 c'2
▁dB "A"
▁Bd "A"
▁^ B
▁GF G2
▁B, DEF
▁Bc -
)( C
▁Ad fg
▁FD BA
b" D7"
▁ge "G"
▁b2 >g2
▁(3( cA
▁gfe "G"
▁af ^d
ge ]
▁dg ^f
▁"^ v
▁"^ (A
{g} f>e
df >d
▁|"^ C
). G/
▁DFA =c
▁EG ED
▁G>A GF
▁DF BD
▁X:1<br>L:1/8<br>Q:1/4=1 9
▁X:1<br>L:1/8<br>Q:1/4=1 32
▁X:1<br>L:1/4<br>M: 9/4<br>K:
▁AA GF
▁GG D
▁!fermata! ad
▁D/ F/A/
▁d' af
▁(F 6
)" Dm"
▁BGE B
▁f>d e>d
▁(f 6
▁eB eg
▁u g2
"^( 1)"
▁EC D
▁EC A,C
▁FDD f
▁e/d/ ^c/d/
▁c>e g
▁c>e g>e
▁X:1<br>L:1/4<br>M:3/4<br>K: Gmin
▁(E B)
▁[GB ]6
▁[BG ,,
▁BF dc
▁||[M: 3/8]
▁B>cd d
▁(3(A GA)
▁fb df
▁^g >a
▁(3(d ^cd)
▁D/E/ D
▁"_ c"
▁[B F]
▁bd fd
▁B2d2 B2
).A .F
▁B,A, B,C
▁EDD A
▁[C c]2
▁(eg) ec
c/4 B/4
▁[M:3/4] "^C"
▁X:1<br>L:1/8<br>Q:1/4=120<br>M:3/4<br>K: F
▁a>gf >a
▁[F c]2
▁::[M: 2/2][K:
>v c
▁[DD ]
▁[BE ,]
▁(b/ a/g/
▁(ab) ag
▁"Bb m"
▁A=F FA
▁[DA ]4
▁!>!g 3
.d.e .f
▁([de -]2
▁!slide![AA ]2
▁|"^(A m)"
]/[BG ]/
▁(3ed ^c
▁cA/ B/c/A/
▁(A/B/c ).A
( ce)
< e/
< B2
= g/
= g2
> ab
> .g
A 3/2
T cB
[ e
^ g/a/
a ce"
b >d
▁d )(
▁d {c}
▁d "Bm"
▁d 7/2
▁A ED
▁A "G7"
▁G "Bb7"
▁c !p!
▁g e/c/
▁E "A7"
▁a efg
▁d2 dg
▁d2 gd
▁A2 ed
▁:| 1
▁(3 dB
▁(3 egf
▁(3 G,G,G,
▁g2 ^fg
G" B"
▁E2 AB
▁[ FF
▁fd bf
▁|: "Eb"
▁GA -
▁GA AA
▁^ a2
"^ **"
▁A/ G/A/
▁AB "D7"
GB e
▁A, B,A,
▁ce B
▁ED DB
▁(3( BGB)
G2 B2
▁"^ Chorus"
▁bg ge
▁eA a
▁eA df
▁eA ^ce
▁afd "A7"
▁|"^ B
▁gd ad
▁DF BA
▁(3A dA
▁A> EF
▁_ B>A
▁agf edc
▁d>B G>A
0<br>M:4/4<br>K: Eb
▁(F GA
▁d< fc
▁e> (d
▁cdef "G"
▁eB fB
▁Gc G
▁A) FD
{A} B
▁cAFA "G"
▁c) e
▁BD GA
▁fgf c
▁e) cA
ar g
.e .d
▁f>ed f
▁([ A-
▁(d/c/ B/c/)
▁[cA ,,]
.G .B
▁e2d2 c2B2
▁{ D}
▁|]: "G"
▁ceg b
a>f )
▁A( c
A,/ B,/C/
▁(a/g/ ).f/.e/
▁E> CE
▁e<g "G"
)(d <B)
▁X:1<br>L:1/8<br>Q:1/4=120<br>M:6/8<br>K: F
E>F )
ath er
G,/ F,/
▁G( A/B/)
▁e/g/ e
▁d= ef
▁f>ga >b
▁"^V erse"
B/c/B/ )
▁d/^c/ B/A/
▁A,>B, C>D
▁(g/a/b) g
▁|"^c r"
▁(E/ G/)
▁[fa ]2
▁|"^s ic"
[df ]
▁ggf f
▁Bc) dB
res ."
▁BG/A/ B
"_a "A
▁A/c/A/ F/
ert empo"
▁G>BE >B
efr ain"
4 0]
< B,
< F2
D GB
E >d
E ,]
T B>A
^ Bc
c >G
d b
h t
m 7b
r ac
▁ R
▁B BAF
▁e {fe}
▁F cA
▁F >B,
▁E =c
▁D BGB
▁D =E
▁D _E
▁A2 "G7"
▁G2 (3
▁B2 {A}
▁c2 "E"
▁(3 dc
▁(3 F2
▁z "D7"
D" D7"
D" Am"
▁F2 "Gm"
▁b a/b/
▁b ^ab
FA }
▁. g/
▁= efg
▁= c/B/
▁cBA "Em"
▁AB G"D"
▁ABc A"G"
)( gf
▁e3 "G"
▁Ac GB
▁Bcd =e
eg ue
▁A4 "G"
▁cB "Am"
][ fA]
A, >B,
▁(3( A,
"A" _
▁gfg "A7"
▁eA ef
▁FG Bc
▁e>d eg
▁(d ^cd
▁AD AD
▁E/ c/
▁dcd g
▁(3d AF
▁!fermata! b2
▁AGA E
Bb 7"
▁e< ge
▁e< aa
▁GFE ^D
▁BGB e
▁f> cd
0<br>M:6/8<br>K: Eb
▁B>d A>F
▁AAA d
▁[BG ][BG]
▁e>g e>c
▁X:1<br>L:1/8<br>Q:1/8=2 20<br>M:2/4<br>K:
▁Gd ef
>B, /
Bmin ]
▁E>G F>A
▁geg B
▁(f2 e2)
]2[ D
▁dD d
▁(BG) G
▁[ee ])
▁.f .d
▁.A2 .A2
▁(^ c2
▁g>ag d
▁(Bc dB)
▁dGG g
di m7"
ca ]
▁X:1<br>L:1/8<br>Q:3/8=10 0<br>M:6/8<br>K:F
(F ED)
▁^cA A
▁d2( de)
▁|{/ a}
▁DA, DE
)(c >d)
▁B2( AG)
{d}c {g}
▁"^Moderate" "^A"
{ed c}
▁d>Bc >d
E,/ E,/
.f/ .e/
▁GB/c/ d/B/
▁!fermata!g 4
<br>M:3/8<br>K: C
{e}G 3/2
-][ee ]-)
! 0!
2 <br>M:2/4<br>K:
= fg
= G)
> .f
D ,2
] c
^ c/d/)
▁ h
▁d ad
▁B g/f/
▁F D"A"
▁E z
▁E B,B,
▁a {g}
▁a ua
▁d2 ba
▁G2 "Em"
▁(3 c2
▁z "G"
▁" G/D"
▁" F/C"
▁[ de]
▁fd "C"
▁BG g
▁BG FA
ec e)
"^ r
▁. g)
)( B2
d2 g2
▁ge ^f
▁ABA ^G
AB ]
▁G, >E,
▁"^ /"
▁eA Bd
▁eA ec
▁F/ E/F/
▁BE FA
▁B>A GB
▁edcB "D"
▁d/c/ d/
▁A> fe
▁g4 )
▁_ Bd
▁_ edc
▁_ B,2
▁efe B
▁d>B "C"
a) g
▁dG GF
▁A>G FE
▁A>G F>A
B" F7"
A/B/ c)
▁(3g ^fg
▁e< Ae
▁f>g ag
▁e>c '
▁d/e/ fe
▁ee ec
▁X:1<br>L:1/8<br>M:4/4<br>K:C min
(3 ddd
in ."
▁a/g/ f/
▁[D G]2
▁A>A ,
▁dBc e
▁(D 3/2
CD C
▁d/c/B/A/ "E7"
▁ad de
▁B/c/d F
▁(cB) c
▁X:1<br>L:1/8<br>Q:1/8=18 0<br>M:12/8<br>K:D
▁ac fc
▁Gg G
▁Fd cA
▁d>A B>G
c'/ a/
▁E/E/ E/E/
▁(ed ef)
▁[d G]2
▁(fg) af
▁c/B/A/G/ "D7"
▁M S
C, ,
st "
▁.B2 )
▁.e2 (ef)
▁c2B2 A2
c/e/ )
▁d>cd >A
▁A<A cA
▁(Ac) ec
▁d/B/ G/B/
"^4" ec
).c .A
▁(FE) D
▁[FD ][GE]
▁[Af ]3
▁c'a fd
▁[M:6/8][K: Amin]
▁(de )(fd)
▁A>AA >A
▁GBe G
"^/ C#"
g/4 a/4)
▁:|[M: 2/2][K:
][df ][df]
▁X:1<br>L:1/8<br>Q:1/4=20 0<br>M:4/4<br>K:D
▁d>Bd >B
▁(A/G/ )(
▁F/E/D/ E/
▁GGB B
▁||[M:4/4] "^B"
iv ace"
▁g/b/ a/g/
▁bga ^f
▁"^A""^ ge
and ant
" F
. b/
. F)
6 -
8 ]
< f2
E e
\ \"
_ ED
{ ce}
▁| 33
▁d an
▁A ae
▁A "Bb"
▁A "Eb"
▁A A"G"
▁B FE
▁B {e}A
▁e "B7"
▁e (g
▁G >C
▁G "B7"
▁g ^g
▁g BAB
▁F A/c/
▁( E/D/
▁a a/f/
▁d2 "F"
▁d2 (d
▁e2 {fe}
▁(3 B2
▁(3 BcA
▁g2 {ag}
▁BA A2
▁F2 FD
▁b fe
▁b ff
▁a2 "D"
▁a2 d'2
▁C =B,
e/ d/c/B/
<br>M: 3/2<br>K:
▁B, >B
▁= ed
▁= B>c
▁cBA A
▁fe "A"
▁ecA f
▁T D2
e2 e2
▁AFD d
▁DE ^FG
▁eA eg
▁FE -
▁g/ >
▁AA GG
▁DEF "G"
▁_ BB
▁(3d ec
▁d>B e>d
"_ ?"
"_ =C"
▁B/A/ G/
)" Gm"
▁a>g e>d
▁gag ^f
▁!>! [
▁GFE d
▁f>d g>e
▁f>d c>B
▁c>B B
▁c> _B
▁B> b
▁B>d G>B
▁Ace ^g
▁fB f
▁DD DE
▁d^cd 2
▁e) g
▁[BG ][BG
▁cdc "G"
▁D>E G
▁cG cd
▁Gg ec
▁^d efe
▁[FA ]2[
▁FAA f
▁g/a/ b/c'/
▁[ce ]2[
▁[c G,]
▁=cA B
▁G>AG >E
▁B/d/ B/A/
▁(c/B/ )(
▁(a/g/ f/g/)
▁X:1<br>L:1/16<br>Q:1/4=1 20<br>M:3/4<br>K:
▁:|[K: F]"F"
▁[Ac ]4
(f ed)
▁A,C A,
▁(C 4
).c .c
▁(fg f)
▁^cA Bc
▁B>AB <c
▁|[K: A]
▁||[M:2/4] "^B"
▁(ed)( cB)(AG)
(E {F}
▁(GF G)
(3( M
▁X:1<br>L:1/4<br>M:3/2<br>K: C
▁cef a
"^c r
▁X:1<br>L:1/8<br>Q:1/8=20 0<br>M:4/4<br>K:G
▁(AG)( AB)
▁[ca ]4
"^d a
▁DD/D/ D
▁ddB B
▁ccA A
▁(Tc >B)
▁(e> fg)
▁[M:2/4][K: G]
▁|"^(A 7)"
▁not e"
▁(ag).f .e
▁|[M:2/4][K: G]SOSOO
▁(B/4c/4 d3/2)
][fa ]
# /
( de)
6 <br>M:3/4<br>K:
> fe
^ G,
^ FD
▁B c/
▁B {g}
▁e ab
▁e "C"
▁c on
▁c cAc
▁F G"
▁E F/A/
▁a BB
▁a {g}a
▁d2 AA
▁G2 ed
▁c2 >G2
BA /
▁(3 cA
▁(3 ce
▁F2 a2
▁F2 "Em"
▁b ed
▁" C#7"
▁[ c'a
▁C (
▁fd bg
▁cd AG
▁^ dc
▁B3 /4
▁FA dg
▁. !tenuto!
F" F"
▁= b
▁cBA f
▁AB Bd
AA B
▁eg ^fa
▁c/ {d}A3/2
▁ED AD
▁b2 d2
▁(3( efg
e2 a2
▁f/ )
▁DE GE
▁bg fd
▁F/ B/
gf a
▁B/c/ B/c/
f/e/ d
▁g/ (
ee )
▁GAB G"D"
▁EG -
▁DF EC
FD F)
▁(B >d
▁c< g
▁(c B/A/)
▁(F <B)
▁c>A F>D
▁!>! F
▁fdd a
▁X:1<br>L:1/8<br>Q:1/4=120<br>M: 6/4<br>K:
▁X:1<br>L:1/16<br>M:2/4<br>K: Eb
▁(f ed
▁ee cA
▁a> )
▁a> fg
▁gg ag
▁g>e g
b2 )
▁a/g/ e/c/
▁(gf )(ga)
▁X:1<br>L:1/8<br>M:2/2<br>K:G dor
▁(T G2
▁(E <G)
▁Af ff
ar co"
▁cE c
▁B>cd /e/
▁Gd Gd
▁AFF d
▁[G D
▁||"^ Chorus"
▁AGG c
▁[c F,]
▁(dB) d
▁D, >D,
▁^G2 A2
▁E) D
▁(fg) fe
▁e' c'
▁e' >d'
).d .c
▁(. g2
▁A,C EF
▁[C F]2
7/ A"
>) e
▁f>ef >a
▁X:1<br>L:1/8<br>Q:1/4=9 0<br>M:4/4<br>K:G
▁A>D F>A
▁|[M:6/8][K: A]SOSOO
▁::[M: 2/4][K:
a/a/ a
ro m
▁f2( ef)
▁[DD ]4
>^ f2
▁(D/ C/)
▁[GG, ]4
{gde} d>B
▁(3(c ec)
▁(d> ef)
▁A/^G/ A/B/
▁!>!f 3
▁TBA FA
▁2 :"
▁af/g/ a/f/
▁c'> ba>g
▁(3(D FA)
).e/ .d/
" C/G"
< g2
> =g
A R
A >a
B [
T e>d
c >g
e cA
e >B
e >e
f >ed
g 3/2)
{ _
▁ 7
▁ pl
▁d /4
▁d "^
▁G e/d/
▁G "Bb"
▁c [
▁c GAc
▁f D
▁f or
▁f Ac
▁f A/B/
▁f ine"
▁g {ag}
▁D z
▁a (g
▁d2 "Bm"
▁A2 Ad
▁c2 (3
▁e2 ae
ed f
▁(3 D2
▁(3 g/a/g/
▁F2 E
▁b ^
▁|| "Eb"
▁[ GF
▁[ ^F
▁C >G
▁fd {e}dc
▁BG ed
e/ ^f/
e/ c/)
A" _
▁FA FE
▁Bc cc
▁Ad ed
▁fe -
▁GE =CE
▁de Be
E/ C/
▁dBG 2
▁c' ee
▁ea d
G, G]
▁g/ )
▁DFA G
▁dA cd
▁gb bg
▁G>A F
▁gd ^cd
▁BAB e
▁d>c Bd
▁d>c "G"
▁d/c/ B/d/
▁GG d
▁A,2 CE
▁d>B g>d
"_ NB1"
CE ]2
▁Be cA
▁!>! D2
▁f>d f
▁f< aa
^G ]
▁c/d/ )
▁v D2
▁fga "A"
▁B>d G>d
=c >A
in "
▁[A d]2
▁[D B,
▁F/G/ AA
▁G/F/ G/B/
0<br>M:2/4<br>K: Dmin
▁cf fg
▁cf cA
▁BD G
▁fc ac
▁d>ed /c/
e>c )
▁.e .f.g
▁DEG D
▁||"^ Variations:"
▁[c D,]
▁.c .B
▁[d D]3
▁.A 4
▁X:1<br>L:1/8<br>Q:1/8=16 0<br>M:6/8<br>K:A
▁Ec GE
▁fafd "A7"
▁=g >e
▁db fd
▁db ge
▁[B f
▁gA eA
▁!slide! c2
▁bd af
▁(^ de)
▁E> ^D
▁[Ac ]3
7/ e"
▁(ga) gf
▁[Ae ]3
▁[Ae ]4
▁c/e/ e
>) A
▁X:1<br>L:1/8<br>Q:1/4=120<br>M:3/4<br>K: Dmin
▁afg d
▁X:1<br>L:1/8<br>M:3/4<br>K:A mix
▁a2f2 d2
)(f c)
▁^ga fd
▁.b .a
▁(B, 3
▁X:1<br>L:1/8<br>Q:1/8=10 0<br>M:4/4<br>K:G
▁d2d2d2 g2
▁(GF)( GA)
▁^c/ d/e/c/
8<br>M:3/4<br>K: G
▁(E/F/G) E
▁d>dd >d
▁X:1<br>L:1/8<br>Q:1/8=320<br>M:6/8<br>K: G
▁c<Ae >A
( cd)
( GF)
, G,]2
5 /8]
9 /
h ee
▁A "Am"
▁G GFE
▁G B,DG
▁c cde
▁c EEE
▁c zA
▁g "A7"
▁F F/A/
▁a >B
▁d2 AF
▁G2 >c2
▁(3 g2
▁(3 g/f/e/
▁ed AB
▁BA "Em"
▁D2 "A"
▁D2 DC
▁[ gc
▁BG DB
GA >B
▁GA FD
▁|1 "B7"
▁cd Ad
▁^ Ac
"^ 0
F" Cm"
▁gf -
▁A/ -
)( c'
▁EF ^G
▁fe B
▁fe Bc
▁ecA "E7"
▁(3( GGG)
▁T G>F
▁ABA ^F
▁ABA G"D"
▁BAG G
▁"^ H
▁ea ue
▁|"^ D/
▁DFA "G"
▁BAB F
▁_ ec
▁A< DF
"_ VB"
▁(g <e
A/B/ c
▁(F GAB)
▁(3g ba
▁ba fg
▁BB gB
▁f>d "A"
▁X:1<br>L:1/16<br>M:2/4<br>K: Ador
▁(f ef)
▁c> FA
▁B> =c
▁ee e2
▁a> (g
▁v a2
▁DED E
▁B>d A>d
▁GD BA
▁F>A ,
▁(T cB)
▁(dc) d
▁a>f f
▁B/c/d G
▁(d2 c2)
=B >c
▁(a d)
▁Bdd "D"
▁BF GA
▁Ae -
▁X:1<br>L:1/8<br>Q:1/4=10 0<br>M:6/8<br>K:G
▁[ec ][fd]
eB ]
▁|"^( b)
▁[fd ][fd]
▁e( a
▁(f/g/a) g
▁[CE ]3
▁(= c2
▁G>D B,>D
c/4 d/4)
<br>M:2/2<br>K: F
▁Ed cA
▁X:1<br>L:1/8<br>Q:3/8=11 0<br>M:6/8<br>K:F
▁Bb ba
▁(A< B)
▁Tg >f
▁eBB e
]- [
)(e >d)
)(f >g)
▁FC F
!wedge! e
][ce ][ce]
"^/ F#"
{GAG} A2
▁c2( Bc)
▁(Ac )(
▁(Ac )(ec)
"G #dim"
▁FDC A,
▁dGB e
▁|][M: 6/8][K:
{g}B <d
▁df/g/ a/f/
)(a c)
▁d=cA F
▁d{e} d
▁c=Bc A
c'd' )
"_f" f
▁|"C m/Eb"
▁Ggg ^f
▁X:1<br>L:1/8<br>M:6/4<br>K: G
[BG ]
▁Ecc E
▁(fe).d .c
▁(FG)( AB)
▁c/B/c/ e/
▁(c/B/A/ B/)
▁X:1<br>L:1/4<br>Q:1/8=2 32<br>M:4/4<br>K:
▁X:1<br>L:1/4<br>Q:3/4=120<br>M: 6/4<br>K:
( GA)
/ time
5 <br>M:6/8<br>K:
G [
G B,
_ AG
d >a
s ic"
▁A "Dm"
▁A bag
▁B fg
▁e ege
▁G "_>Teil
▁G edB
▁c "Em"
▁c GAF
▁f g/f/e/d/
▁( ^fg
▁D "A"
▁D GFE
▁G2 {AG}
▁g2 Bc
▁g2 dg
ef ul
▁b fge
▁cA A2
▁cA =FA
▁dB {d}
▁:|2 "^
"^ bar
▁. u
▁B, -
▁fed {d}
▁= AB
▁= FG
)( g/e/)
▁e/ d/e/
][ Fd
▁(3( DEF
▁(3( e/f/g/)
▁T ^c2
▁C2 EG
^c >e
G, E
df ]
). f2
). a2
▁d> =cB
▁ab /c'/
▁gb fg
▁gb dg
▁DG {A}
▁efe "D"
▁(B <c)
▁(c a
^F E
▁(e G)
▁(F EF)
▁c>A "E7"
▁c>A e>c
)" C7"
▁(G /4A/4
▁e> (
▁f> efg
d' d'
▁f>g {fg}
▁dBd "C"
▁c'2 >b2
▁Bg gB
▁c/B/ AG
▁B>d e>f
▁A>F E
▁ff ef
▁F>A d>c
▁FDD d
▁e/d/ B/G/
DEF G
▁(T A2
▁EE EF
▁E/F/ G/F/
▁BGBd "C"
▁E, ,
▁E, <
▁deg B
▁cec "G"
▁X:1<br>L:1/8<br>Q:1/8=18 0<br>M:6/8<br>K:Amin
▁B,D FD
▁X:1<br>L:1/8<br>Q:1/4= 24
▁[FA ,]
▁[FA ][FA
▁(d/c/ ).B/.A/
{/ E}
▁(3(A ce)
▁D< E
(d ef)
▁g>fe <d
▁(cd) e
▁[c c'
▁[d D,,]
▁(GF) E
▁=cA BG
▁P art
▁(FG) A
▁B/d/ d
c/e/ g/
▁(. c2
▁.G .F
[Q:1 /4=1
ly d
▁.a .f
▁(d/ f/
▁G>D G
▁aAA c
B/4 A/4)
▁fAA f
▁||[M:2/4] "^C"
>B/ )
d'/ c'/
F/F/ F
▁EGD B,
▁TF >E
▁B<E B>A
▁(GB ).d
▁DCB, G,
▁!fermata!e 4
▁(3b ge
▁ee/f/ g
▁"G m/Bb"
▁[FB ]2
▁Ad{e} dc
▁[bg ]2
▁G,A,B, G,
▁|"^3 3"
▁[M:5 /8]
▁(e3/2 f/4g/4)
▁writ ten"
▁c/=B/ c
▁(B> cd)
▁a>^ga >b
"_F ine."
C /4
F B,
F ]4
N ot
T rio"
c ec
s ee
{ fg
▁d "G7"
▁d "^/"
▁d /4e/4
▁B DE
▁B "^/"
▁B EFE
▁c cdc
▁g e/d/
▁F /4
▁F cc
▁F _E
▁E E/D/
▁E {F}
▁G2 EF
▁B2 {e}
▁c2 C2
▁e2 "F"
▁(3 .F
▁(3 f/g/a/
▁(3 egb
▁(3 .D.D.D
▁g2 (3
▁f2 dd
ef e)
▁BA "E7"
▁BA /F/
▁F2 FF
▁E2 DC
▁|| "Gm"
▁[ AG
▁cA fe
▁GA G"D"
▁|] {g}
▁G3 /4
▁cd AF
"^ R
▁B, B,B,
▁ec )
▁ec "E7"
▁= CD
▁d/ B/A/B/
▁e/ A/
][ de]
▁GB Bc
▁(3( cAc)
▁T a4
▁af {a}ge
▁"^ >"
▁ged A
▁|"^ rit."
▁GAB g
▁dA GA
▁gd dB
▁DEF D"Em"
▁cBc "D"
▁B< de
▁dcd "A"
▁(e /4f/4
▁c>A B
▁f> ^d
▁defd "G"
▁(3cBA )
▁fgaf "G"
▁AE EF
▁X:1<br>L:1/4<br>M:3/4<br>K: Emin
▁(D E/F/)
▁(E >G)
▁(BA) FA
▁(BA) Bd
▁E, F,
▁E< B
▁E< B,
▁gc g
▁e) f
▁[BG ][AF
▁cdc =B
▁.d .d.d
▁Aa af
▁.e .g
▁[cA ]2[
▁geg b
▁[G B,]
▁||"^ A"
▁^g aba
▁g) f
▁[dB ]2[
▁|1,3 "D7"
▁f<a "A"
▁aec B
▁[B D]3
▁gA g
▁(B/c/) d
▁(3B ^AB
▁[B, G]3
▁dcdf "A"
▁(e/ ^f/)
▁(ef ge)
▁e>a a>g
▁(A/B/) c
)(d ^c)
▁(C B,)
).c .e
▁bb bb
▁X:1<br>L:1/8<br>Q:1/2=8 0<br>M:4/4<br>K:C
{d}A {e}
▁X:1<br>L:1/8<br>Q:1/4=14 0<br>M:2/4<br>K:G
▁|{g de}
▁DA, B,C
▁B= GG
▁X:1<br>L:1/16<br>Q:1/4=10 0<br>M:2/4<br>K:C
▁^D 3
▁cef c
▁X:1<br>L:1/8<br>Q:1/8=10 0<br>M:6/8<br>K:G
▁[dg ]
>d' 2
▁a>fe >f
ol k
A"^ tr"
▁Aee A
▁eBd A
▁EBE B
{A}e {g}
▁(CE )(AE)
▁f<dd >f
▁(Tg fg)
▁df"A" ec"D"
▁[eB ]2
▁BBG G
aint ive"
▁(3(eg e)
rac eful
' a
( ED)
( d/e/)
6 /4][K:
T BA)
T c>A
^ GE
^ d}
_ BG
a v
▁d GFG
▁d g/g/
▁A G"D7"
▁B G"
▁G ef
▁G fe
▁G c/d/
▁G 7/2
▁c {c}
▁c "Gm"
▁g "G"
▁( Bcd
▁D GAB
▁a "C"
▁A2 FD
▁G2 "A7"
▁G2 "G7"
▁G2 "Bb7"
▁B2 dc
▁(3 B,C
▁f2 >A2
ef >e
▁ed '
▁F2 c2
▁b Bb
▁b d'b
▁E2 CE
▁dB fe
▁fd bd
▁BG (3
▁AF )
▁:|2 "Eb"
▁A3 {GAG}
▁^ G,
"^ m
▁. T
▁. ^c
▁ec "G7"
▁cBA "E7"
F/ G/F/
▁A, -
▁Ad eg
▁e/ c/A/c/
▁GE cG
▁(A GE)
a/ ^g/
▁(3( aga)
"A 7/C#"
▁"^ f"
▁"^ Irish
▁|"E bm"
▁e>d "A"
▁d> fd>B
▁edB "G"
▁(d c/B/)
"E dim"
▁gb ed
▁X:1<br>L:1/8<br>Q:1/4=1 2
▁A> (
▁dcd "E7"
"_ /"
▁(c g)
▁(e B
▁(G D
ba >f
▁f> ^g
G/F/ E/D/)
▁c'2 g2
▁Bg fd
▁a> bg
▁a> ef>d
▁BABc "A"
▁G,2 -
▁[E e]2
▁B>G d>G
e/d/ B/
▁Gc =B
▁G< C
▁AE c
▁AE FA
▁cBcd ef
▁=c BcA
▁cdec "G"
▁G/G/ GG
▁a>f c>A
▁(a c'
▁([ d-
▁X:1<br>L:1/8<br>Q:1/4= 4
▁(A/ F/
▁g< ce
0<br>M:3/4<br>K: Gmin
▁Aa ab
/B/ A
▁(cd) ec
it "
E, ,]
▁D, 8
▁|]: "C"
▁X:1<br>L:1/8<br>Q:1/8=16 0<br>M:4/4<br>K:D
▁ced cBA
▁GEG c
▁|:"^A" "C"
▁.G .B
{gcd} c>B
▁(fe )(ed)
▁(fe )(fg)
▁B( A/G/)
▁(ef )(ed)
).f .e
>c' )
▁(cd )(cA)
▁B,A, G,B,
).g .e
▁(= f2
▁a6 -
▁aAA g
▁(f/e/ ).d/.c/
▁[Bd ][Ac]
▁d'c' d'
▁(GF ).E
▁egf edc
▁a>fd >A
▁(A, /
▁d>fe c
▁(ba )(ge)
▁!wedge! d
▁!fermata!B 6
▁X:1<br>L:1/8<br>Q:1/8=10 0<br>M:4/4<br>K:D
▁X:1<br>L:1/4<br>Q:3/4= 6
5<br>M:4/4<br>K: G
▁df/g/ d
▁(cBA B)
is ch
"^2" b
"^0" e
▁.c' .b
▁2 nd
▁e<cc >e
[GB ][GB]
▁!slide![AA ]3
▁key /time
▁X:1<br>L:1/8<br>Q:3/8=120<br>M:9/8<br>K: G
▁(Td >c)
▁[db ]2
▁B{cB} A
"_g "G"_
! 1!
. D/
= E)
> G/)
> ve
> f/)
G ^F)
O "
e 3
m p!
p e"
▁A d/d/
▁A c/c/
▁A fdB
▁A {GAG}
▁B )(
▁G [
▁g B/c/
▁F A"A"
▁( a/f/)
▁E F"G"
▁a "D"
▁a f/f/
▁a aga
▁f2 de
▁F2 >F2
▁b bg
▁E2 "A"
▁[ ea
▁AG ^FA
▁|: "E7"
GA Bc
BG ,
"^ pi
▁B, <B
▁= gd
▁cBA GFE
▁eg gd
)( f2
)( f/g/)
)( d/e/)
▁A, c
▁Ac fd
▁df )
▁cB "A"
][ dF
▁ED ^CE
{g} A/
{g} fa
{g} d>B
▁FGA F"G"
▁bg ga
▁|"^ em"
▁d> af
▁edB "Am"
▁BAB "C"
▁B< BB
▁g> edB
▁(B <d
▁c< E
▁|[M: 9/8][K:
▁(e >c
▁(F d)
▁(G >
▁e> )d
▁F, 8
▁X:1<br>L:1/16<br>M:2/4<br>K: E
▁e>c "D"
▁X:1<br>L:1/8<br>Q:3 /4=100<br>M:6/4<br>K:
▁d6 )
▁[M: 3/8]
▁fA de
▁gg g2
▁gg ga
▁F>A c>A
b2 c2
in o"
fA ]2
▁=c G
▁age "G"
▁AGAB "G"
▁X:1<br>L:1/8<br>M:2/2<br>K:G mix
cE ]
▁[GB ]2[
F, )
▁(AB) A
▁cE EF
▁BF d
▁A>BA >B
▁eaa ^f
>B, ,
▁X:1<br>L:1/8<br>Q:1/4=10 0<br>M:2/2<br>K:G
▁dfec "D"
▁AGG ^F
▁(BA )(AG)
▁M D2
▁||[K: Bb]"Bb"
▁:|2,4 "D7"
▁(ag) f
▁.f2 (fg)
▁t w
▁Ee cA
▁X:1<br>L:1/4<br>M:2/2<br>K: Dmin
▁X:1<br>L:1/8<br>Q:1/4=120<br>M:2/2<br>K: F
▁(fg )(af)
▁X:1<br>L:1/8<br>Q:3/8=10 0<br>M:6/8<br>K:Bb
▁aAA a
▁f>ef >d
▁ECE C
▁X:1<br>L:1/8<br>Q:1/4=120<br>M:3/4<br>K: C
▁X:1<br>L:1/8<br>Q:1/4=120<br>M:2/4<br>K: A
▁x 6
▁a>A g
▁c8 -
g/4 f/4
▁e8 -
).F .A
▁f^ e
▁[K:C] "G7"
▁A,< G,
▁[ca ]
▁(3:2:2 (T
▁e>cd >e
▁X:1<br>L:1/8<br>Q:1/8=30 0<br>M:6/8<br>K:G
▁d^cA F
▁"^Andant e
is h"
▁X:1<br>L:1/8<br>M:6/4<br>K: D
▁G,>B, D>G
▁[Gd ]2
▁A<Ac >A
][ac ]
npi pe"
▁(3^d ef
( bg)
> ^A
B =
C oda"
D b
{ cB)
▁ qu
▁A "F"
▁A A/F/
▁e A/A/
▁e c/A/
▁G (B
▁G cAF
▁c {g}
▁f Bb
▁F cEc
▁( =g
▁D =F
▁D (G{A}
▁d2 !D.C.!
▁A2 G
▁A2 {G}
/4 f/4)
▁f2 {f}
▁ed =cA
▁BA BB
▁BA G"A"
▁b dgb
B/ ^c/
▁cA "E"
▁fd eA
Bd ]2
▁GA )
▁GA cA
▁^ e2
▁^ c'
▁FA fe
"^ J
▁AB Bc
▁Bc eg
▁df fa
▁fe "D"
{g Ad}
▁(A f
A, >C
▁"^ 3"
G, }
G, ]/
▁g/ d/
▁d> fg
"B b
▁gd bd
▁AA Bd
▁A> F"G"
▁A> G"D7"
▁(3d gd
B) c
▁!fermata! C2
▁c>d ed
▁B>c "D"
▁(F >
▁(F >D)
▁d< eg
▁e> b
^d >e
▁a>g a>f
▁F, 6
▁f> ^ef
▁(f c
▁(f efg)
▁(f <a
▁e>c e>g
▁eB ge
▁FEF 2
▁a> ^f
▁B>d g
▁G>B G
▁[A d
▁A) c
▁F< AA>B
▁X:1<br>L:1/8<br>Q:3/8=1 28
▁(T c2
▁EE GE
▁EE E2
▁dF BA
▁[GB ][FA]
▁e>g f>a
F, ,]
▁G> Bc
▁(B2 A2)
▁A>d F>A
▁(ef) g
▁f) a
▁(gf) ga
!fermata! d
▁E>G c>e
▁gbg "D"
▁[G g]2
▁[c f
▁[ec ]2[
▁(BA GF
▁M A2
▁a< ff
▁(g2 f2)
▁ceg c
▁aec 'e
▁=g >d
▁[df ]2)
▁gA gA
▁:|"^ 5"
▁G,4 -
▁(e/f/g) B
▁(C F)
▁X:1<br>L:1/8<br>Q:1/2=10 0<br>M:4/4<br>K:C
▁g^fg d
▁a/b/ c'
▁(af) df
▁EDCE "D"
▁x 8
▁G- G
▁=Bc de
▁AA/A/ A
▁g<b e<g
▁B^cd e
)(B F)
0<br>M:3/8<br>K: F
▁g>ed >e
▁A,G, A,
▁(ag)( fd)
▁X:1<br>L:1/8<br>Q:1/8=10 0<br>M:6/8<br>K:D
▁G,B, DF
▁|][M: 2/2][K:
▁BDD B
▁aeg d
▁(d> ef
G/A/B/ G/
Cmin ]
▁BBc c
Ddor ]
▁A=B ^c
▁e>fd >e
▁(a/ ^g/
▁[dd ]2
▁|"^(A )"
.a.g .f
▁(3(e cA)
▁([D -
▁(DG)( BG)
ternat e
m7b 5"
( {G}
3 0
> ag
> .d
[ ce
▁ r
▁A "B7"
▁A "_c"c
▁B aa
▁B {d}c
▁B zB
▁e "F"
▁e "G7"
▁G d/c/
▁G {B}
▁c B/
▁c ae
▁c e/e/
▁g =fe
▁( =B
▁( =F
▁E cd
▁E GFG
▁|" G/
▁D G/A/
▁D GAG
▁G2 dc
▁B2 "^tr"
▁(3 Bdc
ef ge
▁ed {d}
▁b c'/b/
▁" D/F#"
▁[ GA]
▁cA "Em"
▁dB "D7"
▁dB "Am"
Bd B)
▁|] "Em"
"^ -"
▁B, >F
▁A/ =B/
▁eg Bg
▁A4 {GAG}
▁fe e2
▁cB "D7"
▁ED DF
▁G/ B/A/G/
▁GB gB
▁dBG c
B/A/ B
▁dcB "Am"
▁"^ (D)"
{g} ce
{g} c>d
▁bg fa
f/e/ f/
▁|"^ Chorus"
▁DFA A
▁EG cA
▁E/ G/F/E/
▁DG c
f/g/ a
▁dd -
▁(3A cd
▁d/c/ A/G/
▁d/c/ A/F/
▁AA -
▁A> ec>e
▁B< B,
"_ h
▁Be Ae
▁Be ^df
▁d' 6
▁B/A/ )
▁(G d)
▁F, 3/2
▁f> =ef
▁f>g e>f
▁d/e/ d/e/
eA )
▁fA d
▁X:1<br>L:1/8<br>Q:1/8= 7
▁e/d/ B/A/
▁=c >B
▁d>f A>d
▁AAA F
▁(gf )(fe)
0<br>M:2/4<br>K: Gmin
▁(T f2
▁(E c)
▁E, D,
▁E< CC
▁X:1<br>L:1/8<br>M:3/4<br>K:G dor
▁BD GD
▁(ed) B
▁(A2 {BA}
▁(e/f/ ge)
▁||[M: 2/2]
▁[FA ]6
▁ddd A
▁d>A d
▁(A/B/ cA)
▁(b B)
▁[AF ][AF
▁.e 3
▁EDEF "D"
▁[c g]2
▁.c 4
▁.A 6
▁a< c'
▁=F GA
EA E
m/ F#"
▁[B F]2
.a .f
▁(FG) AB
▁cg ge
▁.G 6
▁.f2 .f2
▁dGG d
▁Tc Bc
▁B>g d>g
▁GEA E
▁(DE) FG
G/E/ G/
▁a>d '
G"^ (
▁B,, /
▁[ee]2 -
▁A>e e
▁e2( de)
▁::[M: 2/4]
▁(G/ A/B/
▁"^( a)"
"^T he
][A C]
▁::[K:C] "G7"
▁(A/G/ A/B/)
▁d<BB >d
▁(DE )(GA)
▁gbe b
▁X:1<br>L:1/8<br>Q:1/8=36 0<br>M:4/4<br>K:D
▁(d>c B)
▁(G>A G)
[GB ]2
▁|"^s hake"
▁e/^d/ e/f/
Eb] "Eb"
dim ."
ful "
ir st
▁(gfg a)
▁B>^AB >c
▁(DG ).G
ubstitut ion
hee r
( {c}
( e/d/)
2 g
< B/
> .e
P ."
^ e/
^ Ac
_ e)
▁d A/G/
▁d (3(
▁B [
▁B e/f/
▁B BcB
▁e zc
▁c "_b"B
▁f (3
▁F g
▁F "Eb"
▁E AFD
▁E E/G/
▁A2 ag
▁c2 "Dm"
▁c2 b2
D" E"
▁F2 >D2
▁E2 "Dm"
▁" D/A"
▁" C/G"
▁|| "E"
c/ {e}A3/2
▁cA ef
▁a2 a
ag fe
▁ag {a}
▁^ EF
▁B, d
F" F7"
F" Am"
▁ec gf
▁EF G"D"
▁Bcd d
▁FD CE
▁fe "G"
mi ss
▁ce e2
▁cB "D"
▁de a
▁ED -
▁ge ea
▁GB F
▁f/ ^g/
▁ded 2
▁FGA A
G, A,B,
▁|"E m/G"
▁|"^ G/
▁|"^ am"
▁g/ >e/
▁d> )(e
▁gd b
▁AA e
▁agf {a}
▁!fermata! a3
"_ 3"
▁dG Bc
▁d' 3/2
▁(c =B)
E2 D2
▁(g ^f
▁A/B/ d/e/
▁BGE A
▁!>! c'
▁f>d B
▁BcdB "A"
0<br>M:6/8<br>K: Ador
▁f/e/ d/f/
▁eB Bd
▁ede B
▁gab 2
▁B>d g>d
▁dAF E
▁A>c B
E/F/ G
▁AGFE "D"
▁G3/2 )
▁G< BA
▁F/G/ AB
▁d) d
▁d) BG
▁gB ed
▁[K: Bb]"Bb"
▁(T BA
▁BAGB "A"
▁DGG D
▁e>g d>g
▁D>E FA
F, ]2
▁aA bA
▁(B2 d2)
▁(A2 G2)
▁(3dcB "A"
▁A>d F>d
▁X:1<br>L:1/8<br>Q:1/8=2 7
▁dcBc "D7"
▁f) g
▁c<e a
▁||"^ 2
▁(de) dB
▁(d/e/ d)
▁X:1<br>L:1/16<br>M:2/4<br>K:G min
▁E>A A>B
{gf} g2
▁:|"^ variations"
▁(AF) A
▁(AF) D
▁X:1<br>L:1/8<br>Q:1/2=9 0<br>M:4/4<br>K:Bb
▁(3G BA
▁E> ^G
▁(3D EG
▁^A Bc
▁c/A/ F/A/
▁G/B/ d
▁(cA F)
▁f( e/f/)
▁g^f ed
▁Tg fg
▁(D/E/ F
▁(d' c')
▁F2D2 D2
▁D>EF >A
▁[F c]
▁X:1<br>L:1/8<br>Q:1/8=120<br>M:6/8<br>K: C
"^/ A"
"^/ E"
▁!wedge! d2
▁E/G/ c/e/
ris k
▁[a A]
▁_E 3
▁"^Alleg ro
▁X:1<br>L:1/16<br>Q:1/4=8 0<br>M:2/4<br>K:G
▁B>BB >B
▁c_ BAG
E/4 F/4
▁!fermata!F 3
▁!fermata!f 3
▁.f.e .d.c
▁X:1<br>L:1/16<br>Q:3/8= 6
]/[AF ]/
{d}A/ {e}A
""^ )
9/ 64
( d/
, D,]
< (!
> _B
C ,2
E 4
G ]2[
^ a/
^ C]
d 4
e l"
o o
{ dc)
▁d FD
▁d fge
▁d =G
▁d aca
▁A f/f/
▁e >F
▁G )(
▁G e/f/
▁c GGG
▁f ccc
▁g )(
▁E dB
▁E BGE
▁E B,DB,
▁D D/
▁A2 "Bb"
▁A2 !D.C.!
▁G2 cd
▁G2 gf
▁G2 ^FG
▁B2 ge
▁c2 {
▁c2 "C"
BA GF
▁(3 .G.G.G
▁(3 .B.B.B
▁(3 .g.g.g
▁z "C"
▁g2 "Em"
▁f2 Ac
▁dB {d}BA
Bd >c
▁|] "Dm"
▁A3 /4
▁cd Ac
cB 2
▁. .."
▁fg ga
▁cBA e
▁AB G"D7"
▁ef fd
▁ef ab
▁Ad D
▁EF EF
▁cB "F"
][ EG
][ DF
▁fa A
▁|{ fa}
▁dg ag
{g} G
{g} e/
▁FGA D
▁eA cB
▁eA eA
▁edc a
▁|"^ last
▁|"^ NB2"
▁d> "_c"c
▁GAB "C"
▁B>A "G"
▁(d b
▁AD GA
▁AD FE
/16 ]
▁cBc "G"
B) A
▁!fermata! x
▁A< Fd
▁efge "D"
▁c< ce
▁(c >A
▁"A b7"
▁fef 2
▁e< cA
▁fA e
"^( c)"
▁dcA E
▁ff fa
b2 g2
▁a/g/ e
▁A>A AA
Bg )
▁X:1<br>L:1/8<br>Q:3/8=1 3
▁X:1<br>L:1/8<br>Q:3/8=1 16
▁d) ef
▁c>e a
▁BAGB "D"
▁X:1<br>L:1/4<br>M:4/4<br>K: E
▁GEE B
▁FB DB
▁([ A,
▁([ EA
▁^d >
▁^f af
▁(3(A Bc
▁Ae ef
▁X:1<br>L:1/8<br>Q:1/4=10 0<br>M:3/4<br>K:
!fermata! g
]/[ ce
{gef} e>A
▁[G g
▁gfeg "D"
▁B>AG >E
▁e2d2 B2
Fd ]2
▁.c .c.c
▁(dB) G
▁D, F,
▁[d G]
▁M G2
▁|:[K: Bb]
▁=F GAB
▁AGEF "G"
ea c'
▁.c2 )
▁(G/A/ )(
▁(B/c/) dB
▁.g2 )
▁fBB e
▁:|"^ 4"
▁(ge) c
▁e2c2 c2
▁B( dd
▁DGB e
▁dc/B/ A
DB ]2
▁B>g e>c
▁f>A A
>) B
▁d2( Bd)
▁[fA ]4
▁^C 3
▁(af) d
▁f( a
▁(ec ).A
▁(ec )(BA)
▁"^V o
▁B,< B,
▁(AF ).D
▁|][K: C]
▁X:1<br>L:1/8<br>Q:1/8=20 0<br>M:4/4<br>K:D
▁g2b2 g2
▁X:1<br>L:1/8<br>Q:1/4=20 0<br>M:4/4<br>K:G
▁(a/g/) f/e/
][Q:1 /4=1
▁:|[K:G] "G"
▁|"C maj7"
▁c>ed >f
▁||[M:4/4] "^C"
▁"^G ai
▁G,/G,/ G,
"^- >A2"
▁(EA ).A
{a fg}
]/[cA ]/
chne ll
alz ertempo"
{cB) }
" C#/A"
5 <br>M:6/8<br>K:G
= B,/
^ A,
^ F"Gm"
c "D"
g 3/2
l e"
▁ {ga}
▁B "^
▁e "Am"
▁e "Dm"
▁e g/g/
▁c 12
▁f e/c/
▁( G,2
▁( GFE)
▁E cA
▁E BAF
▁D Ac
▁G2 F
▁e2 AB
▁(3 .f.g
▁g2 "A7"
Bc dB
▁f2 d
▁BA EF
D" _
▁a2 g
▁d3 "D7"
▁cd ^d
▁^ GG
▁FA A"G"
▁GF "C"
▁fg dg
▁= de
▁cBA "E"
▁eg {a}
▁Bc "D7"
)( DC)
▁Ac G
▁Ac "E7"
▁Ac EA
▁Ac cf
▁Ac Ec
▁(A Bd)
▁b2 gb
▁dBG G
▁f/ >
▁f/ d/B/d/
▁|{ A
f2 g2
▁FE "D"
▁FE ^D
▁X:1<br>L:1/8<br>M:2/2<br>K: Eb
▁B>A "Em"
▁d>c {c}
▁dd BG
▁A>B G>A
▁B< BA
▁D/ ^C/
▁A< FD
▁d>B "Am"
▁dG cG
▁A>G )
▁(F ,
DF G
DF }
▁!>! B
▁A/A/ AA
cB) A
▁X:1<br>L:1/16<br>M:2/4<br>K: Bmin
{e} c
▁e>c a>c
▁EA FA
▁ae ^ce
FF E
▁edef "D"
dg ]
▁F>A c>f
▁F< BB
▁F< DF
Amin ]"^
{G} d
▁FB F
▁g/f/ )
F, E,
▁X:1<br>L:1/8<br>Q:1/8=18 0<br>M:4/4<br>K:C
▁A^ GF
▁D> EFG
▁D> ^C
]/[ GB
▁[d D,]
▁.A .c
▁Ag fg
▁eG Bd
▁eG BG
▁P a
▁.e2 )
>. F
▁(3(g ec)
▁(3(g bg)
).B .B
▁X:1<br>L:1/16<br>Q:1/4=1 20<br>M:4/4<br>K:
▁A2G2 F2
28 ]
▁(e/ d/c/d/)
▁[Ac ][GB]
▁(cd )(ec)
▁d>BA <F
▁(fg af)
7/ D#"
▁X:1<br>L:1/8<br>Q:3/8=10 0<br>M:6/8<br>K:A
>) d
>F2 )
▁G/B/ d/B/
▁(GA )(BG)
▁GDG D
▁(Bd ).B
▁(3E Ac
▁^C DE
▁[M:6/8][K: A]
"^(A b)"
▁[DF ]3
▁[F C]
▁[GB] A
▁:|[M: 2/4][K:
▁BB/B/ B
▁A= GFE
▁e/d/c/ e/
▁!fermata!c 6
▁X:1<br>L:1/8<br>Q:1/2=6 0<br>M:4/4<br>K:D
"G #m"
▁c= B/c/
▁.b (
▁[Aa ]4
▁g2( fg)
▁|( {B}
▁!plus! e2
▁c'g eg
▁F>GF >E
▁(3b c'b
▁vA <
▁[Ge ]4
][GB ])
▁(AG ).F
▁(d3/2 e/4f/4)
lan d
▁[de ]2
▁g/^ f/g/a/
▁(D/E/F ).D
{dc) }
! "
( d2
5 <br>M:2/4<br>K:
< C2
= dB
> .c
A 4
F ][
b ]
e <
▁d agf
▁d G/G/
▁d {ed}
▁B c/e/
▁e ^cd
▁e A/B/
▁( a/f/
▁( f/a/
▁E "C"
▁|" F/A"
▁D ec
▁D CE
▁a "A"
▁G2 !D.C.!
▁B2 "Bm"
▁c2 A
▁(3 ag^f
▁f2 f
▁ed G
▁F2 "C7"
▁b 8
▁b efg
▁b b/a/
▁dc {d}
▁cA g
▁cA ac
▁a2 >c2
▁dB G"Am"
▁d3 "G"
▁|1 ,2
▁AF "A7"
▁cd "A7"
"^ b
"^ G/b"
▁B/ ^
)( DF)
▁A, >F,
▁e3 "D"
▁EF )
▁fe ag
▁ce AG
▁de ee
▁de =fe
▁ecA A
▁G/ -
▁G/ f/
▁C2 c2
▁! open!
{g} e>d
▁ea ^g
▁eA d
▁e4 "D"
G, ,]2
f/e/ c/
). F/
▁BE dB
▁B>A B>G
▁(3Bcd "A"
▁_ AG
cBA 2
b/ D"
d/e/ c/)
^F ]
▁(g f/e/)
▁f> ^e
▁fdd "A"
▁f< df
▁c> GA
▁B> G"D7"
▁GAG D
on d
▁A>c B>d
▁GD FD
(3 fed
"^( C#
▁dcA ^F
▁ff af
▁ff f2
▁A) A
▁FF GA
▁^F ,
▁"B m7"
▁e/d/ B/d/
▁(D >
▁[K: Amin]
▁(T cA)
▁(E <
▁c) AF
▁FB EB
▁D>E GA
▁([ Be
▁(f/g/ a/f/)
▁e>A e>c
▁Gd cB
▁.e .d.c.B
]/[ FA
]/[ ge
▁F>D A>F
▁[c D,
▁(B/c/d) c
▁P G2
.a .b
A,A, >B,
▁e>fe >f
▁GBdg "C"
▁F>GA c
▁X:1<br>L:1/8<br>Q:1/2=9 0<br>M:4/4<br>K:F
▁B( c/d/)
▁E/D/ E
▁"^A nimat
)(d >B)
][BG ])
▁C>E A>c
>) G
)(g c)
▁X:1<br>L:1/8<br>Q:1/4=9 0<br>M:3/4<br>K:G
▁|"G 6"
▁(fd ).d
:" "^a."
▁(3E ^FG
▁a>d a
)(c >A)
▁EB, EF
▁[EG ]3
▁(c' a)
▁(3(ef d)
▁X:1<br>L:1/8<br>Q:1/4=16 0<br>M:4/4<br>K:G
▁X:1<br>L:1/8<br>Q:1/4=16 0<br>M:2/4<br>K:G
▁[A,E]2 -
▁(b/a/ )(g/f/)
.d/ .e/
▁BFF E
"_f #
▁f>ec <e
▁cGG c
▁(B<G) G
▁.f.e .d
Q:3/8=1 28]
▁Ad{e} d^c
▁(3(G Bd)
▁FFA A
▁(A^G) AB
]/[ec ]/
▁c>=Bc >d
" C#dim"
# )"
( B/
= GF
^ dB
^ A]
a 3/2)
c t
v F
v ar
{ ag
▁c "_>Teil
▁f cde
▁f /4g/4
▁F fe
▁F (A
▁F Bdc
▁( B,A,)
▁E "Dm"
▁a )(
▁a (f
▁d2 "^tr"
▁G2 G,2
▁e2 {ef}
▁(3 GEG
▁(3 d/e/d/
▁(3 E/F/E/
▁g2 "F"
▁g2 "_>Teil
▁ed "Am"
▁BA "D7"
▁b ut
▁b b/b/
▁E2 "Em"
▁" C#m"
▁" F#/C#"
▁|| "Ab"
▁cA {c}
▁cA /F/
▁Bd ec
▁|] "F"
"^ W
▁gf =ef
▁= GE
▁= cdc
▁= c'2
)( df
b" A7"
b" Am"
▁cB "G"
▁(A e
▁de -
A, ][
▁T a
"A b/Eb"
▁B4 "D7"
▁G, CE
▁"^ f
▁"^ \"
▁"^ andant
{g} ef
{g} cd
▁ded "D7"
▁F/ D/E/F/
▁F/ >F/
G, "
▁|"E b
16 "
▁gd '
▁DF FA
▁X:1<br>L:1/8<br>Q:1/4=1 16
▁A> ag
▁B,2 B,2
▁_ B/A/
▁_ bag
▁B< dg
▁agf "A7"
▁A< g
▁d' e'
▁c< C
▁c< ae
0<br>M:4/4<br>K: Bmin
Q:3 /8=
▁ABcd "Em"
^d >f
EE E)
▁e< AA
▁BcdB "A7"
▁dBd F
cc c)
▁G/A/ G/E/
▁(f <d
▁f/e/ c
▁BABc dB
▁B>d g>b
▁CE B,E
▁E>F ED
B,D )
▁G>B "D"
▁F>A E>A
▁F>A D>A
▁FF EF
▁[D A,]2
▁AE cE
▁=c >A
▁EE ED
gB ]2
▁(BA) B
▁E, C,
cE ]2
▁X:1<br>L:1/8<br>Q:1/8=18 0<br>M:4/4<br>K:A
▁X:1<br>L:1/8<br>Q:1/8=18 0<br>M:12/8<br>K:G
▁B,D FA
▁cE dE
▁"^A" "D"
▁Fd dc
▁(ef) ec
▁(b >a
▁BEE A
▁.e .A
▁X:1<br>L:1/8<br>Q:1/4=10 0<br>M:4/4<br>K:F
]/[ dF
▁D>F B>d
{gef} ec
▁Ge Fd
▁(F/ G/A/
▁.c .d
▁=g dB
▁=cA A
▁(3c ed
▁B/d/ e/f/
▁d2c2 B2A2
▁[B, B]
▁[B, B]2
Ec h
▁ef/g/ e
▁e>a a
▁(cd )(Bc)
▁A,C FA
▁G>c e>c
▁B,A, B,D
▁GA/B/ c
▁[Fd ]6
▁EDD g
▁.a2 b2c2
▁(f/g/) af
▁B>AB <d
▁g2e2 c2
▁|[K: Bb]
▁(fd ).B
▁A- A
▁|{g AGAG}
▁X:1<br>L:1/8<br>Q:1/4=120<br>M:3/4<br>K: Gmin
▁[DF ]4
A/4 G/4
▁Ff fg
▁X:1<br>L:1/8<br>Q:1/8=8 0<br>M:2/2<br>K:none
▁D2D2 D2
▁(ba ).g.f
▁[GB] G
▁X:1<br>L:1/8<br>Q:1/2=7 6
ch ott
▁(FA d)
▁[dg ]3
▁"D m/F"
▁f/a/ f
▁|][M: 3/4][K:
▁"^s low
▁B>GA >G
▁GDB, G,
▁d=cA B
▁X:1<br>L:1/16<br>Q:1/8=1 20<br>M:3/8<br>K:
▁B,/C/ D
)(T AG)
A,, /
▁B,G,G, B,
▁A_ BAG
▁(a/b/ c')
)(3 (
▁B<Gd >B
▁g<ee >g
▁|:"^S trathspey."
! 3!
" B2"
' ]
1 3"
2 )"
4 /8]
= e/)
F -
T A
[ ec]
^ G"Am"
_ "
a A]
e 4
g a)
i i
{ eg}
▁d b/a/
▁e {a}
▁e _e
▁G ccc
▁G =A
▁c /4
▁c "Bb"
▁c (e
▁c aga
▁f !p!
▁f Acf
▁g (3
▁F cB
▁F F/
▁F dA
▁( agf
▁E 12
▁E (D
▁|" B/F#"
▁D BAB
▁A2 ^GA
▁G2 ge
▁G2 C2
▁B2 GF
▁e2 {gcd}
▁(3 BAB)
G" F#m"
▁" G/B"
fe )(dc)
▁a2 {fg}
▁dB ba
▁C A,B,
▁BG /
A" F#m"
▁Bd "Em"
▁Bd fB
▁Bd cBAG
▁AF /F/
▁A3 "C"
▁cd cBAG
▁^ DF
ED }
ED C)
▁z2 "D"
▁B3 "D7"
"^ K:
B, ]4
▁fg "A"
▁fed =c
▁B/ >
▁c3 "G"
▁ef -
▁ef ce
▁eg =c
▁Ac c2
▁EF G"Am"
▁FD A,
▁fe be
▁GE D"D"
▁dBA A
▁dBA f
▁ED GD
▁ge Bc
GE G)
▁T E>F
▁fa ^ga
▁C2 >E2
▁c' /a/
▁af fg
▁ABA G"D7"
▁gfg B
▁ded "D"
▁bg ae
▁|"^ D"
▁|"^ 0"
▁e>d BA
▁d> )e
▁AD dD
▁DF d
▁(3A =B^c
▁X:1<br>L:1/4<br>M: 6/8<br>K:
▁_ dc
▁B< a
▁dcd "A7"
▁a/ >g/
▁a/ f/d/f/
▁(c Bc
▁c>A "D"
▁d< Bc
▁BB -
▁e> (f
▁fef ^g
^d '
▁f> )e
▁(f >d
▁f< A
▁(3F E
▁e>c "E7"
▁u ed
(3 ABc
▁[E e
▁dfe A
▁EC CD
▁DC A,G,
▁fdf b
▁"B b/F"
▁ece "G"
▁d>f "A"
▁(D >E
.A .B
▁(a >b
▁cdc G
▁D>E G>B
▁f>ed e
▁CD ED
▁aa ag
▁.d2 .B2
▁.e .f
:2 :1
▁[c C]2
▁(d/e/ f
▁Ec Bc
▁M d2
▁|1,3 "Dm"
▁CC CC
▁c'b af
▁(^ c/d/)
▁:|"^ D"
e' )
▁E> ^DE
<br>M:6/8<br>K: A
▁(cd ef)
▁X:1<br>L:1/8<br>Q:1/8=128<br>M:4/4<br>K: Amin
▁(= Bc)
>) c
>) f
)(g b)
c/4 B/4)
▁(e/f/) ge
▁[M:3/4] "^B"
<br>M:2/2<br>K: Bb
▁(3e ^de
▁.F (
▁(EG ).G
"D 7/F#"
▁g( a/g/f/e/)
▁[gB ]3
▁X:1<br>L:1/8<br>Q:1/4=120<br>M:2/4<br>K: F
▁d= efd
▁(v A
▁(de )(dB)
)(f B)
▁B,>D G>B
.b .b
▁aef c
▁g>ec >d
▁[dg ]4
▁(fa ).f
▁=C 4
G,B, G,
▁c'g ec
▁(G/F/ E)
▁[B,D ]4
.B/ .c/
▁gde B
▁GBE d
▁(c3/2 d/4e/4)
▁[A,E ]3
][G e]
▁E^F ^G
▁!fermata!f 4
▁[M:2/4][K: D]
▁(5:2:5 (
▁(3(e ^fg)
[G, G]
▁gce a
▁[c' e
▁.d.c .B.A
▁EAF E
▁[EB ]4
!< (!
][Aa ]
▁"^Pl ay
][bg ]
▁fa{b} af
( A/B/)
7 0]
B B,
c Bc
c >c
m 7)"
r r
s e
{ agf}
▁d =g
▁A 7
▁A fdf
▁e "Em"
▁e ve
▁e ze
▁G /4A/4
▁G =cG
▁c fdB
▁f (B
▁g g/b/
▁D 7
▁D fe
▁D de
▁D ^FA
▁a "A7"
▁a c'b
▁a {fg}
▁a f/d/
▁B2 dd
▁B2 "B7"
▁:| "Dm"
▁e2 "Bm"
▁e2 c'2
▁(3 GF
▁(3 FD
▁ed F
▁ed B/c/d
▁D2 "Em"
▁X:1<br>L:1/8<br>M: 5/8<br>K:
▁b egb
▁E2 "G7"
▁[ ^ce
fe '
▁:: {gf}
▁:: !f!
▁a2 "A7"
A/ B/c/A/)
▁BG {A}
GA 2
▁AF /E/
▁cd fd
▁cd "G"
▁^ E2
▁FA ED
"^ V
"^ ^"
"^ D.S."
▁. a/
▁cBA =G
▁ABc c
)( {a}
)( B>A)
▁A, AA
▁Ad "A7"
▁d/ =e/
▁FD dc
▁X:1<br>L:1/8<br>M:6/8<br>K: none
▁(A Bc
][ GA
B2 g2
▁dBA "G"
A, 4
▁ABA 2
▁|{ a
▁dg g2
▁gfg 2
{g} f/
▁ea {g}
▁|"^ *
▁|"^ C/
▁d> =e
▁EG CE
▁B>A GF
▁B>A A>G
▁ab ab
"E 7/G#"
F2 G2
▁E/ ^D/
f/g/ a)
▁(3A cB
▁d/c/ d/c/
▁d/c/ d/f/
▁B,2 G,2
▁_ ba
▁GG GE
"_ D.C.
▁d' d
E2 E2
▁B/A/ B/G/
B" C7"
▁d< Bd
▁ba c
▁gag =f
▁c'2 c'a
▁faf "A"
▁ee a
D] /
▁eAA F
▁eAA d
▁B>d e
▁[E G,]
"^( Bb
▁B>G E>G
▁F>A D>F
▁DC C
▁FF F2
▁e/d/ )
▁ece "D"
▁d>f B>f
▁"E b/Bb"
▁GEE c
▁e>g ed
g/f/ a/
▁B,D B,
ff "
▁ac a
▁d>ed <B
▁Gg bg
▁egfe "D"
▁(c2 {dc}
▁=f >d
▁(b <g)
▁e>dc <e
▁||"^ S
^c/ e/
▁eG dB
▁[df ]2[
▁f2d2 B2
▁c2B2 A2G2
▁[fd ][ge]
▁AB/A/ G
▁(u A
"^4" ed
▁c'3 -
▁C>E A>E
▁eaaf "G"
▁d2( dc)
▁(B/A/) G/F/
▁ac' ea
"D dim"
▁^C 4
▁(FD) D
▁(d' b
▁D>EF >D
0<br>M:9/8<br>K: Emin
▁(BG E)
▁g>c e>c
▁[Aa ]3
)(G >A)
{g}A 3/2
▁X:1<br>L:1/8<br>Q:3/8=8 0<br>M:6/8<br>K:D
▁"^2 9"
▁EBB E
▁X:1<br>L:1/4<br>M:4 /1<br>K:
▁Ggf a
▁GDD G
▁|"^(D 7)"
▁!fermata!F 4
▁CFA ,F
][G D]
▁|{^ f}
un e
▁b/a/g/ e/
▁(c'b )(ag)
▁e'd' c'b
▁c2{e} A2
▁[Gd ]
▁(^g a)
▁|"F maj7"
▁X:1<br>L:1/8<br>Q:1/8=120<br>M:2/2<br>K: G
▁(3(B ^cd)
▁|:[K:F] "C7"
(c/ B/c/)
▁[GA ]2
▁fd- df
▁(3^ GAB
▁BA/ ^G/
igh land
chott isch
" F/C"
( c/B/)
= B/c/d/
C 4
F min
T fe
c 3/2)
h lich
r a
{ fed
▁d "_c"
▁G "^
▁f zf
▁g afa
▁g =fd
▁F z
▁F BAB
▁( G,A,)
▁E "Em"
▁|" E/
▁|" C/
▁A2 FF
▁A2 ^c2
▁B2 G
▁e2 eB
▁(3 z
▁(3 e2
▁(3 BGE
▁f2 {GdG}
▁ed e2
▁E2 >E2
▁[ ad
▁[ Bb]
▁cA ^GA
▁:: !p!
▁C DD
▁C cc
▁BG )
▁|: "F7"
ag e)
▁GA EA
▁|1 "Eb"
▁:|2 "F7"
▁G3 "G"
▁GF /
▁B, A,A,
▁gf "A"
▁def "A7"
)( A2
▁Ac E
▁d/ B/c/A/
▁Bcd "Em"
▁efg ^g
▁FD EG
▁e/ (
▁cB e
▁GE "D"
GE 2
▁(3( ede)
▁(3( c'ba)
▁(3( EEE)
▁(3( ccc)
▁! mf!
e2 >d2
e2 d2)
▁c' aea
▁eA dc
▁g/ c'/
). b2
▁gb d'
▁gd cA
▁d>c B/A/
▁cde "D"
▁_ G
▁B< AA
▁GG GF
▁(3d (ef)
"_ Brisk"
b/ a/g/f/)
▁gec '
▁(c <B)
▁(c <f)
▁GABc "D"
DF ]2
▁d< DD
▁GFE "D"
▁f>d f>a
▁F, ,4
^f >g
▁EFG g
▁Bg gd
G/A/ B/c/)
▁c> ^c
▁EA cd
▁[M: 7/8]
▁B>d f>d
▁GD AD
▁agfe "D"
▁dcA g
E/F/ G/)
tr i
▁AE ED
▁=c ege
▁DD FD
▁X:1<br>L:1/4<br>M:3/4<br>K: Eb
▁[K: Gmin]
▁(E 6
▁EE cE
▁E/F/ GA
▁B/c/d ef
▁(ed) ef
▁fc ag
▁(a c')
E/D/ E/
ar ch
▁G>G G>B
▁e>g "G"
Ad ]
▁([ dB
▁d'2 )
▁e>A "D"
▁g>d e>g
▁g>d B>g
▁(c2 A2)
▁gage "G"
▁(b f)
.G .E
▁||"^ 2"
▁(F/ A/
▁[c F]
▁ecdB "A"
▁|1,3 "Am"
▁|"_ 1"
▁Dd fd
▁gA aA
d/d/ d/
▁(ec) Ac
).B .A
▁[B, E]
▁.g 4
▁(fe /f/)
▁(ag ).e
.F ."
▁(u c
▁Tc >Bc
▁B>g d>B
▁[FD ,]
▁FGE C
▁CA, G,
▁::"^B" "D"
▁A>D D
▁c( B/c/)
▁DDD F
▁(fd )(cA)
▁Bde ^f
▁(c/d/) e
▁G>Bd >e
▁[AA]2 -
▁B= cBA
▁(ge ).e
▁A>AA >c
▁.E 6
▁(ba ).g
▁X:1<br>L:1/4<br>M:6/4<br>K: Gmin
▁|[M:2/2][K: G]
▁(c' 3
▁G>g f>e
▁e2( fg)
▁|[M:6/8][K: C]SOSOO
▁e>dB <d
Quic k
c'/b/ )
▁C/D/ E
▁|( {c}
▁(D/ F/)
▁(f<a) f
▁a^ g/a/
{gde} dB
{g}f <
.A/ .A/
sp el"
▁a2( gf)
▁G>^F G>A
][GB ][GB]
▁"^L arg
▁X:1<br>L:1/8<br>M:7/8<br>K: D
▁|"^f inal"
▁ffe e
▁X:1<br>L:1/8<br>Q:1/8=11 0<br>M:6/8<br>K:D
▁f>de >B
"_a "A"_
▁"^Variation s:"
▁ea2 b
▁"^alleg retto"
( DE)
( c/d/)
- d
. a)
2 /4
A #"
B ^d
a ."
b /4)
e "D"
▁| !D.C.!
▁A {d}c
▁A G"Em"
▁B "G7"
▁B "F7"
▁G (E
▁f rom
▁g _
▁g {g}
▁g iv
▁E F"D"
▁D ddd
▁d2 B
▁A2 gf
▁A2 "Dm"
▁B2 /3
/8 d
▁c2 e
▁c2 "Gm"
▁c2 Gc
▁c2 {GdGe}
▁e2 >A2
▁e2 ^c2
▁(3 =g
▁g2 >B2
▁f2 "E7"
▁f2 >c2
▁ed B2
▁F2 "D"
▁E2 {FE}
▁a2 ef
fg e)
▁GA "G"
ec ond
▁AF BA
▁AF "Em"
▁AF /D/
▁cd g
▁ag -
▁^ g/
▁FA cB
>G ,2
▁gf f2
▁= fgf
▁ef fg
▁eg )
▁eg Bd
)( BA
)( c2
▁Ad AG
▁FD dD
▁ce G
▁(A D
▁(A >c
▁ED FD
A, F
▁GB Be
▁! /!
▁c' aba
▁f/ =e/
▁af -
▁af "A7"
c' /4
▁AFD B,
▁"^ +"
▁"^ (D
▁"^ O)"
▁DE B,E
{g} f>d
▁bg gd
▁eA G
▁eA ca
▁F/ >A/
▁FG ^GA
▁|"^ v"
▁g/ d/B/G/
). a/
▁e>d )
▁BE "D"
▁GAB "D7"
▁EG G"G"
▁B>A F>E
▁gb ab
▁DF CF
▁E/ -
▁d>c Bc
▁d/c/ d/B/
▁A> cA
▁_ c
▁B< f
▁dG gG
▁B>c B>G
d/e/ f)
^g B
▁(e ^c)
▁e> )
D2 -
▁a>g f>d
▁F, A,
d' f
c/d/ B/
▁EA GF
e) d
▁v E2
][K: treble]
▁afdf "A"
▁=c GE
e" F#m"
▁(D B)
▁(E B
▁d/d/ dd
ag) }
▁X:1<br>L:1/8<br>M:2/4<br>K:D dor
ad a
▁X:1<br>L:1/8<br>Q:1/8=18 0<br>M:6/8<br>K:Emin
▁aA df
▁BF GB
▁fedf "Em"
▁A>BA c
▁A>BA /G/
▁e>A B>c
▁e>A c<e
▁aa a2
▁A>Bc c
c'/ b/a/
▁[AF ,]
▁[AF ]2[
e/f/g/ e/)
▁.e 4
▁X:1<br>L:1/8<br>Q:1/4=10 0<br>M:2/4<br>K:F
▁[ce ]6
▁||"^ 3"
▁d( e
▁Ge G
E, ]2
▁(GA) B
▁[G, E]
▁.B 6
▁.A .B.c.d
▁(BG) B
▁=B ^c
▁X:1<br>L:1/8<br>M:4/4<br>K:F dor
▁.f 4
a/b/ a/
▁:|"^ B
▁dE Be
▁[GE ][AF]
▁(e/ >d/)
ari ant
)(d >c)
▁X:1<br>L:1/8<br>Q:1/4=120<br>M:6/8<br>K: Amin
▁A^GA 2
▁A^GA F
▁(dc)( Bc)
▁CA, EA,
▁aAA f
▁(dB )(cA)
▁::"^ 2
▁TB 3/2
)(A ^G)
▁(fa) gf
▁(d/e/) f
▁X:1<br>L:1/8<br>Q:3/8=11 0<br>M:6/8<br>K:A
▁dd/d/ d
▁G2E2 E2
▁(3a ec
▁B2( dB)
▁::[M: 3/4]
▁X:1<br>L:1/8<br>Q:1/2=6 0<br>M:4/4<br>K:G
▁G2( GA)
▁[eg ]4
▁B>D G>B
▁f^ efg
▁(ab) af
▁cfe g
▁X:1<br>L:1/16<br>Q:1/4=8 0<br>M:2/4<br>K:D
{gde} dc
▁X:1<br>L:1/4<br>Q:1/4=120<br>M:3/4<br>K: D
Variation "
▁B<GG >B
▁G>GG >G
▁X:1<br>L:1/8<br>Q:1/8=36 0<br>M:4/4<br>K:G
▁_ed cB
/2= 80]
fi g"
▁(3BA ^G
▁g>be >b
[d G,]
▁[cc ]2
▁gf) ed
▁writ "
.E.E .E
▁A(F ED)
▁(def d)
▁[G_B ]-
▁:|[M:3/4] "^Trio"
{G BG}
! 2!
! ff!
' '"
( {F}
< g/
F EF
[ fd
[ CE]
^ g/a/b/
e 3/2)
r il
▁ miss
▁| 3
▁d DE
▁d f/a/
▁A c/
▁B "_c"c
▁e {A}
▁G _
▁G "C7"
▁G _B
▁( ac
▁a =gf
▁c2 fe
▁c2 >f2
▁c2 c'2
▁c2 "_>Teil
▁e2 e
BA >G
▁(3 E2
▁(3 fec
▁z "^
▁D2 FG
▁F2 A
▁b dd
▁" A/E"
▁dc A2
fe ^d
▁dB b
▁Bd DF
g/ f/e/d/)
▁FA EC
"^ |"
▁B/ {d}G3/2
▁= e/f/
▁A/ >F/
▁e3 {A}
▁Ad "G"
▁d/ >B/
▁Bcd ^d
eg ]2
▁df fg
▁df Ba
▁fe ac
▁ce )
▁ce Gc
▁GE e
][ cf
][ c'a
▁ED BD
▁b2 B2
▁E3 "D"
▁T fed
▁fa )
▁fa c'
▁fa ad
▁c' bg
▁dg Bc
▁AFD f
▁ded "A"
▁B/c/ dd
df b
▁|"^ D/f+"
"B b/F"
▁(d =e)
▁DG G"D7"
▁DG B,G
▁(c <d)
▁(c >a)
▁(g fe
▁c>A G>F
▁d< gg
D2 F2
▁F, >E,
▁(f b
c/B/ )(A/G/)
▁ae ^c
▁B>d c
on g"
▁A3/2 )
▁GD C
▁EC DC
▁[A g]2
▁a/g/ ^f/g/
▁a/g/ ^f/e/
▁=c 3/2
▁(E /4
▁E/F/ G/
▁DB, FD
▁(a A
F, G,
▁X:1<br>L:1/8<br>Q:1/8=18 0<br>M:6/8<br>K:C
▁G> (A
▁^d 6
C2 E2
▁(c2 e2)
▁(A/B/ )(
▁.e .a
▁F) G
▁D>F E>G
▁d( B/c/d/B/)
▁[c g
▁Ec cB
▁P e2
▁(3c =Bc
▁Dd D
▁e/f/g G
▁|"^1 1"
al t
{gcd} c/{e}A3/2
▁:|"^ 17"
▁[GE ]4
▁(cB )(BA)
▁(ef /g/
>A, /
▁(E2 D2)
▁[Ae ]2[
▁^cA GE
]2) )
▁A2d2 d2
f/f/ f
▁(Bd )(fd)
▁[Bd ]4
▁bB fB
▁.F2 )
▁A>AA >d
▁A>Bd e
{gfg} f>e
▁fG eG
▁!fermata!d 6
▁eb ba
▁:|[M: 4/4][K:
][fd ][ec]
▁B2e2 e2
▁d/c/B/c/ d/B/
▁g2( gf)
▁X:1<br>L:1/4<br>Q:3/4= 7
▁eae "D"
▁A^c ec
▁d2ed BA
▁[DD ]3
.d/ .d/
▁!plus! A2
▁[B,D G]2
▁X:1<br>L:1/16<br>Q:1/8=1 0
▁a>ec >a
No .
▁[AD, ]2
▁c_ BA
▁X:1<br>L:1/4<br>M:4/2<br>K: C
3/4 4<br>K:
▁D2( EF)
▁X:1<br>L:1/8<br>Q:1/8=13 0<br>M:6/8<br>K:G
▁cA/B/ c
▁(A> Bc)
(g/ f/g/)
oc al
dim ..."
[B, B]
▁d<gB <g
▁(c> BA)
▁X:1<br>L:1/16<br>Q:1/8=18 0<br>M:2/4<br>K:D
▁|"^S EGUE"
"_- 6
]/[dB ]/
our ce
][Gc ]
▁(DEF G)
▁(3(a fd)
▁G/B/d/ g/
▁d>=cB >A
) D
. D)
4 5
5 <br>M:2/4<br>K:D
= G2
> .G
C >B,
D -
D >C
F /4)
O n
f /8
f ef
▁A =B/^c/
▁B efg
▁B "Bm"
▁B {d}G
▁e "F#m"
▁e A"D"
▁G "Dm"
▁G G/E/
▁c e/
▁c "Dm"
▁c fA
▁g E
▁g d/d/
▁( EDE)
▁E Bc
▁E gf
▁E cAG
▁d2 f
▁d2 >F2
▁B2 ef
▁B2 de
/4 g/4)
▁(3 B/
▁(3 fge
▁(3 .c
ef d)
▁ed AF
▁ed "_c"
▁BA D
▁BA ^GF
D" Gm"
▁F2 "E"
▁cA "C"
▁a2 f
▁a2 ea
▁C e
GA ,
A" Bb"
▁d3 "A7"
▁z2 "C"
▁. a)
▁A/ e/
▁AB =cB
▁ef {a}ge
▁Bc G
▁ABc BAG
)( ef
)( fd
)( d2
)( B/A/)
▁Ad fA
eg a
▁FD GA
▁ce BG
▁GE =cE
▁(A ,3
▁(A GAB)
][ BD]
▁(3( Ac
▁fa cf
▁c' ag
G2 E2
▁B4 "D"
▁G, B
▁dg G
^c ]
▁"^ $"
▁ded =c
▁ea ea
▁ea ^gb
▁eA GA
▁eA A/A/A
G, E]
▁e>d ce
▁d> DD
▁BE -
▁BE E2
▁(d {ed}
▁AD FB
▁BAB "G"
▁E/ >D/
or spel"
▁edcB "Am"
▁A>B {B}
▁ga ea
▁efe A
▁(B <G
▁cAF B
▁Be Ge
▁d' g
▁d' >d'
▁(g ag)
▁fdB {c}
▁e/f/ gB
▁e>f a
▁e>f a>e
▁e< dB
▁GFE c
▁e>c a
▁^c a
▁EA BA
▁eB -
▁G>F E>F
▁dcA F"G"
▁X:1<br>L:1/8<br>Q:1/8= 5
▁g>e e
▁G>B D>G
▁EC -
in al
▁F>G A/B/
"^B" "D7"
▁(E >D
f) e
▁E, 8
▁(ed) cd
▁cG Bc
▁([ GB]
▁G> (B
▁ac fa
▁|:"^ D"
▁(e/f/ g/e/)
▁=f >e
▁E>G B>e
=e >f
▁.B 4
▁d^c =cA
▁=g b
▁|"^( c)"
▁.f 3
▁db af
▁faa ^g
▁!slide! g2
G/G/ G/
▁d>cd >c
{gcd} cB
▁.g2 .g2
▁(e/d/ e/f/)
▁B( A/B/)
▁(3G ^FG
▁"^A s
"^4" e)
▁A,C DE
▁(C F
>u E
>) g
▁(dB )(AB)
▁(dB )(GB)
▁X:1<br>L:1/8<br>Q:1/4=14 0<br>M:2/2<br>K:G
▁d2( fd)
▁|"G #7"
"D m7"
"D #m"
▁[ge ]3
ers e
▁(3E FA
f/4 e/4
▁Bb ab
][AF ])
▁c/B/A/ F/
▁G,/ F,/
d>c B
▁c'ba c'
▁[F C]2
▁X:1<br>L:1/8<br>Q:1/2=7 2
▁F8 -
▁e= fd
▁::[M: 4/4]
▁G2>A2 B2
▁f2( fd)
▁X:1<br>L:1/8<br>Q:1/8=20 0<br>M:2/2<br>K:D
▁(b/a/ ).g/.f/
▁"^( a)
▁D( E/F/)
{d}B {e}B
▁!plus! B2
▁_A 3
.f/ .g/
▁C>B, A,
▁D/C/ D/E/
Variation s"
▁d^cA B
▁a2A2 A2
▁f/g/a/g/ f/e/
▁[D, B,]
▁c<ee >f
▁e!p! ea
▁E>FA >B
▁[EC ]4
▁d<BA >B
▁d<BA >G
▁(g> fe)
▁(AF)( ED)
▁X:1<br>L:1/16<br>M:6/8<br>K: G
ac' ]
[C c]
▁X:1<br>L:1/8<br>Q:1/8=4 0
▁f/e/f/ d/
"_( ""^)
▁X:1<br>L:1/8<br>Q:1/8=120<br>M:3/4<br>K: G
▁.B/ .c/
▁g>af >g
▁[BA ,]
▁f>=ef >g
( FA)
( EG)
5 ,
> "^4"e
S :"
[ Ae]
^ DF
a p
a us
▁d A/B/
▁d _ed
▁A (d
▁A AFD
▁e efg
▁c =c
▁F B/c/
▁F "Ab7"
▁( edc
▁E F"
▁E "B7"
▁E BeB
▁d2 "^/"
▁d2 >(
▁B2 AF
▁c2 "Eb7"
▁e2 f
▁e2 "G7"
▁(3 E,
▁z {c}
▁f2 e>f
▁ed ^cA
G" Gm"
▁BA B/c/
▁BA "A"
▁b G
▁b fg
▁b oo
B/ {e}G3/2
▁cA /G/
▁cA A/A/A
▁dB ^A
▁C ED
▁fd d2
▁fd /B/
▁BG F"G"
ag i
▁AF "D"
▁cd B2
"^ E"
▁. G/
▁. Te
▁= fdB
▁= efga
▁c3 /4
▁AB "D"
▁eg ba
▁ABc G
▁d/ B/A/F/
▁d4 "C"
▁df Ac
▁df Bg
▁c/ F/
▁e/ >e/
▁|"A" {d}
][ ca]
▁f3 "G"
▁ge ba
▁b2 bc'
▁(3( ece)
▁fa "G"
▁c' agf
▁dcB e
{g} e>c
▁ea ^f
▁eA ge
▁eA (3cBA
▁|"^ $"
). C
▁dcBA Bc
▁B>A GA
▁DG ^F
▁(3A =Bc
▁A> fe>d
▁_ G2
▁B< ee
▁GG -
▁g> (
▁g> fd>B
▁A< ae
▁d>B B>d
▁A>G FA
▁|[M: 3/4][K:
^F ,
▁(g >e
▁cAG D
▁(G g
▁bag d
▁!>! G
G/F/ E/D/
▁faf "A7"
▁e>c a>f
▁B> =G
C/ A,/
▁gg d
▁gg eg
▁gg bg
▁dAF B
▁[D A,]
▁cBcd ec
▁A/G/ )
▁B) AB
▁B) GG
▁c>e a>e
▁(D B,
CD >E
▁(E c
▁BcA 2
▁BcA "G"
▁X:1<br>L:1/4<br>M:4/4<br>K: Gmin
▁E, 3/2
▁gc Bc
▁cAGE "D"
▁fc gc
▁f>ed >A
▁([ BG
▁G> ed>c
▁::[K: Amin]
▁c>BA >F
B,/ G,/
▁(gf) g
▁D< C
▁g/a/ ba
▁cF c
▁X:1<br>L:1/8<br>Q:1/4=10 0<br>M:3/4<br>K:D
▁||"^ A
▁||"^ final"
▁G>E G
B,A, B,
]2[ A,
▁_B 6
▁f>a e>f
▁f>a d>a
▁[c C,,]2
▁^g ab
▁(BG) GB
▁B2A2 G2
▁=cA Gc
▁.f .f.f
▁A( G/F/)
▁[e A,]
▁B( E
▁(u AB)
).A .c
▁c>Bc >B
▁G>AB <G
).c .B
▁A/c/ c
▁X:1<br>L:1/8<br>Q:1/8=128<br>M:4/4<br>K: Emin
▁(fg ).a
▁C>E A>B
▁(g/ a/g/f/)
▁g^f ag
▁(e/d/) c
▁B,G, A,B,
▁G2A2 B2
▁a/a/ a/a/
▁(ge ).c
▁D>FA >c
▁|[M:6/8][K: D]
▁=d 4
▁B>E E
▁(af )(ed)
▁=E 3
▁(b/ c'/
▁f/a/ f/e/
▁fd"A" ec
▁|( {d}
▁fg/a/ f
▁"^Slow ly"
▁X:1<br>L:1/8<br>Q:1/4=20 0<br>M:2/2<br>K:D
Variation s
▁!fermata!D 3
▁X:1<br>L:1/16<br>Q:1/4=9 0<br>M:2/4<br>K:D
).b .g
▁d=e ^f
▁.C 3
▁B<GB <d
▁!>!A 3
▁Ad{e} dB
▁to o
▁Bff B
▁X:1<br>L:1/8<br>Q:3/8=120<br>M:9/8<br>K: D
D/f #"
.a/ .g/
▁G<BB >c
▁[G,D Bg]2
▁variation s"
▁(B{cB} A)
▁(e/4f/4 g3/2)
( B,
( c'
8 <br>M:2/4<br>K:G
B >D
F a
P i
T cB)
c =B
d cA
g c'
h y
s u
{ ag)}
▁d e/g/
▁B EFG
▁B =cA
▁e GB
▁e (3
▁c =F
▁g "A"
▁g "_>Teil
▁E G"D"
▁E G"G"
▁D C"
▁D A,B,
▁D BAF
▁d2 BB
▁d2 "F7"
▁d2 >^c2
▁A2 {
▁A2 >E2
▁G2 Ac
▁G2 >D2
▁B2 d
▁B2 >e2
▁B2 "F7"
▁c2 B
▁c2 "^tr"
BA A
ed ^c
▁z 7
▁z "D"
▁z !fine!
▁BA F2
▁F2 e2
▁F2 "E7"
▁b <e
▁" F
▁" C#"
▁cA ED
▁AG {A}GF
▁C E/G/
▁C GEG
▁BG {B}
e/ B/
▁GA B/c/
▁GA EG
▁AF (3
▁AF CF
▁ag e2
▁^ AF
▁^ g)
▁^ ff
▁B3 "^*"
▁B/ F/
F/ B/
▁AB E
AA G
AA )B
▁ef "Em"
▁Bc "E7"
▁efg g
▁e/ B/
c2 d2
▁cB B2
▁GE "G"
▁GE "Am"
▁(3( AB
▁(3( D/E/F/
c' >b
▁ded /B/
▁eA cf
▁FG ^G
▁B/c/ B/G/
▁d> ^f
▁d> (e
d/c/ A/
▁DFA ,
▁GAB G"A"
▁(d cB
▁(d cde)
EG }
▁AD B
▁DF dF
or o"
▁AA dd
FD ]2
▁B< AG
▁(3d ^cB
▁!fermata! F,
b/ c/
▁c< AB
^F ^G
▁(e >g
▁(e ^f)
▁f/g/ ad
▁d< fe
▁a>g ab
▁a>g e>g
d' a
▁dBd A
c/d/ e
Emin ]"^
▁c> (d
▁EA d
▁(dc Bc)
▁ae be
▁gg a
▁CE A,
▁CE CE
▁Bcde "E7"
▁A>A c>A
▁d>f b>a
g) e
▁(dc) A
▁a>f a>f
▁EFA E
.e .c
▁([ GB
▁BF GE
▁(A2 >B2)
▁^d efd
▁(e2 g2)
▁=f cA
▁[AF ][AF]
▁D< A
▁X:1<br>L:1/8<br>Q:1/4=10 0<br>M:2/4<br>K:A
▁F) A
▁d( e/d/)
▁f>a e>c
▁{ GA}
▁{ ^c}
▁(dB) AF
▁D, ,
▁Bed f
▁.A .B
▁(c/d/ ec)
(A GA)
).d .f
▁a>e "D"
▁FAD d
▁(3c (Ac)
▁dec 2
▁D>G B>d
▁B,C B,
▁B,C DF
EC ]2
▁X:1<br>L:1/8<br>M:2/4<br>K:A b
▁FDEF "D"
▁X:1<br>L:1/8<br>Q:1/2=9 0<br>M:2/2<br>K:A
▁(cB )(AB)
▁Te2 >d2
▁c>Bc e
AB) }
▁X:1<br>L:1/4<br>M:2/2<br>K: Gmin
▁X:1<br>L:1/8<br>Q:1/2=10 8
▁c>de >a
▁A/c/ e
▁(DE) F
▁c>dc >d
▁(d/ >c/)
▁::"^B" "C"
▁c/A/ G/F/
{ag} a
▁(fd B)
g/g/ g/
{ef} e>c
▁d2>e2 d2
)(f A)
pl et
(3( efg)
▁GG/G/ G
▁X:1<br>L:1/4<br>Q:1/4= 6
▁[eA ]3
d/e/f/ d/
▁dz e
ol d
▁"^Slow ish"
▁CB,A, B,
▁F,/ F,/
▁(DG) BG
▁(3Bc e
▁^c/d/ e
▁[K:F] "^C""F"
▁(5 :4
)(D G)
▁"G b"
▁time ."
▁d<BA >F
▁::[K:F] "^C""F"
.F.F .F
\n\n "
▁c^ Bc
▁.B.A .G
▁(! slide!
langs am
▁d'/c'/ b/a/
▁(3d' c'b
▁B>GD >B,
▁(c/4d/4 e3/2)
▁B/d/c/ e/
▁dan ce"
▁"^Vo orspel"
▁"^Gai ly"
! wedge!f
( {f}
( BG)
- ])
2 F
= B}
> .B
> )(B
A /8
B /8
B 3/2)
F <A
L ast
T g
T AG
T c>B
[ cA
[ DA
^ cB)
_ c
d BG
d D]
e F
e <c
l at
{ A,}
▁d d/^c/
▁A ab
▁A EFE
▁A 7/2
▁B d/f/
▁e efd
▁e "Bb"
▁e Gd
▁G 5
▁c d/
▁c zc
▁g /4a/4
▁( ^de
▁E B/c/
▁E "Am"
▁A2 S
▁A2 af
▁G2 E
▁G2 "_>Teil
▁G2 A>B
BA >B
▁(3 E/F/G/
▁g2 ba
▁b BgB
▁b g/a/b
▁dc "D7"
▁[ ED
▁a2 eg
▁a2 (3
▁C <c
▁fd gB
ec 2
▁:|2 "B7"
▁A3 "D7"
▁FA f
"^ arco"
▁. B,2
0<br>M: 7/8<br>K:
▁fg ge
▁cBA (G
▁A/ _B/
▁AB C
▁ef {a}
▁eg g2
)( EC)
▁d/ G/
b" C"
▁(A ^G
][ de
][ eB]
A, "
▁ge BA
▁ecA "E"
▁G/ >B/
▁T gf
▁T B>c
▁gfe "D7"
"A dim"
▁ABA "D"
▁B4 {G}
▁afd 2
▁afd ^c
G, D
G, >B,
▁FE G
▁|"^ G/b"
). E/
▁e>d cd
▁B>A "D"
EG ]2
▁E/ >G/
▁AA GE
▁A> =c
▁B< ed
▁(B D)
▁gec f
▁c< aB
▁(c >e
▁d< F
▁A/B/ )
▁f>e e
▁B> fd>B
▁A>c f
▁(3efg "A"
▁ff fg
▁F>A A
▁^F >A
▁AE BE
▁(B/c/ )(d/B/)
▁X:1<br>L:1/8<br>Q:1/8=18 0<br>M:6/8<br>K:F
▁F>E E
▁B>cd >g
▁c>BA B
▁^cd cB
B,/ )
0<br>M:3/4<br>K: none
▁BAA f
▁f) c
▁=f efd
▁Aa ae
▁(3(A BG)
▁(G2 F2)
▁[AF ][BG
=f ^f
▁[cA ][dB
]/[ Ac
▁(fd) B
▁(de) f
▁(dB) GB
▁D, 6
▁|]: "A"
▁dD AF
▁[ec ][dB
▁(BA Bc)
▁[dB ][
▁[Ec ][Ec]
▁[ee ]d
▁|"^( F#
▁be ae
▁d2f2 a2
▁^GA BA
▁.A2 )
▁(. D.
Gc G
▁(fe /d/)
▁X:1<br>L:1/8<br>Q:1/2=9 0<br>M:3/2<br>K:
▁(3G ED
di m)"
▁Tc >BA
"^4" d'
(e a)
7/ D"
▁X:1<br>L:1/8<br>Q:1/2=8 0<br>M:2/4<br>K:G
▁X:1<br>L:1/8<br>Q:1/2=8 0<br>M:2/2<br>K:F
▁(g/a/ b
▁GFD B,
▁X:1<br>L:1/8<br>Q:1/4=14 0<br>M:2/2<br>K:D
▁X:1<br>L:1/8<br>Q:1/4=9 0<br>M:2/4<br>K:G
▁Tf >
▁a2a2 a2
▁Bc/B/ A
<br>M:3/4<br>K: G
.E .D
▁!slide![ DD
▁(v d
▁a>ba >e
▁[EG ]4
▁X:1<br>L:1/8<br>Q:1/4=11 0<br>M:4/4<br>K:G
▁X:1<br>L:1/8<br>Q:1/4=11 0<br>M:2/4<br>K:G
▁(f/e/) d
▁BFD B,
▁EGD c
▁cd/c/ B/A/
▁|[M:6/8][K: G]
▁(eg )(fa)
▁[eg ]2[
▁X:1<br>L:1/8<br>M:3/2<br>K: F
▁X:1<br>L:1/8<br>Q:3/8=9 6
▁X:1<br>L:1/8<br>Q:3/8=9 0<br>M:6/8<br>K:F
▁X:1<br>L:1/8<br>Q:3/4= 80<br>M:6/4<br>K:
▁B>D A>D
▁DAA D
▁D2G2 G2
{^ G}
▁X:1<br>L:1/4<br>Q:1/2=10 0<br>M:2/2<br>K:G
▁(EF /G/)
▁B{c} B
▁[F, A,]
▁"^Andant ino"
▁(G/A/B) G
▁[AD, ,]2
"_a" a
▁EA,A, G,
▁a!p! !p!
▁(e/f/g )(e
▁f<ae >c
▁AB/ ^c/
▁G,< G,
▁X:1<br>L:1/8<br>M:none<br>K: D
][M: 4/4]
)(dc )(BA)
▁B>df >b
▁sharp s
▁(f/4g/4 a3/2)
"_S egue
▁.g.f.e .d
▁e<Ae >c
▁"^A""^ge tragen"
Ech o"
▁c<aB <g
) )
0 )"
1 0<br>M:6/4<br>K:
4 <br>M:2/4<br>K:G
B [c
D G,]2
E ,2
E A]
T f>e
[ I:MIDI=
^ AB)
b 3
c _B
e >G
g 4
▁d DEF
▁d e/c/
▁d FDF
▁A =f
▁A "B"
▁A "Eb7"
▁B {G}
▁B "B7"
▁B 12
▁e BAB
▁e ^ce
▁e nd
▁G 7
▁G =B
▁G "^/"
▁c (d
▁c "^/"
▁c f/f/
▁c "_b"
▁c G/c/
▁f fa
▁f cBA
▁f ^f
▁F ed
▁F BG
▁F =F
▁F A"^
▁( 9
▁E "A"
▁E EG
▁E A/B/
▁D 12
▁a AB
▁d2 "C7"
▁A2 ef
▁A2 "Am"
▁G2 {c}
▁G2 GD
▁e2 fedB
▁(3 cB
▁(3 f/e/d/
Bc /
▁BA "Am"
▁D2 GF
D" Cm"
▁b A
▁b <B
▁dc 2
▁dc AA
▁dc {c}
▁[ ae
fe /d/
▁cA D
▁AG cA
▁AG A"Em"
▁a2 ed
▁a2 ae
▁dB B2
▁fd /c/
▁BG ^F
A" C7"
▁d3 {gdc}
▁AF ec
▁cd dd
▁^ C/D/
ED 2
"^ *
▁GF DG
▁B, ED
▁ec "Bm"
▁= GG
▁= c)
▁= G>A
▁A/ E/
▁Bc "G"
)( cA
)( c/B/)
▁EF ^F
▁efg fed
b" F"
{g fe}
▁de A
▁dBA F"G"
a/ c'/
▁ED DG
"A m/C"
▁ABA c
▁|{ d
▁|{ GAG}
▁AFD D
{g} fd
▁gfed "G"
▁afd d
▁FG -
▁|"^ #"
▁d> BAG
▁DFA g
▁GAB B
▁(d a)
▁gb gf
▁G>A BA
▁G>A GB
▁dd "G"
▁d/c/ A/c/
▁AA ec
▁AA BG
▁A>B "G"
▁DEF 2
▁A> F"A7"
▁_ c2
▁agf =e
▁c>d eA
▁c>d f>g
▁A,2 c2
▁D/ E/D/C/
▁a/ ^g/a/b/
▁(c Bcd)
▁B/A/ F
^F G)
▁(e ^f
▁(e <c
▁c>A d>B
▁c>A G>E
▁f> )
▁c'2 e2
▁G6 )
▁EA GA
▁B> ba>g
▁B> (G{A}
▁v F2
▁u b
▁B>d "A"
▁A>c F>A
▁A>c f>a
▁B>G G>B
▁FF ED
▁F>G E>F
▁=c eg
gd <g
▁F/G/ AD
Bg ]4
"^B" "D"
]/ >[
▁(gf )(ef)
▁d) ed
▁c>e "G"
▁EE GB
▁a>f b>f
▁E/F/ GG
▁aA g
▁d>ed >e
▁Gg gd
▁d'2 a2
▁||[M: 4/4][K:
▁[FA ][GB]
▁::[K: Dmin]
▁^f 3/2
▁c<e "D"
▁geg d
]/[ FD
▁(f2 a2)
▁AGG g
▁[G, G][
▁.B .G
▁[d G,]2
▁a< AA
▁e^d cB
{F} E
▁ADD c
▁|"^( C
▁[df ]d
a/b/ g/
B/B/ B/
▁!slide! f2
▁(. E2
▁[e A,,]
).e .g
▁(3B BA
▁X:1<br>L:1/16<br>Q:1/4=1 12
▁FDEF "G"
▁e2c2 A2
▁B( B/c/)
]6 -
▁gG fG
▁(cd c)
▁(C A,)
{fg} fe
▁[FD ]4
▁A" C#7"
▁(dc)( BA
▁A,/ G,/
▁X:1<br>L:1/8<br>Q:3/8=10 4
▁B^ GB
▁A>GA >c
▁X:1<br>L:1/8<br>Q:1/4=9 0<br>M:3/4<br>K:
▁X:1<br>L:1/8<br>Q:1/4=9 0<br>M:4/4<br>K:D
▁(g/f/ ).e/.d/
▁c( d/e/)
▁[fA ][eG]
▁(cA )(
▁(cA ).F
▁AFGE "D"
▁X:1<br>L:1/4<br>Q:3 /4=10
▁EGA E
▁a>A A
▁.!fermata!PMTuCO (3(M
▁(B/A/ G/F/E/D/)
G"^ /"
▁FDE ^C
▁FC FG
▁S pirit
▁e2A2 A2
▁b>ag >e
▁[F f
▁X:1<br>L:1/8<br>Q:1/2=7 0<br>M:4/4<br>K:G
▁(c' 4
▁e2( fe)
▁c= BA
▁^ce ae
▁X:1<br>L:1/8<br>Q:1/8=10 0<br>M:3/4<br>K:G
"^A 1"
▁g^ fd
▁X:1<br>L:1/8<br>Q:3/8=8 0<br>M:6/8<br>K:C
▁f2( fe)
>F/ )
▁|][M: 2/4][K:
▁D2F2 A2d2
▁X:1<br>L:1/8<br>Q:1/8=14 0<br>M:6/8<br>K:G
▁BFF F
▁A/B/A/ B/
▁(gb) ag
▁d>Bd >e
dit ed
[Q:1/8= 80]
"^(F 7)"
▁"^moderat o"
{= B}
▁b/a/g/ a/
▁|:"_ Brisk"
▁|"^D C"
▁.d.c .B
▁d'/ d'/
▁[AE ]3
).B/ .c/
▁c>cc >c
"^P art
▁=FD E
▁([FA -
▁e{f} g
▁"^C heer
"E/ A"
▁.G2( GA)
-- --
▁g>^fg >a
▁"^R ather
▁X:1<br>L:1/16<br>Q:1/8=8 0<br>M:2/2<br>K:none
"^0 "A
▁boo k"
, G,]
. G2)
2 a
4 /8<br>K:
A C]
C ]/
] e
c <
c 3/2
g [
i ge
i ce"
m A
p art
v g
▁A fa
▁A ^g
▁B "Bb7"
▁e BcB
▁G ga
▁G zd
▁G GEG
▁c "F#m"
▁c {d}A{e}A
▁f "G7"
▁g BA
▁g "F"
▁g (e
▁( bag
▁D "Em"
▁D fed
▁a =ge
▁d2 ec
▁d2 AB
▁d2 {gdG}
▁A2 [
▁A2 ec
/4 c/4)
ed /
▁(3 d/
▁g2 f
▁f2 {gef}
▁f2 "^tr"
▁ed "D7"
G" F7"
▁D2 FE
▁F2 D
▁F2 G
▁F2 AB
▁F2 C2
▁b ec
▁b BbB
▁E2 GE
▁E2 AG
▁[ M:1
▁AG A2
▁a2 cA
▁C FE
▁fd =B
▁AF ^D
▁^ D/
"^ o"
▁B, F,
▁fg dB
▁A/ >c/
▁d/ b/
▁Bcd F
▁Bcd "D7"
▁df Bc
▁c/ _B/
▁ED G
▁ED /D/
▁ge =ce
▁GB B2
▁T dc
▁ABA A
▁AFD B
^c ^d
▁DE CD
▁eA (3AAA
▁FG DG
f/e/ f/)
▁GBd ^c
▁e>d cA
▁BE Bd
▁EG DB
▁(d >ed
▁(d /4c/4
"E bm"
▁AFA f
▁DF FD
▁cBc f
▁A> )B
▁ga ^f
▁GG c
▁f4 )
▁!fermata! G,
▁efe "E7"
▁D/ B/
▁d>e g>e
▁a/ )
▁c< fA
E2 -
▁AGE "G"
{d} G/
▁gedB "D"
▁gedB {d}
0<br>M:4/4<br>K: Edor
▁A/B/ cc
^d ]2
▁f>e "G"
▁a>g {a}
Bc) }
▁GFE A
▁f>d B>G
bg >e
{e} d2
▁(f =e
▁(f <e)
▁f/e/ )
▁Bg ge
▁c> cd
▁EA DA
▁c/B/ )
▁B> G"D"
FF )
▁G,2 G,2
▁u ca
▁C3 )
▁F>A G>B
▁Gc GE
▁fdf "G"
tr ain
▁efd 2
DEF }
{A} D
▁B) B
g) f
.A .F
▁(BA) A
▁Af fA
▁BD cD
▁(d2 B2)
▁deg f
▁dF B
▁^G 3/2
▁(a d
▁(a <f
▁G) E
▁([ C
▁g>a {ga}
▁CD CB,
▁(A/ B/c/)
▁=f c
▁=f ^f
▁BEE e
▁[AF ,,]
▁X:1<br>L:1/8<br>Q:1/4=10 0<br>M:4/4<br>K:Ab
Be BG}
▁d( d/e/)
▁d( B/c/d)
▁_B -
▁fagf ed
▁{ E}
▁b>g a
▁e^d fe
▁(GF) G
▁"_ M
▁=g 4
▁=cA AG
{b} ag
▁gA Bc
▁[fd ]2[
▁(. b
▁(^ d2
▁BAGE "D"
▁(Bc /B/)
▁(ag /f/)
[Q:1 /4=120]
▁X:1<br>L:1/8<br>Q:1/2=9 0<br>M:2/2<br>K:F
▁(u e
>A, )
▁d/B/ A
▁gG g
▁^A 4
▁(EF) G
▁X:1<br>L:1/8<br>Q:1/2=8 0<br>M:2/2<br>K:C
▁(c/ d/c/B/)
▁^cA ce
▁(dB ).A
▁f>ef a
▁[K:G] "D7"
▁X:1<br>L:1/8<br>Q:1/4=14 0<br>M:2/4<br>K:D
▁d2( ed)
im o"
<br>M:2/2<br>K: Emin
▁(3E CE
▁X:1<br>L:1/8<br>Q:1/8=15 0<br>M:2/2<br>K:A
▁G( B/c/)
▁EAc f
▁[EG ][DF]
>( f2
{gBd} B2
▁X:1<br>L:1/8<br>Q:1/4=11 0<br>M:2/4<br>K:D
▁(3(cd B)
>G, /
▁:|[M: 2/4]
▁e2( ef)
▁A>FD >c
▁G2( GF)
▁G>d B>d
▁(B, E
▁X:1<br>L:1/8<br>Q:3/8=9 0<br>M:6/8<br>K:C
▁(g/f/) e
▁=C 3
-] ([
▁(ce ).c
▁"^( G)"
{g}c {d}A
▁E2A2 A2
▁a/f/ a/f/
▁(A/G/ F)
▁c>ed >B
▁GBE g
▁e=c gc
▁W alzertempo"
▁(3:2:1 T
{d cB}
▁f>de >^c
▁"^G raceful
][B, D]
▁X:1<br>L:1/8<br>Q:3/8=112 <br>M:6/8<br>K:G
▁(3^c BA
▁ace a
▁B/g/ g
▁A,>CE >C
▁(A/4B/4 c3/2)
"_d .C."
▁dB/ ^c/d
▁c'ee 'e
▁"^Animat ed"
▁BG/ A/B/G/
"_-6 ,
( BA
( GB)
1 0
6 /4
6 <br>M:2/4<br>K:
= ef)
= A)
= B/c/)
B F]
G f
T f
T c2
] "^C"
^ g/a/)
c C]
e )"
f #"
m f"
t h"
▁ K
▁ -"
▁A 5
▁A S
▁A {B}A
▁B B2
▁B G"^
▁e "E"
▁e zd
▁G (A
▁G c/e/
▁G D/D/
▁c a/g/
▁f >G
▁f "E7"
▁f c/c/
▁f Bce
▁g d/e/
▁g (d
▁g e/e/
▁g e/f/g/e/
▁F CD
▁F ^A
▁( CD
▁( =Bc
▁E >f
▁E "Bm"
▁D )(
▁D C/D/
▁D =C
▁d2 FF
▁A2 >e2
▁A2 "^tr"
▁A2 AE
▁B2 ba
▁B2 >F2
▁c2 "^+"
▁e2 "Am"
▁e2 e>f
▁(3 .
▁(3 a2
▁(3 fa
▁ed (3Bcd
G" E7"
▁BA G"Em"
▁D2 g2
▁D2 "D7"
▁D2 A,2
D" F"
▁b fed
▁E2 "Am"
▁dc G
▁dc A"C"
▁[ ^cA
▁[ ^FA
▁cA DF
▁a2 {f}
▁dB {c}BA
▁C >B
▁BG AD
▁BG /E/
cA B
ag fe)
▁GA de
▁G3 "C"
▁^ dd
g/ c'/
"^ t
"^ A/c
af ]
▁B/ >d/
▁gf ba
▁ec c2
▁ec "E"
▁ec {d}A
▁= dB
▁= EG
▁= CE
▁A/ (
▁AB =cd
▁ABc A"D"
)( a>f)
▁A, =B,
▁|"A #"
▁df cd
▁efg "A"
▁fe "A7"
▁de "D"
▁|"A" {g}
▁GB gf
▁(3( B/c/d/)
▁fa "A7"
▁C2 >D2
▁c' A
▁ABA "A7"
▁|{ Bd}
c' f
▁dg gb
▁"^ /
▁gfed "D"
G, C
▁FE B
▁FE d
▁|"^ F"
▁e>d B>c
▁AD BA
F2 F2
▁BAB ^d
▁X:1<br>L:1/4<br>M: 3
▁AA cd
▁AA fA
▁cBc a
▁A> G"D"
FD E
▁B< Be
▁(3d cd)
▁f4 {g}
▁efe 2
▁D/ -
▁D/ A/
▁(B <
"_ es"
▁d' >
^cd }
▁(c 8
▁(c F)
^g >a
▁(g <a)
▁(3g )
▁(3g dc
▁A/B/ d/F/
▁a>g fa
BA) G
▁F, >D,
{e} dB
▁f< BB
▁e>c "G"
▁^c Bc
▁defd "A7"
▁B> Bc
▁u [
▁gg gf
▁A>c BA
▁g>f "C"
(3 BAG
▁G>B G>B
▁[A D]4
▁FF FA
▁AE cB
▁=c g
▁(D B
▁(T ag)
▁(T B>A
{B} c
▁(cB) AB
▁DGG c
▁e) A
▁DB, C
▁B,D A,B,
▁G> GA
▁ac ge
▁d'2 b2
▁C/ )
▁B>cd >f
▁A>d c
▁aba =g
▁g>d e>c
▁d>ef /g/
▁A>Bc /d/
▁(b >g)
▁Aa Ba
.g .f
▁[cA ][AF]
▁(gf) ge
▁g/a/ )
▁[ce ][Bd]
▁[AA ][AA]
▁[G C]2
▁(fd) ad
▁D, C,
▁^g fg
▁(Bd) cB
C, ]3
▁(cA) ce
▁=g ed
▁.B2 .B2
▁.e2 .d2
▁Dd de
▁G2B2 d2
▁:|"^ Variations:"
▁B( c/B/)
▁(u Bc)
▁b> af>d
).A .d
▁EA, CA,
▁X:1<br>L:1/8<br>Q:1/4=120<br>M:6/8<br>K: Bb
▁f>A "A"
▁[dF ][cE]
▁F2A2 A2
▁(d/ e/f/g/
▁X:1<br>L:1/8<br>Q:1/2=8 0<br>M:2/2<br>K:Bb
▁(g/a/ b/a/)
▁=B2 )
▁B^ df
>) F
▁(dB )(dB)
▁^fg ec
▁(A/B/c) d
▁[Bd ]3
▁[ge ][ge]
▁g( e/f/g)
▁(af) a
▁e/g/ e/d/
▁X:1<br>L:1/8<br>M:3/4<br>K:A b
▁X:1<br>L:1/8<br>M:3/8<br>K: Bb
▁B2c2 d2
▁A2( dc)
▁eE GB
▁(ec BA)
▁S egno"
▁S chottisch
▁A>Bd >A
▁X:1<br>L:1/8<br>Q:1/8=120<br>M:6/8<br>K: A
▁B2( BA)
▁(BG )(AF)
Qu ad
▁e= dB
▁c2( ec)
▁G>g d>e
▁e/d/c/ =B/
▁(B/ ^c/
▁[M:2/2][K: A]
hor npipe"
▁[a c']
▁EF/G/ A
▁cFF G
▁bd' c'b
▁(G/F/ )(E/D/)
a/4 b/4)
▁C8 -
▁B<GG >A
▁(_ B2
▁Afd A
▁|"^(D m)"
▁B,G DG
▁gg/f/ e
▁|! <(!
▁fcc f
[GB] -
▁X:1<br>L:1/8<br>Q:1/8=13 0<br>M:6/8<br>K:D
.G/ .A/
▁[GB, ]3
▁Bd/c/ B/A/
▁:|2[M: 2/4]
▁b( a/g/)
▁X:1<br>L:1/4<br>Q:1/4=120<br>M:4/4<br>K: C
▁c<eA >c
:2: 9
▁[M:3/4][K: G]
▁.d/ .c/
▁th is
▁B=g dg
▁|"^4 5"
▁(TG >F)
"^H "
▁(c/d/e ).c
8v a
]/[cE ]/[cE
▁(3(c/ d/e/)
][DD ]
▁(3ce a
▁(3.F .G.A
aus e"
▁Schottisch e."
" F#/D"
( d'
( f/e/)
, ]4
5 <br>M:6/4<br>K:
< D2
= cBA
= cc
> .a
> g/)
A P
E 3/2
T d>c
[ Be
[ Q:3/8=128]
[ ac']
a fd
b B
c [
h o
h er
r d
r u
v B
v o
▁ V
▁B f/g/
▁B =B
▁G cde
▁c ^d
▁f )(
▁g f/
▁F "Am"
▁F =G
▁F CC
▁F "Ab"
▁( G/B/
▁E c/d/
▁E D"A"
▁E cdf
▁a _
▁a d/e/
▁a (3
▁d2 "_c"
▁d2 "_>Teil
▁A2 >g2
▁A2 /3
▁G2 S
▁G2 cB
▁G2 "C7"
▁B2 GG
▁c2 "Am"
ed }
▁(3 a/g/f/
▁g2 ed
▁g2 A2
▁g2 gd
▁f2 AB
ef ]
▁BA "C"
▁BA =G
▁D2 ED
▁X:1<br>L:1/8<br>M: 5/4<br>K:
▁b g/b/
▁[ ed
▁cA "Bm"
▁cA G"D"
▁AG c
▁:: "E"
▁fd /
▁fd fe
A/ B/c/A/
e/ d/c/)
>A G
>A {A}
▁Bd cBA
▁Bd ^ce
▁AF D"D"
▁FA A2
▁= f/e/
▁= c/B/A
▁A/ D/
GB }
▁ABc "D7"
)( cd
)( eg
)( a/f/)
▁EF G"D7"
▁FD B
d2 A2
▁fe ea
▁ce eA
▁cB ed
▁(A BAG)
][ G,
▁dBA D
▁ED F
▁(3( Bcd
▁(3( df
▁T [
▁T G>A
▁dBG f
▁f/ c/
▁BAG d
▁dg ({a}
^c =c
▁gfg "A"
{g} fg
▁gfed "C"
▁e4 "G"
▁B/c/ dA
f/e/ d/c/)
▁|"^ P"
▁BE AB
▁(d >A)
▁(d /4e/4
▁gb ba
▁DG -
▁DG ^FA
▁d/c/ Bc
▁d/c/ =B/c/
▁A> ^
▁A> F"D"
▁B,2 A,2
▁cde (f
▁_ e>d
▁B< Bc
▁X:1<br>L:1/8<br>Q:1/8=1 16
▁g> bf
▁c< dB
▁BAF f
▁|"C7" "_b"
▁e> ag>f
▁e>f "D"
▁!>! a3
▁X:1<br>L:1/8<br>M:4/4<br>K:A b
▁BcdB "C"
▁dBGB "D"
▁dBGB "Am"
G/A/ B/c/
▁e>c B
▁d/e/ )
▁v C
C/ F/
C/ D/E/
▁fA aA
▁B3/2 )
fe) d
"^( c)
▁efed "A"
▁a/g/ f/a/
▁[D Af]2
▁ABG 2
▁AGAB "D7"
▁d) A
▁(D ED)
▁(T ed)
.A .c
▁E< g
▁dfa d
▁BD AG
▁BD BD
▁g/f/ d/B/
g/f/ )(e/d/)
▁([ FD
▁ac ga
▁ac ac
▁Gg ge
▁A>d f>e
▁g< G
{/ ^c}
▁g>d g>b
▁D> ^F
▁(b d'
▁Aa ed
▁.d2 .c2
▁FDF B
▁(ed cd)
▁c<e a>e
▁[ce ][ce
▁[AA ,,
]/[ e
▁cee "D"
▁G>E C
▁Ec DB
▁g) fed
▁[dB ][ec
▁(cA) A
▁=g >
▁P dc
▁|"_ #"
▁A( D
▁E>A c>e
▁E>A A>G
▁s ig"
▁(^ GA
▁:|"^ S
▁:|"^ V
▁(Bc BA)
▁(E2 {FE}
▁(cd )(cB)
▁A,C F
▁X:1<br>L:1/8<br>Q:1/2=10 0<br>M:2/2<br>K:C
▁B>e g>e
Bf ]
▁G>D B>G
▁c( d/c/)
▁TB >cd
▁m oderato"
▁|"G maj7"
▁|{/ b}
g/g/ g
▁[M:6/8][K: Emin]
▁Ed cd
e/4 d/4)
▁.abc [Q:3/8=128]
▁a>gf <a
▁(E/F/ E)
▁A/F/ D/F/
▁B/G/ A/B/
(3( cBA)
"^D al
▁"^B" "G"
▁(DF) A
▁[M:4/4][K: Emin]
▁"^V ivace"
C/B,/ C/
▁=d 3
▁gBB g
▁F/G/A/ G/
>v f
▁(G/ ^F/)
▁(fa )(fd)
▁[BE ]4
▁[g G]2
▁Gcc G
▁e^ fe
▁(ea) ag
▁c<AA >c
▁X:1<br>L:1/4<br>M:2/4<br>K: C
▁f>ec >e
▁F/E/D/ F/
▁d2D2 D2
▁g{a} g
▁f<dd >e
▁[ee]3 )
▁b/a/g/ ^f/
F/D/ )
C,/ C,/
▁X:1<br>L:1/8<br>Q:1/8=120<br>M:2/2<br>K: D
▁c2c =B
▁E=C CE
▁(3(E GB)
▁.d.e .f
▁[A,F ]4
▁e>ee >e
▁X:1<br>L:1/16<br>Q:1/2= 6
▁.f/ .g/
IN E"
▁ec/ d/e/c/
]/[GE ]/
▁slow ."
▁(9 :2:9
( ud
- ]3
4 "A
5 <br>M:2/4<br>K:G
6 /2<br>K:
8 <br>M:2/4<br>K:D
> Bd
A b7"
A E]
E b7"
E /4)
F ]3
T d>B
^ e)
b ]2
d >d
l ay
l ternate
n ot
s ,
v f
▁d GF
▁d DF
▁d 12
▁A ^cd
▁A eee
▁B "Bb"
▁e <b
▁e B/c/
▁e "^/"
▁f g/e/
▁f fec
▁g =e
▁g zg
▁F "Bb"
▁F {G}
▁F G"A"
▁F CEC
▁E [
▁E dd
▁E "E7"
▁E "G7"
▁E {G}
▁E G/G/
▁E G/B/
▁D G/F/
▁D (E
▁D F"A7"
▁D (3DDD
▁a "D7"
▁d2 ag
▁d2 "^*"
▁d2 >=
▁d2 ^d2
▁A2 dA
▁A2 {gef}
▁A2 >f2
▁A2 "Eb"
▁A2 {gcd}
▁A2 {Gdc}
▁B2 B
▁e2 [
▁(3 DD
▁(3 .B
▁(3 GBe
▁g2 >c2
▁f2 aa
▁ed "Em"
G" Bb7"
▁BA af
▁D2 D
▁D2 >G2
▁b <a
▁E2 D
▁AG cB
▁:: "E7"
▁C GG
▁fd "E7"
cd A
▁BG G"G"
>A B
▁GA "Em"
>B {B}
▁ag gg
▁^ Bc
▁^ G)
▁^ G,2
▁FA e
▁FA BF
"^ D.
"^ D/f+"
▁fed "Am"
▁B/ d
▁A/ G
▁def B
▁ABc "E7"
)( c'b)
▁Ac )
GF GA
▁df c
▁GE "Dm"
▁(A cBA)
▁de ef
][ _
▁f3 "A"
dc c
▁G/ >
▁(3( bg
▁fa bf
▁gfe "Bm"
"A m/E"
▁c' d'c'
▁ABA GFE
ge "D"
▁|{ ce}
c' A
c' >a
▁dg -
▁DE ^F
▁DE B,D
{g} dc
▁bg dc
▁F/ >
▁FE A
▁FE CB,
▁dcBA G
▁(d F
▁(d cA)
▁G>A ,
20<br>M: 3/2<br>K:
▁AA a
▁DEF d
▁ga af
▁dcd efd
▁cc -
▁d>B e>c
▁B/A/ F/A/
{d} G3
▁(g ec)
▁(g /4a/4
▁(F c)
▁f/g/ f/g/
▁(3g fd
ba ss
▁a>g fe
▁a>g b>g
▁BGB "D7"
▁c>B G
▁F, )
c/d/ e)
▁d/e/ dB
▁d/e/ d/^c/
▁B> ^cd
▁B> =A
▁B> "_c"c
▁ee -
▁a> ed
▁c/d/ ee
▁ae ec
▁[M: 3/4
▁edef ge
(3 DEF
(3 ccc
"^( B)"
▁g>e b>g
▁[A D]3
▁Gc EG
▁F< c
▁d>f c>f
▁AAA e
▁fB fB
▁c>e a>g
▁[K: Eb]
▁(T d2
▁(T AG)
▁fdcA "G"
▁(dc) df
▁(a >
ar d
ar k
▁f>ed B
▁([ ee
▁aA ag
▁dedc "G"
▁|:"^ M
▁|:"^ Irish
▁CD B,
▁||[M: 5/8]
▁[FA d]2
▁X:1<br>L:1/8<br>Q:1/8=2 6
▁c>BA c
▁(A/ B/c/
▁(A/ G/F/
▁(A/ d/)
▁g< dd
▁Gd cA
C2 )
▁ca ag
▁d>g d>B
▁(b e)
▁B<d G>B
▁[cA ]>[
▁X:1<br>L:1/8<br>Q:1/4=10 0<br>M:2/2<br>K:D
AD )
]/[ DF
▁GGG D
▁[G C,,]
▁||"^ B
▁d( c/d/)
▁F>D F
▁(f2 d2)
▁fdc =B
▁(BA /G/)
▁M a
▁ADD d
▁|"_ F"
▁FAD c
▁C, >C,
▁|:"^A" "F"
▁|:"^A" "Dm"
▁(^ f/g/)
wedge !f!
▁(u cd)
▁X:1<br>L:1/4<br>M:2/2<br>K: Amin
il l
(e >d)
▁X:1<br>L:1/8<br>Q:1/4=120<br>M:6/8<br>K: Emin
▁^A >B
▁.a ve
▁A,/ C/
▁(= cB)
)(g >a)
=d ^d)
▁[M:3/4] "^Trio"
▁(DF )(
▁.F 4
▁GBc A
▁[ge ][ec]
▁(G/A/) B
▁X:1<br>L:1/8<br>Q:1/4=120<br>M:3/4<br>K: A
▁a>a a
▁c'/ d'/
ine ^"
▁e/g/ g
▁[M:2/4] "^B"
▁X:1<br>L:1/8<br>M:3/8<br>K: A
)(f >d)
▁(BA)( B
▁(A, D)
>( A2
▁.F2 .A2
{E} D
▁X:1<br>L:1/8<br>Q:1/4=8 8<br>M:2/4<br>K:
▁(BG ).G
▁G/E/ D
▁G>g d>g
▁[M:4/4][K: A]
▁TF >ED
▁g/f/e/ g/
▁X:1<br>L:1/8<br>M:3/2<br>K: C
][E A,]
▁X:1<br>L:1/8<br>Q:1/4=16 0<br>M:4/4<br>K:D
G/4 A/4)
▁(3C EG
▁X:1<br>L:1/4<br>Q:3/4= 5
0<br>M:6/8<br>K:A b
▁.D 6
▁=C EG
▁A^c eg
{g}B {d}c
▁cFF c
▁(ab a)
▁(c<A) A
▁A>FA >B
.e2 .d2
▁=cd ed
▁C>C C
▁F>EF >A
▁f8 -
▁a=g ed
▁|"C 6"
[Q:1/8=180] .
▁[dG, ,]2
▁caa c
▁X:1<br>L:1/8<br>M:6/4<br>K: C
▁(3AB =c
"_#" G
▁::[K:A] "A"
{gd ed
▁X:1<br>L:1/4<br>Q:3/4=100<br>M:6/4<br>K: G
▁.D. E
▁[cc ]
▁|"^(E )"
c'/d'/ )
▁X:1<br>L:1/8<br>Q:1/2=75 <br>M:2/2<br>K:G
][C c]
▁G/e/ e
str um
"_D C"
▁fe/ ^d/
▁[M:9/8][K: G]
edit orial
▁(3cd ^d
▁(efg a)
▁(3(fd f)
▁[EC][ FD]
▁(3(FA F)
▁bed 'e
▁a>Ag >A
▁(BAGF ED)
strum ent
" C/
( E/
/ a/g/f/
> )(d
> )(e
D f
G ).E
M a
^ D2
a ve
v G
y m
▁ '
▁ 4"
▁ {gAGAG}
▁d "^tr"
▁A zd
▁A c/B/A
▁B c/A/
▁B fAf
▁e {d}
▁G BcB
▁c B/B/
▁c "Eb7"
▁g ze
▁F ^F
▁D A/A/
▁d2 d>e
▁A2 "B7"
▁A2 "C#7"
▁G2 B
▁G2 f2
▁B2 "Eb"
▁c2 "^/"
▁c2 {Bc}
▁e2 b2
BA /B/
ed ef
▁(3 FA
▁(3 Ac
▁(3 d/c/B/
▁z "G7"
▁g2 {fg}
▁f2 "D"
▁BA DA
▁F2 dc
▁F2 "Ab7"
▁F2 {GF}
▁b =
▁b re
▁|| "Db"
▁dc {/d}
▁cA GG
▁cA ea
▁AG G2
▁C /4
▁C cB
A/ B/A/
▁BG gB
▁BG ^FG
Bd d
Bd i
A" G7"
▁d3 "A"
▁|] "^A"
▁AF /
▁:|2 {g}
▁^ c'2
▁^ gfed
"^ G/
"^ D/
"^ em"
▁B, BB
▁gf "Em"
▁AB FB
▁ef =ge
▁eg be
▁ABc a
)( e/f/
)( e>c)
▁A, G
▁Ad =c
▁Bcd "E7"
▁ce {g}
▁e/ ^
▁e/ c/e/c/
{g BeBG}
▁cB "A7"
▁GE ed
▁GE {G}ED
▁(A GA
▁(A >F
][ g
▁ED /C/
▁b2 "D"
▁C2 CD
▁dBG {A}
▁f/ d/e/c/
G2 A
▁af =ge
▁ABA F"G"
▁|{ ab}
c' c
▁G, ,3
▁dcB {c}
▁"^ NB1"
▁DE -
▁DE =F
{g} de
▁FG ,
▁|"E dim"
▁GBd d
▁|"^ 5
▁|"^ ?"
▁edB f
"B 7/D#"
▁(d fd)
▁(d Bd)
"E "B
▁E/ =F/
agf ed)
▁A> (c
▁A> ec>A
▁_ BAB
▁GG dG
▁X:1<br>L:1/8<br>Q:1/8=1 20<br>M:9/8<br>K:
▁A< AB
"_ NB2"
▁B>c Bd
▁cAA ^G
▁a/ >
▁a/ c'/
▁B/A/ B/c/d
▁AGE c
▁(g <f)
▁(e >a)
▁c>A c<e
▁A/B/ cd
▁e/f/ gg
▁F, F,/
0<br>M:6/8<br>K: Bmin
^f ^g
▁G/A/ BA
▁(f B
▁(f <b)
▁f/e/ c/A/
▁Bg -
▁e>c {d}A
▁B> (c
▁fA eg
▁fA ce
▁A6 )
▁G>F E>G
▁A>c "G"
(3 EEE
(3 .d.d.d
▁[E B,]2
▁G>B B
▁EC B,
▁EC B,A,
in or
▁FF GG
▁^F 6
▁A/G/ E/D/
fed 2
ae st
▁=c >e
▁F< FF
▁GBA d
▁(D C
▁(D ^F)
▁[K: E]
▁(T ge)
▁(E ,
▁d^cd c
▁GEE g
.c ."
{f} g>e
▁(cB) ce
▁F> ^E
▁(AG) A
▁([ cA
▁(f/g/ af)
▁(e/f/ g/a/)
▁C/ >D/
▁A>d c>B
▁[FA ][EG]
▁.d .g
▁Fd cd
▁g>d "C"
0<br>M:4/4<br>K:G min
▁(A/B/ d)
▁EFGE "D"
▁(gf) ef
▁FDF D"G"
▁F) E
▁[A, EA
]/[ ac
▁||"^ Part
▁d( efg)
▁{ ^
▁(dB) B
▁|]: "Em"
▁b>g f>g
re peat
▁(BG) Bd
▁e^d ed
▁cAB F
▁(GF) GA
▁"_ f"
▁gagf "C"
▁.B2 .d2
▁[B f]2
D/E/ C/
der ly"
▁c2B2 c2
▁a) gf
▁d>cd <f
▁.g2 .f2
▁D) E
▁:|"^ 2
▁(e/d/ B)
▁X:1<br>L:1/4<br>M:4/4<br>K:G dor
▁(Bc d2)
▁(e/ d/c/
▁E> ^F
▁(u d
▁d/B/ d/B/
▁e>a e>c
▁[cE ][cE]
▁X:1<br>L:1/8<br>M:12/8<br>K: Edor
▁GFGB "D"
▁.a .b
▁[Fd ][Fd]
▁F2A2 F2
▁(d/ ^c/)
▁X:1<br>L:1/8<br>Q:1/2=8 0<br>M:4/4<br>K:F
▁.a2 .a2
▁(g/ f/g/a/
▁Tf ef
▁m aj
▁(Bd ).g
ten derly"
▁(cA G)
[Q:1/8=1 00]
▁g( f/g/)
▁x /4
ot ch
▁=Bc dB
▁!breath! F,
▁B,>D F>B
▁(ge )(fd)
▁c'ba ^g
"^s implified
▁(3a fe
▁A>Bd >f
▁b2a2 g2f2
▁(B/ >A/)
ch or
C/B,/ )
"G m7"
)(F >A)
▁c'c' c'
▁c'c' c'c'
"^A 7/e"
▁cac a
▁(df ).a
▁|][K: F]
▁D/F/ A
▁=fd e
▁_E ,2
▁Agf a
▁(b/a/ )g
▁(AG)( GF)
▁^GB ed
▁(D/ E/F/G/
▁(3= fed
▁aeg a
▁X:1<br>L:1/8<br>M:4/4<br>K:E mix
▁^c/d/ e/f/
][A g]
>cd >e
>Bc >d
▁BFA B
{= f}
▁[GB, ]4
5<br>M:3/4<br>K: D
5<br>M:3/4<br>K: G
▁a>ef <a
E,E, E,
▁|:[K:F] "^C""F"
▁X:1<br>L:1/8<br>Q:3/8=88 <br>M:3/8<br>K:G
▁([GA -]
lich "
▁[CA ]4
▁B/4c/4 d3/2
{g}dB {G}A
▁Writ "
▁(BA).G .F
cec G}
olk a"
"^pi zz."
▁B/^ A/B/c/
▁(5:4 :5
" Bdim"
2 <br>M:2/4<br>K:G
7 ;
A ^F
D g
T g>f
^ C2
e hr
p t
r AP
v a
▁ 5
▁ is
▁d f/
▁d f/f/
▁A {d}
▁A edB
▁A aaa
▁A {g}A
▁e /4d/4
▁G "F7"
▁G zB
▁c E/F/
▁c =d
▁f {e}
▁g e/
▁F B,DB,
▁( .G.G
▁E A2
▁E "F"
▁E G/F/
▁E _E
▁|" Bdim"
▁a e/f/
▁d2 "G7"
▁G2 DG
▁B2 "^
▁B2 "^/"
▁:| {g}
▁c2 AG
▁c2 "Em"
/4 e/4)
▁(3 .B.c
▁(3 GFD
▁(3 G/A/G/
▁(3 fdA
▁z "_>Teil
▁g2 "Am"
▁g2 (ga)
▁f2 cA
ef >g
▁ed AG
▁D2 GB
▁D2 FD
▁D2 {E}
▁F2 DD
▁b ba
▁b eee
▁[ cB
▁cA de
▁:: "^*"
▁a2 (ga)
Bd 2
▁GA B/c/d
A" Gm"
▁G3 "D7"
▁^ B2
▁GF G"D"
▁. ^c2
▁B, CE
▁B, C/B,/
▁cBA "D7"
▁AB {c}BA
▁ef "A"
)( fg
)( {d}
▁Ac "E"
▁d/ f/e/
de n
▁|"A" {f}
▁dBA E
▁f3 "A7"
▁ED FG
▁b2 c'2
▁GB ED
▁GB ge
▁(3( AF
▁(3( uA
▁T cBA
▁T FE
▁C2 F2
e2 >c2
▁af "Em"
▁ABA "D7"
▁|{ ^F}
▁B4 "A7"
▁G, CC
▁dg "C"
▁"^ 33"
{g} d/
▁ded d
▁ea c'
▁bg "D7"
▁eA gf
▁FE D"Em"
▁|"^ 7"
▁|"^ Fine"
▁|"^ **"
▁e>d Bg
▁e>d g>B
▁DFA F"G"
▁dcBA "A7"
▁dcBA "D7"
▁B>A G"D"
▁(d BAG)
"E m/B"
▁E/ >E/
▁DG D
f/g/ f/)
▁B,2 E2
▁B< EG
▁B< Bg
▁(B F
▁(B >e)
▁(B >cd
"_ 1
"_ A
"_ e
"_ NB
d/e/ ^f/
▁(c <a)
▁B/A/ ^G/A/
▁d< ^c
▁a>g fd
▁f> Bd>f
d' e'
▁a> fdf
▁BABc de
(3 fga
▁B>G F
▁g>e g>e
▁F>A "A"
▁[A g
▁fdf "A7"
▁(B/c/ d/
▁F< B,
▁d>f ed
▁fB ed
▁fB ec
0<br>M:2/2<br>K: Ador
▁d) g
▁c>e g>f
▁X:1<br>L:1/4<br>M:3/4<br>K: E
▁ad ef
▁E< GD
▁c) c
▁^c2 )
▁bagf "C"
▁dF ED
=B ^c)
▁^G >F
▁F> Bd>B
▁[BG ][dB]
g/f/ e
▁dfaf "A7"
▁BF EF
▁X:1<br>L:1/8<br>M:9/8<br>K: Dmin
▁|:"^ B
▁^d Bd
▁(d/c/ B/A/
▁Fd Ed
▁(ef) e
▁ca ed
▁(e2 >d2)
▁(b c'
▁Aa -
▁.e .d.c
▁D< A,
!fermata! c
▁F) DF
▁G>E C>E
▁fb bf
▁f>a a>f
_B =B
▁{ GdG}
▁[d =f
re s"
▁[dB ][BG]
▁[dB ][dB]
▁X:1<br>L:1/8<br>Q:3/8=120<br>M:6/8<br>K: Amin
▁G>AG D
▁G>AG >A
▁.B2 .c2
▁.e2 (
▁|"_ b"
▁[B B,]2
▁A( A/B/)
▁(G/A/ B
▁[fd ][dB]
▁(. F2
▁s ett
▁e( B
▁.g .b
▁G^F GB
▁(fe ).f
▁(3G Bc
▁(u cB)
▁(u fg)
(c <A)
▁(cd ec)
▁(3D ^CD
▁gef c
▁FGE G
▁(d< e)
{Gdc} d>B
▁c/e/ c/B/
▁[Bg ][Bg]
▁(g/a/ g)
▁(df) ed
▁(df) af
▁X:1<br>L:1/8<br>Q:1/4=9 0<br>M:3/4<br>K:D
▁TA GA
▁(GA ).B
▁ac' fa
▁(3e BG
▁(3e ae
▁(3e (fe)
▁d- d
▁.F .G.A
▁|"G #"
▁(fa) f
▁[ge ][af]
▁(c/B/) A/G/
▁bgb "D"
▁c'a c'
▁add ed
▁d2>e2 d2f2
)(c >B)
)(c <A)
▁(de )(fe)
▁c2d2 e2
▁.[ BG]2
▁[EG c
.d.d .d)
▁B2( Bc)
▁X:1<br>L:1/4<br>M:6/4<br>K: Bb
{gfg} f>d
▁^D 4
▁g2d2 B2
=E ^F
▁(F/G/ A/B/)
"G 6"
▁cD FA
▁faeg "D"
Aa ]
G/4 A/4
▁[af ][ge]
▁X:1<br>L:1/16<br>M:3/8<br>K: F
▁a^ fd
▁[F, C]
[Q:1/8=160] "^A
▁X:1<br>L:1/8<br>Q:1/4=18 0<br>M:4/4<br>K:G
turn !f
▁cC EG
▁.!fermata!PMTCO (M
▁D2( FA)
)(b d)
▁EA,A, E
▁(e> fg
▁E^G BG
▁X:1<br>L:1/8<br>Q:1/4=112 <br>M:4/4<br>K:
▁_b 3
rot s"
▁|[K:G] "^
▁[B,, B,]
▁FF/G/ A
▁(3_ edc
▁^F/ G/A/F/
>fg >a
res c."
▁[Gc ]4
▁X:1<br>L:1/4<br>Q:3/4=1 10<br>M:6/4<br>K:
▁"_A s
▁[A,F ]3
▁f/e/f/ a/
▁|]:[M: 2/4]
▁FD" Gm"
▁de/ d/c/B/
▁f<ad >f
▁A/4B/4 c/
▁X:1<br>L:1/8<br>Q:1/4=2 1
▁G>EF >D
▁(F/G/A ).F
]/[cE ]/
[A,E] A,
▁(B,/C/ )
▁(A/G/)( F/E/)
B= c}
)({a} gf)
agi o"
hy th
" E/B"
( GE)
( d/c/)
, G,]3
= d)
= gd
A >g
B E)
E mix
T E
^ c/B/
a {g}
d )"
e <a
m ;
m on
{ e
▁ tr
▁ {/e}
▁d "C7"
▁A G"G"
▁A {GA}
▁A A/d/
▁B F/G/
▁G (g
▁c "Am"
▁f A/A/
▁f e/e/
▁g "Dm"
▁g =c
▁g AAA
▁F "E"
▁F G"A7"
▁( ^A
▁E F/
▁E BdB
▁a '
▁d2 "^D.C."
▁d2 !fine!
▁G2 b2
▁G2 "^/"
▁B2 <A2
▁c2 fa
▁c2 =Bc
BA /G/
▁(3 ED
▁(3 B/A/G/
▁(3 =F
ef /g/
▁b dgd
▁E2 d2
▁E2 "F"
▁E2 "E7"
c/ b/
▁[ ^GB
/2 ]
▁C EDC
▁fd ba
A/ G/F/
A/ B/c/d/
▁|: "F#m"
C" A"
▁|1 {g}
▁AF C
▁^ FF
▁^ F"_
g/ B/
EF >G
cB B
B, F
F" G7"
▁= a
▁= dc
▁= dcBA
▁def f
▁def "C"
▁AB "G"
▁eg Be
▁ABc F
▁d/ ^c/d/
▁d4 {e}
▁df "G"
▁c/ >A/
▁c/ =B/c/d/
▁fe '
▁X:1<br>L:1/8<br>M:6/8<br>K: Bdor
▁ce AA
▁e/ d
▁cB {B}
▁(A B/A/)
▁de ^fg
][ bd
A, 3
▁b2 >f2
▁GB FG
▁(3( c'
▁T ^c
▁fa "C"
▁F3 /4
▁gfe "B7"
▁gfe =d
▁f/ >d/
▁dcB "A7"
▁"^ Key
▁"^ bar
{g} Bc
{g} Bd
GG ,]2
▁FGA f
▁FGA =B
g2 B2
▁eA fe
▁e4 {g}
f/e/ >d/
f/e/ )(d/c/)
▁GBd "C"
▁|"^ F#
▁|"^ [sic]"
▁e>d Bd
▁d> )
▁d> )(
▁d> (c
▁d> cAG
▁GAB D
▁EG G2
▁(d >d)
▁(d edc)
▁|"G7" "_h"
▁dd ad
▁AA D
▁ABd 2
▁ga ef
▁_ bg
▁B< gA
▁X:1<br>L:1/8<br>Q:1/8=1 9
3/2 e/
▁!fermata! B,
b/ a/g/)
d/e/ f
▁AGE B
▁d< dd
▁(G e
▁ABcd ec
c) B
▁f>e a
▁f>d "C"
▁(f A
▁(f {gf)}
▁Bg eg
▁e>c "A"
▁d/e/ fg
▁B> )A
▁ee eg
▁[M: 4/4
▁fga d
▁G>F GB
(3 .A.A.A
▁A>F d>F
▁B>G F>G
▁BcB F
▁BcB ^G
▁FF FD
▁efd "A"
▁GBA GFE
▁(gf )(
▁(gf )(e
▁(gf )(ge)
▁DD ED
▁cf cf
▁(D A)
▁[K: Dmin]
▁ad cd
▁ad ag
▁d^cd A
{G} d{g}
cE )
▁E< A,A,
dF ]2
▁(d2 g2)
▁fefg "A"
▁e) e
▁F> EFG
▁X:1<br>L:1/8<br>Q:1/8=18 0<br>M:2/4<br>K:D
▁(f/g/ a/g/)
▁G> ec>A
▁ecd =B
▁X:1<br>L:1/8<br>M:9/8<br>K: Bb
▁X:1<br>L:1/8<br>M:9/8<br>K: Gmin
▁A>BA >E
▁B>cd c
▁g< eg
▁aa ab
▁(e2 c2)
gg ]
▁BAA ^G
▁(G2 A2)
▁D< DF
▁X:1<br>L:1/8<br>Q:1/4=10 0<br>M:4/4<br>K:Bb
!fermata! a
]/[ EG
=g >e
▁F>D A>D
▁[c D,,]
▁(d/e/ g)
▁ecc G
▁[d D][
▁.A .d
▁.A .B.c
▁(Bd) B
▁M c
▁cAB G"Am"
▁=F GAc
▁(B/c/d) G
▁P A2
▁!slide! B3
▁(a/g/ e)
▁(^ G2
▁:|[K: Bb]
28 0]
▁(ge) be
▁afec "Bm"
(c >A)
▁[cE ][cE
▁X:1<br>L:1/4<br>M:2/2<br>K: Emin
<br>M:6/8<br>K: Dmin
▁(d/c/) B
▁X:1<br>L:1/8<br>Q:1/8=128<br>M:4/4<br>K: Gmin
▁d>BA >d
▁X:1<br>L:1/8<br>Q:3/8=10 8
▁g>B B
▁X:1<br>L:1/8<br>Q:1/4=9 0<br>M:6/8<br>K:G
▁d2( fa)
▁dfg d
▁F/A/ F/A/
▁GBc e
▁X:1<br>L:1/8<br>Q:1/4=120<br>M:3/4<br>K: Amin
▁g( a/g/)
▁^C DEF
▁X:1<br>L:1/8<br>Q:3/8=11 0<br>M:6/8<br>K:Bb
▁Bb ge
▁f( dd
▁X:1<br>L:1/8<br>Q:1/4=120<br>M:2/4<br>K: Bb
▁EB, EG
▁FC DE
▁B>F d>c
▁gc' ba
▁b>ag e
▁(BG )(Bd)
"^/ G"
"^(E ditorial
▁G2( BG)
)(G c)
>D2 )
hor us"
D][ M:
▁ee/e/ e
B,, B,,
▁.D 4
▁e^cA c
▁A,, /
▁A,, A,,
▁f/a/ a
>^ d2
][Ac ][GB]
▁X:1<br>L:1/8<br>Q:1/4=13 0<br>M:4/4<br>K:G
▁"^s pirited"
▁[ac ]3
C][ C,
▁dz B
▁TB>A G
▁Ca po
▁.!fermata!PMTuCOM D
▁F/D/ F/A/
][Q:1 /4=120]
][Q:1 /4=100]
[D d]
E/4 F/4G/4
▁Bec B
▁[G,D]2 -
▁eBc e
▁D2( DE)
▁X:1<br>L:1/16<br>Q:1/8= 2
▁EA,A, B,
▁.f( BAB)
).d/ .B/
5<br>M:3/4<br>K: C
▁BBd d
"^B 1"
b/c'/ )
[ee ]
▁(Be ).e
<br>M:9/8<br>K: G
▁[b B
▁(3.e .f.g
▁AAc c
{b c'}
▁c'd bd
Gdor ]
▁X:1<br>L:1/8<br>Q:1/2=120<br>M:2/2<br>K: D
▁|"F# m7"
▁|"^4 1"
▁b>ab >c'
▁3" "_-6,
▁::[K:Bb] "^C""Bb"
▁.c.B.A .G
▁[dB][cA ][BG]
▁X:1<br>L:1/4<br>M:5/4<br>K: G
▁qu ic
chnell er"
Quad ril
! pp!
$ ?
( ab)
( uA
. e2)
/ e'/
4 4
6 <br>M:2/4<br>K:G
9 /2
< G/
A Bc)
G 3/2)
T F
[ g
c #"
f A"A"
g fg
j ed
r imo"
v c
z /A/
z /c/
▁ last
▁d DDD
▁A e/d/
▁A B/B/
▁B 7
▁B "Eb"
▁G d/d/
▁c "Bm"
▁c efd
▁c F/A/
▁c cAF
▁c {d}c
▁f ^c
▁f "Bm"
▁g /4f/4
▁F {F}
▁F 12
▁F D"A7"
▁( ve
▁( B,/A,/
▁E "Bb"
▁D =
▁D A/G/
▁D G/B/
▁D GEG
▁G2 BB
▁G2 "^*"
▁B2 cA
▁(3 gf
▁(3 e/d/c/
▁(3 ^fga
▁(3 .c.c.c
▁z "A7"
▁g2 ^f2
▁f2 "Bm"
▁f2 "Bb"
▁ed "C"
▁BA cd
▁D2 DG
D" Dm"
▁F2 {G}
▁F2 "Eb"
▁E2 {G}
▁|| 3
▁[ =fd
▁cA aA
▁AG {A}
▁:: "_
▁C >g
▁C <A
▁C EDF
▁fd {e}
cd g
A/ A
▁BG ge
▁BG /F/
▁BG G"C"
▁|: O
<br>M: 7/8<br>K:
▁Bd "Am"
▁cd ee
▁ag /g/
▁FA ed
▁GF G"A7"
▁. Bc
▁ec "Dm"
▁= fA
▁def =g
▁ef A
▁eg ^fg
▁Bc cA
▁Bc "Am"
)( D/
)( {B}
)( f/d/)
)( A/F/)
)( B>G)
▁Ad )
▁Ad Gd
▁FD dB
▁ce "E"
▁ce Ad
▁(A >BA
B2 E2
▁dBA ^G
▁T on
"A 2
▁c' ae
▁f/ a/g/
▁af "C"
▁af c'a
f2 >d2
▁dcB "C"
▁dcB {d}
▁"^ pl
▁"^ tenderly"
▁DE BE
▁ged =c
▁ded "C"
▁eA ^c
▁F/ G/F/G/
▁B/c/ e
▁|"E m/B"
▁|"D7" "_c"
ee e)
▁e>d g
▁e>d ^c
▁d> (f
▁EG e
▁B>A A>B
▁(d BA)
▁ab ba
▁AFA A
▁gb "D"
▁G>A F>G
▁X:1<br>L:1/8<br>Q:1/4=1 24
▁FED A
▁d>c BG
▁dd BA
▁dd gd
▁d/c/ B/G/
▁A> F"Em"
▁B< AB
cBA G)
▁g> )
3/2 ][K:
▁(B f)
▁cc f
▁d>B {B}
▁c< FA
▁(c B/c/)
▁(c <A
▁(g ^fg)
▁(F d
▁BB "D7"
▁BB fB
▁BGE "D"
▁e< dc
▁e< gg
0<br>M:6/8<br>K: Edor
^f ]2
▁(f <
▁(f af)
▁Bg b
▁faf {a}
▁c> fe
▁v b
▁B>d c>A
(3 GAB
▁(3efg "D"
▁g>e b>e
▁[A C
▁[D A,
▁F< A"A"
▁AAA E
▁c>e e
▁(D <F)
▁(T e2
▁afge "D"
▁dfa c'
▁Bee ^c
▁(ed) e
▁[GB ][Ac]
▁(a =g)
▁e>g d>B
▁(Bc) B
▁dfaf "G"
▁X:1<br>L:1/8<br>Q:1/4= 3
▁|:"^ Variations:"
▁(e/f/ g/f/)
▁C/ A,/
▁A^ GB
▁gfge "G"
▁ddd g
▁f) ed
▁[cA ][cA]
▁edcd ef
▁X:1<br>L:1/4<br>Q:1/4=1 20<br>M:2/4<br>K:
▁(fd) d
▁d( B/d/)
E, G,
▁[c g]
▁[c f]
▁(GA) BG
▁X:1<br>L:1/8<br>Q:1/8=16 0<br>M:6/8<br>K:C
▁DB fB
▁F,2 -
Dmin ]"^
▁e>fg a
▁|1,3 "E7"
(g b)
▁db f
▁[B D,]
▁(. a2
▁GEC A,
▁cg fe
▁[e E,,]
▁BGF B
▁A<A a
▁g>ag /f/
▁(ge) dc
▁(fe ).e
▁(Bc /B/
▁d/B/ G
▁[Ac ][Ac]
▁X:1<br>L:1/8<br>M:12/8<br>K: Emin
▁B>g f>e
▁B>g f>g
▁g2f2 e2
▁dge B
>u a
▁(ga) ge
▁(ga) bg
▁X:1<br>L:1/8<br>Q:1/2=8 4
▁X:1<br>L:1/8<br>Q:1/4=14 0<br>M:4/4<br>K:C
▁FFF G
{Bc} BA
▁[Dd ]2)
<br>M:2/2<br>K: Dmin
▁F/A/ A
▁(fd )(cB)
▁(fd ).d.d
▁CF EG
▁afg b
).G .A
▁(AB )(de)
▁(e/d/) B
▁F>B B
▁eBB g
▁[K:D] |:
▁(de ).d
▁G,/ A,/
▁e/c/ B
"^D 7/
▁X:1<br>L:1/4<br>M:6/4<br>K: A
▁(BG B)
▁|[M:2/2][K: D]
▁|[M:2/2][K: C]SOSOO
▁e2( dc)
▁!wedge! c
▁A>FD >E
▁(eg ).g
▁g/f/e/ f/g/e/
▁X:1<br>L:1/8<br>M:3/2<br>K: Bb
▁X:1<br>L:1/8<br>M:3/2<br>K: Dmin
▁X:1<br>L:1/8<br>M:3/2<br>K: Gmin
▁|][K: F]"F"
▁[eA ]4
▁(a/g/f/e/) d
5<br>M:4/4<br>K: D
▁[BE ,,]
▁A,E cE
▁e^ dc
▁D( dd
▁dz c
▁X:1<br>L:1/4<br>Q:1/2=10 0<br>M:2/2<br>K:D
▁X:1<br>L:1/4<br>Q:1/4=10 0<br>M:4/4<br>K:G
▁A>FA >c
▁(EF E)
▁[f G,]
"^3" f
▁B{c} dB
▁[F, A,]2
▁X:1<br>L:1/4<br>Q:1/4=120<br>M:3/4<br>K: C
a/4 b/4
▁cc/B/ A
][Bd ][Ac]
▁Ac/d/ e
▁AEF D
][GB ][FA]
▁d<BB >A
▁ff/e/ d
▁(TBA) AB
▁(GE )(DE)
▁.!fermata!PMTCO "_VB"
▁|{^ A}
▁(ED )(EG)
▁(FD ).D
▁(^cd) ec
▁dc) BA
▁(ea )(ag)
[G, D]
▁"^In tr
▁[AE ]4
▁|"^(E 7)"
▁|]:[K: D]
▁d^d ef
[E A]
▁|"F 6"
▁X:1<br>L:1/16<br>Q:1/4=5 8<br>M:2/4<br>K:
{g}B/ {d}G3/2
▁c<eA >e
▁(3EF ^F
▁d<gB <G
▁X:1<br>L:1/8<br>M:none<br>K: G
▁(Gc )(ec)
▁X:1<br>L:1/16<br>Q:1/8=18 0<br>M:2/4<br>K:none
▁a/^g/ a
▁E<AA >G
▁e<Ac >A
____ ____
8v a"
▁|"^(G m)"
▁E,< E,
▁bre it"
chor us"
▁(3(uA Bc)
jed er
( =
( ^c
. ^f
1 9
< F/
< B,)
> Teil
> )(c
B mix
G >e
G >D
H "
L ively"
R I
^ D)
c "G"
c otch
e peat
s s"
u oso"
z [
▁ {/d}
▁d G/A/
▁A /4G/4
▁B "C7"
▁B {Gdc}
▁B "_d"d
▁e v
▁e Bcd
▁G c/c/
▁c ^A
▁c zd
▁f BA
▁f fgf
▁g {fg}
▁F "^/"
▁F /4G/4
▁E m"
▁E BBB
▁E "Bb7"
▁D >e
▁D zD
▁a =
▁a dc
▁a ^c
▁a e/d/
▁d2 ga
▁d2 "Gm"
▁d2 >G2
▁A2 "^+"
▁G2 "^B"
▁G2 "Bb"
▁G2 {f}
▁B2 "F#m"
▁B2 {AB}
▁:| "A7"
▁c2 "A"
▁c2 "Bm"
ed cB)
▁(3 B,2
▁(3 EGc
▁(3 bgb
▁(3 F/G/F/
▁f2 <d2
▁F2 "Cm"
▁dc "E7"
▁:: {e}
▁:: "Eb"
▁a2 AA
▁a2 "C"
▁dB ^GB
▁C CE
▁BG ec
cA "G"
FA >c
Bd >e
▁^ DEF
BG E)
▁z2 "^
▁FA GA
▁GF FF
▁B, EDF
F" F#m"
▁= FF
▁cBA GF
▁AB "A"
▁ef "A7"
▁Bc ed
▁A, EAE
▁e3 {g}
▁|"A dim"
▁Ad "A"
▁EF GG
▁EF CE
▁EF BF
▁efg "D7"
b" Em"
▁cB {c}
▁(A B/c/
▁(A FA)
▁dBA g
▁ED DD
▁b2 bb
▁GB G"D"
▁(3( abc')
▁fa a2
▁C2 "F"
▁C2 B,2
▁! turn!f
▁c' c'/c'/
▁B4 "A"
▁G, >D
B/A/ )(
▁"^ a"
▁DE A
▁edc BA
▁F/ =E/
▁e>d c/B/
▁edB "D7"
▁GAB =c
▁AD Ac
▁AD cD
"E b/Bb"
▁X:1<br>L:1/8<br>Q:1/4=1 26
▁DG ^FG
G) F
▁dd "C"
a2 A2
▁A> =G
▁agf "C"
▁(3d ba
▁(B ^A
DD >E
▁Be GB
▁A>G G>F
▁d' >a
▁(c E
▁(c <e
▁AGE d
▁"A m/C"
▁(g >a
▁(g f/g/)
▁c>A F>G
▁ba c'a
ba ^g
▁e>f c2
EE >F
▁e< AB
▁f> (d
d' 4
▁f/e/ ^d/e/
c/B/ d/
▁ede ^c
▁ee B
▁G,2 )
▁fga "A7"
▁GAG ^F
▁dAF D"G"
(3 EFG
(3 eee
"^( d)"
▁CE CA,
▁G>B e>d
▁F>A "G"
▁Ace "D"
▁A) d
▁A) Bc
▁[D Af
▁^F ,2
▁Add =c
▁A>A AB
▁=c 8
▁BAFA -
▁(gf )(ed
▁c>e "D"
▁(T GF)
▁(E GE)
▁b3 )
▁d/d/ d/
▁B/c/d AF
▁(d2 >c2)
▁cAGE {G}
▁fgf "A"
▁(ed) d
▁fc a
▁[BG ][cA
▁cG ec
▁([ GE
▁BF dF
▁ac eg
▁Gg ed
▁[FA ]2)
▁c>BA F
▁^f edc
▁Gd dB
▁B>B BB
▁=f >
▁(b d)
▁B<d "D"
▁[AF ][GE
AD ]2
{gef} e
▁||"^ V
▁(fd) fa
▁d( e/
▁f>a a
_B -
▁[c G
▁[c C]
▁[c f]2
▁[d G][
▁(Bd) BG
▁X:1<br>L:1/8<br>Q:1/8=16 0<br>M:4/4<br>K:C
▁M B2
▁cBAc "E"
▁g) c
(A d)
▁(BG) E
▁(g2 e2)
32 0]
▁[Ec ]2)
▁ADD C
▁(B/c/d) F
▁=g >a
▁=g age
▁a>e a
▁|"^( Bb)"
▁[df ][df
▁(3f ^ga
▁B/d/ B
▁[fd ][ec
▁D>G G>B
▁e( f/e/)
▁X:1<br>L:1/16<br>Q:1/4=1 20<br>M:3/8<br>K:
{gf} e)
▁(^ f2
▁:|"^ A
oderat e
▁F>GA F
▁F>GA >G
▁edce "D"
▁(3G (AB)
▁(e/ f/e/d/)
▁ef/g/ a
▁fde =c
▁^d2 e2
▁G>AB >e
▁G>AB <d
▁X:1<br>L:1/8<br>M:12/8<br>K: Amix
▁EDB, B
<br>M:6/8<br>K: Bb
▁da ag
▁dBgB "Am"
▁X:1<br>L:1/8<br>Q:1/4=120<br>M:2/2<br>K: Bb
▁B,A, G,A,
▁A/c/ A
>) E
▁(dB ).d
▁(dB )(AF)
▁X:1<br>L:1/8<br>Q:1/4=9 0<br>M:2/4<br>K:D
)(A >c)
)(A >G)
▁(B/A/) G
d/4 c/4)
G,/ A,/
▁(3e (fg)
▁(fd ).f
^F/ G/)
▁[ge ]4
▁(A< f)
"^(D b)"
G"^ (A
▁.[ cA]2
▁B,G, B,
▁(BA)( Bd)
▁(BA)( BG)
▁!breath! G,
▁F>d E>d
][D c]
▁(ec )(cA)
▁B>F D>F
▁c>G E>G
{gBd} B/{e}G3/2
)(B D)
{gfg} f
▁e^f ed
▁^c3 -
▁g>ed >g
variation s
▁(DF) Ad
▁c2( cB)
▁ec' b
▁B>E G>B
"G m/Bb"
▁f/d/ e/f/
▁FDC B,
▁X:1<br>L:1/8<br>Q:1/4=16 0<br>M:2/4<br>K:C
▁d=c Bc
5<br>M:4/4<br>K: C
▁^fd ef
▁D- D
▁F( E/D/)
▁X:1<br>L:1/8<br>Q:1/8=14 0<br>M:6/8<br>K:D
▁X:1<br>L:1/8<br>Q:1/4=15 0<br>M:4/4<br>K:G
▁(3A, CE
▁GG/A/ B
Chor us
Reel "
▁d>^cd >B
▁[EA ][EA]
▁(3Bc dB
[D G,]
Ab ]
▁[K:F] "C7"
▁=ef gf
▁EBE "D"
▁X:1<br>L:1/4<br>Q:1/8= 3
▁X:1<br>L:1/4<br>M:4/2<br>K: D
▁g/a/g/ a/
▁F^ E
▁[fa ]
▁[C, C]
{c}d {g}
▁([de -][ee]-)
▁(.G .G)
▁|:[M: 4/4]
Q:3/8=1 10]
▁(AF)( DF)
▁[eB ]
▁(A> BA)
all ."
[AA ]
▁(3(G BG)
▁c<Ae >c
{g}B/ {d}A3/2
).g/ .e/
▁e<gd >B
▁fd) ec
str ."
)(e/ c/)
▁f<ad <f
▁|"^d m"
▁G<GB >G
▁[G,E ]3
"^: s:"
C,, C,]2
▁giv en
"_(""^) >"
).E/ .D/
▁X:1<br>L:1/4<br>Q:3/4=10 0<br>M:9/4<br>K:
! mp!
( cd
( B/A/)
. d2)
3 -
< d'
E C]
E ^D
G BG
_ E/
e <f
i ce
w as
y m"
▁d "_>Teil
▁A B,
▁B D/E/
▁B "Ab"
▁e e2
▁e g/a/
▁e G/G/
▁e )(d
▁e A"G"
▁c ^de
▁f ze
▁f lat
▁g "G7"
▁g GGG
▁F fed
▁F FAF
▁( ^ga
▁E "^
▁D E/G/
▁a d'c'
▁A2 dd
▁A2 "^/"
▁A2 ^ce
▁G2 ef
▁G2 {G}
▁G2 "F7"
▁B2 {Bc}
▁c2 ag
▁c2 /3
▁c2 {AdB}
▁e2 fd
▁e2 cB
▁e2 dd
▁(3 :1
▁(3 ec
▁(3 .f
▁(3 .A.A
▁(3 ecB
▁(3 .a.a.a
▁z "^>"
▁g2 "A"
▁g2 ea
▁f2 {Gdc}
G" Cm"
G" E"
▁F2 B,2
▁b Bdf
▁E2 "E"
c/ d/c/
B/ G"
▁[ ^d
▁AG {/A}
▁a2 B2
▁a2 ^g2
▁dB {c}
▁dB =cA
cA A
C" Am"
▁GA ^F
▁G3 "F"
EF "D"
>e '
▁B3 {d}
▁B3 {G}
"^ ?
"^ reel"
▁B, =
B, /4
af c
▁= a2
▁A/ ^G/A/
)( g/a/)
▁A, "A7"
▁e3 /4
▁Ad g
▁Bcd cBA
▁df f2
▁ce {A}
▁e/ g/f/a/
▁e/ c/d/B/
▁(A ^c)
▁(A {BA}
][ fA
B2 -
▁ED /
A, >D
A, ]/
▁ge "A"
▁(3( ^c
▁T GF
▁T B>G
▁T ede
▁f/ b/
G2 c2
▁BAG =F
▁dcB "F"
ab >a
▁"^ final"
▁eA ag
▁edc F
▁FE EE
▁|"^ -
▁|"^ ^"
▁BE GF
▁BE {F}
▁BE ^GB
▁dcBA "D"
▁GAB "Am"
▁B>A "E7"
▁(d >f
▁ab gb
F2 D2
▁edcB "D7"
▁d>c '
▁dd ec
▁dd "A"
▁d/c/ BA
▁AA df
▁A>B "D7"
▁_ B/c/
▁GG BA
▁(3d AG
3/2 8]
▁c>d ee
▁A< aa
▁A< A,A,>B,
▁cc BG
▁cc eg
▁d>B g>f
▁cAA E
▁A>G G
▁BAF F
▁AGE E
▁gedB "D7"
0<br>M:4/4<br>K: E
▁(e <g
▁(F B
▁c>A B<G
▁d< fd
▁A/B/ cB
▁ba ef
▁ba aa
▁e/f/ gd
▁c>B "D"
▁c>B "A"
▁f> (g
bg d
▁(f <g)
▁EFG D
▁^c >
▁^c <e
▁d/e/ dc
▁fA ef
▁gab "D"
▁A>c f>e
▁A3/2 {d}B/
▁Gc BG
▁(3ABc "D"
gd ]
▁GFED EF
▁dBc A"G"
0<br>M:2/4<br>K: Ador
▁(T E>D)
▁E/F/ A
▁BGBd "A"
▁BGBd "A7"
▁Af Ge
▁GEE d
▁(3fg ^g
▁(d2 >e2)
▁fc fc
Gd ]
▁(a >f
E/D/ C
▁f>ed >^c
▁X:1<br>L:1/8<br>Q:1/8=18 0<br>M:6/8<br>K:Bb
▁Bdd G
▁X:1<br>L:1/8<br>M:3/4<br>K:D mix
▁dedB "D"
▁(B2 {cB}
▁(A2 B2)
▁ac Bc
▁|:"^ V
▁B>cd f
▁g< ed
▁FAA g
▁g>d e>d
▁g>d c>B
▁B>B B>c
▁ca a2
▁(e2 {fe}
▁(b d
▁(b a/g/)
▁[AF ]>[
▁.e '
▁D< dd
▁g/a/ ge
▁cF -
▁X:1<br>L:1/8<br>Q:1/4=10 0<br>M:6/8<br>K:D
▁X:1<br>L:1/8<br>Q:1/4=10 8<br>M:2/4<br>K:
▁[A, EA]2
(d ed)
]/[ Fd
▁(de) d
a/f/ a/
▁.c .a
▁.c .d.e
▁[G, B,]
▁.B .e
DG D
▁(3(d BG)
▁(fg) ag
▁g) b
▁a< fg
▁e' d'c'
▁e' e'e'
▁bf fe
▁|1,3 "Em"
▁=cA FA
▁P [
▁|"^( 1)"
▁FAD f
▁gA ce
▁(G/A/ B/c/
▁|"^1 5"
fB ]
▁(ec) eg
▁|:"^A" "A"
▁|:"^A" "Am"
▁AGFA "G"
▁[e ^c
▁(3(g eg)
▁e( e/f/)
{gf} g>e
▁(^ ce)
▁F>GA A
▁(Bc )(AB)
▁X:1<br>L:1/8<br>Q:1/2=9 0<br>M:2/2<br>K:Bb
▁e>cA >d
▁(e/ ^f/
▁t empo"
▁E/D/ C/D/
▁(e/f/g) G
▁^f2 )
▁Tc 3/2
▁[CE ]2)
<br>M:6/8<br>K: Amin
).c .d
▁[dF ,]
▁[dF ][dF]
▁A/B/c/d/ e/f/
▁(d/ e/f/
▁||[M:3/4] "^D"
▁cBce "G"
▁g>B "Am"
▁c/e/ A
▁^cA AB
▁(eg) fe
▁X:1<br>L:1/8<br>Q:1/4=14 4
▁X:1<br>L:1/8<br>Q:1/4=9 0<br>M:4/4<br>K:C
▁f>c a>c
▁A>D A>F
▁c( AA
▁::"^ f"
▁=e 4
▁=e ^f
▁(3e ^dc
▁F/A/ G/F/
▁(Bd )(ce)
▁[fA ]3
▁[fA D]2
<br>M:3/4<br>K: C
{GdG} B
▁dgf edc
▁Td >
▁g( a/b/)
▁(GF GA)
EB ]
▁X:1<br>L:1/8<br>Q:3/8=11 0<br>M:9/8<br>K:G
▁G>Bd >f
▁A2( GA)
▁A2( GF)
▁B- B
][FA ][FA]
▁(A, C
▁D>C B,
▁G,A, G,
▁e/c/ B/A/
▁D>ED B,
▁B2( cd)
▁p fig"
▁fBBA "G"
>v G
▁(B, E)
▁(Ad) fd
▁=cBA F
{GdGe} A
▁|][K: C]"C"
▁c>E E
▁!fermata!A 6
▁|( {a}
A"^ (
.B/ .A/
▁F,/ E,/
▁AG^F E
▁A/d/ f
▁A,DD F
▁c<F c>A
][A g
▁X:1<br>L:1/8<br>Q:1/4=7 0<br>M:3/4<br>K:G
▁::[K:C] "^B""C"
▁aB fB
ive ly."
[Q:1/8=180] "^D
▁d<BB >G
▁e{g} e
▁||[K:D] "D"
▁X:1<br>L:1/4<br>Q:1/8= 20
▁b>d a>d
▁cc/ E/
▁[D, D]
▁(d^c) de
▁e>^de >c
▁C/B,/ A,/G,/
"^F in."
▁|:[M: 3/4]
▁not e
▁X:1<br>L:1/4<br>Q:1/8=1 6
▁AA/ ^G/
▁B2A ^G
).f/ .g/
▁(BAB) c
▁[EA, ]4
▁(Td cd)
▁eeg g
.G.F .E
▁[gb ]2
▁|:"^S low
▁B(G GF)
▁d<GB >G
▁[gd ]2
▁dg/f/ e
▁X:1<br>L:1/8<br>Q:1/8=120<br>M:3/4<br>K: D
▁cgc g
▁e/4f/4 g3/2
▁||[M:6/8][K: G]
▁F,< F,
▁A<FE <D
"^: S:"
"^l A
▁pl ay
).F/ .E/
▁(3(Ac f)
( ^g
, B,
- E
6 <br>M:4/4<br>K:G
8 /8]
< A,
= e/f/
= F2
= gB
> )(f
F GAF
^ a)
^ ce)
_ g
d BA
d <f
u p
v 1"
z /d/
{ cd
{ dc
{ FED
▁ langsam"
▁d ^de
▁d "F7"
▁d "^="
▁A _A
▁A CEA
▁B 5
▁B "Dm"
▁B "E"
▁B {Bc}
▁B BcA
▁B G"A"
▁B 7/2
▁e C
▁e {gfg}
▁G "B"
▁G "Ab"
▁G {AG}
▁c GB
▁c "A"
▁c "A7"
▁c {B}
▁c {d}A
▁c {Bc}
▁f (g
▁f (e
▁g "Em"
▁g "Am"
▁F fd
▁F G"D"
▁F "F7"
▁F ^D
▁E ec
▁E Be
▁E "B"
▁E "Db"
▁D _
▁a F
▁a n
▁a dg
▁d2 E2
▁G2 "^
▁B2 B^G
▁c2 cf
▁c2 "_Fine"
▁e2 >B2
▁e2 >a2
▁e2 /3
▁(3 E/
▁(3 ge
▁g2 {b}
▁f2 cf
▁f2 <a2
▁BA e
▁BA =GB
▁D2 CD
▁F2 (Bc)
▁|| "F#"
▁|| 33
▁[ ^G
fe 2
▁cA Be
▁a2 e>f
▁dB {B}
▁C BA
▁BG G/G/G
▁GA FE
▁Bd ag
▁Bd g2
>B "
▁cd fe
▁cd _e
▁^ C/
▁^ c/e/
▁FA d2
▁. A,2
▁B, BAc
▁fg ^g
▁fed efd
▁gf fd
▁= BB
▁cBA "D"
▁A/ A
▁eg gb
▁ABc E
▁ABc ^c
▁ABc ^d
▁ABc "Bm"
)( fa
)( .A
▁A, ^CE
▁df "E7"
▁efg "A7"
▁FD B,C
▁FD /D/
▁ce AF
][ gB
][ AB]
▁ge A
▁b2 ge
▁(3( BA
▁(3( eee)
▁fa {g}
▁F3 "A7"
"A #dim"
▁c' >d
▁c' >c
▁c' eac'
▁af ce
▁BAG F"A"
▁dg c
▁dg bd
B/A/ B/)
ab >g
▁"^ d"
▁DE GG
▁ea ac
▁bg ^fg
▁F/ e/
▁FE GE
▁g/ B/
▁e>d d>c
▁d> )f
▁edB B
▁B>A GE
▁B>A d>A
▁B>A ^G>A
▁(d e/f/
▁(d c/d/)
"E b
"E m/G"
▁gd "C"
▁gd ba
▁A>B {GdG}c
▁A> )
▁A> (G
▁g4 {a}
▁cde "Dm"
▁ga ed
▁X:1<br>L:1/8<br>Q:1/8=1 2
▁(3d ^c=c
3/2 E/
▁A< dF
b/ G"
▁B>c "A"
▁B>c "E7"
▁c< ed
▁(c ec)
▁(c eg)
▁c>A G>A
▁f/g/ fe
▁f/g/ f/d/
▁e> =g
▁e> (c
^d "
▁bag =f
▁fdd "A7"
cc ]
cc cc
▁GFG e
▁X:1<br>L:1/16<br>M:2/4<br>K: Edor
▁cdef {a}
{e} A2
▁(f =e)
▁f< F
d) B
▁c'2 ba
▁^c >B
▁eB g
▁d/e/ d/
▁B> ed
▁u C
▁fA Bc
▁d3/2 )
▁A>c G>c
▁[E C,]
▁A) GA
▁efd "A7"
0<br>M:2/4<br>K: Eb
CD B,
▁ad ab
▁ad ad
▁C4 )
▁AFE G"D"
▁(BA) AA
▁E, >D,
▁^c2 "Dm"
▁gc gb
▁DGG g
▁e) dc
▁(AG) FG
▁cAc "G"
F, D,
▁([ AA
▁EDE B
▁(B2 <
▁(B2 G2)
▁(A2 c2)
▁CD FA
▁gbag "D"
▁^cd d
▁^cd cd
6/8 ][
▁(ef) d
▁(fe) d^c
▁(b agfed)
▁c>c c>B
▁[AF ]6
▁D< G,
▁X:1<br>L:1/8<br>Q:1/4=10 0<br>M:6/8<br>K:F
▁AB/c/ A
▁F) ED
▁||"^ b."
▁(fd) dd
▁EB ed
▁.c 6
▁D, <
▁^F2 G2
▁[d C,]
▁(Bd) g
▁(c/d/ c)
▁M [
▁a< fe
▁=F EFG
▁e' >c'
▁e>fg f
▁|1,3 "C"
▁(cA) F
▁.B2 (Bc)
▁|"^( c)
▁.c2 .c2
▁|"_ D.C."
▁(3c BG
▁(ag) af
▁c2B2 B2
▁c2B2 "E7"
>. b
>. b)
▁.f2 (fe)
▁e>fe /d/
^C ]2
▁(3B (AG)
▁c'b ba
▁f2e2 d2c2
▁dcdf "A7"
▁Tf2 >e2
▁X:1<br>L:1/8<br>Q:1/2=9 0<br>M:4/4<br>K:A
/f/ e
▁g>fg >b
).f .a
▁^d2 "E/G#"
▁[CE ][CE]
)(d >f)
▁(C >E)
▁fge ^c
▁X:1<br>L:1/8<br>Q:1/2=10 0<br>M:4/4<br>K:F
▁X:1<br>L:1/8<br>Q:1/2=10 0<br>M:4/4<br>K:Bb
▁(FE) F
▁(3D FD
▁.a 4
▁EDD B,
F/A/ c/
▁(fg )(ag)
▁(= ef)
▁B^ A/B/
>) a
)(g >e)
▁(g/ ^f/
ut "
▁f>c "Bb"
▁C>D E>C
▁c( e/f/)
▁ECE A
▁dDD B
▁BGAB "C"
▁|"G 5"
▁F/A/ d/f/
▁cea c'
▁cea ^g
▁X:1<br>L:1/16<br>M:4/4<br>K: Bb
▁dFF F
▁(3E ^DE
▁G( B/c/d)
▁(AB )(AF)
G"^ 4"A
▁a>ba e
▁c2d2 e2f2
▁aed e
▁B= cd
▁G,/ E,/
).a .a
][D B,]
▁(ec ')
.A.A .A)
▁X:1<br>L:1/8<br>Q:1/4=11 0<br>M:2/4<br>K:C
▁"^B" "C"
▁X:1<br>L:1/8<br>Q:1/4=8 0<br>M:2/4<br>K:G
▁cc/c/ c
▁(b2 a2)
▁!wedge! e2
▁gefg "A"
▁G2( Bc)
▁b) g
▁[DA]2 -
▁e>de <g
▁B^A Bd
▁X:1<br>L:1/8<br>M:12/8<br>K:D mix
▁(df a)
▁E>FE >C
▁(b/ g/
{g}B {d}A
▁|( {f}
▁DGF D
]"^ D"
▁f2g2 a2
▁(ab )(ag)
▁!slide![ee ]2-
F/4 E/4
▁B=G Bd
▁egd G
▁(g/a/) b
▁(3(c eg)
▁(d> ^c)
▁E>e e>f
▁Eg ec
▁Te>d ef
▁X:1<br>L:1/16<br>Q:1/4=120<br>M:2/4<br>K: C
▁(A3/2 B/4c/4)
d/^c/ )
▁b>c' d'
▁(Ad ).d
[Q:1/8= 320]
▁E,/ E,/
▁A=B ^cd
▁b>e g>e
▁[bd ]3
▁"^B risk
▁(3G, B,D
▁FA" A7"
[df ]2
▁D2>E2 D2
▁(AF)( EF)
▁[c' e]
▁X:1<br>L:1/4<br>Q:3/4=100<br>M:6/4<br>K: D
▁(cB)A ^G
▁.D. F
▁G<EE >G
▁(FG)( AF)
▁A,/B,/ C
▁A,/B,/ C/D/
▁dB/A/ G
][F c]
▁B<Gd >G
▁X:1<br>L:1/8<br>Q:1/8=333 <br>M:2/2<br>K:
▁dc/ =B/
▁(ef).g .e
▁f{gf} e
▁df"A7" ec"D"
▁=c>d c
▁B<EE >F
▁A/> B/c/
"^\ 20
][FB ]
▁X:1<br>L:1/8<br>Q:1/8=220<br>M:2/4<br>K: G
▁:|2"^ last
▁d>af >a
"_h "B
▁e^cd B
▁"^f ine"
ocal :"
▁(3(D/E/F/ )
▁d2>= c2
bass ]
' c'
( dc
( {b}
( FD)
1 1"
5 <br>M:6/8<br>K:D
5 <br>M:2/4<br>K:C
7 )
< c/
D >B,
D ]2[
_ b/
r d"
z (
~ ~"
▁ {/
▁d i
▁A eg
▁A "F#m"
▁A zB
▁B DFB
▁e /4
▁e "^
▁e BAG
▁e Bdc
▁e g/f/e/d/
▁e "_d"d
▁G B2
▁G {G}
▁G G"D"
▁G B,B,
▁G zA
▁c {gef}
▁c "F7"
▁c "_Fine"
▁c "^4"e
▁f zd
▁g cde
▁g f/f/
▁F "D7"
▁( B,/
▁D 5
▁a afa
▁d2 d'2
▁A2 "^
▁A2 >(
▁:| "Bm"
▁e2 {a}
▁e2 "^tr"
▁e2 {gfg}
▁e2 {AGAG}
▁X:1<br>L:1/8<br> M:1
▁(3 CEA
▁BA "Gm"
▁D2 {F}
D" G7"
▁F2 "D7"
▁b "D"
▁b egf
▁E2 "B7"
B/ A
▁dc =c
▁[ BB
▁[ d'b
▁[ AB]
▁a2 "E7"
▁a2 ^ga
▁dB G"A"
▁C AA
▁fd B2
▁BG gf
▁|: "B"
GA ]2
▁GA e
▁GA (3Bcd
▁A3 "D"
▁cd e/f/
▁cd dG
▁z2 "D7"
▁z2 "G7"
"^ et
B, D]
▁fg -
▁gf {f}
▁ec {G}c
▁= b2
▁def A
▁Bc ^de
)( Bc
)( B,
)( ce
)( A/B/)
▁df "C"
▁FD cA
▁c/ b/
▁fe "D7"
▁e/ >c/
{g f
▁GE )
▁GE ^G
de 2
][ Ad]
▁dBA "Am"
▁f3 "E7"
▁ge tragen"
▁GB Bg
▁D3 /4
▁T dB
▁gfe A
e2 A2
▁f/ B/
▁|{ _
▁|{ B,}
▁|{ d'}
▁G, -
Bcd }
B/A/ G/F/
▁"^ J
▁"^ [
▁ged d
{g} A2
▁edc f
▁GBd "D"
▁g/ f/g/f/
▁BE {F}ED
▁AD (3FED
▁dA e
▁BAB g
▁E/ ^F/
▁d>c e>d
▁DG B,D
a2 -
▁X:1<br>L:1/4<br>M: 2
▁X:1<br>L:1/4<br>M: 6/2<br>K:
▁AA g
▁DEF GAB
▁cde =f
▁_ e/d/
▁g> ba>f
▁d>B "A7"
▁Be Be
▁c< AG
▁defg "A7"
▁B/A/ B/
▁(g >b)
▁c>A c>A
▁fedc "Bm"
▁BB "D"
▁(G d
▁(G Bd
▁(G >B
▁e>f c
▁!>! D
▁A/A/ B
▁f>d f>g
▁f< dg
▁c'2 f2
▁f/e/ dc
▁^c ec
▁^c ^d
▁FEF "G"
▁fA g
▁d3/2 e/4f/4
(3 GFE
(3 GGG
▁dfe a
▁A>F F>E
{a} f>e
▁CE "D"
▁C3 /4
▁[A d]
▁a/g/ fe
▁FDD B,
▁[D c
▁^F GAG
▁G/F/ E/
▁a>f b>g
▁(BA) GB
▁E, 6
▁GEE f
▁c) AG
▁^c2 e2
▁(cB) G
Gd >B
▁[BG ][GE]
▁G>G GG
▁cG cG
▁cE AG
▁aA Bc
▁BF FA
▁G> BAG
▁G> F"C"
▁"^A" "Bb"
▁::[K: E]
▁(A/ B/c/d/
▁(A/ >G/)
▁Gd dc
▁Fd BG
▁c/c/ c/
▁=f 3/2
▁(3(A Bd)
▁AFF e
▁X:1<br>L:1/8<br>Q:1/4=10 0<br>M:4/4<br>K:A
▁X:1<br>L:1/8<br>Q:1/4=10 0<br>M:3/4<br>K:C
!fermata! f
▁(ed ).d
▁g>fe g
▁X:1<br>L:1/4<br>Q:1/4=1 7
▁e/d/c/B/ "D"
▁d( f/g/)
▁(f2 >g2)
]2[ Bg]2
Fd im"
▁|]: "Am"
▁(fg) f
▁g/f/e/d/ "A"
▁e' f'
▁X:1<br>L:1/8<br>Q:3/8=120<br>M:6/8<br>K: Emin
▁(cA) c
▁=B 3/2
▁P a2
▁P E2
▁cGE c
▁.c2 .A2
▁[df ][ce]
▁:|2,4 "Am"
▁:|2,4 "E7"
▁(3c ba
c/A/ F/
▁(ec) e
▁(3B =c^c
▁B/A/G/F/ )
▁[B, B
▁(^ F2
▁(^ cB)
▁:|"^ Coda"
▁(fe )(d^c)
▁[GE ,]
▁[GE ][AF
▁(cB )(cA)
▁(ef )(ga)
▁E> ^C
A/G/ F
▁(u B
▁(u ef)
▁DGB D
▁Ee eg
▁(a2 g2)
/F/ )
{fg} fd
▁[FD ])
▁"^M od
▁.a .g.f.e
▁gfgd "Em"
▁X:1<br>L:1/8<br>Q:1/8=128<br>M:4/4<br>K: Eb
▁agfg af
▁d>BA >c
▁(fg )(ef)
▁[C G]2
7/ C"
▁CA, [A,E]A,
▁(c/ f/)
▁^cA cA
▁^cA eA
▁Acd B
▁d2( Bc)
▁c( A/B/c/A/)
▁TA >
▁dDD f
▁.F .F
▁bab f
<br>M:3/4<br>K: D
▁^C >D
▁(ba) g
▁X:1<br>L:1/4<br>M:4/4<br>K:D dor
▁!breath! D,2
▁X:1<br>L:1/8<br>Q:1/8=8 0<br>M:3/4<br>K:G
▁S t
▁c>a e>a
▁cBB "E7"
)(B <d)
▁X:1<br>L:1/8<br>Q:1/2=7 0<br>M:2/2<br>K:G
▁A= ff
▁[M:4/4][K: Amin]
▁X:1<br>L:1/8<br>Q:1/2=6 0<br>M:2/4<br>K:G
▁d>BG >G
▁(eg )(ec)
▁(e>d) c
▁X:1<br>L:1/4<br>Q:1/4= 24
▁(af )(af)
^g/ a)
▁B,< A,
▁(FA ).d
▁(G/ ^F/
▁d/f/ a/f/
▁g2( agfe)
▁ECC B
>F, /
▁fd"A" ec"D"
▁cFF F
▁"^( C)"
C][ M:
▁(ab /a/
0<br>M:3/2<br>K: G
{^ A}
▁A/G/F/ D/
▁g<c g>e
.c2 .c2
▁(EF )(GA)
▁.!fermata!PMTuCOM A
▁f>ec <A
he tt
a^g a)
▁(ga )(ge)
▁|"C m7"
[Q:1/8=180] "^A
▁BA) GB
▁g8 -
>BA >G
▁GBE e
[Q:1/8= 280]
ing ."
▁(FE )(DC)
▁X:1<br>L:1/8<br>M:7/8<br>K: G
▁|! mf!
▁[C, C]2
/2= 90]
▁cA- Ac
▁[B,, B,]2
▁(3(e ^de)
▁a<d a>f
,][ GG,]
▁=GA Bc
▁df/e/ d
▁G= FFE
▁(^c 3
).e/ .f/
▁_B, 3
▁[b B]
▁B,/A,/ G,
▁dc/ B/A/G/
▁|1[M: 2/4]
▁(3f/g/f/ e
▁(c'/b/ )
▁[d' f
,D, ]2
▁.B.c .d.e
▁[eG][ dF]
B,][ E,
▁||[M:2/2][K: G]
▁(d'c' ).b
▁X:1<br>L:1/8<br>Q:1/2=75<br>M:4/4<br>K: D
▁[cE][ BD]
▁ff/ A/
[Q:1/4= 90]
▁a/e/ c/A/
▁"^in tro"
▁c'/c'/ c'
dc' d
▁repeat "
▁=CD EG
▁(E< C)
]/[FD ]/
]/[e G]/
rAP hlich
▁(3.B.c .B
▁BF/G/ B
( {g}
( g2
- ed
1 st
9 /4]
= ec
= ED
> )(G
A ^c
B G"Am"
B B,]
C a
E A,]2
G ce
R efrain"
S c
T fe)
[ f
[ eA]
[ AF]
_ Bd
d ]4
e ^f
f <d
u re
z /B/
{ Ac}
▁ \"
▁d d2
▁d {g}d
▁d {c}B
▁A m"
▁A D/D/
▁A G"F"
▁A {d}B
▁G DDD
▁G A/c/
▁G 7/4
▁c G/A/
▁c =e
▁f cdc
▁f )(de
▁g AB
▁g c'b
▁g (3(
▁F >g
▁F f/g/
▁F BAG
▁( f/e/d/
▁( ^c/
▁E Bd
▁D [
▁D gf
▁D dFd
▁a S
▁a agf
▁a =f
▁a aba
▁d2 GB
▁A2 A>B
▁e2 F2
ed d
▁(3 v
▁(3 C2
▁(3 .g
▁(3 !>!
▁f2 "C7"
▁f2 >B2
ef /
ef /g/)
▁ed {e}
▁BA a
▁F2 dB
▁E2 F
▁E2 ^G2
▁[ dc
▁[ DE
▁cA EG
▁C GE
▁C EEE
▁C D/C/
A/ B/c/)
A/ ^G/
f/ g
A" F"
▁|1 "F#m"
▁A3 {B}
fd f)
G/ A/B/)
▁^ B,
▁^ G/B/
"^ C/
▁GF "Em"
▁GF "Dm"
▁. z
▁. E)
▁. D)
B, ,2
▁= f/
▁= F/
▁= AG
▁= fa
▁= E/F/
▁= Bg
▁AB ^cA
▁ef ag
)( d/
)( Bd
)( g/
)( af
)( E>F)
▁A, A,A,A,
▁EF G"G"
▁d/ f/d/f/
dB "C"
▁g3 {a}
▁G4 "Dm"
▁fe "Bm"
▁ce EG
▁cB Bd
▁cB BG
▁cB ^AB
▁(A E
▁(A >f)
▁(A G/F/)
][ Bc
▁G/ d/
▁GB "Am"
▁(3( EG
▁T f>d
▁T D4
▁fa e^c
▁C2 (
▁c' (
▁f/ A/
ab e
{g} e2
▁ded F
▁edc "D7"
▁edc "E"
▁GBd 2
▁g/ d/B/d/
▁e>d f>d
▁d> (g{a}
▁DFA ^c
"B b/D"
▁(d >g)
▁(d =c)
▁gd A
▁E4 "D"
▁A>B ^c
▁A>B {GdG}
▁B,2 C2
▁ga -
▁_ D
▁_ e/
▁_ ag
▁_ A,
▁dcd =e
▁(B 8
▁A< ag
▁cc G
"_ NB"
▁d' c'a
▁c< AF
▁(c >f)
▁(g A)
▁(e <A)
B" Cm"
B" F#m"
▁(F <
▁(F <G)
▁(F G/A/)
▁fdB "A"
▁d< fA
▁d< fB
▁BB ed
▁(G <F)
EE )
▁e< cd
▁e< ag
▁f>d f>d
▁dBGB "D7"
▁f> cA
▁a4 )
▁Bg ^fg
▁c> )d
▁^c eg
▁EA ^GB
▁B> BA
▁gg ec
▁B>d d>B
▁A>c e>f
(3 (FED)
▁agfe "Bm"
▁A>F G>E
▁afdf "G"
▁[A ce
▁X:1<br>L:1/8<br>M:6/8<br>K:A b
▁=c 6
Bg ]3
▁d) BAG
▁FGAB {d}
▁DD -
▁DD GG
CD }
▁(T ED
▁(T g2
▁(T a>g)
▁EE GG
▁a>f "A7"
▁d^cd "C"
{G} FE
▁FB -
▁FB fe
▁fc cB
▁AcBA GF
▁^G 6
▁^G BG
▁EDE ^G
▁cE AE
▁BF -
▁G> )
▁::[K: Emin]
▁^f ef
▁^f >e
▁(ef) ga
▁(c2 d2)
▁BAGA Bc
▁c>c '
▁[AA ,,]2
li ve
▁d( A
▁[c F]2
▁|]: "Dm"
▁[G, D]3
▁[G, E][
▁dD DE
▁(BA ).B
▁[dB ]>[
▁(BG) dG
▁a< ae
▁|"D 6"
▁[ee ]-
st in
▁cdcB "D7"
▁(B/c/d) !wedge!B
▁gagf ed
{b} ag)
▁(3c Bc)
▁[B B,]
▁faa "A"
▁CC CE
▁C, 6
▁(3f fg
▁^GA A
▁d2c2 d2
▁|:"^A" "Em"
▁(3B =cd
▁(^ cA)
▁(^ F/G/)
▁(AF) DF
▁(ef gf)
▁(u dc)
▁[GG ]2
▁(C >D)
▁X:1<br>L:1/8<br>Q:1/2=10 0<br>M:2/2<br>K:A
▁EA, B,A,
▁X:1<br>L:1/8<br>Q:1/4=120<br>M:2/2<br>K: Amix
▁[Fd ][Fd
ca ]2
▁[Ae ][Ae]
▁c/e/ c/A/
▁::"^B" "A"
▁EGG D
▁aAA d
▁[K:G] |:
▁X:1<br>L:1/8<br>Q:1/4=14 0<br>M:4/4<br>K:F
▁(GA B2)
▁.F 6
▁|"G m6"
▁(Bd g)
▁(f/e/ d/c/B/A/)
▁e^de 2
(E m)"
▁eged "G"
▁|{/ G}
▁(3E GA
]>[ FA]
0<br>M:6/4<br>K: D
▁f( g/f/)
▁f( g/a/)
G"^ D.C."
▁[Ec]2 -
▁(de )(ga)
)(f ^d)
▁B= AB
▁B,G, B,C
▁X:1<br>L:1/8<br>Q:1/8=8 0<br>M:6/8<br>K:D
▁e2f2 g2
▁(3a ^gf
▁"^B" "D"
▁X:1<br>L:1/8<br>Q:1/4=8 8<br>M:3/4<br>K:
▁X:1<br>L:1/16<br>Q:1/4=10 0<br>M:2/4<br>K:A
▁X:1<br>L:1/4<br>M:6/4<br>K: Dmin
▁b2a2 f2
▁(BG ).E
▁f' d'
▁f' e'
▁c2( dc)
▁a( f/g/a/f/)
▁e2( ed)
▁!wedge! e
▁"^V ar
▁A,G, A,C
▁d>BG >E
▁cD AD
▁.b .g
▁E>c G>c
][E e
▁(FA c)
▁d/f/ f
▁Aaa A
▁(df )(af)
▁cb ge
▁[a c'
▁X:1<br>L:1/8<br>Q:1/8=20 0<br>M:2/2<br>K:G
▁Ddd A
▁[g G]
▁[g G,,]
)e (c
B/) c/
▁A,< C
▁[Be ]3
▁(ab c')
.d/ .c/
▁dz G
▁(G/F/ ).E/.D/
▁X:1<br>L:1/4<br>Q:1/2=10 0<br>M:4/4<br>K:G
▁.d( d/e/)
▁E( ee
▁X:1<br>L:1/4<br>M:2/4<br>K: F
▁FA, EA,
▁(gb) ge
▁(DG) G
▁e^fg a
▁X:1<br>L:1/8<br>Q:1/4=20 0<br>M:2/2<br>K:G
▁X:1<br>L:1/8<br>Q:1/8=30 0<br>M:6/8<br>K:none
▁BB/A/ G
▁(dA) FA
▁FB, DF
▁a>ec <e
▁A=F cF
▁c_ d
▁X:1<br>L:1/4<br>Q:1/8= 8
▁Bd- d
"^(F m)"
▁e>^de >g
▁GFA G
D,/ D,/
.D. D
▁(3(Bd g)
▁!slide![AA ]4
▁(e>d c)
▁A,F CF
▁:|2[M: 3/4]
▁a>ef >e
▁AeA e
▁(3(D ED)
▁f<ae >f
<br>M:9/8<br>K: D
▁G<EE >F
▁X:1<br>L:1/8<br>Q:1/2=75 <br>M:2/2<br>K:D
▁[Gc ]3
▁A,>CE >A
▁(cBc) d
▁X:1<br>L:1/8<br>Q:1/4=96 <br>M:2/4<br>K:
▁[M:9/8][K: D]
▁GE/F/ G
edit ed"
▁(TF >E)
▁[fc ]
▁c{dc} B
und otted
][EB ]
▁X:1<br>L:1/8<br>Q:1/4=120<br>M:3/8<br>K: G
▁FD/E/ F
▁[FA]2[ FA]2
▁!>!F 4
▁|{a fg}
( gf
, ]2[
. dB
6 ]
= GE
= c/B/
= CD
> "^4"
A >
A G"D"
C G,
C B,A,
F 3/2
I I"
[ M:1
_ f
_ ef
_ e2
a ss
g ht
i ss
l ef
o ,
o us
s tr"
v ocal"
z z"
{ ED}
▁d FE
▁d ^fg
▁d (d
▁d GAG
▁d zA
▁A D/E/
▁A {GAG}A
▁B /4A/4
▁e ^G
▁e bb
▁e 7/2
▁G g/a/
▁G G"F"
▁c =f
▁c (B
▁c g/g/
▁f {gef}
▁g c'a
▁g f/d/
▁F "
▁F df
▁F "Bb7"
▁F D"Em"
▁F "C#7"
▁E F"A7"
▁E EDE
▁D (G
▁D F/E/
▁D F/F/
▁D C/B,/
▁D G,B,G,
▁a "
▁a {a}
▁d2 ge
▁d2 "B7"
▁d2 {gfg}
▁G2 AA
▁G2 !fine!
▁B2 bg
▁B2 "G7"
▁B2 "Ab"
▁B2 ^d2
▁:| "Gm"
▁c2 dB
▁c2 GG
▁c2 "^g"
▁e2 "^
▁e2 "C"
▁e2 "Em"
▁(3 D/
▁(3 Bde
▁(3 b/a/g/
▁(3 F/G/A/
▁(3 .E.E.E
▁z "^B"
▁g2 cd
▁g2 "^tr"
▁f2 D2
▁f2 "_Fine"
▁f2 e^d
▁F2 fe
▁b =g
▁E2 ed
▁E2 "C"
▁E2 >A2
▁|| "E7"
B/ c
▁dc ce
▁dc A"G"
▁[ EF
▁cA A"G"
▁a2 a^g
▁dB a
▁C >G,
▁BG AA
f/ >e/
▁GA _Bc
▁d3 /4
▁|] 2
▁ag ^fa
EF GA
▁z2 "C7"
▁FA dd
▁. G,
▁B, ^C
▁B/ c
▁B/ D/
▁B/ =A/
>G F
▁= G,
▁= G>B
▁AB {d}
▁AB {d}cA
)( G2
)( Ac
)( a/b/)
▁A, G,G,
▁|"A 6"
▁Ad gf
▁Ad FD
▁Ac e2
▁Ac "Em"
▁EF -
▁EF FF
▁EF DB
▁Bcd efg
GF 2
▁c/ >e/
▁cB F
de "
▁(A ce)
▁(A ^GA
][ EC
▁ED E2
▁ED C2
▁b2 af
▁b2 ab
▁G/ A
▁D3 "C"
▁(3( fe
▁(3( B,
▁(3( DF
▁T fd
▁fa ae
▁c' >f
▁c' d'b
▁G, F
▁G, >E
▁G, D,
▁"^ E"
▁"^ g"
▁DE CE
{g} B>c
▁ea cA
▁edc c
▁gfed "Bm"
▁FG d
▁e>d "G"
▁d> )c
▁edB "A"
BB >A
▁DG dG
▁(3A dc
▁(3A ^GF
fa ]2
▁DEF "A"
FD ,]
▁_ f
▁_ D2
▁B< =
▁!fermata! B,2
▁!fermata! A,2
▁c>d eg
▁(B >g)
▁A< cB
▁A< EA
▁A< DA
DD )
▁cAA =c
▁A>G FG
▁(c <
▁(F GF)
▁(3g a
▁BB e
▁e> ^g
^d ]
▁BGE E
▁f>e "D"
▁e< ce
▁f>d "G"
▁f>d f<a
▁F, B,
▁G/A/ BB
▁(f ^d)
▁Bg dc
▁c> ef
▁c> )A
▁e>c g>c
▁eB B/B/B
▁B> ef
▁B> G"A"
▁G,2 B2
▁fga c
▁B>d A>B
▁B>d F>B
▁GD ED
(3 edc
▁A>F c>F
▁CE GA
▁CE B,
▁CE A,E
▁(3cBA "G"
▁g>e a>f
▁G>B e>g
▁G>B E>G
▁G>B F>B
▁F>A F>D
▁BcB "D"
▁Gc ed
▁a/g/ a
▁[D G,,]
▁G< G,
▁A/G/ E
]/ c/
{A} e>f
▁d) cB
▁c>e a>f
▁(D /4
▁(T ed
▁ad fe
▁(dc) AF
▁(dc) Ac
▁EE BE
▁d^cd g
▁X:1<br>L:1/4<br>M:4/4<br>K: Edor
▁E, )
▁BD d
▁BD DE
▁b/ a/b/c'/
▁b/ ^a/
ac k
▁F> BA
▁[BG ]6
▁(a >c)
▁G>G ,
▁cABc "A"
▁d2d2 B2
▁([ Bd
▁B,D A,
▁B,D G,B,
▁BF BA
▁(f/g/ a/)
▁(A2 <
▁Gg -
▁B>cd g
▁A>d c>d
▁^d >f
▁.d .d.d.d
▁.d (gfg)
▁^cd B
▁^cd BG
▁g< dB
▁aa ef
▁ca Ac
▁ca ^ga
▁d>A d>f
▁d>A B>F
▁d>g e
▁d>g B>d
▁B<d G
▁.e .
▁D< B,B,
▁DEG c
▁E>G B>d
▁[A, C]
▁X:1<br>L:1/4<br>Q:1/4=1 9
]/[ Bd
▁||"^ 4"
▁(fd) ec
▁fagf "A"
▁fagf "A7"
E, F,
▁.A .G
▁(fg) a
▁c/B/A/G/ )
▁c/B/A/G/ "D"
▁M d
▁M e
▁M c2
▁g) ec
▁[Ec ]2[
▁B2G2 D2
▁gabg "D"
▁ceg ece
▁bf bf
st ."
m/ C#"
▁|1,3 "Gm"
▁(cA) FA
▁=g >f
▁=g fge
M:12 /8][K:
▁:|2,4 "C"
▁:|2,4 "F"
▁:|2,4 "Dm"
▁|"_ c
▁Dd cA
▁f2d2 A2
▁(c/B/ ).A/
▁(. C
▁a) a
▁a) b
▁|:"^A" "Gm"
▁c2e2 e2
▁s ee
▁e( e
▁e( dc)
▁c'b c'a
Gc ]
▁B,C B,A,
▁B( d/c/)
▁(ef )(de)
▁G,3 -
▁fde (c
▁b> agf
).A .E
▁gG GB
▁X:1<br>L:1/8<br>M:12/8<br>K: C
▁da ^ga
▁[FD ][EC]
▁A^GA d
▁|"^tr" "C"
▁(EF) GA
▁(fg a)f
7/ 64
{Gdc} d>f
][BG ][BG]
▁CA, B,C
▁CA, G,A,
▁(c/ d/e/c/)
^D }
▁X:1<br>L:1/8<br>Q:1/4=9 6<br>M:4/4<br>K:
▁c/A/ c/e/
▁a2g2 f2
▁(GA G)
▁gba "A7"
▁(3e ag
▁(EG )(BG)
▁c>f a>f
▁(af) ed
▁a>fd >B
▁(d>e) d
][ec ][ec]
▁(A, E
▁aee "D"
▁(d/c/B/A/) G
20 <br>M:12/8<br>K:
▁c>a B>g
▁gc' g
▁F>ED >F
▁b>ag >b
▁X:1<br>L:1/8<br>Q:1/4=8 0<br>M:3/4<br>K:G
0<br>M:3/8<br>K: Bb
▁X:1<br>L:1/8<br>Q:1/8=120<br>M:6/8<br>K: F
▁B2( Bd)
▁f' 4
▁c2( cd)
▁ec' c'
.b .g
▁G2( Bd)
▁(eg fe)
][df ][ce]
ro ug
▁=A 3
▁[a cE
▁[g G,]
▁[g C,]
>^ g2
▁(ce )(dc)
▁D>B, D
▁D2F2 A2
▁"^( b)"
▁"^( editorial
)(a d)
▁X:1<br>L:1/16<br>M:3/8<br>K: Bb
▁(ab ).c'
{^ a}
{g}c <
▁"^Alleg rett
▁X:1<br>L:1/4<br>M:2/2<br>K:G dor
▁(G/F/ G/A/)
▁.d( BAB)
▁A>FA B
▁d>^cd >c
▁d>^cd >f
▁.!fermata!PMTuCOM d
▁d{e} B
▁A/d/ d
▁c=Bc 2
▁X:1<br>L:1/16<br>Q:1/4=8 8<br>M:2/4<br>K:
▁(3b af
▁d>cA >B
▁a2( ba)
▁Te>d e
▁g2>a2 g2
▁!>!e 3/2
▁eEE g
▁e/f/e/ f/
▁Fdd F
▁b>c' b
▁_d 3
▁"^(E 7)"
▁|[K:D] "^
▁c2A2A2 B2
▁X:1<br>L:1/8<br>M:7/8<br>K: Emin
▁"G #m"
▁Gdd G
▁ad' a
{A d}
▁[dd '
▁[K:A] "A"
▁|:[M: 2/4]
{^g} a2
▁FA" Bm"
E][ E,
▁(ea )(
▁(g> ab
▁X:1<br>L:1/16<br>Q:1/4=6 0<br>M:3/8<br>K:D
▁(D/E/F) D
{d ef}
▁X:1<br>L:1/4<br>Q:3/4=90<br>M:6/4<br>K: G
▁(3B/c/B/ A
▁g>fd >f
▁X:1<br>L:1/8<br>Q:1/2=11 0<br>M:2/2<br>K:G
c/4d/4 e/4f/4
▁(3.A .B.A
▁[EA, ]3
▁ge"D" fd
▁AB/ ^c/d
▁X:1<br>L:1/16<br>Q:1/4=5 8<br>M:3/4<br>K:
.F/ .G/
▁|[ M:12/8]
▁B<dA >F
"^g #"
▁X:1<br>L:1/8<br>Q:3/4=4 0<br>M:3/4<br>K:G
▁th roug
▁[fB ]
▁(3AG ^F
▁X:1<br>L:1/4<br>M:none<br>K: G
c/d/e/ c/)
▁(c>B )(c>d)
▁X:1<br>L:1/8<br>Q:1/2=96 <br>M:4/4<br>K:G
▁X:1<br>L:1/8<br>Q:1/4=100<br>M:4/4<br>K: F#
▁|"D/ B"
▁A=FF c
)(ag )(fe)
▁(G^F G)
▁EBG e
{g}A3/2{d}c/ e
).G/ .F/
▁X:1<br>L:1/4<br>M:9/4<br>K: D
▁(FGA F)
▁[ce]2[ ce]2
AR T
▁.c'.b .a.g
▁f<df <a
Q:3/8= 90]
▁c2{e}A2 {GAG}A2
tri plet
/8d /8
wedge!f! wedge!
aest oso"
▁(ab/a/ f)
! open!
( A2
( e'
( dg)
3 /8][K:
4 /2<br>K:
6 /
= cA)
> )(A
C >F
G >A)
T ED
T f2
^ A/)
_ EG
_ e>c
b -
e ll
g /8
m ore
{ c
{ BA
{ GA
▁ one
▁ st
▁d _d
▁A G"Am"
▁A a/a/
▁A d/f/
▁A aea
▁B _
▁B d/
▁B ED
▁B DEF
▁G "Cm"
▁c (c
▁c B/G/
▁c {e}B
▁f [
▁f _ed
▁g (f
▁g {f}e
▁F B/A/
▁F cBA
▁F "Dm"
▁F "Gm"
▁F (D
▁F A/d/
▁( c'/
▁( C/D/
▁E 5
▁E A/A/
▁D cd
▁D dA
▁D F/D/
▁D D/G/
▁a _b
▁d2 FA
▁d2 gb
▁G2 >e2
▁B2 c
▁B2 >g2
▁B2 !D.C.!
▁c2 =B2
▁e2 {AdB}
▁(3 ab
▁(3 ^A
▁(3 G,2
▁(3 FAB
▁z 16
▁f2 "D7"
▁f2 !D.C.!
▁D2 a2
▁D2 {A}
▁F2 {F}
▁b d/e/
▁b BdB
▁b g/a/
▁E2 GA
▁E2 {F}
B/ F/
▁dc _B
▁dc {Bc}
▁[ ^f
▁AG G"G"
▁:: "F7"
fg f)
▁dB eg
▁dB "A7"
▁dB G"Em"
▁C B,/C/
cd B)
▁|: !p!
FA F)
f/ e
GA A
ag 2
▁d3 {e}
▁AF dc
▁AF D"G"
▁AF D"A7"
▁ag dB
g/ ^f/
BG F
▁B, GA
▁B, EEE
B, >G
▁ec "A"
)( _
)( D/E/)
▁A, >e
▁A, DDD
▁A, <A
▁|"A 5"
▁Ad a
▁Ac f2
▁Ac ee
▁d/ F/
▁d/ e/4f/4
▁d/ _e/
▁df "Em"
▁df bg
▁G4 "D7"
b" C7"
▁ce BA
▁e/ g
▁(A cA)
▁dBA (F
▁ED GA
▁ge ^de
▁G/ B/A/
▁fa st"
▁ABA {B}
▁G, A,A,
▁AFD G
▁dcB B
▁dcB g
^c ^A]
▁"^ (B
▁"^ (F
▁"^ I"
▁"^ No
▁"^ Not
▁"^ live
{g} eA
{g} d>c
GG >B
▁ea ^c
▁eA -
▁edc {c}
▁|"^ b"
▁|"^ 16"
▁e>d ^c>d
d/c/ A
d/c/ >B/
▁B>A ^G
▁AFA "Bm"
▁gd cd
F2 E2
▁d>c c
▁A> ed
▁A> ec
▁A> =B
▁A> (A
▁A> cA>F
▁B,2 B2
▁ga ec
▁_ g
▁B< GA
▁dcd "G"
▁GG <G
▁!fermata! a4
▁A,2 D2
▁d>B "D7"
b/ d'/
d/e/ >f/
▁d' ag
▁(g <b
▁(g >d)
▁(e >A)
▁(F >A
▁c>A f>d
▁AGA ^c
▁(3g (eg)
▁fedc "D"
▁(G BG)
▁fef (g
D2 G2
▁e/f/ f
▁e>f "G"
▁!>! G3
▁f>d d>c
▁f>d d>f
▁f>d B>e
▁f> cA>c
d' c'b
bg >d
▁f>g f/e/
▁fdd b
▁cdef ge
{e} d^c
▁f< cc
▁f< dA
▁^c _B
▁ede "A7"
▁EAA >B
▁defd "Em"
▁FEF d
▁B> G"Am"
▁ee "G7"
{c} A
{c} BA)
▁fA BA
▁gg ed
▁gg gd
▁G>F ED
(3 agf
(3 BAB
▁[E B,]
▁A>F ED
e/d/ B/)
{a} g>e
▁CE EF
▁g>e "G"
▁F>A F>A
in ue
▁BcB ^A
▁DC =B,C
▁G3/2 -
▁AE CA,
▁F>G F>D
▁F>G ^G>A
▁(B/c/ d/)
▁(B/c/ d/c/)
▁GFGA BG
▁F< AF
▁AGAB "C"
▁ABde "Bm"
▁AAA a
▁GBA F"G"
dA ]
▁d) cBA
▁FGAB "C"
▁B) ABc
▁c>e A
▁cf =e
▁(D d
▁G/G/ G/F/
▁d>d dd
▁ad ed
▁BAGB "Am"
▁(BA) GA
▁Af fd
▁BD FA
de) }
▁c6 )
▁(a >e)
Ad >B
▁gedc "G"
▁X:1<br>L:1/8<br>Q:1/8=18 0<br>M:2/4<br>K:G
▁ecd !p!
▁AcA ^F
▁aga "D"
▁(B2 A2
▁fedf "A7"
▁|:"^ H
g/a/ b/)
▁aba {b}
▁c>BA >a
▁g< dg
▁bge b
▁d>ef <a
▁abag fe
▁D> CD
▁D> (G{A}
▁gage "D"
▁(ed ).B
▁[A, -
▁X:1<br>L:1/4<br>Q:1/4=1 20<br>M:4/4<br>K:D
▁[AA ]6
]/[ df
▁_B 3/2
▁f>a "G"
E, C,
=e >g
▁{ ^g}
▁^G2 E2
▁g) a
▁(g2 fe)
▁cAB G"A"
▁DB Fd
▁e' b
▁BBB e
▁|"D dim"
▁(3GFE "D"
{F} G
m/ G#"
▁f<a "G"
slide "
▁X:1<br>L:1/8<br>Q:1/2=1 20<br>M:4/4<br>K:
(g b
▁db b2
▁|"_ F
▁be '
▁X:1<br>L:1/16<br>M:3/4<br>K: Emin
▁Dd BG
▁(ag) eg
▁e/f/g "D"
en d"
c'2 )
▁(3f (df)
▁[GB]2 -
▁[fd ][dA]
an ge
▁a) e
▁a) bag
▁[e D,]
▁[e C,,]2
▁dega {ga}
▁c'b c'd'
▁X:1<br>L:1/8<br>Q:1/2=9 2
▁B( GG
▁t ender
▁(e/f/g) f
▁c>Bc <e
(f >d)
(f >g)
▁(cd ).e
▁(3D CD
▁[FD ][GE
▁c>de <a
▁A" D
▁[DB ]6
).g .c
).g .g
▁f>A d>f
F/A/ F/
Te m
▁(fg )(ab)
▁(d< f
▁[C G]
▁(d/ >e/)
▁BEA E
▁g^fg 2
▁(dB )(
▁(dB )(ge)
▁FFF E
▁c( A/c/)
▁::"^ F"
▁[FA]2 -
▁bc' d'c'
{ag} a>e
▁egg ^f
▁(f/e/ )(
▁(GB) d
▁(cA ).A
▁(ED) EF
▁e^de ^f
▁Td >e
[Q:1/8=1 40]
▁(3E cB
]>[ ce]
▁c'a c'a
▁[M:6/8][K: C]
▁fdA a
▁FEE d
▁(E/F/ G).E
▁B,, 8
▁(v B
▁A/F/ A/B/
▁eE EG
▁(de )(dc)
▁.[ G,
▁(FD) F
▁(BA)( G^F)
▁[EG ][FA]
▁FC FA
▁FC A,C
▁G2E2 D2
▁eaf "G"
▁(ba )(
▁(ba ).f
▁(ba )(ag)
NB 4"
▁c'bag fe
0<br>M:9/8<br>K: A
▁c2( de)
▁:|[M: 4/4]
▁(F/G/ F)
▁!wedge! A
▁!wedge! c2
▁!wedge! A2
▁[M:4/4][K: C]
7/2 F/)
▁g>c g>e
▁G2F2 E2
▁"^V ersion
▁X:1<br>L:1/8<br>Q:1/2=6 0<br>M:4/4<br>K:C
▁TF EF
▁.b .a.g
▁b) a
▁f/d/ g/e/
▁X:1<br>L:1/8<br>Q:1/4=16 8
)(G >F)
▁(G/ >A/)
▁::[K:D] "A7"
▁(g/f/) e/d/
c'/b/ c'/
ro ll"
▁D>d c>d
▁=C DE
▁b2g2 g2
>= e)
▁cFF E
▁X:1<br>L:1/8<br>Q:1/4=15 0<br>M:2/4<br>K:G
▁_A GFE
▁X:1<br>L:1/4<br>Q:1/4=10 0<br>M:4/4<br>K:D
▁X:1<br>L:1/4<br>Q:1/4=10 0<br>M:3/4<br>K:G
▁(EF GE)
)A (F
▁[f F]2
▁B{c} d
"_g" G
▁d>cA >G
▁d>Bd >g
][ge ][fd]
▁d^cA c
▁BdA g
▁Eg E
▁DBB D
▁X:1<br>L:1/8<br>Q:1/4=18 0<br>M:4/4<br>K:D
.f2 )
▁eEE A
▁d2F2 F2
In tro"
▁(eA) ce
▁X:1<br>L:1/8<br>M:6/4<br>K: Gmin
▁X:1<br>L:1/8<br>Q:1/8=24 0<br>M:2/4<br>K:D
/2= 60]
][e G][
▁^FD FA
{= c}
sus 4
▁|:[M: 2/2]
▁B<dd >e
▁^G>A B>c
▁FdB F
▁aa/a/ a
▁d<b c<a
▁=GA Bd
▁AA" C7"
▁X:1<br>L:1/4<br>Q:3/4=90<br>M:6/4<br>K: D
▁(A<d) d
▁X:1<br>L:1/16<br>M:6/8<br>K: D
▁|]:[K: G]
▁(=f >e
▁([D A]
▁(3(u efg)
▁c^ AF
▁G,< F,
▁c2c BcA
▁.d.e .f.g
▁=gf ef
▁(3^c Bc
F#min ]
▁c<Ac <e
▁B/^c/ dB
▁([GA -]2
▁d_B fd
▁(g/e/ d/c/)
▁(A/4B/4 c/)
"D/ G"
"_D S"
▁||[M:2/2][K: D]
b/4 c'/4
▁[A,A ]4
▁([ce -]
▁d2c =B
ow n
npi pe
▁|[M:1 /4]
▁[G,E ]4
▁(a^g) ab
▁X:1<br>L:1/8<br>Q:3/8=7 2
▁A2B ^c
▁[cA][BG ][AF
▁(d^cd e)
▁[AF][AF ][AF]
]/[ce ]/
"^(Bb 7)"
▁"^(D 7)"
▁X:1<br>L:1/4<br>M:3 /1<br>K:
▁sett ing"
" Gdim"
( {A}
, see
. C2
. b)
/ =e/
1 ]"^prog:
7 /16<br>K:
< f/
< AA
A ce
A <F
E [
F 4
F >
F >F
G D]
G <E
U n
^ AG
_ A/
f F]
f +"
i s"
l t
z /G/
▁d 5
▁d 7
▁d ^F
▁d "Cm"
▁d A"G"
▁A G"A7"
▁B g/e/
▁e S
▁e 12
▁e f/d/
▁e {de}
▁G eg
▁G de
▁G e/e/
▁f bg
▁f "E"
▁f "^/"
▁f irst
▁g BGB
▁F "F#7"
▁( B/A/G/
▁( =e
▁E C"
▁E EFG
▁E B,C
▁E (G
▁|" C#
▁D S
▁D f/g/
▁d2 GA
▁A2 C2
▁A2 ^G2
▁G2 {d}
▁B2 gB
▁B2 >E2
▁:| "D7"
▁:| "G7"
▁c2 EF
▁c2 GE
▁c2 ac
▁c2 "F7"
▁(3 fd
▁(3 G/
▁(3 B,DG
▁(3 A/A/A/
▁z "Dm"
▁z "_>"
▁f2 "Gm"
▁BA "Bm"
▁BA (3Bcd
▁D2 (Bc)
▁D2 >C2
D" D
▁F2 "F"
▁b b/g/
c/ B/A/G/
B/ e/
▁dc f
▁dc fe
▁[ Q:1
▁a2 "D7"
▁a2 {ba}
fg >a
▁dB FA
▁C =
▁C "D"
▁C AG
▁C oda"
▁BG DE
▁BG Ad
▁BG G"D"
▁Bd "A7"
▁|] "^(a)
▁AF df
▁:|2 "F#m"
▁A3 "C7"
▁ag fe)
BG G
▁FA DD
"^ e
▁B, /G/
▁B, B,/B,/
B, >E
▁B/ >G/
▁= DE
▁= edc
▁c3 "C7"
F/ d/
▁A/ c/e/c/
▁AB =B
▁ef "D"
▁eg c2
▁eg ae
▁eg {a}gf
)( v
)( cB
)( cE)
▁A, FF
▁|"A 7/E"
▁Ac DF
eg ]
▁fe {e}
▁fe ^dc
▁cB >A
▁GE ^C
▁GE B,E
▁(A a
▁(A BA
▁(A =B)
▁de "A"
][ Bb]
▁ED GB
▁ED ^CD
A, B,C
A, ,]2
▁ge Ac
▁ge ^fd
▁E3 /4
▁GB )
▁! >(!
▁c' ab
▁c' age
▁f/ ^e/
▁af Ted
▁BAG F"Em"
▁"^ 3
▁"^ d
▁"^ g
▁"^ an
▁c4 "Bb"
▁DE "D"
▁gfg ^g
{g} cA
▁gfed {d}
▁FG D
G, ]2[
▁B/c/ A/B/
▁|"E 7/B"
▁FE EG
▁FE CD
▁|"^ A"
▁g/ >g/
▁g/ e/d/B/
). E2
▁d> (B
▁edB {d}
▁BE {G}ED
▁B>A B>A
▁B>A Be
▁X:1<br>L:1/8<br>M:2/4<br>K: B
EG >A
▁AD GF
▁AD AF
"E m/D"
▁G>A "G"
▁gd df
▁DF GF
▁FED c
▁dd ^c
▁dd ^cd
▁(3A (Bc)
▁(3A (BA)
▁d/c/ "G"
▁ABd c
▁g> fge
▁(3d =cB
▁A,2 C2
▁(B b)
▁(B ^c)
"F" _
"_ 1"
▁dG dG
▁B>c {Bc}
▁d>e {de}
▁d' c'/b/
▁c< ef
▁BAF d
▁|[M: 4/4
▁(e /4d/4
▁(F <d)
▁c>A d>c
▁f/g/ ae
▁(3g af
▁d< df
▁d< BAG
▁e> Bd
ba >b
▁BGE c
▁a>g e>f
▁e< aa>g
▁c>B B>A
▁f> cA>F
d' >c'
▁f>g f>g
▁dBd b
▁GFG c
▁(f agf)
▁EFG e
▁Bg "A7"
▁faf "G"
▁e>c {c}
▁e>c {G}c
▁EA D
▁EA Bd
▁eB f
▁ede "G"
▁ede "Bm"
▁c/B/ "D7"
▁B> G"C"
▁ae A
▁ae ab
▁DED F
▁dAF d
(3 BcB
"^( Eb
▁(3cBA "D"
▁(3cBA "E7"
▁X:1<br>L:1/8<br>Q:1/8= 32
=c ]
▁afdf "Em"
▁a/g/ )
▁A) BA
▁A) GF
▁[D f]2
▁ece B
▁dfed cB
▁G/F/ E/G/
0<br>M:2/2<br>K: Edor
0<br>M:2/2<br>K: Amix
▁(gf ).f
<br>M:4/4<br>K: C
▁FGAB "D7"
▁cf fc
▁(D >B,)
▁ad fg
▁ad af
▁EFE "D"
▁Af -
GF) }
▁FB Bd
ac <a
▁(ed) dd
▁[GB ][GB
▁[BG ]>[
.B .d
▁B,D GE
ff ]
▁d>ed >f
▁C/ -
▁[FA ][DA]
▁.d .
▁e>A A>B
▁BAA a
▁f) df
▁(3(A GE)
▁AFF f
▁[cA ][ec]
!fermata! e
▁(ed ).d.d
▁DEG >A
▁E>G D>G
Be ]2
▁[ce ]2)
▁[G g]
▁cee =g
▁(fd) cA
▁FAd A"G"
▁fb d
▁{ A
▁.c .A.A
▁D, 3/2
▁b>g d
▁[G, D]4
▁dD GB
▁[ec ']2
▁Bed "A"
▁(c/d/ e/f/
▁cBAc "E7"
▁d^c ec
▁D/E/ G/A/
▁DB FD
▁c2A2 F2
▁=F c
▁e' /d'/
▁BBB >A
▁[ee ][ee]
▁"_ -
▁|1,3 "F"
▁=g ec
▁=g fga
▁.B2 .A2
▁a>e g>B
"^C" "Eb"
▁:|2,4 "Gm"
▁|"_ p"
▁(3c -
▁(ag) fg
▁C, E,
c/A/ G/
>. E)
▁(. D2
▁.G .E
▁[e E]2
▁[e G,]
▁[e E][
▁d>cd f
▁X:1<br>L:1/8<br>Q:1/8=232<br>M:4/4<br>K: Gmin
▁e( d/e/)
▁f2e2 f2
▁dE BE)
▁(ge) ce
▁(Bc ).d
▁(Bc )(BA)
▁dGG e
▁X:1<br>L:1/8<br>Q:1/2=9 0<br>M:2/4<br>K:G
▁(3G 3
▁(u f
▁(e/f/g) d
(c c)
▁gG gG
▁[Ac ]2[
e/e/ e/
▁[CE ]6
▁(A/B/) cA
▁X:1<br>L:1/8<br>Q:1/4=120<br>M:6/8<br>K: Dmin
).g .a
▁EDD e
▁(DE) FD
▁(d< A)
▁[C F]
▁bb b2
▁[Bg ]6
▁(c/ B/c/
▁Te 6
▁A>GA >F
▁(dB )(de)
▁X:1<br>L:1/8<br>Q:1/4=14 0<br>M:4/4<br>K:Bb
▁X:1<br>L:1/8<br>Q:1/4=9 0<br>M:6/8<br>K:D
▁a2g2 f2e2
▁::"^ Variations:"
▁(GA ).B.c
▁Bgf "A7"
▁(f/e/ d
▁a/b/ ag
▁c'a ec
0<br>M:6/4<br>K: F
▁g/e/ d
▁FEE e
▁(AB )(GA)
G"^ (D)"
▁d= BG
▁(GE) D
▁eE dE
▁.[ fd]2
)(f <d)
)(f <a)
▁e2a2 a2
▁a/a/ af
▁(d' b)
][ce ][Ae]
▁(3a ag
F/F/ F/
{E} F
"^/ F"
▁g2d2 B2G2
G][ M:
▁a( a
▁(Ac )(fc)
▁::[K:G] "^B""G"
▁[AF] 7
▁d>BG <B
▁g/f/e/ c/
▁^ce ag
▁(G/F/) E/D/
>v E
▁(B, G,)
▁cac "G"
{g}A 3
EDC B,
▁g2( ag)
▁ECC F
▁Gce 2
"^c rot
▁"D m7"
▁"D b/Ab"
▁=fed e
▁(4:3:4 (
▁D>B B
▁X:1<br>L:1/8<br>Q:1/4=13 0<br>M:2/4<br>K:G
>= B)
▁|( {g}
)(a A)
▁X:1<br>L:1/8<br>Q:1/8=14 0<br>M:4/4<br>K:D
▁X:1<br>L:1/8<br>Q:1/8=14 0<br>M:2/2<br>K:D
▁(ab ag)
{^ fg}
{D} E
▁(3A, DF
>ed >c
▁X:1<br>L:1/8<br>Q:1/8=30 0<br>M:2/4<br>K:G
▁vd <
"_f" F
"^d" d
▁A,/A,/ A,/A,/
▁(A/G/ ).F/.E/
▁(E/ C/)
▁a=g ef
▁B,/C/ D/E/
z/ (
▁CEE C
][AA ]-)
▁[D, A,]
▁(d>c )(B>A)
>Bc >A
▁(EA) AB
▁dd' c'
▁EE/E/ E
▁E= CC
▁e!p! ace
▁B<GB >d
sus 2"
▁B<dd >B
▁(g> ab)
[A E]
▁X:1<br>L:1/4<br>Q:3/4=90<br>M:6/4<br>K: F
▁BG- G
▁X:1<br>L:1/4<br>Q:1/4=120<br>M:4/4<br>K: F
"C maj7"
▁^G/A/ B/c/
▁(f>g a)
▁X:1<br>L:1/8<br>Q:1/8=6 0<br>M:3/4<br>K:G
▁c2F2 F2
][A, A]
▁DD/E/ F
▁X:1<br>L:1/8<br>Q:1/2=104 <br>M:4/4<br>K:G
▁ee/ a/
▁fd) cA
▁e(c c)
▁X:1<br>L:1/8<br>Q:1/2=100<br>M:3/2<br>K: D
▁dbg d
▁X:1<br>L:1/8<br>Q:1/2=120<br>M:2/2<br>K: G
4/4 4<br>K:
▁|"F# dim"
▁(A/c/ B/A/)
▁.A/ .B/
▁X:1<br>L:1/4<br>Q:1/2=120<br>M:2/2<br>K: G
▁B2B,2 B,2
"^p ause"
▁.!fermata!PMTuC2O (M
▁X:1<br>L:1/4<br>Q:3/4=120<br>M: 9/4<br>K:
▁A3/2{d}c/ e
▁A2B2c2 d2
chne ll"
▁|"^(G 7)"
▁(3^F GA
▁A/f/ f
"G/ F#"
▁(3(cA F)
▁A/- A/
{fg f}
▁f>^ef >g
▁!>!c' 4
▁||"^2 5"
]/[GB ]/
]/[Ac ]/
hett o"
▁"^live ly"
. S
2 G
4 /2]
5 /4]
6 )"
< ae
= bc'
> (e
> E/)
> fg>e
A ^G
B ^cd
C G
D ED
D A]
F ][e
T a>g
[ dg
[ M:12/8]
_ B/A/
c /8
i b
i er
t uoso"
u D
{ FA}
{ AB)}
▁ N
▁ {/g}
▁d GE
▁A A2
▁A a/g/
▁A E/A/
▁B {g}B
▁B EDE
▁B {d}B{e}B
▁G dg
▁G ddd
▁G {d}G
▁G G/c/
▁c )(
▁c 7/2
▁c c'ba
▁f "C7"
▁f "_Fine"
▁g b"
▁g d/c/
▁g c/e/
▁g Bdf
▁F (3
▁F "G7"
▁F cF
▁F ast"
▁F {GF}
▁( =G
▁E d/c/
▁E c/B/
▁E =G
▁E (F
▁|" Gdim"
▁D ef
▁D Bd
▁D A/B/
▁a t
▁a {ga}
▁a za
▁d2 "Cm"
▁A2 cc
▁A2 {GA}
▁G2 >g2
▁B2 [
▁B2 {a}
▁c2 ee
▁c2 >E2
▁e2 cc
▁e2 "^/"
▁e2 {Gdc}
▁e2 >(
▁e2 >^d2
▁(3 GAF
▁(3 aga)
▁(3 fe^d
▁(3 C/D/E/
▁g2 E2
▁g2 {e}
Bc /d/
▁f2 {ag}
▁BA "F"
▁BA {A}
▁BA A"A"
▁D2 "F"
▁b z
▁b bag
▁E2 {d}
▁|| O
▁dc F
▁AG >F
▁:: "F#m"
▁:: "Cm"
▁a2 bc'
▁dB "G"
▁dB {d}G
▁C CD
▁fd ga
▁fd d/d/d
▁BG E2
>A "
ag {a}
▁GA dA
▁Bd 2d
▁d3 {g}
▁d3 {gdG}
▁|] !f!
▁AF GB
▁AF D"^
fd '
▁cd "E7"
G/ D/
▁^ AG
▁^ d)
▁FA Ec
▁GF {/G}
▁. F/
▁B, (
▁X:1<br>L:1/8<br>M:4/4<br>K: none
▁fg dc
▁fg "C"
▁fg "Em"
▁fg =e
▁gf "G"
▁gf {g}ed
▁ec =Bc
▁= bg
▁= B,D
▁cBA GFG
▁A/ ^A/
▁def "E7"
▁AB ge
GB ][GB]
▁ef fa
▁|"C" "_c"
▁ABc A"E"
)( e2
)( g2
▁A, B,/C/
▁|"A 7/C#"
▁Ac GF
▁Ac "C"
▁EF D2
eg g
▁FD Ac
▁fe )d
▁ce ba
▁e/ G/
c2 f2
▁cB 2
▁cB {/c}
▁GE BA
▁de "D7"
B2 e2
▁ge ^d
▁ge =fd
▁b2 >c'2
▁E3 "D7"
GE E
▁GB DE
▁(3( f/g/a/)
▁T BAF
▁fa dg
▁C2 ED
▁C2 e2
▁dBG {B}
e2 d
▁c' _b
▁AGF d
▁af cB
▁BAG )
▁BAG c
▁|{ G
▁|{ DF}
f2 >e2
▁B4 {cB}
▁dcB =A
▁"^ hornpipe"
{g} BA
{g} Ad
▁ded "Em"
▁FGA BcA
g2 >e2
▁F/ -
G, F,
▁FE AE
▁|"^ Echo"
▁g/ ^f/g/
). ^c
). D.
▁edB a
▁BE BA
▁BE Bc
▁GAB G"C"
▁EG BA
▁(d D)
▁DF GB
▁E/ ^
or d
▁d>c B>G
▁DG G2
▁AA dA
▁F4 "A7"
▁A> fd
▁cde =g
3/2 c/
3/2 d/
▁efe "A7"
▁D/ E/D/
▁cBAG {G}
▁a/ b/a/
▁Be e2
▁A>G FF
▁(c D)
▁GABc dB
0<br>M:4/4<br>K: F#
▁(g B
▁(e ^f/
B" Gm"
A/B/ ^c/
▁c>A "Bb"
)" F7"
▁d< df>d
▁A/B/ cF
▁e> )c
a/g/ f/e/
▁!>! F3
▁A/A/ G
▁a4 {g}
^f ]
▁e>c g>e
▁e>c a>e
▁a> )g
▁G,2 B,2
▁G,2 >B,2
eA e
▁B3/2 c/4d/4
▁GD DE
▁g>f {f}
▁A>F E>C
▁B>G G>F
▁EC AG
▁EC CC
▁F>A F
▁F>A "Bm"
▁[A -
▁[A D][
▁BcB "E7"
▁BcB {c}
▁a/g/ e/g/
▁[D c]
▁G< ED
▁AE GF
▁=c >E
.d .d)
Bg ]/
"^B" "G7"
▁fB {G}B
▁(gf ef)
▁(gf ).d
▁B) GE
▁(T GFG)
▁d>d f>d
▁(E e)
▁"E bm"
▁BGBd "D"
▁E, >C,
{f} ge
▁^c2 c2
▁b/ >a/
▁fgf edc
▁(a <d)
▁(3gfe "D"
F, ,]2
▁([ E-
▁X:1<br>L:1/8<br>Q:1/8=18 0<br>M:2/2<br>K:A
▁(B2 c2)
▁(B2 >c2)
ff >g
▁d>ed f
▁F>E FA
▁A>BA B
▁C/ >C/
▁^d 3/2
▁^cd dd
▁g< ef
▁g< ca
▁e>A c<A
▁dAFA "G"
▁B>B B>A
▁d>A B>c
▁d>g d
▁gage {d}
▁Bdef {a}
▁.e '2
.G .c.e
▁X:1<br>L:1/8<br>Q:1/4=10 0<br>M:6/8<br>K:C
▁F) AA
▁X:1<br>L:1/8<br>Q:1/4=120<br>M:4/4<br>K: Bmin
▁[A, D]3
(d A)
▁[ce ][Ae
▁(cd) c
▁D>F B>F
▁cee "E"
▁TB2 >A2
▁c<A a>g
▁AGG D
▁(F/ E/F/G/)
▁(GA) G
▁(GA) GF
▁b>g b>g
▁(3(d ec)
▁[d -
▁Ec -
▁M BAF
▁eG cG
▁D/E/ G
▁=F ED
▁B2G2 E2
▁"_ no
{F} ED)
▁(cA) BG
{b} a^g
▁FAD B
D/E/ G/
▁C, 8
▁C, 3/2
▁!slide! d2
▁X:1<br>L:1/8<br>M:6/8<br>K:C dor
▁B2d2 g2
▁[fd ]>[
▁(. C2
▁.f2 (fd)
▁e( cAc)
▁e/f/g/ f/e/d/
▁.g .a
g/e/ c/
▁e<c {gcd}
▁(^ F/G/
▁:|"^ Part
▁(fe )(gf)
▁(ag a)
▁(ef d)
▁E> cA>F
▁t une
cG <c
▁fde (d
▁^f2 g2
▁gG BG
(f <a)
<br>M:6/8<br>K: Emin
▁[GG ]
▁(C B,
▁(FE) FG
▁(3D =E^F
▁X:1<br>L:1/8<br>Q:1/4=120<br>M:2/2<br>K: Gmin
▁|"^tr" "C7"
▁.a .a.a.a
▁gf/e/ d
▁(d/ B/A/G/)
▁(3(fg f
▁[Ae ][Be
▁[Bg ]2-
▁(eg) e
▁f>c f>a
▁G/B/ B
▁a2g2 e2
▁c( c/d/)
)(A <F)
▁(DF )(BF)
{ag} f>g
▁(Bd B)
▁(ed)( c
▁(cA GF)
"D #"
▁c>f a>g
▁(GF EF)
▁Ed Ed
▁X:1<br>L:1/8<br>M:2/2<br>K:C min
▁G( D
▁EGA d
▁f( d/f/)
▁A>f c>f
▁x /
▁DA, FD
▁B4- "E7"
▁(v c
[...]
