{"<s>":0,"<pad>":1,"</s>":2,"<unk>":3,"<mask>":4,"\n":5,"\r":6,"!":7,"\"":8,"#":9,"$":10,"&":11,"'":12,"(":13,")":14,"*":15,"+":16,",":17,"-":18,".":19,"/":20,"0":21,"1":22,"2":23,"3":24,"4":25,"5":26,"6":27,"7":28,"8":29,"9":30,":":31,";":32,"<":33,"=":34,">":35,"?":36,"@":37,"A":38,"B":39,"C":40,"D":41,"E":42,"F":43,"G":44,"H":45,"I":46,"J":47,"K":48,"L":49,"M":50,"N":51,"O":52,"P":53,"Q":54,"R":55,"S":56,"T":57,"U":58,"V":59,"W":60,"X":61,"Y":62,"Z":63,"[":64,"\\":65,"]":66,"^":67,"_":68,"`":69,"a":70,"b":71,"c":72,"d":73,"e":74,"f":75,"g":76,"h":77,"i":78,"j":79,"k":80,"l":81,"m":82,"n":83,"o":84,"p":85,"q":86,"r":87,"s":88,"t":89,"u":90,"v":91,"w":92,"x":93,"y":94,"z":95,"{":96,"|":97,"}":98,"~":99,"▁":100,"▁|":101,"▁d":102,"▁A":103,"▁B":104,"▁e":105,"▁G":106,"▁c":107,"<b":108,"r>":109,"<br>":110,"▁f":111,"▁g":112,"▁F":113,"▁(":114,":1":115,"▁E":116,"@@":117,"▁|\"":118,"▁D":119,"▁a":120,"▁d2":121,"▁A2":122,"▁:":123,"▁G2":124,"▁B2":125,"/8":126,"/8<br>":127,"K:":128,"M:":129,"▁:|":130,"▁c2":131,"L:1":132,"▁X":133,"\r\n":134,"▁@@":135,"<br>L:1":136,":1<br>L:1":137,"▁X:1<br>L:1":138,"▁@@@":139,"▁e2":140,"/4":141,"BA":142,"ed":143,"▁X:1<br>L:1/8<br>":144,"▁(3":145,"▁z":146,"<br>K:":147,"▁g2":148,"Bc":149,"▁f2":150,"7\"":151,"ef":152,"m\"":153,"▁ed":154,"G\"":155,"▁BA":156,"▁D2":157,"▁X:1<br>L:1/8<br>M:":158,"/4<br>K:":159,"D\"":160,"▁F2":161,"▁b":162,"▁E2":163,"▁\"":164,"▁||":165,"c/":166,"B/":167,"▁dc":168,"▁[":169,"fe":170,"▁cA":171,"▁AG":172,"▁:|\r\n":173,"▁::":174,"▁a2":175,"fg":176,"/2":177,"▁dB":178,"▁C":179,"▁fd":180,"cd":181,"A/":182,"▁BG":183,"d/":184,"▁|:":185,"cA":186,"e/":187,"FA":188,"Bd":189,">A":190,"f/":191,"<br>M:":192,">d":193,"GA":194,"C\"":195,"ag":196,"▁GA":197,"A\"":198,"▁Bd":199,"▁d3":200,"▁|]":201,"4/4<br>K:":202,"▁|1":203,"▁|\"G\"":204,"ec":205,"▁AF":206,"▁:|2":207,"▁G3":208,">B":209,"▁A3":210,">c":211,"▁|\"D\"":212,"fd":213,"▁cd":214,"G/":215,"▁ag":216,"▁^":217,"g/":218,"ED":219,"▁|]\r\n":220,"BG":221,"/8<br>K:":222,"EF":223,"▁z2":224,">e":225,"▁B3":226,"▁||\r\n":227,"cB":228,"▁FA":229,"Q:1":230,"\"^":231,"▁GF":232,"▁.":233,"▁B,":234,"▁X:1<br>L:1/8<br>M:4/4<br>K:":235,"B,":236,"F\"":237,"af":238,"0<br>M:":239,"▁fg":240,"6/8<br>K:":241,"▁fed":242,"▁B/":243,">G":244,">f":245,"▁gf":246,"▁ec":247,"]2":248,"▁=":249,"▁cBA":250,"▁c3":251,"F/":252,"▁A/":253,">g":254,"▁def":255,"▁X:1<br>L:1/8<br>Q:1":256,"▁AB":257,"GB":258,"AA":259,"=1":260,"▁ef":261,"▁eg":262,"▁Bc":263,"▁|\"C\"":264,"▁ABc":265,")(":266,"▁A,":267,"▁e3":268,"▁|\"A":269,"Em\"":270,"▁Ad":271,"▁Ac":272,"▁EF":273,"▁d/":274,"▁Bcd":275,"dB":276,"\"D\"":277,"eg":278,"GF":279,"▁d4":280,"▁A4":281,"D7\"":282,"▁df":283,"▁g3":284,"▁efg":285,">F":286,"▁FD":287,"▁c/":288,"\"G\"":289,"▁G4":290,"d2":291,"b\"":292,"▁fe":293,"▁X:1<br>L:1/8<br>M:6/8<br>K:":294,"mi":295,"▁ce":296,"▁X:1<br>L:1/8<br>M:2":297,"▁e/":298,"c2":299,"{g":300,"▁cB":301,"▁GE":302,"de":303,"▁(A":304,"▁de":305,"▁|\"A\"":306,"E/":307,"][":308,"B2":309,"▁dBA":310,"▁f3":311,"a/":312,"▁ED":313,"A,":314,"dc":315,"▁ge":316,"▁b2":317,"▁ecA":318,"▁E3":319,"▁G/":320,"GE":321,"/2<br>K:":322,"▁GB":323,"▁D3":324,"AF":325,"▁(3(":326,"▁T":327,"3/4<br>K:":328,"▁fa":329,"min":330,"▁F3":331,"▁C2":332,"▁gfe":333,"B/c/":334,"▁!":335,"▁dBG":336,"\"A":337,"ce":338,"e2":339,"▁c'":340,"▁AGF":341,"▁f/":342,"▁|\"B":343,"G2":344,"▁af":345,"▁ABA":346,"A2":347,"ge":348,"▁BAG":349,"▁|{":350,"AB":351,"c'":352,"f2":353,"▁B4":354,"▁|\"F\"":355,"▁G,":356,"G7\"":357,"▁dg":358,"▁AFD":359,"Bcd":360,"B/A/":361,"▁|\"Am\"":362,"▁dcB":363,"\"A\"":364,"^c":365,"ab":366,"▁\"^":367,"▁c4":368,"▁DE":369,"Dm\"":370,"▁|\"Em\"":371,"▁gfg":372,"▁ged":373,"{g}":374,"\"C\"":375,"GG":376,"▁ded":377,"▁ea":378,"▁FGA":379,">E":380,"g2":381,"/4=1":382,"▁bg":383,"D/":384,"▁eA":385,">a":386,"▁edc":387,"▁X:1<br>L:1/4":388,"at":389,"▁gfed":390,"▁afd":391,"▁e4":392,"▁F/":393,"▁a3":394,"/8=1":395,"▁FG":396,"gf":397,"G,":398,"▁B/c/":399,"▁|\"E":400,"f/e/":401,"▁GBd":402,"df":403,"AG":404,"▁FE":405,"▁|\"D7\"":406,"▁|\"^":407,"▁g/":408,").":409,"ee":410,"▁e>d":411,"dd":412,"▁d>":413,"C7\"":414,"d/c/":415,"▁D4":416,"▁X:1<br>L:1/8<br>M:2/2<br>K:":417,"e/f/":418,">D":419,"▁\"G\"":420,"▁edB":421,"▁DFA":422,"▁BE":423,"\"B":424,"▁dcBA":425,"▁GAB":426,"▁EG":427,"16":428,"▁B>A":429,"▁(d":430,"▁ab":431,"▁X:1<br>L:1/8<br>M:2/4<br>K:":432,"2/4<br>K:":433,"BB":434,"EG":435,"▁AD":436,"efg":437,"▁\"D\"":438,"\"E":439,"▁AFA":440,"/16":441,"▁dA":442,"[M:":443,"▁X:1<br>L:1/16":444,"▁gb":445,"▁G>A":446,"▁gd":447,"F2":448,"▁BAB":449,"▁DF":450,"▁X:1<br>L:1/8<br>Q:1/4=1":451,"20<br>M:":452,"▁|\"A7\"":453,"▁E/":454,"or":455,"a!":456,"Ac":457,"mat":458,"fer":459,"fermat":460,"fermata!":461,"▁edcB":462,"▁X:1<br>L:1/8<br>M:3/4<br>K:":463,"▁FED":464,"▁E4":465,"▁|\"G7\"":466,"▁d>c":467,"▁DG":468,"Gm\"":469,"\"A7\"":470,"agf":471,"G)":472,"f/g/":473,"▁dd":474,"▁X:1<br>L:1/8<br>M:4/4<br>K:D":475,"▁(3A":476,"▁X:1<br>L:1/8<br>M:4/4<br>K:G":477,"a2":478,"d}":479,"▁d/c/":480,"▁X:1<br>L:1/4<br>M:":481,"fa":482,"▁AA":483,"▁F4":484,"\"D7\"":485,"▁A>B":486,"▁DEF":487,"▁cBc":488,"▁A>":489,"▁g4":490,"▁ABd":491,"▁B,2":492,"▁cde":493,"▁ga":494,"FD":495,"▁(3Bcd":496,"▁_":497,"▁B<":498,"dor":499,"▁dcd":500,"▁|\"Dm\"":501,"▁GG":502,"cBA":503,"▁X:1<br>L:1/8<br>Q:1/8=1":504,"▁agf":505,"/4]":506,"▁g>":507,"▁(3d":508,"▁f4":509,"B)":510,"3/2":511,"▁!fermata!":512,"DE":513,"▁c>d":514,"▁A,2":515,"▁efe":516,"▁D/":517,"▁X:1<br>L:1/16<br>M:":518,"▁(B":519,"▁X:1<br>L:1/8<br>M:6/8<br>K:G":520,"▁cBAG":521,"\"Em\"":522,"▁A<":523,"▁cAF":524,"▁cc":525,"\"F\"":526,"▁d>B":527,"▁BGG":528,"\"_":529,"[K:":530,"b/":531,"a)":532,"DD":533,"e}":534,"▁dG":535,"▁B>c":536,"▁cAA":537,"CE":538,"▁d>e":539,"▁efge":540,"▁a/":541,"▁Be":542,"▁A>G":543,"▁gec":544,"F#":545,"d/e/":546,"▁d'":547,"▁\"C\"":548,"^cd":549,"▁c<":550,"▁(c":551,"▁GED":552,"c}":553,"E2":554,"▁|\"Bb\"":555,"^g":556,"▁BAF":557,"▁X:1<br>L:1/8<br>M:6/8<br>K:D":558,":3":559,"▁defg":560,"▁|\"C7\"":561,"▁B/A/":562,"▁AGE":563,"a}":564,"{d}":565,"▁GABc":566,"▁\"A":567,"▁|[M:":568,"^F":569,"▁gedB":570,"0<br>M:4/4<br>K:":571,"▁(g":572,"▁(e":573,"B\"":574,"A/B/":575,"▁|\"Bm\"":576,"2/2<br>K:":577,"\"Am\"":578,"▁(F":579,">!":580,"▁fdB":581,"▁c>A":582,"▁f/g/":583,"▁AGA":584,"DF":585,")\"":586,"▁(3g":587,"▁d<":588,"▁A/B/":589,"▁fedc":590,"▁ba":591,"▁cAG":592,"Bb":593,"▁BB":594,"G}":595,"▁(G":596,"▁e>":597,"]3":598,"▁fef":599,"<br>Q:1":600,"Q:3":601,"ba":602,"/8=":603,"D2":604,"▁ABcd":605,"^d":606,"▁e/f/":607,"▁e>f":608,"c)":609,"▁BGE":610,"▁bag":611,"f}":612,"BAG":613,"a/g/":614,"▁f>e":615,"▁gdB":616,"EE":617,"▁a>g":618,"▁gag":619,"▁!>!":620,"▁X:1<br>L:1/8<br>M:4/4<br>K:A":621,"▁e<":622,"BA)":623,"]4":624,"▁A/A/":625,"Bc)":626,"▁GFE":627,"▁f>d":628,"ed)":629,"▁BcdB":630,"▁BGB":631,"▁c>B":632,"▁dBGB":633,"▁F,":634,"▁\"A\"":635,"▁f>":636,"d'":637,"bg":638,"▁a4":639,"0<br>M:6/8<br>K:":640,"^f":641,"▁|\"Gm\"":642,"▁f>g":643,"\"E7\"":644,"G/F/":645,"▁dBd":646,"c/d/":647,"▁BdB":648,"▁fdd":649,"cB)":650,"cc":651,"▁G/A/":652,"▁GFG":653,"▁X:1<br>L:1/8<br>Q:1/4=120<br>M:":654,"▁X:1<br>L:1/16<br>M:2/4<br>K:":655,"▁cdef":656,"{e}":657,"▁(f":658,"▁f<":659,"d)":660,"▁c'2":661,"▁(3F":662,"▁ABcA":663,"▁EFG":664,"▁G6":665,"^G":666,"▁f/e/":667,"▁Bg":668,"G/A/":669,"▁faf":670,"Emin":671,"▁c>":672,"▁e>c":673,"▁^c":674,"▁EA":675,"G]":676,"c/B/":677,"▁X:1<br>L:1/8<br>Q:3":678,"▁dBAF":679,"▁eB":680,"▁ede":681,"▁EAA":682,"▁d/e/":683,"▁c/B/":684,"▁defd":685,"e)":686,".\"":687,"B}":688,"▁FEF":689,"▁BAGF":690,"▁B>":691,"▁d6":692,"▁ee":693,"▁a>":694,"▁(dc":695,"A}":696,"mix":697,"▁BABc":698,"{c}":699,"D]":700,"/4=":701,"▁c/d/":702,"▁v":703,"▁ae":704,"FF":705,"▁DED":706,"C/":707,"▁[M:":708,"▁G,2":709,"eA":710,"▁u":711,"▁fga":712,"▁fA":713,"edc":714,"▁gab":715,"▁B3/2":716,"▁eAA":717,"▁gg":718,"▁|\"E7\"":719,"▁edef":720,"▁GAG":721,"▁B>d":722,"▁A6":723,"on":724,"▁G>F":725,"▁d3/2":726,"▁dAF":727,"▁A>c":728,"▁A3/2":729,"▁GD":730,"▁|\"E\"":731,"▁g>f":732,"fe)":733,"▁X:1<br>L:1/8<br>M:4/4<br>K:C":734,"(3":735,"▁[E":736,"▁fdec":737,"▁dfe":738,"▁agfe":739,"▁A>F":740,"\"^(":741,"▁X:1<br>L:1/8<br>Q:1/2":742,"▁B>G":743,"e/d/":744,"{a}":745,"ef)":746,"][K:":747,"▁dcA":748,"▁(3efg":749,"▁CE":750,"▁ff":751,"▁(3cBA":752,",]":753,"▁X:1<br>L:1/8<br>Q:1/8=":754,"▁fgaf":755,",2":756,"▁g>e":757,"\"G7\"":758,"▁E>F":759,"B,D":760,"▁G>B":761,"\"Dm\"":762,"dg":763,"▁C3":764,"▁EC":765,"▁F>A":766,"F7\"":767,"b2":768,"=c":769,"▁c3/2":770,"in":771,"▁afdf":772,"▁Ace":773,"▁Bcde":774,"▁[A":775,"E/F/":776,"▁A/A/A":777,"▁efed":778,"▁AGFE":779,"\"Bm\"":780,"▁BcB":781,"▁dBAG":782,"▁\"Em\"":783,"▁Gc":784,"▁a/g/":785,"▁DC":786,"▁A)":787,"▁FDD":788,"A)":789,"▁FF":790,"▁G3/2":791,"▁(3ABc":792,"▁[D":793,"▁G<":794,"fge":795,"GAB":796,"▁^F":797,"▁\"F\"":798,"▁\"Am\"":799,"▁fdf":800,"tr":801,"▁efd":802,"▁Add":803,"▁X:1<br>L:1/8<br>M:6/8<br>K:A":804,"▁\"B":805,"GFE":806,"D.":807,"▁AE":808,"▁cBcd":809,"▁A/G/":810,"▁|{g}":811,"▁e/d/":812,"fA":813,"fed":814,"▁dcde":815,"▁A>A":816,"▁F>G":817,"ae":818,"▁=c":819,"▁age":820,"▁ABAG":821,"▁X:1<br>L:1/8<br>M:2/2<br>K:D":822,"▁(B/c/":823,"▁z/":824,"gd":825,"DEF":826,"▁ece":827,"▁F/G/":828,"▁ABG":829,"▁GABG":830,"efd":831,"e\"":832,".d":833,"aa":834,"Bg":835,"Cm\"":836,"▁BAFA":837,"▁GFGA":838,"\"^B\"":839,"▁GFED":840,"]/":841,"▁F<":842,"▁d>f":843,"▁AGAB":844,"▁ABde":845,"▁dfed":846,"▁X:1<br>L:1/4<br>Q:1":847,"▁AAA":848,"▁X:1<br>L:1/8<br>Q:3/8=1":849,"ece":850,"▁GBA":851,"▁fB":852,"{A}":853,"dA":854,"▁G/F/":855,"0<br>M:2/2<br>K:":856,"▁(gf":857,"<br>M:4/4<br>K:":858,"▁d)":859,"▁dBc":860,"▁z4":861,"▁ege":862,"▁gB":863,"▁FGAB":864,"▁edBd":865,"▁cdec":866,"▁DD":867,"9/8<br>K:":868,"▁X:1<br>L:1/8<br>M:2/4<br>K:G":869,"▁B)":870,"0<br>M:2/4<br>K:":871,"▁c>e":872,"▁dfd":873,"▁cf":874,"▁X:1<br>L:1/8<br>M:2/2<br>K:G":875,"▁X:1<br>L:1/4<br>M:3/4<br>K:":876,"▁(D":877,"▁G/G/":878,"▁dBB":879,"CD":880,"▁[K:":881,"g)":882,"▁(T":883,"▁fdcA":884,"FE":885,"▁d>d":886,"{B}":887,"▁d/c/B/A/":888,"\"E\"":889,"fg)":890,"▁gfga":891,"▁ad":892,"▁(E":893,"C]":894,"d/B/":895,"▁(dc)":896,"\"Bb\"":897,"▁C4":898,"▁BcA":899,"▁EE":900,"▁EFGA":901,".A":902,"▁a>f":903,"▁d^cd":904,"▁EFE":905,"▁edBA":906,"▁AFE":907,"▁BAGB":908,"cd)":909,"▁E/F/":910,"\"C7\"":911,"f/e/d/":912,"▁\"E":913,"▁afge":914,"f)":915,"3/4]":916,"▁X:1<br>L:1/4<br>M:4/4<br>K:":917,"▁eaag":918,"F#m\"":919,"▁GABd":920,"d/c/B/":921,"gB":922,"▁(BA)":923,"Amin":924,"▁BGBd":925,"B/A/G/":926,"▁E,":927,"ga":928,"FG":929,"▁b3":930,"{G}":931,"tr\"":932,"efe":933,"▁AFDF":934,"▁Af":935,"cE":936,"▁E<":937,"▁cAFA":938,"▁GEE":939,"F)":940,"D.C":941,"GA)":942,"▁c)":943,"▁X:1<br>L:1/8<br>M:3/4<br>K:G":944,"▁EFA":945,"▁X:1<br>L:1/8<br>Q:1/2=":946,".c":947,"{f}":948,"▁d/d/":949,"▁B/B/":950,">C":951,"ef}":952,"▁(3fg":953,"▁^c2":954,"▁B/c/d":955,"▁cABG":956,"2/4]":957,"▁dfa":958,"▁gc":959,"▁Bee":960,"▁bagf":961,"▁G3-":962,"▁BD":963,"dF":964,"▁(d2":965,"▁(cB)":966,"▁fefg":967,"▁ecAc":968,"▁cAGE":969,"ag)":970,"cde":971,"GF)":972,"▁b/":973,"▁fgf":974,"▁DGG":975,"▁afe":976,"▁e)":977,"▁FB":978,"dB)":979,"cA)":980,"ac":981,"▁deg":982,"▁DA":983,"▁(ed)":984,"▁|\"Eb\"":985,"b7\"":986,"▁dF":987,"▁BGAF":988,"de)":989,"▁DB,":990,"=B":991,"▁c6":992,"▁fc":993,"Gd":994,"▁AcBA":995,"fd)":996,"▁B6":997,"▁[GB":998,"▁^G":999,"▁F>":1000,"▁[BG":1001,"AAA":1002,".B":1003,"▁(a":1004,"▁(3gfe":1005,"▁e3/2":1006,"E/D/":1007,"▁(AG)":1008,"▁dBAB":1009,"▁cdc":1010,"ar":1011,"E)":1012,"▁DEFG":1013,"▁cAc":1014,"▁X:1<br>L:1/16<br>Q:1":1015,"▁G>G":1016,"▁X:1<br>L:1/8<br>M:2/4<br>K:D":1017,"▁G)":1018,"Edor":1019,"ad":1020,"▁\"D7\"":1021,"G/)":1022,"▁g/f/":1023,"▁e>g":1024,"g/f/":1025,"▁D>E":1026,"#\"":1027,"▁cABc":1028,"o\"":1029,"▁cec":1030,"Ad":1031,".e":1032,"▁f>ed":1033,"▁d2d2":1034,"Bd)":1035,"▁(Bc)":1036,"F,":1037,"▁cG":1038,"▁([":1039,"▁gedc":1040,"▁X:1<br>L:1/8<br>Q:1/8=18":1041,"▁AGEG":1042,"▁EDE":1043,"B>A":1044,"▁(AB)":1045,"▁B,D":1046,"▁Bdd":1047,"▁cE":1048,"▁dfaf":1049,"▁aA":1050,"bag":1051,"▁BF":1052,"▁(f/g/":1053,"▁G>":1054,"▁g>a":1055,"▁ecd":1056,"▁AcA":1057,"▁X:1<br>L:1/8<br>M:9/8<br>K:":1058,"▁X:1<br>L:1/8<br>M:3/4<br>K:D":1059,"▁dedB":1060,"▁D6":1061,"▁aga":1062,"BG)":1063,"▁(B2":1064,"▁dBcA":1065,"▁GBdB":1066,"▁fedf":1067,"▁X:1<br>L:1/8<br>Q:1/4=":1068,"▁(A2":1069,"▁dedc":1070,"ff":1071,"▁ac":1072,"▁\"^A\"":1073,"BdB":1074,"▁d>ed":1075,"▁(3dcB":1076,"\"Gm\"":1077,"▁Gg":1078,"▁GBAG":1079,"▁GBG":1080,",4":1081,"▁d'2":1082,"ED)":1083,"▁gefd":1084,"▁=c2":1085,"A]":1086,"▁(3FED":1087,"▁|:\"^":1088,"F#\"":1089,"▁D/D/":1090,"EFG":1091,"▁d3-":1092,"▁F>E":1093,"▁egfe":1094,"▁(e/f/":1095,"▁A3-":1096,"▁BcBA":1097,"g/a/":1098,"▁A>BA":1099,"▁C/":1100,"▁CD":1101,"▁||[M:":1102,"▁(3ABA":1103,"Ae":1104,"▁B>cd":1105,"▁A^":1106,"▁A>d":1107,"▁^d":1108,"▁eag":1109,"▁[FA":1110,"▁(3def":1111,"▁.d":1112,"ec)":1113,"▁FGAF":1114,"▁gbag":1115,"▁aba":1116,"▁::[K:":1117,"▁f3/2":1118,"▁\"A7\"":1119,"▁X:1<br>L:1/8<br>Q:1/8=2":1120,"FAF":1121,"B>c":1122,"▁(d/c/":1123,"▁e6":1124,"▁c>BA":1125,"▁(A/":1126,"▁^cd":1127,"ege":1128,"▁g<":1129,"▁dcBc":1130,"▁^f":1131,"fg}":1132,"▁e>A":1133,"▁bge":1134,"▁bgaf":1135,"B,/":1136,".f":1137,"▁FAA":1138,"6/8":1139,"20<br>M:6/8<br>K:":1140,"▁gfd":1141,"{/":1142,"▁Gd":1143,"▁Fd":1144,"▁g>d":1145,"▁ADFA":1146,"▁aa":1147,"▁dAFA":1148,"▁gfge":1149,"▁d>ef":1150,"▁abag":1151,"▁gece":1152,"C2":1153,"dc}":1154,"F]":1155,"1\"":1156,"^fg":1157,"0<br>M:4/4<br>K:G":1158,"0<br>M:3/4<br>K:":1159,"▁B>B":1160,"▁(ef)":1161,"▁ca":1162,"F}":1163,"▁(fe)":1164,"▁aged":1165,"▁(3AAA":1166,"BE":1167,"▁(c2":1168,"▁|\"F7\"":1169,"▁E6":1170,"▁\"Dm\"":1171,"▁fec":1172,"one":1173,"▁c/c/":1174,"B/A/)":1175,"▁ddd":1176,"▁(e2":1177,"▁z3":1178,"▁|:\"G\"":1179,"▁F3/2":1180,"▁eaa":1181,"▁|:\"D\"":1182,"▁ABAF":1183,">B,":1184,"▁E>D":1185,"▁D>":1186,",3":1187,"▁d>A":1188,"▁(A/B/":1189,"▁fag":1190,"▁DGBG":1191,"gg":1192,"none":1193,"▁fgfe":1194,"▁d2)":1195,"▁BAA":1196,"e>c":1197,"Bmin":1198,"▁f)":1199,"cd}":1200,"▁=f":1201,">e2":1202,"B/c/d/":1203,"▁\"G7\"":1204,"▁d>g":1205,"▁EFGE":1206,"▁gage":1207,"▁A>Bc":1208,"▁(b":1209,"▁efga":1210,"▁Bdef":1211,"▁X:1<br>L:1/8<br>M:2/2<br>K:A":1212,"▁Aa":1213,"▁dGBG":1214,"▁(3(A":1215,"▁BEE":1216,"p!":1217,">b":1218,"▁Ae":1219,"BcB":1220,">d2":1221,"▁(3efe":1222,"▁e>dc":1223,"gc":1224,"c'/":1225,"▁BAGA":1226,"/G/":1227,"▁DFAF":1228,"▁c>c":1229,"▁(G2":1230,"▁.d2":1231,"▁B<d":1232,"0<br>M:6/8<br>K:G":1233,"▁BABd":1234,"▁[AF":1235,"b}":1236,"/B/":1237,"▁g3/2":1238,"/\"":1239,"▁E/E/":1240,"e/f/g/":1241,"B/d/":1242,"▁gfef":1243,"▁|\"Cm\"":1244,"▁AFF":1245,".g":1246,">A2":1247,"G\"D\"":1248,"=f":1249,"▁.e":1250,"▁F/E/":1251,"▁[cA":1252,"▁(gf)":1253,"▁D<":1254,".G":1255,"▁Adfd":1256,"▁FDF":1257,"▁edcd":1258,"ion":1259,"▁G2)":1260,"▁g/a/":1261,"▁Beed":1262,"▁cF":1263,"▁X:1<br>L:1/8<br>Q:1/4=10":1264,"c\"":1265,"!fermata!":1266,"ge)":1267,"▁A2)":1268,"▁AB/c/":1269,"▁(ed":1270,"▁AFEF":1271,">B2":1272,"B,C":1273,"2/2":1274,"▁c<e":1275,"▁|{d}":1276,"▁F)":1277,"▁DEG":1278,"▁E>G":1279,"AD":1280,"▁(3BAG":1281,"▁geg":1282,"▁gbg":1283,"Be":1284,"▁X:1<br>L:1/8<br>Q:1/4=120<br>M:4/4<br>K:":1285,"▁[A,":1286,"(d":1287,"▁g>fe":1288,"▁X:1<br>L:1/4<br>Q:1/4=1":1289,"▁F6":1290,"▁[ce":1291,"▁[AA":1292,"▁e/d/c/B/":1293,"li":1294,"]/[":1295,"=g":1296,"BBB":1297,"▁(cd)":1298,"▁D>F":1299,"▁Addc":1300,":2":1301,"3/8<br>K:":1302,"{gef}":1303,"▁cBAB":1304,"▁GGG":1305,"▁(3fed":1306,"▁B,3":1307,"0<br>M:4/4<br>K:D":1308,"▁[G":1309,"▁cee":1310,"▁||\"^":1311,"▁gfeg":1312,"▁(fd)":1313,"▁G>E":1314,"B>G":1315,"f>e":1316,"SO":1317,"▁FAd":1318,"▁A2-":1319,"▁gdBd":1320,"▁d(":1321,"^c/":1322,"▁fded":1323,"▁Adc":1324,"▁AGFG":1325,"▁EDEF":1326,"▁fb":1327,"m7\"":1328,"▁BGGB":1329,"it":1330,"▁TB2":1331,"▁DEFA":1332,"3\"":1333,"▁fedB":1334,">f2":1335,"▁Bdg":1336,"▁b4":1337,"▁Ge":1338,"▁DEGA":1339,"▁B>AG":1340,"▁(3DEF":1341,"▁F>D":1342,"B,A,":1343,"▁A,3":1344,"▁(f2":1345,"▁e/e/":1346,"▁(de)":1347,"▁c<A":1348,"▁G2G2":1349,"▁dfec":1350,"]2[":1351,"▁afa":1352,"▁eAcA":1353,"▁_B":1354,"▁AGG":1355,"▁FDFA":1356,"a/f/":1357,"▁fagf":1358,"▁a^g":1359,"▁(F/":1360,"▁f>a":1361,">c2":1362,"▁e2d2":1363,"Fd":1364,"▁agef":1365,"\"^tr\"":1366,"▁a/g/f/e/":1367,"E,":1368,"_B":1369,"▁d2-":1370,"=e":1371,"▁G/G/G":1372,"▁fdc":1373,"6/4<br>K:":1374,"▁[c":1375,">d)":1376,"b)":1377,"▁|{c}":1378,"A/A/":1379,"▁FAF":1380,"▁\"Bb\"":1381,"▁{":1382,"lo":1383,"▁EB":1384,"!p!":1385,"▁.c":1386,"▁(GA)":1387,"▁(dB)":1388,"▁de/f/":1389,"▁D,":1390,"4\"":1391,"▁|]:":1392,"s\"":1393,"▁ecdB":1394,">c)":1395,"▁B/B/B":1396,"▁A2A2":1397,"▁b>g":1398,"▁^G2":1399,"▁[G,":1400,"▁defe":1401,"▁B2)":1402,">B)":1403,"▁^g":1404,"▁dD":1405,"▁BGd":1406,"▁ed/":1407,"▁.B":1408,"▁\"Bm\"":1409,"▁[ec":1410,"Eb":1411,"ddd":1412,"▁dcAG":1413,"▁^F2":1414,"▁E)":1415,"DG":1416,"*\"":1417,"e>f":1418,">A)":1419,"▁AGED":1420,"▁(d/e/":1421,"▁ecc":1422,"▁(3BcB":1423,"▁(3fga":1424,"▁Bed":1425,"▁(3(d":1426,"▁[d":1427,"▁.A":1428,"\"B7\"":1429,"▁(Bd)":1430,"efg)":1431,"▁X:1<br>L:1/8<br>Q:1/8=16":1432,"f/e/)":1433,"▁(fg)":1434,"▁Ec":1435,"▁A<F":1436,"re":1437,"▁d/d/d":1438,"▁(c/d/":1439,"▁c/B/A/G/":1440,"M:1":1441,"▁Ag":1442,"5\"":1443,"▁G2-":1444,"EF)":1445,"▁|\"B7\"":1446,"▁(BA":1447,"▁DEFD":1448,"▁B<G":1449,"▁M":1450,"▁efec":1451,"▁cBAc":1452,"low":1453,"▁ecBA":1454,"▁g/f/e/d/":1455,"▁E3/2":1456,"D.C.\"":1457,"▁g)":1458,"0]":1459,"^A":1460,"^de":1461,">e)":1462,"Gdc}":1463,"(A":1464,"▁GEDE":1465,"▁[dB":1466,"B>d":1467,"▁X:1<br>L:1/16<br>M:2/4<br>K:G":1468,"0<br>M:6/8<br>K:D":1469,"er":1470,"▁(BG)":1471,"▁d^c":1472,"▁fafd":1473,"▁|:[K:":1474,"▁(3EFG":1475,"▁eG":1476,"D,":1477,"▁e>e":1478,"▁a<":1479,"▁D/E/":1480,"▁fdef":1481,"▁e^d":1482,"▁c2)":1483,"▁cded":1484,"▁(g2":1485,"▁cAB":1486,"▁EDC":1487,"▁DB":1488,"32":1489,"▁c2A2":1490,"▁[Ec":1491,"▁:|2\"G\"":1492,"▁=F":1493,"▁e'":1494,"▁Acec":1495,"▁B2G2":1496,"▁ced":1497,"▁X:1<br>L:1/8<br>Q:3/8=120<br>M:6/8<br>K:":1498,"▁afed":1499,"a/g/f/":1500,"e>d":1501,"▁AGEF":1502,"▁gabg":1503,"▁|\"Ab\"":1504,"C,":1505,"▁b>a":1506,"▁F/F/":1507,"▁BBB":1508,"DDD":1509,"▁F,2":1510,"▁|\"D":1511,"Dmin":1512,"▁ceg":1513,"▁[ee":1514,"▁GEF":1515,"▁bf":1516,"▁B,4":1517,"eB":1518,"▁(GF)":1519,"▁(3GFE":1520,"▁d<B":1521,"▁|1\"G\"":1522,"▁c2c2":1523,"▁\"C7\"":1524,"▁\"_":1525,"AG)":1526,"▁eAce":1527,"{F}":1528,"st":1529,"/4)":1530,"▁cdcB":1531,"▁|{a}":1532,"▁f<d":1533,"▁e>fg":1534,"a>f":1535,"▁ADD":1536,"▁BdcB":1537,"▁edd":1538,"EA":1539,"m/":1540,"▁egdB":1541,"▁cedc":1542,"▁EGB":1543,"▁|1\"D\"":1544,"▁|1,3":1545,"▁(cA)":1546,"4/4]":1547,"▁f<a":1548,"▁(B/c/d)":1549,"▁B2B2":1550,"▁edcA":1551,"/4][K:":1552,"E\"":1553,"=F":1554,"▁=B":1555,"▁aec":1556,"lide":1557,"▁gagf":1558,").d":1559,"▁B2A2":1560,"▁DAFA":1561,"\"^/\"":1562,"slide":1563,"ce)":1564,"▁=g":1565,"▁d2B2":1566,"▁=cA":1567,"dc)":1568,"M:12":1569,"▁{g}":1570,"▁G>AG":1571,"▁g6":1572,"▁c/B/A":1573,"▁.B2":1574,"▁a>b":1575,"▁cAeA":1576,"6/8][K:":1577,"B/c/)":1578,"cdc":1579,"▁:|2\"D\"":1580,"▁A,4":1581,"slide!":1582,"cf":1583,"▁a>e":1584,"▁DFAd":1585,"▁P":1586,"▁A,B,":1587,"▁abaf":1588,"Bcd)":1589,"ea":1590,"▁cGE":1591,"▁|\"^(":1592,"▁X:1<br>L:1/8<br>M:4/4<br>K:Ador":1593,"▁||[K:":1594,"7)\"":1595,"D.C.":1596,"9\"":1597,"▁(3agf":1598,"▁D/D/D":1599,"▁f/e/d/c/":1600,"▁\"Gm\"":1601,"▁.c2":1602,"▁X:1<br>L:1/8<br>M:4/4<br>K:F":1603,"▁.e2":1604,"▁.f":1605,"▁cdB":1606,"▁fede":1607,"▁X:1<br>L:1/8<br>Q:1/2=1":1608,"af)":1609,"▁D3/2":1610,"{b}":1611,"▁|{e}":1612,"GGG":1613,"(g":1614,"▁[df":1615,"\"^C\"":1616,"▁:|2,4":1617,"▁db":1618,"▁|\"_":1619,"▁be":1620,"▁X:1<br>L:1/16<br>M:3/4<br>K:":1621,"▁FAD":1622,"▁(3c":1623,"c'b":1624,"Gmin":1625,"▁e2e2":1626,"▁GEG":1627,"▁[B":1628,"a/b/":1629,"▁faa":1630,"▁|{f}":1631,"▁Dd":1632,"▁CC":1633,"▁GBAF":1634,".a":1635,"▁|\"F#m\"":1636,"▁gA":1637,"=G":1638,"▁(ag)":1639,"▁f2d2":1640,"▁Tc2":1641,"▁e/f/g":1642,"▁dec":1643,"D/E/":1644,"FA)":1645,"▁\"^S":1646,"▁C,":1647,"▁gdBG":1648,"en":1649,"eg)":1650,"G>B":1651,"▁(3ddd":1652,"\"B\"":1653,"A]2":1654,"M:12/8<br>K:":1655,"▁fcA":1656,"▁=f2":1657,"d/d/":1658,"▁(3ded":1659,"▁|[M:2/4]":1660,"▁(FG)":1661,"▁A(":1662,"▁d2f2":1663,"Bc}":1664,"▁f6":1665,"F\"G\"":1666,"B/B/":1667,"▁!slide!":1668,"A,/":1669,"▁B3-":1670,"der":1671,"▁edBc":1672,"c'2":1673,"▁X:1<br>L:1/8<br>M:2/4<br>K:C":1674,"▁bd":1675,"c/A/":1676,"3/2<br>K:":1677,"▁c2B2":1678,"▁(3f":1679,"G/G/":1680,"▁E/E/E":1681,"<d":1682,"32<br>M:4/4<br>K:":1683,"▁(G/A/":1684,"▁B,/":1685,"▁X:1<br>L:1/8<br>M:6/8<br>K:C":1686,"\"F7\"":1687,"▁^GA":1688,"▁B/d/":1689,"▁(c/B/":1690,"C#":1691,"cF":1692,"▁Adf":1693,"F/G/":1694,"▁egfa":1695,"▁X:1<br>L:1/8<br>M:3/4<br>K:C":1696,"▁A,D":1697,"▁d2c2":1698,"▁|{B}":1699,"▁|\"^1":1700,"▁B2d2":1701,"fB":1702,"▁FGF":1703,"▁[GB]2":1704,"c/e/":1705,"▁G8":1706,">g2":1707,"▁(ec)":1708,"al":1709,"▁X:1<br>L:1/8<br>M:4/4<br>K:Emin":1710,"A,A,":1711,"▁G2B2":1712,"▁.A2":1713,"▁FEFG":1714,"▁[fd":1715,"G>A":1716,"▁:|2\"C\"":1717,"F>A":1718,"▁(a/g/":1719,"▁(B/c/)":1720,"an":1721,"/A/":1722,">.":1723,"▁(.":1724,"▁a)":1725,"▁GFEF":1726,"▁|[M:3/4]":1727,"▁.G2":1728,"m)\"":1729,"▁BdAF":1730,"▁(d3":1731,"cBA)":1732,"▁BdBG":1733,"▁FAdf":1734,"▁Bdgd":1735,"▁|:\"^A\"":1736,"▁GEC":1737,"▁cg":1738,"▁.G":1739,"▁e2)":1740,"G/F/E/":1741,"▁c2e2":1742,"▁.f2":1743,"▁faaf":1744,"c/c/":1745,"▁AGFA":1746,"▁E>A":1747,"▁(G3":1748,"▁[e":1749,"▁e>fe":1750,"▁s":1751,"▁d>cd":1752,"▁GBdg":1753,"])":1754,"▁dAG":1755,"▁bgag":1756,"▁baf":1757,"GB)":1758,"\"Eb\"":1759,"▁(3(g":1760,"▁|:\"C\"":1761,"<e":1762,"^C":1763,"ag}":1764,"df)":1765,"BAB":1766,"▁D>G":1767,"▁(F2":1768,"▁X:1<br>L:1/8<br>Q:1/8=232<br>M:4/4<br>K:":1769,"▁(3fgf":1770,"▁cdeg":1771,"▁AFED":1772,"▁e(":1773,"▁cAAB":1774,"▁X:1<br>L:1/16<br>M:2/4<br>K:D":1775,"▁|1\"C\"":1776,").B":1777,").e":1778,"A7\"":1779,"▁(3B":1780,"▁A8":1781,"▁e/f/g/":1782,"▁_B2":1783,"▁g2g2":1784,"▁fddf":1785,"▁(3(efg)":1786,"▁dega":1787,"e/f/)":1788,"D]2":1789,"{gcd}":1790,"▁c'b":1791,"▁f2e2":1792,"▁fdad":1793,"▁dAA":1794,"▁.g2":1795,"▁B/A/G/F/":1796,"!f":1797,"▁X:1<br>L:1/16<br>Q:1/4=1":1798,"▁[B,":1799,"▁A/B/c":1800,"▁(3FGA":1801,"Gc":1802,"▁D)":1803,"▁BGF":1804,"▁.g":1805,"▁fBB":1806,"2/2][K:":1807,"▁B,C":1808,"B/c/d":1809,"g/e/":1810,"g\"":1811,"▁|\"B\"":1812,"EC":1813,"BGB":1814,"▁dBBA":1815,"DE)":1816,"▁cBcA":1817,"▁e<c":1818,"▁f>f":1819,"{gf}":1820,"▁(^":1821,"▁:|\"^":1822,"▁ageg":1823,">f)":1824,"fa)":1825,">G)":1826,"▁edBG":1827,"▁(3edc":1828,"▁A<A":1829,"wed":1830,"▁B2-":1831,"▁(AF)":1832,"wedge":1833,"▁:|[K:":1834,"D.C.!":1835,"\"F#m\"":1836,"12":1837,"<a":1838,"▁dcdB":1839,"▁gee":1840,"▁X:1<br>L:1/8<br>M:2/4<br>K:A":1841,"▁dcdf":1842,"▁G^F":1843,"oder":1844,"▁aece":1845,"▁g>ag":1846,"▁G/A/B/c/":1847,"▁ABce":1848,"e'":1849,"GAG":1850,"FB":1851,"!D.C.!":1852,"▁(Ac)":1853,"C#\"":1854,"D)":1855,"{Gd":1856,"▁Tf2":1857,"oderat":1858,"▁(e/d/":1859,"▁ecAF":1860,"▁dE":1861,"▁A2G2":1862,"▁(f/g/a)":1863,"/8]":1864,"▁FDEF":1865,"28":1866,"▁E,2":1867,"▁ecBc":1868,"▁GBB":1869,"0<br>M:2/2<br>K:G":1870,"fc":1871,"▁(ge)":1872,"▁F>GA":1873,"▁AB/A/":1874,">[":1875,"▁X:1<br>L:1/8<br>Q:3/8=":1876,"\"_c\"":1877,"▁ceAe":1878,"DC":1879,"▁(3DDD":1880,"GE)":1881,"▁(fe":1882,"▁c3-":1883,"▁fgag":1884,"<A":1885,"▁dBGA":1886,"▁BAGE":1887,"▁efgf":1888,"▁D>D":1889,"▁\"E7\"":1890,"▁X:1<br>L:1/4<br>M:4/4<br>K:G":1891,"▁cAGF":1892,"▁EGE":1893,"▁(Bc":1894,"▁(ag":1895,"▁[GE":1896,"de}":1897,"low\"":1898,"[Q:1":1899,"▁dGG":1900,"▁cAce":1901,"Fm\"":1902,"▁B,E":1903,"▁X:1<br>L:1/8<br>Q:1/2=9":1904,"be":1905,"▁edce":1906,"▁afec":1907,"▁e2c2":1908,"▁B(":1909,"<br>M:2/4<br>K:":1910,"▁(cB":1911,"▁f2f2":1912,"▁\"E\"":1913,"/f/":1914,"▁g>fg":1915,"b/a/":1916,"▁(3G":1917,"▁(3cde":1918,"▁BGAG":1919,"<g":1920,"▁egdg":1921,"▁d>cB":1922,"▁e>cA":1923,"▁BGdG":1924,"▁(e/":1925,"▁g>g":1926,"<d)":1927,"Ec":1928,"ly":1929,"▁(ef":1930,"▁E>":1931,"A/G/":1932,"▁|\"^2":1933,"▁FAdA":1934,"▁G,4":1935,"▁Adde":1936,"c>A":1937,"▁eee":1938,"gf)":1939,"▁t":1940,"▁gede":1941,"wedge!":1942,"▁CDE":1943,"▁dBAc":1944,"▁ADFD":1945,"▁E/D/":1946,"▁EAAB":1947,"▁ef/g/":1948,"▁B/c/dB":1949,"ine\"":1950,"▁dGBd":1951,"cG":1952,"▁BGdB":1953,">G2":1954,".F":1955,"▁(3GAB":1956,"c'a":1957,"a\"":1958,"▁a3/2":1959,"d\"":1960,"▁ef/e/":1961,"▁G,3":1962,"=cA":1963,",]2":1964,"EEE":1965,").f":1966,"A,B,":1967,"▁F>F":1968,"▁(3(ABc)":1969,"d/)":1970,"▁d8":1971,"▁fece":1972,">c'":1973,"0<br>M:2/4<br>K:G":1974,"▁(u":1975,"▁(e/f/g)":1976,"▁fde":1977,"GFG":1978,"(c":1979,"▁^d2":1980,"▁in":1981,"▁X:1<br>L:1/8<br>M:4/4<br>K:Edor":1982,"<B":1983,"B/c/A/":1984,"▁X:1<br>L:1/4<br>M:3/4<br>K:G":1985,"▁b>":1986,"▁G4-":1987,"di":1988,"▁(A3":1989,"▁adfd":1990,"▁Te2":1991,"▁DGB":1992,"bf":1993,"▁\"^A":1994,"▁BFAF":1995,"▁|{A}":1996,"▁(3cdc":1997,"▁A4-":1998,"▁e<g":1999,">A,":2000,"\"^D.C.\"":2001,"▁Bdf":2002,").A":2003,"]6":2004,"▁AGFD":2005,"gb":2006,"▁X:1<br>L:1/8<br>M:2/4<br>K:F":2007,"▁FGAc":2008,"▁d/B/":2009,"▁f2)":2010,"=Bc":2011,"▁d<f":2012,"▁e/e/e":2013,"▁Ee":2014,"▁fAeA":2015,"▁(3AGF":2016,"▁(E2":2017,"▁^f2":2018,"▁dc/B/":2019,"▁fee":2020,"▁dggf":2021,"Am\"":2022,"▁cAAc":2023,"▁(3(Bcd)":2024,"▁(B3":2025,"▁D3-":2026,"▁X:1<br>L:1/8<br>Q:1/8=3":2027,"0<br>M:2/2<br>K:D":2028,"▁gG":2029,"▁gdd":2030,"▁c>Bc":2031,"▁fdde":2032,"▁e>a":2033,"▁fdfa":2034,"▁c/c/c":2035,"▁Tc":2036,"▁Bf":2037,"▁[Ac":2038,"▁(3BBB":2039,"DB":2040,"G]2":2041,"▁[cE":2042,"e/e/":2043,"\"^4\"":2044,"▁G>AB":2045,">\"":2046,"▁dcAF":2047,"AB)":2048,"^GA":2049,"▁X:1<br>L:1/8<br>M:12/8<br>K:":2050,"▁X:1<br>L:1/4<br>M:2/2<br>K:":2051,"^cA":2052,"\"Cm\"":2053,"▁[CE":2054,"▁d^cde":2055,"(f":2056,"G\"D7\"":2057,"▁EDB,":2058,"ari":2059,"▁B>g":2060,"▁f/g/a":2061,"(B":2062,"▁(A/B/)":2063,"▁egec":2064,"<br>M:6/8<br>K:":2065,"▁e2-":2066,"Af":2067,"▁X:1<br>L:1/8<br>M:4/4<br>K:Amin":2068,"<c":2069,"F#7\"":2070,"▁[GG":2071,"▁X:1<br>L:1/16<br>Q:1/4=":2072,"il":2073,")(d":2074,"▁(3GGG":2075,"▁(cd":2076,"GAG}":2077,"E]2":2078,"▁A,C":2079,"▁F<A":2080,"▁afef":2081,"▁g/g/":2082,"▁(C":2083,"▁(a2":2084,"▁Bdc":2085,"/F/":2086,"▁da":2087,"▁GFGB":2088,"{fg}":2089,"▁fge":2090,"▁(3gag":2091,"▁g2f2":2092,"▁X:1<br>L:1/8<br>Q:1/2=10":2093,"▁dBgB":2094,"▁B/c/d/B/":2095,"▁fdAF":2096,"▁.!fermata!":2097,").c":2098,"▁(c3":2099,"▁(FE)":2100,"▁DGBd":2101,"B,2":2102,"MT":2103,"▁(3D":2104,"▁gfec":2105,"▁gedg":2106,"ation":2107,"▁defa":2108,"▁[FD":2109,"a>g":2110,"▁dge":2111,"28<br>M:4/4<br>K:":2112,"▁c>de":2113,"▁(d/c/)":2114,"▁EAAG":2115,")(AG)":2116,"(e":2117,"▁B>e":2118,"▁A\"":2119,"▁EA,":2120,"▁X:1<br>L:1/8<br>Q:1/4=120<br>M:2/2<br>K:":2121,"▁G>c":2122,"▁E3-":2123,"FD)":2124,"0<br>M:2/4<br>K:D":2125,"▁X:1<br>L:1/8<br>Q:1/4=120<br>M:6/8<br>K:":2126,"▁[DB":2127,"▁A^GA":2128,">u":2129,"▁X:1<br>L:1/8<br>M:6/8<br>K:Emin":2130,"▁agab":2131,"Bd}":2132,"▁GEA":2133,"ariation":2134,"▁^A":2135,"▁(3(F":2136,"d/c/)":2137,"▁ccc":2138,"▁B,A,":2139,"▁A/c/":2140,").g":2141,"▁\"^M":2142,"▁|\"^tr\"":2143,"▁.a":2144,"▁f>A":2145,"PMT":2146,"▁F2)":2147,"▁gfgd":2148,"▁GA/B/":2149,"▁CB,":2150,"/a/":2151,"▁[Fd":2152,"▁=F2":2153,"▁EDD":2154,"▁ecB":2155,"SOO":2156,"SOSOO":2157,"▁X:1<br>L:1/8<br>M:6/8<br>K:Ador":2158,"▁cB/A/":2159,"▁f2a2":2160,"▁[dF":2161,"▁X:1<br>L:1/8<br>Q:1/8=128<br>M:4/4<br>K:":2162,"▁(DE)":2163,"C]\"C\"":2164,"▁.!fermata!PMT":2165,"▁(EF)":2166,"E}":2167,"▁ceAc":2168,"▁agfg":2169,"▁A/B/c/d/":2170,"▁(dc)(":2171,"▁gf/e/":2172,"F/A/":2173,"aba":2174,"G/B/":2175,"▁efdB":2176,"▁gef":2177,"▁E>E":2178,"▁d>BA":2179,"Te":2180,"^f/":2181,"f>d":2182,"▁A,/":2183,"▁ed^c":2184,"▁F2A2":2185,"▁c'3":2186,"▁X:1<br>L:1/8<br>M:3/4<br>K:F":2187,"▁|\"F#\"":2188,"▁c>dc":2189,"▁FGE":2190,"▁(fg":2191,"E>F":2192,"▁DGGF":2193,"d>B":2194,"▁(d<":2195,"▁G<B":2196,"▁[C":2197,"▁X:1<br>L:1/4<br>Q:1/2":2198,"7/":2199,"▁f/f/":2200,"▁(ga)":2201,"{Gdc}":2202,"▁dgg":2203,"▁(=":2204,"▁E2)":2205,"\"^*\"":2206,"▁A>GF":2207,"▁d>G":2208,"▁::\"D\"":2209,"▁X:1<br>L:1/8<br>M:6/8<br>K:F":2210,"AB}":2211,"ab)":2212,"▁(d/":2213,"][BG":2214,"▁||[M:3/4]":2215,"ca":2216,"▁X:1<br>L:1/8<br>Q:3/8=10":2217,"▁gdc":2218,"▁bb":2219,"▁cBce":2220,"▁X:1<br>L:1/8<br>Q:1/2=8":2221,"^ce":2222,"▁(3(fg":2223,"▁[Ae":2224,"▁=G":2225,"(F":2226,"▁CA,":2227,"▁F3-":2228,"▁g>B":2229,"▁c/e/":2230,"▁[Bg":2231,"▁C>E":2232,"▁g2)":2233,">g)":2234,"▁BEA":2235,"/E/":2236,"▁(c/":2237,"(G":2238,"▁^cA":2239,"<br>Q:3":2240,"E]":2241,"▁(g/a/":2242,"▁faec":2243,"▁ecgc":2244,"▁cecA":2245,"BF":2246,"▁::\"^B\"":2247,"▁Aceg":2248,"▁BA/B/":2249,"▁|\"Db\"":2250,"^ga":2251,"2\"":2252,"<f":2253,"CC":2254,"▁a6":2255,"▁X:1<br>L:1/8<br>M:4/4<br>K:Amix":2256,"▁(ce)":2257,"▁EGG":2258,"▁bgeg":2259,"▁g^fg":2260,"▁dcBd":2261,"Bf":2262,"▁BGA":2263,"]2)":2264,"▁FAc":2265,"ath":2266,"CO":2267,"fdf":2268,"▁cAd":2269,"▁ed/c/":2270,"▁=B2":2271,"▁B^":2272,"▁edeg":2273,"▁eaaf":2274,"▁GFD":2275,"F]\"F\"":2276,">)":2277,"▁fe/d/":2278,"▁(eg)":2279,"▁D2-":2280,"▁A2d2":2281,"▁eAfA":2282,"▁d4-":2283,"{d}A":2284,"+\"":2285,"▁Acd":2286,")(g":2287,"▁A2c2":2288,"▁BdcA":2289,"▁BAFE":2290,"▁G>D":2291,"▁BA/G/":2292,"▁aAA":2293,"g/)":2294,"▁.a2":2295,"▁Te":2296,"G/F/)":2297,"c/4":2298,"▁A>GA":2299,")(ed)":2300,"▁\"^Moderat":2301,"Ador":2302,"▁AdB":2303,"▁F<D":2304,"▁(dB":2305,"F/E/":2306,"▁(A/G/)":2307,"▁f>ef":2308,"▁[K:G]":2309,">F)":2310,"▁(df)":2311,"▁(g/":2312,"▁c2-":2313,"^D":2314,">a2":2315,"▁(3bag":2316,"▁X:1<br>L:1/8<br>Q:1/4=14":2317,"▁X:1<br>L:1/8<br>Q:1/4=9":2318,"ut":2319,">F2":2320,"▁f>c":2321,"▁AFd":2322,"▁Ade":2323,"▁c/d/e":2324,"▁(f/g/)":2325,"=d":2326,"▁A>D":2327,"▁C>D":2328,"▁c/A/":2329,"▁G/B/":2330,"▁d2(":2331,"▁a2g2":2332,"f/g/)":2333,"im":2334,"▁FFF":2335,"▁(g/f/":2336,"▁A<c":2337,"bd":2338,"▁fdcB":2339,"▁c(":2340,"▁(3(cBA)":2341,"▁^fg":2342,"20<br>M:4/4<br>K:":2343,"▁agfa":2344,"B/4":2345,"▁ABdf":2346,"{Bc}":2347,"▁DDD":2348,"▁::\"^":2349,"▁fAA":2350,"▁TA2":2351,"\"_>":2352,"▁dfg":2353,"▁d2e2":2354,"ccc":2355,"▁[FA]2":2356,"▁ECE":2357,"▁dAFD":2358,"▁TA":2359,"▁aecA":2360,"nd":2361,"▁D8":2362,"▁=e":2363,"▁TB":2364,"▁dcdA":2365,"▁X:1<br>L:1/8<br>M:9/8<br>K:G":2366,"▁(GA":2367,"<A)":2368,"▁(e/f/)":2369,"▁cdcA":2370,")(A":2371,"▁[M:3/4]":2372,"f\"":2373,"▁dDD":2374,"▁Tf":2375,"▁(B/A/)":2376,"▁bc'":2377,"c/)":2378,"▁BGAB":2379,"▁e3-":2380,"▁b/a/g/f/":2381,"<G":2382,"G,]":2383,"▁d>cB>A":2384,"▁E2-":2385,"▁gba":2386,"▁EFAB":2387,"d/4":2388,"▁AcB":2389,"▁(DF":2390,"G,/":2391,"▁B>AB":2392,"▁[Dd":2393,"▁G/F/E/D/":2394,"▁m":2395,"▁ac'":2396,"FAc":2397,"<br>M:2/2<br>K:":2398,"▁(3e":2399,"▁|:\"F\"":2400,"f/f/":2401,"▁|\"^5\"":2402,"eee":2403,"▁a2a2":2404,"▁g2e2":2405,"▁Bc/B/":2406,"▁D,2":2407,"▁BGGA":2408,"▁(3:2":2409,"▁Bcdc":2410,"▁|:\"A\"":2411,"G/E/":2412,"dim\"":2413,"▁d-":2414,"us":2415,"▁.F":2416,"▁GDG":2417,"▁:|2\"F\"":2418,"▁ABcB":2419,"▁X:1<br>L:1/8<br>M:6/8<br>K:Amin":2420,"▁Bgf":2421,"▁|[K:":2422,"▁a^ga":2423,"▁|\"G":2424,"6/8]":2425,"▁::\"G\"":2426,"▁(A/B/c)":2427,"{ag}":2428,"▁fddc":2429,"▁F/A/":2430,"Teil":2431,"▁(Bd":2432,"▁(fd":2433,"▁[fA":2434,"▁bab":2435,"▁egg":2436,"▁|[M:4/4]":2437,"▁fage":2438,"/e/":2439,"▁GBc":2440,"▁D2)":2441,"▁fdcd":2442,"▁gaba":2443,"▁A-":2444,"▁(FA)":2445,"▁A^GAB":2446,"g>e":2447,"▁d2ef":2448,"▁cAec":2449,"▁F/F/F":2450,"▁(D2":2451,"▁Bcdf":2452,"▁(f/e/":2453,"▁A2F2":2454,"▁(EG":2455,"▁agbg":2456,"▁d/e/f/g/":2457,"▁B>cB":2458,"▁[ce]2":2459,"▁CEG":2460,"Bb]":2461,"▁(GB)":2462,"▁cea":2463,"ten":2464,"▁X:1<br>L:1/16<br>M:4/4<br>K:":2465,"0<br>M:4/4<br>K:C":2466,"▁||[M:2/4]":2467,"▁:|\"^B\"":2468,"A\"G\"":2469,"▁(ed)(":2470,"▁(fa)":2471,"▁(cA":2472,"▁f2ed":2473,"^F/":2474,"▁e^def":2475,"ri":2476,"▁de/d/":2477,"▁Bc/d/":2478,"▁(ED)":2479,"▁A/G/F/E/":2480,"▁fe/f/":2481,"▁fdBd":2482,"G,G,":2483,"▁a/b/":2484,"▁Fc":2485,"rit":2486,"▁DFD":2487,"▁[Af":2488,"▁(d/e/)":2489,"▁e/f/g/e/":2490,"▁fefa":2491,"E/F/G/":2492,"▁[Bd":2493,"▁dFF":2494,"▁BABG":2495,"▁|{g":2496,"▁gecA":2497,"\"D":2498,"4/4][K:":2499,"▁X:1<br>L:1/8<br>M:4/4<br>K:Bmin":2500,"▁e^de":2501,"▁BddB":2502,"▁e/f/ge":2503,":\"":2504,"<br>M:3/4<br>K:":2505,"▁FADF":2506,"(E":2507,"▁c>f":2508,"▁cB/c/":2509,"▁[ge":2510,"_e":2511,"c>B":2512,"▁AFGE":2513,"▁X:1<br>L:1/8<br>M:9/8<br>K:D":2514,"▁eged":2515,"▁|{G}":2516,"{GdG}":2517,"▁dfeg":2518,"▁(G/A/)":2519,"▁cBAF":2520,"▁\"Eb\"":2521,"▁cAAG":2522,"▁dBg":2523,"▁|1\"F\"":2524,"▁(c/B/)":2525,"▁dgfg":2526,"2/2]":2527,"▁dgf":2528,"▁X:1<br>L:1/8<br>Q:1/4=120<br>M:3/4<br>K:":2529,"▁.!fermata!PMTu":2530,"▁cBG":2531,"▁Beef":2532,"\"_>Teil":2533,"k\"":2534,"▁^g2":2535,"ve":2536,"▁(3EEE":2537,"▁d2g2":2538,"▁dcAB":2539,"Bb\"":2540,"▁eBdB":2541,"▁Td":2542,"▁|:\"Em\"":2543,"▁|{/":2544,"▁|:\"Am\"":2545,"▁Bde":2546,"▁BdAd":2547,"G\"C\"":2548,"▁|\"Bb7\"":2549,">A/":2550,"▁B/A/G":2551,"ers":2552,"g/g/":2553,"▁d'c'":2554,"[Q:1/8=1":2555,"GB]":2556,"▁g(":2557,"G\"Am\"":2558,"▁(3E":2559,"▁Bdce":2560,"▁bgb":2561,"▁X:1<br>L:1/8<br>Q:1/8=15":2562,"▁EFD":2563,"0<br>M:3/4<br>K:G":2564,"▁CF":2565,">B/":2566,"▁EGAB":2567,"^c)":2568,"▁G<E":2569,"▁(GF":2570,"▁a>a":2571,"▁dgfe":2572,"▁X:1<br>L:1/4<br>Q:3":2573,"]>[":2574,"edB":2575,"fdB":2576,"▁egf":2577,"▁c'a":2578,"▁^C":2579,"f/g/a/":2580,"▁C<":2581,"A>B":2582,"▁[M:6/8][K:":2583,"d/e/)":2584,"▁Ed":2585,"0<br>M:6/4<br>K:":2586,"▁BAFB":2587,".E":2588,"▁d2A2":2589,"e/c/":2590,"▁(af)":2591,"▁dgbg":2592,"▁FAAB":2593,"▁.ab":2594,"f/4":2595,"▁C6":2596,"▁g<e":2597,"▁g>fe>d":2598,"▁EDCE":2599,"EB":2600,"▁fdA":2601,"▁f/g/af":2602,"▁f/e/d":2603,"▁B/c/B/A/":2604,"▁(c/d/)":2605,"▁eaab":2606,"\"^(A":2607,"{ef}":2608,"▁c'/":2609,"<e)":2610,"e/4":2611,"▁a>d":2612,"B,B,":2613,"▁X:1<br>L:1/8<br>Q:3/8=11":2614,"E>D":2615,"▁=g2":2616,">E)":2617,"aaa":2618,"ine":2619,"▁afg":2620,"▁X:1<br>L:1/8<br>M:2/2<br>K:C":2621,"▁A^G":2622,"C)":2623,"▁Bb":2624,"▁(A<":2625,"▁[gB":2626,"e>g":2627,"f/d/":2628,"▁g/e/":2629,"▁.abc":2630,"▁EGFE":2631,"▁G(":2632,"▁fgab":2633,"▁A/B/A/G/":2634,"ll":2635,"▁EGA":2636,"▁[DF":2637,"▁a2)":2638,"▁Adfa":2639,"▁bfaf":2640,"▁c'4":2641,"▁f(":2642,"▁|\"^13\"":2643,"/c/":2644,"▁A2B2":2645,"A,2":2646,"▁AFAB":2647,"▁a>gf":2648,"▁X:1<br>L:1/8<br>Q:1/4=120<br>M:2/4<br>K:":2649,")(dc)":2650,"▁FEE":2651,"▁X:1<br>L:1/4<br>Q:1/2=1":2652,"G)(":2653,"▁e/g/":2654,"▁e<a":2655,"▁dgBg":2656,"▁fecA":2657,"▁A>f":2658,"▁(e3":2659,"▁[M:2/4]":2660,"\"^(D":2661,"▁acgc":2662,"▁FDAD":2663,"▁!slide![":2664,").G":2665,"▁X:1<br>L:1/8<br>M:3/4<br>K:A":2666,"{e}A":2667,"▁x":2668,"▁BGD":2669,"▁DFAc":2670,"▁FEDF":2671,"▁g^f":2672,"▁ecec":2673,"][AF":2674,"▁b/a/":2675,"▁e>dc>B":2676,"▁A/B/c/A/":2677,"▁gbeg":2678,"▁DA,":2679,"BD":2680,"▁a>A":2681,"▁C,2":2682,"▁cdBc":2683,"bg)":2684,"▁e/f/e/d/":2685,"▁.!fermata!PMTuCO":2686,"▁(E/F/":2687,"▁BAAG":2688,"▁dff":2689,"▁(AB":2690,"▁G,B,D":2691,"▁gbaf":2692,"▁G-":2693,":4":2694,"▁dc/d/":2695,"▁(B/A/":2696,"G\"^":2697,"▁G>Bd":2698,"▁agec":2699,"▁add":2700,"▁B4-":2701,"▁EEE":2702,"▁X:1<br>L:1/8<br>M:3/8<br>K:":2703,"▁EFGB":2704,"▁c/B/A/":2705,"][cA":2706,"▁EDB,D":2707,"▁X:1<br>L:1/16<br>M:2/4<br>K:A":2708,"▁A2AB":2709,"▁D4-":2710,"▁(e<":2711,"▁\"^Slow\"":2712,"ic":2713,"▁E8":2714,"▁(e/d/)":2715,"▁F>B":2716,"▁GAGF":2717,"▁FEDE":2718,"▁B2c2":2719,"▁B/A/B/c/":2720,"▁eBe":2721,"▁fefd":2722,"gA":2723,"afa":2724,">a)":2725,"▁B8":2726,"▁[Ec]2":2727,"▁a>fd":2728,"▁(3B^cd":2729,"▁A2(":2730,"BcA":2731,"▁:|2\"A\"":2732,"▁ed/e/":2733,"▁a2f2":2734,"▁Tg":2735,"▁Tg2":2736,"▁eBB":2737,"▁|1\"A\"":2738,"▁AFG":2739,"C#7\"":2740,"▁d2>e2":2741,"▁d=":2742,"▁(GE)":2743,"▁e2>d2":2744,"▁FDDF":2745,"▁Gf":2746,"^G/":2747,")(c":2748,"▁A,CE":2749,"▁dAd":2750,"▁dfBf":2751,"▁X:1<br>L:1/8<br>M:6/8<br>K:Edor":2752,"ot":2753,"▁B,,":2754,"]-":2755,"▁=G2":2756,">d/":2757,"EFE":2758,"▁^FG":2759,"▁GEED":2760,"cAc":2761,"f/a/":2762,"▁g3-":2763,"▁GECE":2764,"▁[AA]2":2765,"▁(v":2766,"▁GBAc":2767,"▁Aag":2768,"▁faef":2769,"20<br>M:2/4<br>K:":2770,"ast":2771,"▁A/F/":2772,"▁G>AB>c":2773,"▁_e":2774,"!f!":2775,"▁BEED":2776,"\"Bb7\"":2777,"▁a>ba":2778,"▁[K:D]":2779,"bre":2780,">c/":2781,"▁FGFE":2782,"▁ue":2783,"▁eE":2784,"▁E4-":2785,")(e":2786,"▁(ba)":2787,"▁d/c/d/e/":2788,"▁BcAB":2789,">E2":2790,"▁(de":2791,"▁=Bc":2792,"▁[BG]2":2793,"o!":2794,"▁c2d2":2795,"▁F2-":2796,"▁d<g":2797,"▁X:1<br>L:1/4<br>M:3/4<br>K:C":2798,"▁[AF]2":2799,"▁ecAG":2800,"▁B-":2801,"▁FABc":2802,"▁FADA":2803,"tenut":2804,"▁c8":2805,"▁aed":2806,"ec>A":2807,"▁.[":2808,"▁(d>e)":2809,"▁EB,":2810,"▁g2-":2811,")(f":2812,"ly\"":2813,"▁B=":2814,"▁(FD)":2815,"▁dBBd":2816,"▁g>b":2817,"▁X:1<br>L:1/16<br>M:2/4<br>K:C":2818,"▁X:1<br>L:1/4<br>M:4/4<br>K:D":2819,"][ec":2820,"d/e/c/":2821,"▁fdfd":2822,"D/D/":2823,"A/4":2824,"D}":2825,"▁CDEF":2826,"agf)":2827,"breath":2828,"▁DB,D":2829,"▁B2AG":2830,"▁gebe":2831,"▁g/f/e":2832,"B/G/":2833,">e/":2834,"▁dd/d/":2835,"▁BGEF":2836,"▁AA/A/":2837,"^FG":2838,"▁Ff":2839,"art":2840,"tenuto!":2841,"C]2":2842,"▁cege":2843,"BAF":2844,"▁(3GAG":2845,"▁dcAc":2846,"▁dBAd":2847,"breath!":2848,"▁[df]2":2849,"6\"":2850,"▁|\"Fm\"":2851,"▁d2cB":2852,")(dB)":2853,"ey":2854,"{AB}":2855,"▁B,G,":2856,"▁(BA)(":2857,"▁AFAc":2858,"3/2]":2859,"▁GABA":2860,"▁gdg":2861,"▁gaf":2862,"▁e2a2":2863,"aA":2864,"▁g<b":2865,"▁agaf":2866,"▁f>B":2867,"edc)":2868,"A/B/c/":2869,"▁B/G/":2870,"▁G,/":2871,"GD":2872,"▁FDE":2873,"▁A<d":2874,"▁F/E/D":2875,"▁X:1<br>L:1/8<br>M:6/8<br>K:Dmix":2876,"▁EAc":2877,"▁[EG":2878,"][FA":2879,"▁!breath!":2880,"▁(A,":2881,"▁AFDE":2882,").a":2883,"B,]":2884,"▁ABGA":2885,"▁agae":2886,"G\"A\"":2887,"▁(3gfg":2888,"▁X:1<br>L:1/8<br>M:4/4<br>K:Dmix":2889,"▁(3(FED)":2890,"▁e>B":2891,"▁cd/e/":2892,"▁F>d":2893,"▁aee":2894,"G/B\"":2895,"A/B/)":2896,"▁G2A2":2897,"d'/":2898,"▁efde":2899,"▁F/G/A":2900,"][D":2901,"▁FEDC":2902,"▁a/a/":2903,"d>c":2904,"▁FC":2905,"▁fdge":2906,"▁(d>c)":2907,"▁d/e/d/c/":2908,"▁DGA":2909,"▁||\"D\"":2910,"c>e":2911,"▁^de":2912,"▁e2>f2":2913,"▁B,>D":2914,"▁BDAD":2915,"!wedge!":2916,">(":2917,"▁(D/E/":2918,"▁e2g2":2919,"\"Ab\"":2920,"d/B/)":2921,"▁(ec":2922,"▁B>F":2923,"▁edgd":2924,"▁dBdB":2925,"▁X:1<br>L:1/8<br>M:4/4<br>K:Bb":2926,"▁EDEG":2927,"▁(F3":2928,"▁aea":2929,"S\"":2930,"▁g2fe":2931,"▁BGEG":2932,"▁(d'":2933,"▁=c3":2934,"▁c>G":2935,"▁Bce":2936,"c/B/)":2937,"][ce":2938,"▁GEFD":2939,"▁(d/c/B/A/)":2940,"▁e^c":2941,".A.A":2942,"▁(ge":2943,"▁bB":2944,"▁BGFG":2945,"▁bage":2946,"pl":2947,"▁cEE":2948,"▁F2D2":2949,"▁(3(f":2950,"▁(c/d/e)":2951,"▁GAF":2952,"▁AcBG":2953,"ig":2954,"▁.F2":2955,"▁X:1<br>L:1/8<br>Q:1/8=8":2956,"=B/":2957,"▁D>C":2958,"cdB":2959,"(3(":2960,"▁eaga":2961,"▁[ee]2":2962,"▁A>E":2963,"▁ag/f/":2964,"▁Td2":2965,"bb":2966,"▁AG/A/":2967,"▁X:1<br>L:1/4<br>M:3/4<br>K:D":2968,"▁c2BA":2969,"▁fgfd":2970,"▁S":2971,"▁eceg":2972,"cB}":2973,"▁A>AA":2974,"20":2975,"▁|:\r\n":2976,"▁D2D2":2977,"▁e2A2":2978,"▁e2f2":2979,"▁[BG]":2980,"\"^A\"":2981,"▁B,B,":2982,"▁Adcd":2983,"▁c>a":2984,"▁GAGE":2985,"▁AFcF":2986,"▁TF2":2987,"▁(3(fga)":2988,"▁GEcE":2989,"▁G,A,":2990,"▁.E":2991,"▁c'ba":2992,"▁(f3":2993,"▁FDAF":2994,"\"^s":2995,"▁TE2":2996,"▁d/e/f":2997,"f/)":2998,"▁fg/f/":2999,"▁G2E2":3000,"BAG)":3001,"▁(3ccc":3002,"{gBd}":3003,"d'2":3004,"▁fde^c":3005,"▁EAG":3006,"▁(3a":3007,"▁BdGB":3008,"▁e/c/":3009,"▁bgec":3010,".d.d":3011,"▁gc'":3012,"▁A2Bc":3013,"▁AFAd":3014,"▁A\"G\"":3015,"F/F/":3016,"▁A>Bd":3017,"c>d":3018,"pi":3019,"▁D>A":3020,"^c2":3021,"▁F>ED":3022,"▁D>EF":3023,"▁(3(def)":3024,"▁FGEF":3025,"▁(3BdB":3026,"▁afaf":3027,"▁FEFA":3028,"▁a>c":3029,"▁cBB":3030,"▁f3-":3031,"▁eaf":3032,"!>!":3033,"\"^D":3034,"▁ceA":3035,"▁d>fe":3036,"▁X:1<br>L:1/8<br>Q:1/4=11":3037,"▁(G>A)":3038,"▁(ba":3039,"▁(3eee":3040,"▁|{Gdc}":3041,"D/F#\"":3042,"NB":3043,"▁b>ag":3044,"][BG]":3045,"▁C3/2":3046,"▁(A>B)":3047,"▁d>^c":3048,"▁Add^c":3049,"c')":3050,"▁B^cd":3051,"▁[F":3052,"▁BBA":3053,"▁f2-":3054,")(B":3055,"][dB":3056,"▁g>ab":3057,"▁gcec":3058,"▁|\"^21\"":3059,"▁edfd":3060,"▁A,A,":3061,"/d/":3062,"{E}":3063,"▁ga/g/":3064,"▁ggg":3065,"▁dBe":3066,"dfa":3067,"ith":3068,"▁GAc":3069,"▁egfd":3070,"▁aff":3071,"▁dgd":3072,"▁\"^B\"":3073,"f>g":3074,"▁(f/e/)":3075,"▁(3aba":3076,"▁fdaf":3077,"AF)":3078,"▁X:1<br>L:1/8<br>Q:1/4=8":3079,"▁D>ED":3080,"▁X:1<br>L:1/16<br>Q:1/4=10":3081,"▁||\"G\"":3082,"0<br>M:3/8<br>K:":3083,"▁ecce":3084,"▁X:1<br>L:1/8<br>Q:1/8=120<br>M:6/8<br>K:":3085,"▁c'bag":3086,"▁B2(":3087,"cAF":3088,"0<br>M:9/8<br>K:":3089,"▁X:1<br>L:1/8<br>Q:1/8=160<br>M:6/8<br>K:G":3090,"▁gAfA":3091,"▁c/d/e/f/":3092,"▁[ec]2":3093,"{cd}":3094,"▁X:1<br>L:1/4<br>M:6/4<br>K:":3095,"▁F,4":3096,"▁(3ggg":3097,"▁cAGA":3098,"{gfg}":3099,"▁GBe":3100,"▁E>C":3101,"▁DE/F/":3102,"▁AGGF":3103,"▁X:1<br>L:1/8<br>M:4/4<br>K:Gmin":3104,"▁fG":3105,"▁b2a2":3106,"▁(3(cd":3107,"▁!fermata!d":3108,"Fine\"":3109,"▁(BG":3110,"▁AFdF":3111,"▁FAdc":3112,"▁X:1<br>L:1/8<br>Q:1/8=180<br>M:4/4<br>K:G":3113,"▁(B>c)":3114,"▁[GB]":3115,"▁C/C/":3116,"▁BFD":3117,"▁|:\"Dm\"":3118,"▁d>ef>g":3119,"▁F2F2":3120,">G,":3121,"▁G/E/":3122,"▁|[M:2/2][K:":3123,"▁X:1<br>L:1/8<br>M:2/2<br>K:F":3124,"ersion":3125,"▁eddc":3126,"▁cAdc":3127,"▁^D":3128,"▁f>ga":3129,"▁FBB":3130,"▁DGGA":3131,"▁(EG)":3132,"▁X:1<br>L:1/8<br>Q:1/2=7":3133,"▁e^f":3134,"▁(d/e/f)":3135,"▁A>e":3136,"▁Acc":3137,"E/E/":3138,"▁(g3":3139,"▁cAGc":3140,"▁G<G":3141,"▁X:1<br>L:1/4<br>Q:1/4=120<br>M:":3142,"FE)":3143,"▁^c3":3144,"▁d2cd":3145,"▁AFFA":3146,"▁agfd":3147,"▁d/c/B":3148,"▁g>ed":3149,"▁F8":3150,"▁cAdB":3151,"D/E/F/":3152,"Qu":3153,"^GB":3154,"▁A2\"G\"":3155,"▁f>ed>c":3156,"^d/":3157,"▁e=":3158,"▁f'":3159,"▁cc/c/":3160,"▁fgef":3161,"▁D>FA":3162,"▁dd/e/":3163,"▁GG/G/":3164,"▁tim":3165,"▁(dc)(BA)":3166,"▁eb":3167,"▁||\"^B\"":3168,"▁c/B/c/d/":3169,"{ga}":3170,"▁f/g/a/f/":3171,"▁X:1<br>L:1/8<br>Q:1/4=120<br>M:4/4<br>K:G":3172,"variation":3173,"▁Bded":3174,"▁var":3175,"<a)":3176,">G/":3177,"▁c4-":3178,"\"^/":3179,"\"^(E":3180,"▁B2AB":3181,"▁bdad":3182,"{GAG}":3183,"▁dAB":3184,"▁g2d2":3185,"▁cAcA":3186,"▁FAG":3187,"▁X:1<br>L:1/8<br>Q:3/8=120<br>M:6/8<br>K:G":3188,"▁fff":3189,"E/D/)":3190,"▁(DF)":3191,"▁p":3192,"Bde":3193,"D,]":3194,"G][":3195,"▁(b2":3196,"▁X:1<br>L:1/8<br>M:4/4<br>K:Dmin":3197,"C,]":3198,"▁f=":3199,"▁B^AB":3200,"g/4":3201,"▁d2>c2":3202,"▁||1":3203,"NB\"":3204,"▁Ba":3205,"▁^ga":3206,"ori":3207,"GdG":3208,"▁A2>B2":3209,"▁AG/F/":3210,"▁(c'":3211,"▁c2(":3212,"G\"G\"":3213,"▁BGGF":3214,"▁(3dcd":3215,"▁d>F":3216,"▁AA/B/":3217,"▁a(":3218,"▁fad":3219,"0<br>M:2/4<br>K:C":3220,"▁[cA]2":3221,"▁:|[M:":3222,"Bdf":3223,"▁FAB":3224,"F\"Em\"":3225,"▁e4-":3226,"al\"":3227,"▁(Ac":3228,"▁|\"^9\"":3229,"▁BEGB":3230,"▁(3(dcB)":3231,"=E":3232,"DEF)":3233,"▁\"Cm\"":3234,"▁B<A":3235,"▁BB/B/":3236,"▁BAFD":3237,"e/g/":3238,"▁abc'":3239,"▁Ad^c":3240,"▁|{F}":3241,"▁EGD":3242,"▁A=":3243,"▁GC":3244,"▁f/e/f/g/":3245,"▁afeg":3246,"▁[dB]2":3247,"▁AdcA":3248,"▁GAcd":3249,"▁BGBG":3250,"g>f":3251,"▁fdAd":3252,"d>e":3253,"▁G>g":3254,"e/d/)":3255,"▁e-":3256,"\"^S":3257,"▁e/d/c/":3258,"▁(gf)(ed)":3259,"od":3260,"▁e2(":3261,"fec":3262,"egn":3263,"▁!fermata!c":3264,"▁X:1<br>L:1/8<br>M:6/8<br>K:Amix":3265,"▁::[K:G]":3266,"▁(F/G/":3267,"B,)":3268,"▁cd/c/":3269,"▁e2dc":3270,"▁FAde":3271,"▁Dc":3272,"▁fadf":3273,"▁!wedge!":3274,"▁|[M:6/8][K:":3275,"▁a<f":3276,"A,]":3277,"▁[M:4/4][K:":3278,"{cB}":3279,"▁(B/":3280,"▁BGDG":3281,"▁Bdde":3282,"\"Eb7\"":3283,"▁ec'":3284,"0<br>M:6/8<br>K:C":3285,"▁E<A":3286,"7/2":3287,"▁g>c":3288,"G)\"":3289,"▁\"F7\"":3290,"▁^A2":3291,"ch":3292,"▁A>a":3293,"A>F":3294,"▁G2F2":3295,"GA}":3296,"d2)":3297,"{d}c":3298,"▁::[M:":3299,"▁c>BA>G":3300,"▁gf/g/":3301,"▁\"^V":3302,"▁eAAB":3303,"▁X:1<br>L:1/8<br>Q:1/8=180<br>M:4/4<br>K:D":3304,"▁[AF]":3305,"▁e'2":3306,"▁cedB":3307,"C/B,/":3308,"ine!":3309,"▁G/A/B":3310,"▁(B/c/d)B":3311,"▁d2de":3312,"ed\"":3313,"▁E/G/":3314,"▁MS\"":3315,"▁gefg":3316,"▁EAB":3317,"C/D/":3318,"▁E/F/G":3319,"▁BedB":3320,"▁=d":3321,"^c}":3322,"▁f/g/f/e/":3323,"▁d>BG>B":3324,"▁A,G,":3325,"G,2":3326,"▁e>dB":3327,"▁EGce":3328,".b":3329,"ug":3330,"▁efa":3331,"▁A>FD":3332,"=\"":3333,"▁X:1<br>L:1/8<br>Q:1/2=6":3334,"▁(cB)(AG)":3335,"lleg":3336,"▁B>E":3337,"▁fBBA":3338,"egno\"":3339,"▁cAFD":3340,"▁!fermata!B":3341,"▁d>BG":3342,"▁[cA]":3343,"▁(ag)(":3344,"▁e8":3345,",,]":3346,"▁(3(ef":3347,"B/c/B/":3348,"!fine!":3349,"=C":3350,"▁G2(":3351,"▁a2-":3352,"▁dddd":3353,"▁d/^c/":3354,"▁f>gf":3355,"▁fed^c":3356,"▁AcAF":3357,"▁(3faf":3358,"0\"":3359,"▁(eg":3360,"▁G2>A2":3361,"\"G":3362,"▁c=":3363,"▁B2Bc":3364,"▁ABGE":3365,"<F":3366,"Eb\"":3367,"▁gBB":3368,"▁(e>d)":3369,"Amix":3370,"▁FAAF":3371,"\"^f":3372,"▁X:1<br>L:1/8<br>Q:3/8=120<br>M:6/8<br>K:D":3373,"▁c2Bc":3374,"▁!fermata!G":3375,"zd":3376,"aB":3377,"▁cD":3378,"▁F/G/A/":3379,"eel":3380,"0<br>M:3/4<br>K:D":3381,"ef>d":3382,"▁TF":3383,"▁(3(gfe)":3384,"(D":3385,"▁Beg":3386,"▁G>d":3387,"▁BAAB":3388,"▁.b":3389,"▁X:1<br>L:1/8<br>M:6/8<br>K:Bb":3390,"][fd":3391,"c'}":3392,"▁(B>A)":3393,"▁B,CD":3394,"B,]2":3395,"D/A\"":3396,"▁X:1<br>L:1/4<br>M:4/4<br>K:C":3397,"▁(F/G/)":3398,"▁ed^cd":3399,"▁b)":3400,"E/)":3401,"{de}":3402,"▁E>c":3403,"▁ceae":3404,"▁\"^1":3405,"▁X:1<br>L:1/4<br>Q:1/4=":3406,"=A":3407,"▁g/f/e/":3408,"▁BEEF":3409,"▁X:1<br>L:1/8<br>Q:1/4=120<br>M:4/4<br>K:D":3410,"a/a/":3411,"▁AEA":3412,"▁AGBG":3413,"▁Acf":3414,"6/4]":3415,"AGAG}":3416,"A/F/":3417,"▁X:1<br>L:1/16<br>M:2/4<br>K:F":3418,"_E":3419,"▁X:1<br>L:1/4<br>M:3/2<br>K:":3420,"▁FDDE":3421,"▁[eg":3422,"▁^ce":3423,"▁(dg)":3424,"▁cef":3425,"▁[DA]2":3426,"F,/":3427,"ur":3428,"A/c/":3429,"][GE":3430,"d>f":3431,"▁(G/F/)":3432,"▁z8":3433,"▁B<e":3434,"▁[M:2/2][K:":3435,"▁Fe":3436,"▁X:1<br>L:1/8<br>M:3/2<br>K:":3437,"▁fdgf":3438,"▁f/d/":3439,"▁DEGB":3440,">v":3441,"▁(B,":3442,"][E":3443,"▁afbf":3444,"▁B<B":3445,"▁|[M:2/2]":3446,"▁G6-":3447,"c]":3448,"▁c-":3449,"▁||2":3450,"▁Acef":3451,"▁FDC":3452,"▁(Ad)":3453,"▁B<g":3454,"▁E<C":3455,"▁FAdB":3456,"▁faeg":3457,"▁B/c/d/e/":3458,"▁e>de":3459,"▁X:1<br>L:1/8<br>Q:3/8=9":3460,"▁ceag":3461,"▁ABBA":3462,"▁EAcA":3463,"▁AAAA":3464,"][ec]":3465,"▁f2>e2":3466,"]2-":3467,"▁bgg":3468,"▁DFF":3469,"▁X:1<br>L:1/8<br>Q:1/8=10":3470,"▁abg":3471,"▁X:1<br>L:1/8<br>Q:1/4=16":3472,"\"_b\"":3473,"▁BgB":3474,"▁GBGB":3475,"▁(af":3476,"▁X:1<br>L:1/8<br>M:2/2<br>K:Ador":3477,"^g/":3478,"▁Bdgf":3479,"▁(3FGF":3480,"p\"":3481,"▁Bdge":3482,"▁[Aa":3483,"Aa":3484,"▁B2e2":3485,"▁FAFA":3486,"▁B,<":3487,"d'b":3488,"▁(AF":3489,"d/c/B/)":3490,"2/4][K:":3491,"ue":3492,")(G":3493,"Quic":3494,"<G)":3495,"▁(3GFG":3496,"▁cAAA":3497,"2:3":3498,"^cB":3499,"▁Acde":3500,"▁aef":3501,"▁var.\"":3502,"▁B<E":3503,"▁g/g/g":3504,"▁d=c":3505,"▁B^A":3506,"ede":3507,")(cA)":3508,"▁X:1<br>L:1/8<br>M:6/8<br>K:Bmin":3509,"▁EGDG":3510,"c/d/)":3511,"▁(FA":3512,">D2":3513,"▁D/E/F/G/":3514,"G]SOSOO":3515,"aj":3516,"a>e":3517,"▁GFEG":3518,"▁d/c/B/c/":3519,"▁(G/":3520,"age":3521,"▁d/f/":3522,"2:3:2":3523,"AE":3524,"▁z3/2":3525,"▁::\"A\"":3526,"d/f/":3527,"▁dABG":3528,"▁a>gf>e":3529,"▁(3cBc":3530,"plus":3531,"Ge}":3532,"cg":3533,"▁bagb":3534,"60]":3535,"▁|{gef}":3536,"▁eagf":3537,"▁=cBA":3538,"A,C":3539,"▁geaf":3540,"variations\"":3541,">b2":3542,"G/4":3543,")(F":3544,"▁G,B,":3545,"▁X:1<br>L:1/8<br>M:2/4<br>K:none":3546,"▁c>de>f":3547,"0<br>M:4/4<br>K:A":3548,"▁X:1<br>L:1/8<br>Q:1/8=160<br>M:6/8<br>K:D":3549,"▁(3EFE":3550,"][df":3551,"ant":3552,"][cA]":3553,"BAB)":3554,"G\"F\"":3555,"▁ud":3556,"A\"D\"":3557,"▁X:1<br>L:1/8<br>M:2/4<br>K:Bb":3558,"{GdGe}":3559,"\"F#7\"":3560,"F\"A\"":3561,"▁(d<B)":3562,"▁BdAB":3563,"▁.b2":3564,"▁=E":3565,"▁c'c'":3566,"▁(3FFF":3567,"▁::[K:D]":3568,"hor":3569,"▁dcBG":3570,"▁c/d/c/B/":3571,"▁afde":3572,"▁g>ec":3573,"▁(E3":3574,"][GB]":3575,"▁G,G,":3576,"▁dfdf":3577,"▁g2fg":3578,"▁::\"C\"":3579,"G/D\"":3580,"▁FAFD":3581,"\"^A":3582,"▁geeg":3583,"A>c":3584,"▁Aaa":3585,"▁[af":3586,"▁cABA":3587,"▁.E2":3588,"▁BDGB":3589,"plus!":3590,"D][":3591,"e]":3592,"A/G/)":3593,"▁(3gab":3594,"▁E<G":3595,"bm\"":3596,"▁|\"F#7\"":3597,"▁gea":3598,"3/2)":3599,"▁d<d":3600,"▁dEBE":3601,"▁X:1<br>L:1/8<br>M:12/8<br>K:D":3602,"▁eGdG":3603,"▁(2:3:2":3604,"▁AGAc":3605,"/g/":3606,"▁cac":3607,"▁egde":3608,"Ac)":3609,"▁BAFG":3610,"▁dfdB":3611,"▁(g/f/)":3612,"([":3613,"▁BGGG":3614,"▁fAdf":3615,"▁A>Bc>d":3616,"▁|\"^17\"":3617,"▁(3GBd":3618,"\"A/":3619,"▁fBdB":3620,"▁(3C":3621,"{g}A":3622,"G,]2":3623,"▁_e2":3624,"▁(df":3625,"ba)":3626,"▁[A,E]2":3627,"\\\"":3628,"▁ee/e/":3629,"▁[dg":3630,"▁egfg":3631,"▁c/d/e/c/":3632,"▁.D2":3633,"B2)":3634,"GFE)":3635,"E>G":3636,"▁(A>G)":3637,"▁EGc":3638,"▁X:1<br>L:1/8<br>Q:3/4=":3639,"▁gfdc":3640,"c'/b/":3641,"▁[ec]":3642,"ro":3643,"▁G2AB":3644,"▁ecac":3645,"▁ecge":3646,"▁G/F/G/A/":3647,"^FA":3648,"EDC":3649,"▁AFAF":3650,"▁[FA]":3651,"▁cb":3652,").F":3653,"▁B2>A2":3654,"▁e2ef":3655,"▁e<A":3656,"▁decd":3657,"▁E>FE":3658,"▁^cdef":3659,"▁dB/c/d":3660,"▁g^":3661,"▁|{b}":3662,"▁!fermata!d2":3663,"▁G>BA":3664,"▁D>d":3665,"▁(B4":3666,"▁!>!c2":3667,"▁[EA]2":3668,"][AF]":3669,"▁g2(":3670,"▁|][K:":3671,"ris":3672,"▁B\"D\"":3673,"▁TB3":3674,"▁(bg)":3675,"▁ECC":3676,"f/e/d/)":3677,"▁fcAc":3678,"▁\"^Moderate\"":3679,"▁X:1<br>L:1/4<br>Q:3/4=":3680,"Bm\"":3681,"▁X:1<br>L:1/8<br>M:3/4<br>K:Amin":3682,"▁B^c":3683,"▁GFGE":3684,"B,,":3685,"▁=c4":3686,"▁[CE]2":3687,"C)\"":3688,"▁B,,2":3689,"0<br>M:6/8<br>K:A":3690,"▁CEAc":3691,"▁(3BAB":3692,"▁dBge":3693,"▁EGBG":3694,"▁F4-":3695,"▁e<f":3696,"▁eage":3697,"▁eae":3698,"^cd)":3699,"0<br>M:4/4<br>K:F":3700,"▁[eA":3701,"▁a2gf":3702,"▁d2d2d2":3703,"▁(a/g/f/e/)":3704,"▁B>D":3705,">d'":3706,"▁.D":3707,"▁[dB]":3708,"▁e^cA":3709,"▁(fa":3710,"▁edge":3711,"▁=A":3712,"▁(e>f)":3713,"Quick\"":3714,"E7\"":3715,"▁DAA":3716,"▁(c>B)":3717,"▁!>!d2":3718,"▁agea":3719,"▁X:1<br>L:1/8<br>Q:3/8=8":3720,"▁Gce":3721,"▁(3ege":3722,"\"^c":3723,"▁=C":3724,"▁GEBE":3725,"▁\"Ab\"":3726,"▁[DB]2":3727,"5<br>M:4/4<br>K:":3728,"▁::\r\n":3729,"A,]2":3730,"▁{d}":3731,"▁A^c":3732,")(fd)":3733,"▁A6-":3734,"▁c>E":3735,"▁d2ed":3736,"▁\"F#m\"":3737,"▁d'3":3738,"^F)":3739,"BgB":3740,"▁dFcF":3741,"▁Agfe":3742,"po\"":3743,"▁(3A/B/c/":3744,"▁f2(":3745,"cAG":3746,"▁=e2":3747,"▁FDEC":3748,"▁F/G/A/B/":3749,"▁(3(efe)":3750,"▁BdBA":3751,"▁D/F/":3752,"▁cccc":3753,"▁A>g":3754,"▁E2D2":3755,"▁[DD":3756,"▁A,,":3757,".e/":3758,"▁AC":3759,"▁(4":3760,"▁[a":3761,"▁(B<d)":3762,")d":3763,">F/":3764,"▁[BE":3765,")(ec)":3766,"▁faea":3767,"▁\"B7\"":3768,"▁(3(fed)":3769,"▁FBA":3770,"▁\"D":3771,"▁FAcA":3772,"F\"A7\"":3773,"▁|{fg}":3774,"▁A>ce":3775,"▁(D3":3776,"f>a":3777,"▁eBG":3778,"▁d2>B2":3779,"▁GEDB,":3780,"g/f/)":3781,"zA":3782,"▁d2Bd":3783,"▁FGAG":3784,"▁(d4":3785,"▁X:1<br>L:1/8<br>M:3/4<br>K:Dmin":3786,"\"^+\"":3787,"▁gbge":3788,"▁(3(ABA)":3789,"B]":3790,"▁E2E2":3791,"▁ecAB":3792,"▁B<c":3793,"]3-":3794,"d'c'":3795,"▁G2GA":3796,"▁Bcdg":3797,"▁D<G":3798,"▁Aece":3799,"▁EGF":3800,"BA}":3801,"▁FAGF":3802,"_A":3803,"▁GGA":3804,"▁e2ed":3805,"aga":3806,"▁FAEA":3807,"a)\"":3808,")(gf)":3809,"▁DFBd":3810,"▁(ed)(cB)":3811,"▁dGB":3812,"▁(b/":3813,"▁||\"C\"":3814,"20<br>M:2/2<br>K:":3815,"▁E^":3816,"▁G2g2":3817,"▁X:1<br>L:1/4<br>M:3/4<br>K:F":3818,"▁[Fd]2":3819,"\"_D.C.\"":3820,"▁f/f/f":3821,"dE":3822,"ss":3823,"d/e/f/":3824,"▁!fermata!A":3825,"80]":3826,"▁EF/G/":3827,"▁=fd":3828,"▁=fed":3829,"▁f/a/":3830,":3:4":3831,"▁Acea":3832,"▁X:1<br>L:1/8<br>Q:1/8=20":3833,".c/":3834,"tt":3835,"us\"":3836,"▁dBde":3837,"▁|][M:":3838,"▁egge":3839,"{g}B":3840,"▁a>fe":3841,"d^c":3842,"gfe":3843,"maj":3844,"▁GB/c/d":3845,">F,":3846,"▁_E":3847,"^c/d/":3848,"{ed":3849,"▁Ddd":3850,"AFD":3851,"▁|[M:3/2]":3852,"F>D":3853,"▁Bef":3854,")(ge)":3855,"▁[fd]2":3856,"9/8]":3857,">f/":3858,"▁^fd":3859,"G,B,":3860,"a/g/)":3861,"fff":3862,"][dB]":3863,"▁Agf":3864,"▁[g":3865,"▁Bdfd":3866,"▁BcBG":3867,"▁ceef":3868,"▁cBBA":3869,">^":3870,"▁{a}":3871,"▁E2G2":3872,"EDE":3873,"▁A,E":3874,"▁A,>B,":3875,"▁|\"Eb7\"":3876,"▁g/f/g/a/":3877,"▁EBBA":3878,"-]":3879,"▁(b/a/":3880,"▁f2ef":3881,"▁b3/2":3882,"▁dBed":3883,"▁X:1<br>L:1/8<br>M:2/2<br>K:Bb":3884,"▁GGGG":3885,"▁cAGB":3886,"][Ac":3887,"▁X:1<br>L:1/8<br>M:2/2<br>K:Emin":3888,"▁(3AcA":3889,"▁[Bg]2":3890,"▁F,3":3891,"▁E>FG":3892,"▁(4:3:4":3893,"FAd":3894,"▁b2g2":3895,"pirit":3896,"▁(ce":3897,"▁BdAc":3898,"▁f^":3899,"▁::\"Am\"":3900,"A\"A\"":3901,"▁EDCD":3902,"e2)":3903,"▁[K:C]":3904,"▁(g/a/b)":3905,".d2":3906,"<br>M:12/8<br>K:":3907,"▁D>B":3908,"▁D>B,":3909,"▁|1\"Am\"":3910,"▁(AG)(":3911,"▁DFAB":3912,"▁X:1<br>L:1/8<br>Q:1/4=13":3913,"▁fd\"A\"":3914,"▁GF/E/":3915,"G/A/)":3916,"▁e/d/e/f/":3917,">=":3918,"{dc}":3919,"▁B2BA":3920,"▁\"^s":3921,"▁|[M:6/8]":3922,"▁{c}":3923,"▁(ab)":3924,"▁BA^G":3925,"▁C)":3926,"▁Bdeg":3927,"▁|1\"Em\"":3928,"▁(A4":3929,"▁(g>f)":3930,"NB1\"":3931,"▁B2g2":3932,"▁a2>g2":3933,"▁B>cd>e":3934,"▁[G,G]2":3935,"▁Gcc":3936,"▁D-":3937,"▁dged":3938,"▁|\"^/\"":3939,"▁d>Bc":3940,"▁e<d":3941,"▁e/d/c":3942,"▁C/D/":3943,"▁AB/c/d":3944,"▁d>cd>e":3945,"(a":3946,"F]2":3947,"▁F(":3948,"▁:|2\"Am\"":3949,"▁[M:4/4]":3950,"▁cFF":3951,"GAB)":3952,"▁AB^c":3953,"▁ve":3954,")e":3955,"▁gGG":3956,"▁^GB":3957,"▁geag":3958,"▁A/G/A/B/":3959,"▁d>ef>d":3960,"g}":3961,"▁(f/":3962,"▁A2f2":3963,"▁[K:C]\"C\"":3964,"▁|(":3965,"▁f-":3966,"▁GF/G/":3967,"▁(c>d)":3968,"▁CDEG":3969,"E,/":3970,"▁e\"D\"":3971,"▁DGF":3972,"▁cAe":3973,"GAF":3974,"F\"D\"":3975,"▁Bgdg":3976,"▁d2dc":3977,"▁D2F2":3978,")(cd)":3979,"▁!>!f2":3980,"▁[Ae]2":3981,"▁[Dd]2":3982,"A2)":3983,"▁(f>e)":3984,"▁w":3985,"▁e^":3986,"▁z6":3987,"B/)":3988,"Bdg":3989,"▁(3(BAG)":3990,"▁cAAg":3991,"G>F":3992,"▁df/g/":3993,"▁ecde":3994,"▁|:[K:G]":3995,"▁BBBB":3996,"▁e2fg":3997,"▁(3cec":3998,"]\"^":3999,"u\"":4000,"▁c>F":4001,"▁d2G2":4002,"▁\"^(":4003,"c]2":4004,"▁g2b2":4005,"▁D2G2":4006,"▁EFED":4007,"▁dgb":4008,"▁(3DED":4009,"▁G\"D\"":4010,"▁(3[":4011,"▁dcc":4012,"e/)":4013,"▁c'/b/":4014,"▁ceec":4015,"▁bgdB":4016,"▁X:1<br>L:1/8<br>M:6/8<br>K:Gmin":4017,"▁B>GA":4018,"▁D<D":4019,"▁[ce]":4020,"][FA]":4021,"▁D(":4022,"▁[ac":4023,"▁AFcA":4024,")(a":4025,"▁A,<":4026,"▁|{Bc}":4027,"▁BAcA":4028,"▁g>ef>d":4029,"▁[ca":4030,"G\"Em\"":4031,"EFG)":4032,"▁G>FG>A":4033,"C][":4034,"^G)":4035,"▁Bge":4036,"▁Bd/B/":4037,"▁fg/a/":4038,"▁bd'":4039,"G,A,":4040,"fe}":4041,"▁AFEG":4042,"▁cBA^G":4043,"▁A>^G":4044,"▁X:1<br>L:1/16<br>M:3/8<br>K:":4045,"▁GA/G/":4046,"▁\"B\"":4047,"▁GBEB":4048,"B/d/)":4049,"▁X:1<br>L:1/8<br>Q:1/8=232<br>M:4/4<br>K:D":4050,"D\"G\"":4051,"▁[Be":4052,"▁::\"Em\"":4053,"▁BdG":4054,"▁:|2\"Em\"":4055,"▁edBe":4056,"▁g/a/b":4057,"?\"":4058,"▁AddB":4059,"▁X:1<br>L:1/8<br>Q:1/8=14":4060,"▁B>cd>B":4061,"^df":4062,"▁f2g2":4063,"▁BdBd":4064,"▁c'>b":4065,"]4-":4066,"▁(ab":4067,"▁D,4":4068,"▁A2>G2":4069,"▁c2>B2":4070,"▁e>fg>e":4071,"▁[GE]2":4072,".d/":4073,"=cB":4074,"▁(3aaa":4075,"▁AcBd":4076,"▁GBed":4077,"▁dgdB":4078,"▁X:1<br>L:1/8<br>M:3/4<br>K:Bb":4079,"{d}B":4080,"▁!plus!":4081,"▁(c4":4082,"▁uA":4083,".B.c":4084,"C#m\"":4085,"#m\"":4086,"▁dz":4087,"▁BDD":4088,"0<br>M:3/2<br>K:":4089,"▁B>AB>c":4090,"▁d<e":4091,"▁fbb":4092,"▁geef":4093,"^d)":4094,"▁!>!B2":4095,"eG":4096,"▁BFF":4097,"▁aaa":4098,"▁A<B":4099,"▁(c<A)":4100,"ol":4101,"▁e2de":4102,"▁FDB,":4103,"▁d'4":4104,"▁Bgec":4105,"▁EDCB,":4106,"▁Bddg":4107,"▁G/A/B/":4108,"▁FEED":4109,"▁X:1<br>L:1/8<br>M:3/4<br>K:none":4110,"▁A/G/F":4111,"▁G/F/E":4112,"▁\"^Slow":4113,"{^":4114,"▁A<a":4115,"▁c/B/A/B/":4116,"<B)":4117,"▁F2G2":4118,"▁dfag":4119,"▁(ea)":4120,"▁[Ac]2":4121,"▁c2cd":4122,"▁g2>f2":4123,"▁F2E2":4124,"▁AEE":4125,"▁ecg":4126,"▁d/e/f/":4127,"▁faag":4128,"▁X:1<br>L:1/8<br>Q:1/4=15":4129,"▁EAce":4130,"▁(GF)(":4131,"B>g":4132,"▁AAB":4133,"▁b6":4134,"▁BdGd":4135,"▁TE":4136,"▁c'g":4137,"▁|[M:5":4138,"▁C3-":4139,"▁DCD":4140,"▁ff/f/":4141,"▁BGcA":4142,"{g}c":4143,"{D}":4144,"▁(3A,":4145,"▁|:\"G7\"":4146,"▁(3(agf)":4147,"▁dBdg":4148,"▁FEFD":4149,"▁(D/":4150,"▁_A":4151,"▁(f<a)":4152,"▁d\"A\"":4153,"▁AdA":4154,"▁dfBd":4155,"▁\"^2":4156,"▁AAAB":4157,"][ce]":4158,"▁G>e":4159,"▁g-":4160,"▁Acfc":4161,"▁!>!e2":4162,"▁X:1<br>L:1/4<br>M:4/4<br>K:F":4163,"a/b/)":4164,".f/":4165,">ed":4166,"▁cFAF":4167,"▁AFGA":4168,"▁dee":4169,"▁\"^Alleg":4170,"DA":4171,"last":4172,"▁EFGF":4173,"\"_c\"c":4174,"▁G\"D7\"":4175,"▁CB,A,":4176,"EF}":4177,"F\"C\"":4178,"▁a3-":4179,"▁A<G":4180,"\"_f":4181,"▁A/B/cA":4182,"▁F>GF":4183,"b>g":4184,"▁B2>c2":4185,"A\"^":4186,"b/g/":4187,"▁X:1<br>L:1/4<br>M:2/2<br>K:G":4188,"▁(3:2:2":4189,"hr":4190,"▁dFAF":4191,"▁GcB":4192,"▁(G/F/":4193,"▁^D2":4194,"▁X:1<br>L:1/8<br>M:2/2<br>K:Edor":4195,"▁G^FGA":4196,"▁X:1<br>L:1/4<br>Q:1/2=10":4197,"▁DFBF":4198,"▁Gge":4199,"▁GG/A/":4200,"▁G2c2":4201,"▁c'e":4202,"/4=10":4203,"▁EGFA":4204,"▁(fe)(dc)":4205,"▁time\"":4206,"=fd":4207,"▁adfa":4208,"▁CA":4209,"A/)":4210,"▁gfgb":4211,"▁c<f":4212,"▁(G4":4213,"▁ECEG":4214,"▁.d(":4215,"▁gfde":4216,"▁c=B":4217,"▁E(":4218,"▁EBGB":4219,"▁d2dd":4220,"▁[B,D":4221,"▁AdF":4222,"▁(GB":4223,"▁EBB":4224,"▁d2fd":4225,"▁A/G/F/":4226,"^g}":4227,"▁!>!d":4228,"▁X:1<br>L:1/4<br>Q:1/4=10":4229,"▁BB/c/":4230,"▁B2E2":4231,"▁A/B/A/":4232,"▁TB>A":4233,"▁A/B/A":4234,"..":4235,"▁eed":4236,"▁TG2":4237,"▁!fermata!G2":4238,"▁eBBA":4239,"▁E,4":4240,"▁FBBA":4241,"▁cfe":4242,"\"^>\"":4243,"▁gfgf":4244,"▁A>FA":4245,"▁Aff":4246,"▁(f/g/a)f":4247,"▁!slide![ee":4248,".B/":4249,"Chor":4250,"\"^1\"":4251,"▁EGcG":4252,"▁gafg":4253,"^f)":4254,"G3":4255,"Reel":4256,"▁aefd":4257,"▁A2a2":4258,"G\"A7\"":4259,"▁ag/a/":4260,"▁effe":4261,"▁F,/":4262,"▁F<B":4263,"▁=cAG":4264,"][fd]":4265,"▁X:1<br>L:1/8<br>M:4/4<br>K:Ddor":4266,"▁c<AA":4267,"▁B/A/G/A/":4268,")(Bc)":4269,"▁e>cd":4270,"▁f>ga>f":4271,"\"^(D)\"":4272,"▁(D/E/)":4273,">^c":4274,"▁B2\"D\"":4275,"/4c/4":4276,"▁AcGc":4277,"▁eaca":4278,"▁(E/F/)":4279,"▁dBfB":4280,"▁egb":4281,"▁bgdg":4282,"▁_BA":4283,"▁DCB,":4284,"▁[GG,]":4285,"▁c\"G\"":4286,"D\"A\"":4287,"▁Ca":4288,"▁fgec":4289,"E/G/":4290,"▁X:1<br>L:1/4<br>M:2/4<br>K:":4291,"▁GDB,D":4292,"▁DCB,A,":4293,"▁g<c":4294,"▁||[K:G]":4295,"▁Te3":4296,".c2":4297,"F/4":4298,"▁(3=":4299,"▁fddd":4300,"▁BGFE":4301,"▁^C2":4302,"▁BcAF":4303,"▁B>AG>F":4304,":5":4305,"▁Afe":4306,"▁A2GA":4307,"▁FA,":4308,"▁d6-":4309,"▁GDB,":4310,"▁cGEG":4311,"<br>M:6/8<br>K:G":4312,"▁(EF":4313,"▁BdAG":4314,")(ag)":4315,"▁Acfa":4316,"a2)":4317,"▁d=cA":4318,"▁X:1<br>L:1/8<br>M:2/2<br>K:Amin":4319,"▁X:1<br>L:1/8<br>M:6/8<br>K:Dmin":4320,"B/A/G/)":4321,"g>a":4322,"▁Aaf":4323,"▁dBeB":4324,"▁GBdf":4325,"▁d>^cd":4326,"▁(gb)":4327,"0<br>M:6/8<br>K:F":4328,"▁(DG)":4329,"▁.!fermata!PMTuCOM":4330,"maj7\"":4331,"h\"":4332,"{BA}":4333,"▁B=G":4334,"▁^c/":4335,"▁egd":4336,"▁!fermata!A2":4337,"▁f>ec":4338,"D]SOSOO":4339,"▁[cE]2":4340,"▁g2B2":4341,"▁cAAe":4342,".f.e":4343,"▁X:1<br>L:1/16<br>M:3/4<br>K:D":4344,"ndant":4345,")A":4346,"▁E2\"D\"":4347,"▁E2A2":4348,"▁AG^F":4349,"▁C>B,":4350,"▁(3(Bc":4351,"▁Bgfg":4352,".A2":4353,"▁{e}":4354,"▁[fd]":4355,"▁[GG,":4356,"▁(g/a/)":4357,"he":4358,"▁d{e}":4359,"▁e^fg":4360,"▁B2Bd":4361,"▁A/d/":4362,"▁ge^c":4363,".C":4364,"▁B\"D7\"":4365,")(BA)":4366,"▁EDB,A,":4367,"▁G>AB>G":4368,"▁DFB":4369,"▁G>FG":4370,"0<br>M:12/8<br>K:":4371,"7/8<br>K:":4372,"▁c=Bc":4373,"▁G2Bd":4374,"▁=cB":4375,"▁|{ag}":4376,"▁DCDE":4377,"▁X:1<br>L:1/8<br>Q:1/4=20":4378,"\"G/B\"":4379,"^AB":4380,"▁c2>d2":4381,"▁cAcd":4382,")(AF)":4383,"▁b2b2":4384,"▁!tenuto!":4385,"▁A>Bc>A":4386,"▁X:1<br>L:1/16<br>Q:1/4=8":4387,".e2":4388,"=c/":4389,"▁d2{e}":4390,"▁eaec":4391,"▁X:1<br>L:1/8<br>Q:1/8=30":4392,"▁g2a2":4393,"▁A,DD":4394,"e2d2":4395,"▁D/C/":4396,"▁X:1<br>L:1/16<br>M:2/4<br>K:Bb":4397,".G.G":4398,"=ef":4399,"▁dB/d/":4400,"▁[f":4401,"\"^D\"":4402,"▁(3(DEF)":4403,"▁ABdB":4404,"▁c<a":4405,"▁B>cA":4406,"D]4":4407,"]d":4408,"▁fddB":4409,"Bdc":4410,"\"^3\"":4411,"▁=cd":4412,"▁GEEG":4413,"▁DFE":4414,"▁(F/E/)":4415,"▁(a/g/)":4416,"\"F#\"":4417,"s:\"":4418,"▁a^":4419,"▁bege":4420,"▁BGBc":4421,"▁GEEF":4422,"▁afdB":4423,"▁(gfed)":4424,"▁gfdB":4425,"▁X:1<br>L:1/8<br>Q:1/4=120<br>M:6/8<br>K:G":4426,"ze":4427,"▁B{c}":4428,")(ef)":4429,"{gde}":4430,"▁!fermata!c2":4431,"\"^(G)\"":4432,"▁E<E":4433,"▁=f3":4434,"b)\"":4435,"▁Eee":4436,"▁AFdB":4437,"▁AB=c":4438,"▁egce":4439,"{gAGAG}":4440,"{g}f":4441,"▁c<F":4442,"▁[EA":4443,"▁d>edB":4444,"▁X:1<br>L:1/8<br>Q:1/4=120<br>M:2/2<br>K:G":4445,"▁BB/A/":4446,"▁C>C":4447,"▁fdBc":4448,"▁ms\"":4449,"I\"":4450,"▁[F,":4451,"▁!>!g2":4452,"C/G\"":4453,"0<br>M:2/2<br>K:C":4454,"▁(dc)BA":4455,"0<br>M:3/4<br>K:C":4456,"▁X:1<br>L:1/8<br>M:12/8<br>K:G":4457,"▁F/G/A/F/":4458,"▁:|2\"D7\"":4459,"\"_g\"":4460,"▁a/f/":4461,"▁F>GA>B":4462,"▁[Af]2":4463,"▁|{gcd}":4464,"▁fdAG":4465,"F/C\"":4466,"][Ae":4467,"▁vd":4468,"▁^F3":4469,"▁X:1<br>L:1/4<br>Q:1/4=120<br>M:3/4<br>K:":4470,"\"Fm\"":4471,"CA,":4472,"Variation":4473,"vb\"":4474,"▁Aee":4475,"▁eAB":4476,"▁c2Ac":4477,"▁e2fe":4478,"▁!fermata!e":4479,"\"_e\"":4480,"▁fecB":4481,"▁G2G2G2":4482,"][GE]":4483,"▁e>^d":4484,"▁gBfB":4485,"{G}A":4486,"▁a2e2":4487,"\"_Fine\"":4488,")(fg)":4489,"▁(F>G)":4490,"20<br>M:4/4<br>K:G":4491,"▁(3b":4492,"▁f2{g}":4493,"▁B,DF":4494,"▁\"^W":4495,"▁D/E/F":4496,"▁[GE]":4497,"<br>M:2/4<br>K:G":4498,"▁(3(fgf)":4499,"a/4":4500,"▁cAFG":4501,"▁G>FE":4502,"<E":4503,"▁1":4504,"D\"Em\"":4505,"▁f4-":4506,"▁vA":4507,")B":4508,"b>a":4509,"▁ccd":4510,"▁CG":4511,"▁fdfg":4512,"▁FAAc":4513,"▁eca":4514,"▁(dA)":4515,"▁A<FF":4516,"\"_d\"":4517,"▁(c<e)":4518,"▁eAAA":4519,"m/F\"":4520,"▁part":4521,"▁cece":4522,"▁aeg":4523,"▁a2af":4524,"▁d>cA":4525,"▁DFG":4526,"▁Bgg":4527,"▁a/g/f":4528,"B/c/d/)":4529,"▁[Ge":4530,"Ge":4531,"▁(3Bc":4532,"▁g2{a}":4533,"▁C8":4534,"▁G3)":4535,"▁(3(c":4536,"▁(3(edc)":4537,"\"Ab7\"":4538,"c'd'":4539,"▁bgd":4540,"▁F>EF":4541,"▁X:1<br>L:1/16<br>Q:1/8=1":4542,"▁fa/f/":4543,"F/)":4544,"▁FDFG":4545,"B2\"":4546,"▁Bdgb":4547,"Chorus\"":4548,".A/":4549,"^a":4550,"d-":4551,"r\"":4552,"▁X:1<br>L:1/8<br>M:4/4<br>K:E":4553,"▁|{ef}":4554,"▁d>Bd":4555,"ba>g":4556,"0<br>M:2/2<br>K:A":4557,"f>A":4558,"▁dde":4559,"▁c>g":4560,"▁ega":4561,"G2)":4562,"▁|\"^*\"":4563,"▁ue2":4564,"▁B,DGB":4565,"▁(c/B/A)":4566,"▁A,DFA":4567,"\"Db\"":4568,"[Q:1/8=160]":4569,"▁(A<F)":4570,"▁f2fe":4571,"D\"A7\"":4572,"\"^T":4573,"▁|\"Am7\"":4574,"▁dgga":4575,"▁!fermata!g2":4576,"▁d'b":4577,"▁f>de>c":4578,"urn":4579,"DB,":4580,"zB":4581,"▁G2GG":4582,"▁(3BGB":4583,"▁(3fff":4584,"▁F/D/":4585,"d]":4586,"▁ee/f/":4587,"▁c2cA":4588,"▁Addd":4589,"▁(d>":4590,"F#/":4591,"{/d}":4592,"3/8]":4593,"▁EFDE":4594,"][ge":4595,"▁EGDE":4596,"▁X:1<br>L:1/4<br>M:4":4597,"▁gfdf":4598,"▁X:1<br>L:1/8<br>M:2/2<br>K:Amix":4599,"e/f/g/)":4600,"▁GB,":4601,"▁E-":4602,"▁|:\"Gm\"":4603,"▁:|2\"A7\"":4604,"GEG":4605,"▁!fermata!D":4606,"▁B>BB":4607,"a^g":4608,"▁o":4609,"▁E>e":4610,"▁c2cB":4611,"▁e2\"D\"":4612,"▁AGF\"G\"":4613,"▁fda":4614,"▁^c/d/":4615,")(de)":4616,"▁X:1<br>L:1/8<br>M:3/4<br>K:Emin":4617,"\"_f\"":4618,"▁|[M:6/4]":4619,"▁F,F,":4620,".d.c":4621,"▁mod":4622,"Reel.\"":4623,".B2":4624,"33":4625,"▁d^cA":4626,"▁GB/c/":4627,"fg>e":4628,"▁BdA":4629,"▁AdFA":4630,"▁dAdf":4631,"▁(ga":4632,"▁(gd)":4633,"▁(e4":4634,"a/g/f/)":4635,"▁(e/f/g)e":4636,"▁g^fga":4637,"CB,":4638,"▁ddc":4639,"▁A/)":4640,"▁faab":4641,"▁BEF":4642,"▁gege":4643,"▁bc":4644,"▁^cde":4645,"▁dgB":4646,"▁(a>g)":4647,"{/e}":4648,"A>d":4649,"phr":4650,"▁B=c":4651,"▁Eg":4652,"▁DG,":4653,"▁DBB":4654,"/4B/4":4655,"▁feef":4656,"][Q:1":4657,"{d}G":4658,"▁EA,CE":4659,"\"^(A7)\"":4660,"▁\"^With":4661,"▁FB,":4662,"▁FE/D/":4663,"▁EF/E/":4664,"D\"C\"":4665,"▁GBEG":4666,"{ed}":4667,"/g/)":4668,"~\"":4669,"▁Aed":4670,"▁e>G":4671,"▁(!>!":4672,"▁A,B,C":4673,").E":4674,"▁GEDG":4675,"Amin]":4676,"▁EFAc":4677,"▁[Ec]":4678,"▁X:1<br>L:1/8<br>Q:1/8=232<br>M:4/4<br>K:G":4679,"▁dB/c/":4680,"▁c2ec":4681,"▁ABB":4682,"][A":4683,"▁!fermata!g":4684,"▁{f}":4685,"▁(e/d/c/B/)":4686,"▁\"^Andant":4687,"▁modal\"":4688,"sp":4689,"▁d\"A7\"":4690,"▁ABdA":4691,"▁B<GG":4692,"▁X:1<br>L:1/8<br>Q:1/4=7":4693,"▁\"_vb\"":4694,"▁BFDF":4695,"▁acA":4696,"▁f2fg":4697,"▁fdBG":4698,"▁egdc":4699,"▁GEGA":4700,"▁e>de>f":4701,"▁d>ed>B":4702,"▁A,B,CD":4703,"▁X:1<br>L:1/16<br>M:3/4<br>K:G":4704,"g/e/)":4705,"▁:|[K:D]":4706,"ABc":4707,"f!":4708,"▁fBde":4709,"▁gg/g/":4710,"▁d2dB":4711,"▁G2D2":4712,"▁a2(":4713,"▁C>F":4714,"\"^d\"":4715,")(AB)":4716,"A,D":4717,">D)":4718,"▁(f<d)":4719,"▁::[K:C]":4720,"▁dEcE":4721,"▁C,4":4722,"▁X:1<br>L:1/8<br>Q:1/8=180<br>M:6/8<br>K:G":4723,"▁G>^F":4724,"▁eeee":4725,"▁eF":4726,"▁(!fermata!":4727,"/4d/4":4728,"▁^FA":4729,"▁dffe":4730,"▁fafe":4731,"0<br>M:4/4<br>K:Emin":4732,"E/F/)":4733,"][df]":4734,"z2":4735,"▁edec":4736,"▁B,6":4737,"▁|{de}":4738,"▁=cBc":4739,"▁e/f/g/a/":4740,"^fa":4741,"▁aB":4742,"▁cedf":4743,"▁(3fef":4744,"▁A,/A,/":4745,"▁Te4":4746,"▁a>fd>f":4747,"e>A":4748,"▁dd/c/":4749,"▁(cBA":4750,"▁|\"^c":4751,"▁Te>d":4752,"FD]":4753,"▁G^FG":4754,"=ge":4755,"▁EcB":4756,"▁d2\"A\"":4757,")(fe)":4758,"▁[BD]2":4759,"ugge":4760,"▁(3(BcB)":4761,"=B,":4762,"▁GB/d/":4763,"▁dBBB":4764,"▁cBA2":4765,"▁dfef":4766,"▁cdea":4767,"▁(f>g)":4768,"▁^c4":4769,"▁[dF]2":4770,"▁(F/G/A)":4771,"▁GDE":4772,"▁(_":4773,"▁c2a2":4774,"▁a2A2":4775,"\"^d":4776,"▁c>AF>A":4777,"▁d<c":4778,"▁d>ef>e":4779,"▁a^gab":4780,"▁[FD]2":4781,"g>B":4782,"▁d\"G\"":4783,"▁B2\"A\"":4784,"▁g2>a2":4785,"▁E2F2":4786,"▁efgb":4787,"abg":4788,"▁|\"^>\"":4789,"▁|\"_c\"":4790,"▁[fA]2":4791,"▁a/a/a":4792,"(M":4793,">E,":4794,"▁(B>A":4795,"▁^c>d":4796,"▁c>Bc>d":4797,"▁Tc4":4798,"▁(3(cde)":4799,"uggest":4800,"=fe":4801,"C}":4802,"dit":4803,"{GA}":4804,"▁cc/B/":4805,"▁E>B":4806,"▁::\"F\"":4807,"ag>f":4808,"▁|]\"^":4809,"▁X:1<br>L:1/8<br>Q:1/4=18":4810,"▁GDGB":4811,"▁(A/G/":4812,"C,,]":4813,"FG}":4814,"▁(E/":4815,"▁AdcB":4816,"an\"":4817,"-\"":4818,"B]2":4819,"▁DD/D/":4820,"▁G2BG":4821,"▁dBec":4822,"▁f<af":4823,"▁Cc":4824,"▁d3)":4825,"▁Ta2":4826,"▁ea{b}":4827,"▁[BG,]":4828,"▁:|[K:G]":4829,"▁X:1<br>L:1/8<br>Q:3/8=100<br>M:6/8<br>K:G":4830,"▁(BA)(GF)":4831,".f2":4832,"<f)":4833,"▁e=d":4834,"▁fF":4835,"▁BABA":4836,"▁^AB":4837,"▁deed":4838,"▁g4-":4839,"0<br>M:4/4<br>K:Bb":4840,"▁(3(gag)":4841,"/c'/":4842,"▁:|\"B\"":4843,"▁fddg":4844,"▁a>ec":4845,"▁uf":4846,"g/a/)":4847,"▁|:[K:D]":4848,"▁A,>C":4849,"▁|{cd}":4850,"▁cAAd":4851,"CD)":4852,"{/g}":4853,"▁.d2(":4854,"G>E":4855,"▁A^F":4856,"▁B>f":4857,"▁f8":4858,"▁a=g":4859,"▁f2df":4860,"▁:|2\"Dm\"":4861,"▁!>!e":4862,"▁F<F":4863,"\\n":4864,"f'":4865,"ive":4866,"▁F-":4867,"▁|\"C":4868,"▁f2fd":4869,"▁bfdB":4870,"▁B/)":4871,")(BG)":4872,"▁A<D":4873,"D.S":4874,"▁B,/C/":4875,"▁X:1<br>L:1/16<br>Q:1/4=120<br>M:2/4<br>K:":4876,"orial":4877,"uggestion":4878,"/3":4879,"▁ab/a/":4880,".B.A":4881,".D":4882,"B3":4883,"▁Ggf":4884,"▁(C2":4885,"▁A2FA":4886,"▁g2eg":4887,"▁BAdB":4888,"▁FAGE":4889,")(cB)":4890,"▁feed":4891,").D":4892,"▁baga":4893,"▁Bgfe":4894,"▁X:1<br>L:1/8<br>Q:1/4=6":4895,"#dim\"":4896,"g>d":4897,"turn":4898,"z/":4899,"▁g2gf":4900,"EDE)":4901,"B,E":4902,"▁DFED":4903,"20]":4904,">g/":4905,"G#\"":4906,"▁FBd":4907,"▁B2GB":4908,"▁de^f":4909,"▁eABA":4910,"▁X:1<br>L:1/8<br>M:2/4<br>K:Emin":4911,"▁eEE":4912,"▁d2F2":4913,"▁!fermata!e2":4914,"<br>M:4/4<br>K:G":4915,"{/c}":4916,"▁Tc3":4917,"▁A>GF>E":4918,"[Q:1/8=180]":4919,"▁C<E":4920,"CF":4921,"▁cefg":4922,"▁a-":4923,"▁\"Bb":4924,"▁AGAF":4925,"c2)":4926,"][Bd":4927,"abc'":4928,"▁!>!A2":4929,"▁uc":4930,".c.c":4931,"dcB":4932,"▁B2dB":4933,"▁de=f":4934,"▁afcA":4935,"FDF":4936,"a/f/)":4937,"▁X:1<br>L:1/16<br>Q:1/4=9":4938,"▁[Bd]2":4939,"▁X:1<br>L:1/8<br>Q:1/4=120<br>M:3/4<br>K:G":4940,"▁[gB]2":4941,"\"D/F#\"":4942,"▁BA)":4943,"▁dce":4944,"▁eggf":4945,"▁G/^F/":4946,"▁(dcBA)":4947,"B,/C/":4948,"▁[dG,":4949,"▁A,B,DE":4950,"G]4":4951,"▁BG\"D\"":4952,"▁dBGE":4953,"▁fdg":4954,"▁bgfg":4955,"▁c>ed":4956,".B.B":4957,"none<br>K:":4958,"▁e>cA>c":4959,"-)":4960,"7/4":4961,"A>G":4962,"Ba":4963,"In":4964,"[D":4965,"▁B,>C":4966,"▁fe^d":4967,"▁\"^Quick\"":4968,"▁GdBd":4969,"▁B2G2G2":4970,"/d/)":4971,"Ab":4972,"D]3":4973,"▁d\"C\"":4974,"▁Bege":4975,"▁D^C":4976,"▁A2Ac":4977,"▁:|\"D\"":4978,"▁|1\"Dm\"":4979,").b":4980,"▁[Ac]":4981,"▁X:1<br>L:1/8<br>Q:1/4=120<br>M:6/8<br>K:D":4982,">E/":4983,"is":4984,"▁Ac/d/":4985,"▁GEFG":4986,"▁BAdA":4987,"▁|:\"D7\"":4988,"EG)":4989,"▁[EC]2":4990,"\"C#7\"":4991,"{c'}":4992,"▁d2\"^":4993,"▁e/f/e/":4994,"▁gecd":4995,"▁X:1<br>L:1/8<br>Q:1/8=120<br>M:2/4<br>K:":4996,"▁c>AB>G":4997,"▁AEAc":4998,"▁cfaf":4999,"▁fcec":5000,"Bb]\"Bb\"":5001,"▁X:1<br>L:1/16<br>M:4/4<br>K:C":5002,"▁Capo\"":5003,"zc":5004,"{fe}":5005,"▁dBcd":5006,"▁A\"D\"":5007,"▁A=F":5008,"▁caa":5009,"▁c2de":5010,"▁F/E/D/":5011,"▁DGGB":5012,"▁[DA]":5013,"▁efdf":5014,"▁Ggg":5015,"▁CDEC":5016,")g":5017,"▁B^G":5018,"▁|\"C#7\"":5019,"▁and":5020,"▁(3d/e/f/":5021,"▁[dA":5022,"▁CEE":5023,"F>G":5024,"F>E":5025,"a3":5026,"▁cFAc":5027,"▁a2>f2":5028,"▁GBFB":5029,"▁G,,":5030,"▁(3FEF":5031,"▁(D>E)":5032,"▁(a3":5033,".g/":5034,"dG":5035,"▁c2f2":5036,"▁|:\"Bb\"":5037,"▁Adfe":5038,"egf":5039,"▁(3(EFG)":5040,"▁\"^9\"":5041,"▁d>D":5042,"▁eAAG":5043,"m/Bb\"":5044,"d>A":5045,"zG":5046,"▁AAG":5047,"▁cefe":5048,"▁|:\"Bm\"":5049,"▁(de/f/)":5050,"▁(Be)":5051,"0<br>M:4/4<br>K:Amin":5052,"▁=F4":5053,"(Bc)":5054,"3/4][K:":5055,"▁AEF":5056,"▁D2FA":5057,"D\"D\"":5058,"▁X:1<br>L:1/4<br>Q:1/2=":5059,"▁A>GA>B":5060,"▁[M:6/8][K:G]":5061,"▁(A3/2":5062,"▁BAG^F":5063,"b/Eb\"":5064,"▁[K:G]\"G\"":5065,"ud":5066,"▁dori":5067,"d/^c/":5068,"][GB":5069,"▁b2)":5070,"▁A<f":5071,"▁.e(":5072,"▁eg/e/":5073,"▁g8":5074,"▁G2\"D\"":5075,"▁b>b":5076,"▁B,EE":5077,"▁(3(b":5078,"▁C2)":5079,"▁d<BB":5080,"▁version":5081,"▁G,B,DG":5082,"Dmix":5083,"▁b>f":5084,"▁AF/G/":5085,"▁\"^F":5086,"g2)":5087,"▁_B4":5088,"rett":5089,"▁(G/A/B)":5090,")c":5091,"▁e{g}":5092,"▁A2AA":5093,"▁cA^F":5094,"▁dBfd":5095,"▁GAAG":5096,"▁Bddd":5097,"▁(eA)":5098,"▁f/g/a/g/":5099,"(3Bcd":5100,"A/A/A":5101,"▁\"^Moderate":5102,"▁Fdd":5103,"▁cAEA":5104,"▁[GB]3":5105,"▁^G3":5106,"▁[BD]":5107,"▁suggestion":5108,"No":5109,"▁n":5110,"▁eBd":5111,"▁b>c'":5112,"▁dBBg":5113,"G/A/B/":5114,"▁ecef":5115,"▁A/^G/":5116,"{d}c/":5117,"▁[K:F]":5118,"risk\"":5119,">BA":5120,"▁|!f!":5121,"▁cc/d/":5122,"▁dBBc":5123,"▁egcg":5124,"▁ceeg":5125,"{gdc}":5126,"▁(3(GFE)":5127,"b/F\"":5128,"▁!>!c":5129,"<g)":5130,"▁ddB":5131,"▁gde":5132,"▁gefe":5133,"▁(3efd":5134,"▁(3cAc":5135,"▁g2ge":5136,"▁X:1<br>L:1/8<br>M:6/4<br>K:":5137,"▁A3)":5138,"▁eccB":5139,"{e}B":5140,"▁X:1<br>L:1/8<br>M:2/2<br>K:Gmin":5141,"▁g>fg>e":5142,"▁Afd":5143,"▁cGG":5144,"▁:|\"C\"":5145,"▁|1\"A7\"":5146,"\"^2\"":5147,"▁(3Ace":5148,"DE}":5149,"▁|\"^29\"":5150,"G]3":5151,"▁Ddc":5152,"▁d2\"C\"":5153,"▁f2>g2":5154,"▁(Ad":5155,"B2A2":5156,"▁[AD,":5157,"▁[DA":5158,"▁A>BAF":5159,"▁(gf)ed":5160,"▁fcAF":5161,"▁(ef/g/)":5162,"\"^(A)\"":5163,"▁dorian\"":5164,"=e/":5165,"▁cC":5166,"▁(DE":5167,"▁BAcB":5168,"▁=ef":5169,"GFG)":5170,"▁E/F/G/A/":5171,"▁B,/B,/":5172,"▁(g/f/e/d/)":5173,"90<br>M:6/4<br>K:":5174,"▁A2E2":5175,"▁e2{g}":5176,"▁edA":5177,"▁|{E}":5178,"▁c<c":5179,"ing\"":5180,"▁FDDA":5181,"▁E,3":5182,"▁X:1<br>L:1/8<br>M:3/4<br>K:Gmin":5183,"▁^f3":5184,"▁TB4":5185,"G-":5186,"^CD":5187,"▁GDD":5188,"▁EBE":5189,"▁A2D2":5190,"▁e2ce":5191,"/4f/4":5192,"FA]":5193,")(af)":5194,"▁AcGE":5195,"▁eAe":5196,"▁gbe":5197,"▁X:1<br>L:1/8<br>Q:3/8=110<br>M:6/8<br>K:G":5198,"▁(e<g)":5199,"▁d>Bc>A":5200,"▁|\"G/D\"":5201,"▁bee":5202,"▁ecBd":5203,"▁(AB/c/)":5204,"▁\"^L":5205,"▁!>!f":5206,"▁A2BA":5207,"▁||\"A\"":5208,"▁BdgB":5209,"▁FAcf":5210,"f2)":5211,"▁\"^tr\"":5212,"▁d>b":5213,"▁ECCE":5214,"▁||[K:D]":5215,"▁[FD]":5216,"A-":5217,"▁c_":5218,"▁A2>c2":5219,"▁g2ag":5220,"▁_d":5221,"▁c>de>c":5222,"▁bafe":5223,"▁E>FG>A":5224,"▁ecea":5225,"▁[ee]":5226,"rio\"":5227,"▁\"Db\"":5228,"bc'":5229,"cD":5230,"ro\"":5231,"▁ccB":5232,"▁FG/A/":5233,"▁(3B,":5234,"▁\"F#\"":5235,"▁BG/B/":5236,")(T":5237,"CEC":5238,"▁fddA":5239,"▁ffff":5240,"▁X:1<br>L:1/4<br>Q:1/8=":5241,"▁.d.d":5242,"▁(3DFA":5243,"▁(3:2:4":5244,"▁a/b/a/g/":5245,"▁X:1<br>L:1/4<br>M:4/2<br>K:":5246,"▁g2ga":5247,"fga":5248,"▁B,>E":5249,"▁ED/E/":5250,"▁GBE":5251,"▁FECE":5252,"▁gdfd":5253,"▁gdcB":5254,"▁G>GG":5255,"▁D6-":5256,"c/A/)":5257,"▁g/f/e/f/":5258,"$\"":5259,"Cmin":5260,"a>c":5261,"▁d2D2":5262,"▁BGFD":5263,"a/)":5264,"▁C2-":5265,"▁(B<G)":5266,"▁Ggfe":5267,"▁[cE]":5268,"▁dafa":5269,"▁d2\"G\"":5270,"▁|:\"^B\"":5271,"▁|1\"D7\"":5272,"▁AF/A/":5273,"▁gfe^d":5274,"▁bgbg":5275,"▁gdec":5276,"▁!fermata!B2":5277,"▁c>AA":5278,"▁(G>F)":5279,"▁(B/c/d":5280,"▁(3(ded)":5281,"▁d>BA>F":5282,"\"^fine\"":5283,"!tenuto!":5284,"▁:|\"G\"":5285,"▁(3c/":5286,"AAA)":5287,"▁|{AB}":5288,"▁\"^m":5289,"▁dABc":5290,"▁(B3/2":5291,"▁e/f/e":5292,"▁F/G/AF":5293,"▁AecA":5294,"[Q:1/8=":5295,"▁d2>f2":5296,"▁A2GF":5297,"▁dgfa":5298,"\"^(G":5299,"▁Aaga":5300,"▁{A}":5301,"▁e\"G\"":5302,"▁e=c":5303,"▁ccA":5304,"▁|]\"^B\"":5305,"▁=d2":5306,"▁ABAB":5307,"▁(c3/2":5308,"▁BgdB":5309,"▁b/a/g":5310,"ditorial":5311,"ic\"":5312,"qu":5313,"▁FdF":5314,"▁d2\"A7\"":5315,"▁c2>A2":5316,"▁BAAA":5317,"▁DEDC":5318,"▁X:1<br>L:1/8<br>Q:1/8=180<br>M:6/8<br>K:D":5319,"<br>M:2/2<br>K:G":5320,"(ed)":5321,"E/4":5322,"▁=fe":5323,"▁TBA":5324,"▁eABc":5325,"▁BEdE":5326,"▁dAcA":5327,"▁ug":5328,"\"^(B":5329,"▁X:1<br>L:1/8<br>Q:1/8=120<br>M:6/8<br>K:G":5330,")f":5331,"3/4":5332,"▁BBc":5333,"▁FE/F/":5334,"▁g2>e2":5335,"▁X:1<br>L:1/8<br>M:4/4<br>K:Gdor":5336,"▁c/d/ec":5337,"▁B6-":5338,"▁::[K:F]\"F\"":5339,".f.g":5340,"▁Aaag":5341,"▁[dF]":5342,"\"^(D7)\"":5343,"ast\"":5344,"Slow\"":5345,"▁ec/e/":5346,"▁b>d":5347,")(A/G/)":5348,"▁affa":5349,"\"_a\"":5350,"▁!>!g":5351,"▁[E,":5352,"▁GcEc":5353,"▁AddA":5354,"▁[K:F]\"F\"":5355,".c.A":5356,"▁X:1<br>L:1/8<br>Q:3/8=120<br>M:6/8<br>K:C":5357,"Ddor":5358,"▁cAAF":5359,"A,,":5360,"▁c<d":5361,"^g)":5362,"\"^(C)\"":5363,"ing":5364,"▁X:1<br>L:1/8<br>M:2/2<br>K:Dmix":5365,"▁Dddc":5366,"▁sig":5367,"▁e2ec":5368,"▁A,6":5369,"▁G/)":5370,"gfed":5371,"▁B/c/B":5372,"▁(c6":5373,"Emin]":5374,"▁c/B/c":5375,"▁[AA]":5376,"▁{B}":5377,"▁d\"D7\"":5378,"▁cc/":5379,"▁c2\"G\"":5380,"D\"^":5381,"▁fdeg":5382,"▁B3)":5383,"\"^0\"":5384,"▁|\"^(D":5385,"▁X:1<br>L:1/8<br>Q:1/8=36":5386,"\"A/C#\"":5387,".[":5388,"<D":5389,"ain":5390,"▁f2c2":5391,"fgf":5392,"▁GEGB":5393,"▁(3(AAA)":5394,"▁\"^(E":5395,"{g}d":5396,"m/C\"":5397,"▁(3(cdc)":5398,"D>G":5399,"▁ee/d/":5400,"▁|\"C#\"":5401,"▁.c'":5402,"▁GAB^c":5403,"▁G<c":5404,"▁cGc":5405,"▁_B3":5406,"▁=cAGE":5407,"▁d2f2d2":5408,"▁spirit":5409,"▁X:1<br>L:1/8<br>Q:1/4=120<br>M:2/4<br>K:G":5410,"ul":5411,"▁ff/e/":5412,"▁|\"A/":5413,"▁B2\"D7\"":5414,"▁Bd-":5415,"▁FAAA":5416,"][cE":5417,"▁X:1<br>L:1/8<br>M:2/4<br>K:Amin":5418,"▁fagb":5419,"▁[A,E":5420,">cd":5421,"▁E\"D\"":5422,"▁B2cB":5423,"▁B,>A,":5424,"▁eff":5425,"▁FGAd":5426,"▁A>^GA":5427,"▁f<g":5428,"\"^(F":5429,"▁E,/":5430,")(ga)":5431,"▁A/B/A/F/":5432,"4!":5433,"5/":5434,"{EF}":5435,"▁B\"C\"":5436,"▁(G,":5437,"▁GAFG":5438,"▁aggf":5439,"▁afdA":5440,"▁gbb":5441,"BbB":5442,"▁(G3/2":5443,"▁(E>F)":5444,"\"^4\"e":5445,"▁X:1<br>L:1/8<br>Q:3/8=100<br>M:6/8<br>K:D":5446,"▁|[K:D]":5447,"(ag)":5448,"▁f{g}":5449,"▁g>A":5450,"▁A2{g}":5451,"▁|1\"Bb\"":5452,"▁BcBc":5453,"▁G,C":5454,"▁bgab":5455,"▁ADDE":5456,"▁!fermata!F":5457,"▁(g>a)":5458,"▁f>af":5459,"▁GDEF":5460,"▁(TBA)":5461,"▁C4-":5462,"▁ecdc":5463,"▁TA4":5464,"turn!":5465,"=B)":5466,"▁B2>d2":5467,"][AA":5468,"▁(3(GAB)":5469,"▁BEGE":5470,"▁Beec":5471,"{c}BA":5472,"▁(TA":5473,"▁(ae)":5474,"▁[eG]":5475,"▁X:1<br>L:1/8<br>Q:1/8=232<br>M:4/4<br>K:A":5476,"(T":5477,".g2":5478,"[BG":5479,"▁c2\"D\"":5480,"▁eddB":5481,"▁cA/c/":5482,"▁(FE":5483,"▁a>fg>e":5484,"A,A,A,":5485,"▁[GG,]2":5486,"▁Td3":5487,"▁X:1<br>L:1/8<br>M:3/8<br>K:G":5488,"][Ac]":5489,"▁|[M:5/4]":5490,"_b":5491,"▁A=B":5492,"▁al":5493,"▁D2EF":5494,"▁AFB":5495,"\"^g\"":5496,"▁G,>B,":5497,"▁|[M:9/8]":5498,"▁!>!G2":5499,"▁f<e":5500,"▁X:1<br>L:1/8<br>M:9/8<br>K:Emin":5501,"▁[CE]":5502,"▁of":5503,"▁edg":5504,"▁CFA":5505,"<br>M:3/8<br>K:":5506,"▁cdcd":5507,"▁(AG":5508,"▁|\"Em7\"":5509,"▁Gcec":5510,"▁[D,":5511,"{A}e":5512,"▁(Tc":5513,"▁E/F/GE":5514,"▁fbba":5515,"▁c2A2A2":5516,"▁g>age":5517,"▁G>Bd>B":5518,"d>g":5519,"et":5520,"▁(5":5521,"▁X:1<br>L:1/8<br>M:7/8<br>K:":5522,"A/d/":5523,"▁EDDE":5524,"▁\"^P":5525,"▁g/a/g/":5526,"▁D/G/":5527,"▁d'c'b":5528,"▁e>fd":5529,"▁^F4":5530,"▁^d3":5531,"▁|:[K:F]\"F\"":5532,"▁Eeed":5533,"▁[fA]":5534,"=EF":5535,"▁FF/F/":5536,"▁A2\"D\"":5537,"▁G2>B2":5538,"▁dccB":5539,"▁^GAB":5540,"▁GFDF":5541,"▁efef":5542,"▁EGGA":5543,"▁abge":5544,"▁e>^c":5545,"▁E,E,":5546,"▁d'c'ba":5547,"▁f^g":5548,"▁ba/g/":5549,"▁dBgd":5550,"▁GAA":5551,"▁fed2":5552,")(D":5553,"▁c/)":5554,"▁\"^D":5555,"▁(3ABG":5556,"▁A/A/A/A/":5557,"▁a/g/f/g/":5558,"aea":5559,"0<br>M:2/4<br>K:F":5560,"▁DB,G,":5561,"<br>M:2/4<br>K:D":5562,"▁\"^17\"":5563,"uA":5564,"▁c\"D\"":5565,"▁G2e2":5566,"▁b>e":5567,"▁fedA":5568,"▁(d>c":5569,"d/e/d/":5570,"0<br>M:4/4<br>K:none":5571,"▁bafd":5572,"▁f/e/d/e/":5573,"▁fafa":5574,"0<br>M:2/2<br>K:F":5575,"0<br>M:2/4<br>K:A":5576,"retto\"":5577,".G2":5578,">Bc":5579,"▁(bg":5580,"▁e2>c2":5581,"▁\"G":5582,"▁[bd":5583,"▁FABA":5584,"▁B/>A/":5585,"▁G4)":5586,"▁cBcB":5587,"▁a>^g":5588,"])[":5589,"NB2\"":5590,"▁Gdd":5591,"▁ce/c/":5592,"▁g{a}":5593,"▁(CE":5594,"▁||\"F\"":5595,"▁AFFE":5596,"▁(ABc)":5597,"][G":5598,"▁(3AGA":5599,"▁c<B":5600,"▁f<dd":5601,"▁A>ce>c":5602,"▁(DC)":5603,"▁||\"^C\"":5604,"▁[DF]2":5605,"▁G2FG":5606,"/8][K:":5607,"▁edde":5608,"▁fd\"A7\"":5609,"▁egbg":5610,"▁efgd":5611,"▁deB":5612,"▁GBeB":5613,"▁gceg":5614,"▁D<F":5615,"Ec]":5616,"#7\"":5617,"=GB":5618,"▁Afed":5619,"▁ad'":5620,"▁A2dc":5621,"▁d/e/d":5622,"▁aAa":5623,"▁E6-":5624,"▁[ee]3":5625,"▁X:1<br>L:1/8<br>Q:1/4=120<br>M:2/2<br>K:D":5626,"▁(ag)(fe)":5627,"G4":5628,"▁A\"D7\"":5629,"▁f\"A\"":5630,"▁FBdB":5631,"▁A2cA":5632,"▁|:\"C7\"":5633,"ec\"D\"":5634,"▁AFBF":5635,"▁g/a/g/f/":5636,"▁(EA)":5637,"▁aAgA":5638,"▁X:1<br>L:1/8<br>Q:1/8=24":5639,"▁beef":5640,"▁[M:6/8][K:D]":5641,"8<br>M:3/4<br>K:":5642,"zf":5643,"▁E^F":5644,"▁c2G2":5645,"▁bfdf":5646,"▁a2ga":5647,"▁gfaf":5648,"▁EGBd":5649,"▁_E2":5650,"▁cAAf":5651,"<br>M:4/4<br>K:D":5652,"▁gBaB":5653,"▁{Gdc}":5654,"▁fada":5655,"a>b":5656,"▁-":5657,"▁d=e":5658,"▁BFA":5659,"▁F^":5660,"▁(GE":5661,"▁D,3":5662,"▁(3AB":5663,"▁FAGB":5664,"▁FDFD":5665,"▁geed":5666,"ce]":5667,"cBAG":5668,"b/Bb\"":5669,"▁ua":5670,"▁d>fa>f":5671,"▁[B,G]2":5672,"▁X:1<br>L:1/8<br>M:2/4<br>K:Ador":5673,"▁[Bd]":5674,"▁|{gBd}":5675,"▁b>ag>f":5676,"▁G/A/B/G/":5677,"▁(3cdB":5678,"▁f2af":5679,"▁A,,2":5680,"▁f<B":5681,"▁|\"Dm/F\"":5682,"▁e>fe>d":5683,"▁|{ga}":5684,"▁(e<c)":5685,"/4=100<br>M:6/4<br>K:":5686,"e^c":5687,"▁G2\"D7\"":5688,"▁cAE":5689,"▁:|2\"Bb\"":5690,"▁B,G":5691,")(e/d/)":5692,"c'ba":5693,"▁bgef":5694,"▁(d^c)":5695,"▁[ge]2":5696,"{A":5697,"▁gg/f/":5698,"▁A2{GdGe}":5699,"▁=B,":5700,"▁ceaf":5701,"▁(B6":5702,"▁(g>e)":5703,"▁(G>A":5704,"▁X:1<br>L:1/4<br>Q:1/4=11":5705,"^c/d":5706,"D>F":5707,"▁[fa":5708,"C\"D\"":5709,"▁(dg":5710,"▁e<e":5711,"▁cGBG":5712,"{d}A{e}A":5713,".A.A.A":5714,"▁d/e/f/d/":5715,"1)\"":5716,"2)":5717,"key":5718,"▁A=c":5719,"/4g/4":5720,"▁fdBA":5721,"▁.C":5722,"▁fed\"A\"":5723,"▁dd'":5724,"▁!fermata!E":5725,"▁!fermata!f":5726,"▁d<G":5727,"d')":5728,"0<br>M:6/8<br>K:Bb":5729,"O)\"":5730,"▁cBd":5731,"▁EE/E/":5732,")(GA)":5733,"▁AcFA":5734,"][ee":5735,"▁GBDG":5736,"f2e2":5737,"▁(d>B)":5738,"▁_ed":5739,"▁e>^de":5740,"▁CEGE":5741,"▁dege":5742,"▁C/B,/":5743,"▁A,DFD":5744,"▁TA3":5745,"▁d>fe>d":5746,"▁[dg]2":5747,"uc":5748,"{^c}":5749,"▁Bec":5750,"▁E>d":5751,"▁g2c2":5752,"▁a2d2":5753,"▁(F4":5754,"▁f/e/f":5755,"trath":5756,"▁[GB]4":5757,"▁|:[K:C]\"C\"":5758,"▁cAB^G":5759,"▁gddg":5760,"▁Tf4":5761,"▁g>ed>B":5762,"trathsp":5763,"ak":5764,"▁d\"D\"":5765,"▁(E/D/)":5766,"▁|\"D/A\"":5767,")(ce)":5768,"▁b2>a2":5769,"▁c<ee":5770,"▁d/e/fd":5771,"▁B>^A":5772,"C/E\"":5773,"▁B>GB>d":5774,"▁X:1<br>L:1/4<br>M:3/4<br>K:none":5775,"▁g<d":5776,"▁G>Bd>g":5777,"▁part\"":5778,"trathspey":5779,">^G":5780,"▁2":5781,"▁acc":5782,"▁(3fdf":5783,"BG}":5784,"▁\"^B":5785,"▁g>^f":5786,"▁b/b/":5787,"▁e>Ac>A":5788,".g.g":5789,"▁X:1<br>L:1/8<br>Q:1/8=128<br>M:4/4<br>K:A":5790,"▁afgf":5791,"(fe)":5792,"64":5793,"a4":5794,"▁d2df":5795,"▁d2>d2":5796,"▁g2G2":5797,"▁dfb":5798,"▁(d3/2":5799,"▁AAcA":5800,"▁A<E":5801,"▁^G4":5802,"▁[G,D]2":5803,"▁.B(":5804,"▁.!fermata!PMTCO":5805,"{d}A3/2":5806,"▁(A/B/c)A":5807,"▁e/d/c/d/":5808,"▁|!":5809,"▁fcc":5810,"▁f2A2":5811,"\"^NB\"":5812,"▁AcBc":5813,"▁a4-":5814,"▁AEAB":5815,"▁eaa^g":5816,"(fg)":5817,"-]2":5818,"F,]":5819,"▁GGB":5820,"▁d2{g}":5821,"▁A2AG":5822,"▁B2BG":5823,"▁e2B2":5824,"▁BAG\"D\"":5825,"▁[C,":5826,"▁a2ag":5827,"/2=":5828,"▁dBBG":5829,"20<br>M:3/4<br>K:":5830,"▁cBcG":5831,"▁(BE)":5832,"▁uB":5833,"▁.e.e":5834,"▁=B3":5835,"▁[df]":5836,"▁\"^Moderato\"":5837,"▁F2d2":5838,"][e":5839,"▁dABA":5840,"▁!fermata!f2":5841,"▁(c>d":5842,"▁(Gc)":5843,"▁gggg":5844,"▁AEGE":5845,">b)":5846,"▁[DB]":5847,"▁CEGc":5848,"▁afga":5849,"Key":5850,"▁|!p!":5851,"▁GFA":5852,"▁^FD":5853,"▁egc":5854,"▁GEEE":5855,"c'c'":5856,"▁BEB":5857,"20<br>M:9/8<br>K:":5858,"▁DEFE":5859,"CE]":5860,"▁(f>d)":5861,"▁d>ed>c":5862,"D,/":5863,"▁g>fg>a":5864,"▁|\"^25\"":5865,"▁X:1<br>L:1/4<br>M:2/2<br>K:D":5866,"<br>M:6/8<br>K:D":5867,"▁|{gfg}":5868,">(!":5869,".D.":5870,"=e)":5871,"▁ff/g/":5872,"▁gcc":5873,"▁(d/B/)":5874,"▁|\"G/B\"":5875,"▁c2cc":5876,"▁cAf":5877,"▁BcdA":5878,"▁vc":5879,"▁Gceg":5880,"▁.c(":5881,"▁^GABc":5882,"20<br>M:4/4<br>K:D":5883,"▁babg":5884,"▁c=Bcd":5885,"E>c":5886,"▁|S":5887,"▁e(d":5888,"▁cag":5889,"▁f=e":5890,"▁(cBA)":5891,"▁eAc":5892,"▁fBBc":5893,"{/f}":5894,"▁(edcB)":5895,"▁[dD]2":5896,">)!":5897,"c/4)":5898,"def":5899,"▁eBc":5900,"▁g=":5901,"▁E=":5902,"▁A2ce":5903,"▁B2\"C\"":5904,"fd>B":5905,"▁FAAd":5906,"▁X:1<br>L:1/8<br>M:4/4<br>K:Eb":5907,"ce\"":5908,"f/g/f/":5909,"▁e<cc":5910,"0<br>M:6/8<br>K:Emin":5911,"▁GDGA":5912,"▁||[M:4/4]":5913,"▁X:1<br>L:1/8<br>Q:1/4=120<br>M:4/4<br>K:C":5914,"ery":5915,"▁(d<f)":5916,"▁C/C/C":5917,"▁AB/d/":5918,"▁e!p!":5919,"▁FG/F/":5920,"▁D2(":5921,"▁||\"Em\"":5922,")(b":5923,"▁faed":5924,"▁(dcB)":5925,"▁ADBD":5926,"▁GEDC":5927,"▁fcf":5928,"▁X:1<br>L:1/16<br>Q:1/8=":5929,"▁AcAc":5930,"[GB":5931,"am":5932,"im\"":5933,"▁DBA":5934,"▁DAF":5935,"▁c2dc":5936,"▁a2>b2":5937,"▁CDF":5938,"▁Adce":5939,"▁c/d/c/":5940,"▁|{^":5941,"▁|{D}":5942,"▁[AD]":5943,"▁[FA]3":5944,"▁g>dB>G":5945,"▁=F3":5946,"▁Tf3":5947,"▁EA,A,":5948,"▁Df":5949,"▁(3G,":5950,"▁eaaa":5951,"▁(3dBd":5952,"▁(3d^cd":5953,"▁(e>":5954,"0<br>M:6/8<br>K:Amin":5955,"▁DGGG":5956,"▁e>dc>d":5957,"▁d(e/f/)":5958,"▁Bdfb":5959,"/e/)":5960,"▁X:1<br>L:1/8<br>Q:1/8=150<br>M:2/2<br>K:G":5961,"▁added\"":5962,"▁time":5963,"g]2":5964,"iv":5965,"▁F>c":5966,"▁|\"D/F#\"":5967,"▁a8":5968,"▁|]\"D\"":5969,"▁GBBB":5970,"▁d>edc":5971,"▁EGGF":5972,"▁B<GB":5973,"▁Be^d":5974,"▁(g4":5975,"▁(ed)cB":5976,"▁g>ag>e":5977,"▁X:1<br>L:1/8<br>Q:1/8=128<br>M:4/4<br>K:D":5978,"ay":5979,"▁.c'2":5980,"▁def\"G\"":5981,"▁AdAF":5982,"▁Bcd2":5983,"▁gdde":5984,"C/)":5985,"▁BcAc":5986,"<br>M:2/2<br>K:D":5987,"▁\"^moderat":5988,"24":5989,"^f2":5990,"un":5991,"▁(ED":5992,"▁DAG":5993,"▁F2\"G\"":5994,"▁A,B,D":5995,"▁afcf":5996,"▁cde^f":5997,"fAf":5998,"▁ABGB":5999,"FE}":6000,"B>A)":6001,"▁|:[K:C]":6002,"\"^segno\"":6003,"0<br>M:9/8<br>K:G":6004,"\"^(Em)\"":6005,"A>f":6006,"{=":6007,"▁W":6008,"▁|\"C/G\"":6009,"▁|\"F/C\"":6010,"▁dBdf":6011,"▁(3(Bd":6012,"▁X:1<br>L:1/8<br>Q:1/4=104":6013,"▁.f(":6014,"'e":6015,"(ef)":6016,"(AG)":6017,",,":6018,"Ab\"":6019,"{AG":6020,"▁2\"":6021,"▁c_B":6022,"▁(a/":6023,"▁C\"":6024,")(fa)":6025,"▁A,DF":6026,"▁FDED":6027,"D/F/":6028,"\"_=\"":6029,"b/)":6030,"▁!>!a2":6031,"▁dcAd":6032,"▁fcfa":6033,"▁[Ec]4":6034,"▁f2d2d2":6035,"▁bafa":6036,"▁!fermata!B4":6037,"D.S.":6038,"17\"":6039,"F>B":6040,"[GB]":6041,"^G2":6042,"▁d>a":6043,"G\"Dm\"":6044,"GAc":6045,"▁bged":6046,"F2)":6047,"▁BGGc":6048,"▁(Tg":6049,"▁^cdec":6050,"{/a}":6051,":2:5":6052,"rit.\"":6053,"\"^Segno\"":6054,"9/4<br>K:":6055,"g]":6056,"▁[FB":6057,"A\"D7\"":6058,"▁cBA\"G\"":6059,")(d/c/)":6060,"▁A4)":6061,"▁EAAc":6062,"▁(gf).e":6063,"▁A>BA>G":6064,"▁.f.e":6065,"trathspey.\"":6066,"^e":6067,"▁(FD":6068,"▁BAG2":6069,"▁BGED":6070,"▁=D":6071,"▁=C2":6072,"▁afc":6073,"▁X:1<br>L:1/8<br>Q:1/8=13":6074,"▁d'a":6075,"▁ECA,":6076,"▁EGBe":6077,"▁bafb":6078,"▁(3(bag)":6079,"c>f":6080,"fi":6081,"▁c2ce":6082,"▁e2eg":6083,"▁Bddf":6084,"▁B,3/2":6085,"▁dfcf":6086,"▁X:1<br>L:1/8<br>M:6/8<br>K:E":6087,"{g}e":6088,"▁|\"^4\"":6089,"▁B/A/B":6090,"▁aeef":6091,"▁[M:2/4][K:":6092,".d.e":6093,"▁DB,A,B,":6094,"▁[Ae]":6095,"▁e>cd>B":6096,"lan":6097,"▁Ged":6098,"▁EGAG":6099,"▁f2gf":6100,"▁bfd":6101,"\"^F":6102,"▁|\"^+\"":6103,"▁BEEE":6104,"{c}d":6105,"▁[M:6/8]":6106,"▁[AD,]":6107,"▁(cB)AG":6108,"▁([de":6109,"▁(d/c/)(":6110,"▁d>BA>G":6111,"(FG)":6112,"▁f>ef>g":6113,"!>)!":6114,"^d2":6115,"c>a":6116,"f/4)":6117,"▁{gef}":6118,"▁G2FE":6119,"▁FAdF":6120,"▁gfa":6121,"▁|\"Ab7\"":6122,"e/f/g":6123,"▁X:1<br>L:1/16<br>Q:3":6124,"▁A>BAG":6125,"\"_#\"":6126,"▁(dc).B":6127,"▁DB,A,":6128,"▁E>FA":6129,"▁(d/e/f/g/)":6130,"00":6131,"FED":6132,"▁f\"G\"":6133,"/4A/4":6134,"▁[dd":6135,"▁cA/B/":6136,"▁CFAF":6137,")(eg)":6138,"▁affe":6139,"▁(c>A)":6140,"bar":6141,"{B}A":6142,"▁b/a/g/":6143,"▁!slide![AA":6144,"F#/C#\"":6145,"<c)":6146,"VB\"":6147,"sus":6148,"zg":6149,"▁(.G":6150,"▁E^G":6151,"▁fd/f/":6152,"▁egeg":6153,"][af":6154,"▁B4)":6155,"▁FEC":6156,"▁gded":6157,"▁X:1<br>L:1/8<br>Q:1/4=112":6158,"▁_b":6159,"▁[EC":6160,"▁[K:A]":6161,"▁E>DE":6162,"▁=f4":6163,"▁[AA,]":6164,"▁(3(gfg)":6165,"ively\"":6166,"rot":6167,"▁A\"A7\"":6168,"▁fcd":6169,"▁A2\"D7\"":6170,"▁b<g":6171,"▁|:[M:":6172,"BGE":6173,"\"^I\"":6174,"▁d/>c/":6175,"{g}a":6176,"▁!fermata!D2":6177,"▁(fc)":6178,"▁X:1<br>L:1/8<br>Q:3/8=110<br>M:6/8<br>K:D":6179,"▁(GF)(ED)":6180,"0!":6181,"g/4)":6182,"{FG}":6183,"▁g>G":6184,"▁(B/d/)":6185,"▁(3ece":6186,"GA]":6187,")(Bd)":6188,"▁(dG)":6189,"▁!>!A":6190,"▁B>GG":6191,"\"^(E7)\"":6192,".B)":6193,">D/":6194,"B7\"":6195,"le":6196,"▁gBdB":6197,"▁(^F":6198,"▁(Bcd)":6199,"▁dc'":6200,"▁AGB":6201,"▁::\"Dm\"":6202,"▁AFFF":6203,"▁ecBG":6204,"▁AB=cA":6205,"e2f2":6206,"▁|\"^f":6207,"▁d'>c'":6208,"▁b/c'/":6209,"(ga)":6210,"0<br>M:3/8<br>K:G":6211,"▁\"Bb7\"":6212,"\"D/A\"":6213,"B>e":6214,"EA,":6215,"{^g}":6216,")(df)":6217,"▁c/>B/":6218,"▁e/>d/":6219,"▁(AD)":6220,"][Be":6221,"▁c'af":6222,"▁dede":6223,"▁B/c/d/c/":6224,"▁|\"^s":6225,"▁B<dd":6226,"{a}ge":6227,"▁X:1<br>L:1/4<br>M:4/4<br>K:A":6228,"▁D<d":6229,"▁X:1<br>L:1/8<br>Q:1/4=120<br>M:4/4<br>K:A":6230,"▁CCC":6231,"^CE":6232,"_ed":6233,"version":6234,"▁ga/b/":6235,"▁af/g/":6236,"▁d2\"D\"":6237,"▁[=":6238,"▁dfba":6239,"▁F/E/F/G/":6240,"▁ADED":6241,"▁(gd":6242,"Q:3/8=1":6243,"▁(f4":6244,"{a}gf":6245,"▁[AA]4":6246,"▁|[K:G]":6247,"][DA]":6248,"▁D>AF>A":6249,"▁g>ec>e":6250,"**\"":6251,"1!":6252,"B4":6253,"▁A_B":6254,"▁G2Bc":6255,"/4e/4":6256,"▁dced":6257,"▁cA-":6258,"e/d/c/":6259,"▁B/>c/":6260,"▁Aced":6261,"▁FDA":6262,"▁e/^d/":6263,"▁c'd'":6264,"▁AFDA":6265,"▁F/)":6266,"▁(3gbg":6267,"▁EAGE":6268,"▁[AE]2":6269,"▁f>ed>f":6270,"▁GBGE":6271,"▁::[K:A]":6272,"▁[G,G]":6273,".d.d.d":6274,"{AG}":6275,"▁ffe":6276,"▁FA\"":6277,"▁Ad{e}":6278,"▁fae":6279,"▁fAgA":6280,"▁eAAc":6281,"▁cEBE":6282,"▁A>BA>F":6283,"▁E^DE":6284,"\"_f#\"":6285,")G":6286,"_BA":6287,"{FE}":6288,"▁|{gf}":6289,"▁dba":6290,"▁G\"C\"":6291,"▁A2>A2":6292,"▁f2fa":6293,"▁||\"Am\"":6294,"Bdor":6295,"▁ecG":6296,"][Af":6297,"▁edc\"D\"":6298,"▁|\"^(A":6299,"▁d>efd":6300,"▁X:1<br>L:1/8<br>Q:1/8=11":6301,"▁vg":6302,"C/C/":6303,"dg)":6304,"▁^def":6305,"▁::[K:C]\"C\"":6306,"\\\"\"":6307,"▁(5:2:5":6308,".G/":6309,"t\"":6310,"▁GGF":6311,"▁^df":6312,"▁B,>B,":6313,"▁dAde":6314,"▁GGBG":6315,"▁GGGB":6316,"▁G<A":6317,"▁\"^Andante\"":6318,"▁ea{b}ag":6319,"▁\"^Fast\"":6320,"[df":6321,"_B/":6322,"<b)":6323,"▁aaaa":6324,"▁d2Bc":6325,"▁D2E2":6326,"▁A/>B/":6327,")(E":6328,"▁ceac":6329,"▁G,F,":6330,"▁dgBd":6331,"▁(gb":6332,"▁B/B/B/B/":6333,"▁B>GA>F":6334,"▁version\"":6335,"E][":6336,"f]2":6337,"os":6338,"▁GG/F/":6339,"▁(c'b":6340,"▁|\"C#m\"":6341,"▁f2>d2":6342,"▁D2DE":6343,"▁C>A,":6344,"▁|1\"E\"":6345,"▁FABd":6346,"F/G/)":6347,"▁d4)":6348,"][FD]":6349,"▁G/>A/":6350,"▁c'>a":6351,"▁G,,2":6352,"▁d>cBA":6353,"▁(e>d":6354,"▁(3geg":6355,"▁d/d/d/d/":6356,"▁e)d":6357,"▁[FA]4":6358,"▁[AA]3":6359,"▁A2A2A2":6360,"▁[B,,":6361,"▁(E/F/G)":6362,"▁|[M:2/2][K:G]SOSOO":6363,"][ge]":6364,"▁{G}":6365,"▁(^cd)":6366,"▁Eed":6367,"▁B2cd":6368,"▁dc)":6369,")(GF)":6370,"▁df\"A\"":6371,"▁afb":6372,"aba)":6373,"▁eac":6374,"f/g/e/":6375,"▁^G>A":6376,"▁A^ce":6377,"▁||[K:C]":6378,"▁(3ecA":6379,"▁(f/e/d/c/)":6380,"▁d=cBA":6381,"8<br>M:2/4<br>K:":6382,"▁D>c":6383,"▁DGFG":6384,"▁G2\"C\"":6385,"▁e2\"G\"":6386,"▁F2>G2":6387,"▁a2{g}":6388,"▁AFdA":6389,"▁cdd":6390,"▁agag":6391,"▁^f/g/":6392,"▁!turn!":6393,"▁|\"Bm7\"":6394,"ab}":6395,"▁g/b/":6396,"▁edBg":6397,"▁E<F":6398,".a.g":6399,"__":6400,"_d":6401,"▁d^c/d/":6402,"▁FGB":6403,"▁FdB":6404,"▁DF/A/":6405,"▁cde2":6406,"▁A,F":6407,"▁(3(e":6408,"▁dgba":6409,"Acf":6410,"▁BGGd":6411,"▁(gfe)":6412,"▁[M:3/2]":6413,"▁d>dd":6414,"0<br>M:3/4<br>K:F":6415,"B,C)":6416,"▁(e/d/)(":6417,"▁X:1<br>L:1/8<br>Q:1/8=320<br>M:6/8<br>K:":6418,"▁[DF]":6419,"<A2":6420,"<E)":6421,"▁dag":6422,"▁Az":6423,"▁G2d2":6424,"▁D2>E2":6425,"▁::\"G7\"":6426,"▁Bdcd":6427,"c2B2":6428,"▁|\"Bbm\"":6429,"▁d<BA":6430,"▁Bged":6431,"\"^(C":6432,"▁D<B,":6433,"▁a<d":6434,"▁(dB)(AG)":6435,"▁.!fermata!PMTuCO(M":6436,"][EA]":6437,"(BA)":6438,"BD]":6439,"Fc":6440,"▁dbag":6441,"▁fba":6442,"▁d2d":6443,"▁G2GF":6444,"▁(3FAc":6445,"BcA)":6446,"▁E2(":6447,"▁cAdA":6448,"▁|:\"_":6449,"\"^G":6450,"\"^a":6451,"▁AdFd":6452,"][eg":6453,"▁GBdc":6454,"▁(ea":6455,"DF)":6456,"▁[AD]2":6457,"▁GdBG":6458,"▁[GB,":6459,"▁Tg3":6460,"▁with":6461,"▁\"^(Editorial":6462,"f]":6463,"▁Ecc":6464,"▁aa/a/":6465,"▁A,>A,":6466,"\"Am7\"":6467,"▁GBde":6468,"EGc":6469,"▁_A2":6470,"▁(g>":6471,"▁f>ec>A":6472,"bgb":6473,"▁eBgB":6474,"▁X:1<br>L:1/4<br>M:3/4<br>K:A":6475,"▁degd":6476,"▁B,DG":6477,"▁::[K:F]":6478,"▁e6-":6479,"^f/)":6480,"▁|\"Gb\"":6481,"▁A,CEA":6482,"▁A>Bd>e":6483,"▁g^fe":6484,"▁not":6485,"G^F":6486,"▁B\"A\"":6487,"▁GdB":6488,"▁(efg)":6489,"▁A2A":6490,"▁G2GB":6491,"▁B2{c}":6492,"▁ed/B/":6493,"▁dcec":6494,"▁fd\"G\"":6495,"g/f/e/":6496,"\"^Fine\"":6497,"▁eccc":6498,"GF}":6499,"▁dfce":6500,"▁e>def":6501,"▁BeB":6502,"▁[EA]":6503,"▁cff":6504,"▁(BAGF)":6505,".C.\"":6506,"▁X:1<br>L:1/16<br>Q:3/8=":6507,"/D/":6508,"▁Bd/c/":6509,"▁(c'2":6510,"▁(([":6511,"▁(CD)":6512,"▁:|2\"E\"":6513,"▁c3)":6514,"B2d2":6515,"▁dgge":6516,"▁\"^1\"":6517,"▁c4)":6518,").d/":6519,"▁d/e/d/B/":6520,"▁F<d":6521,"dAd":6522,"▁DB,B,":6523,"{/A}":6524,"▁d>AF>A":6525,"▁DBBA":6526,"▁A>FD>F":6527,"▁[M:2/2][K:G]":6528,"^g2":6529,"pe":6530,"▁d<b":6531,"▁d2a2":6532,"▁ed)":6533,"▁dcdc":6534,"\"^#\"":6535,"\"^u\"":6536,"▁ceBe":6537,"▁B/c/de":6538,"▁B>AF":6539,"▁|[M:3/8]":6540,"▁G/A/G/F/":6541,"▁X:1<br>L:1/4<br>Q:1/8=1":6542,"▁FdAF":6543,"▁X:1<br>L:1/16<br>Q:1/4=6":6544,"▁TA>G":6545,"▁(AF)(":6546,"▁(cBAG)":6547,"A>e":6548,"▁AfA":6549,"▁cfa":6550,"▁fBdf":6551,"▁B2{d}":6552,"▁ed^ce":6553,"▁dBgf":6554,"▁ag^f":6555,"▁FAce":6556,"▁B,,4":6557,"▁egag":6558,"{gd":6559,"▁c'>":6560,"▁gedf":6561,"▁d>cB>c":6562,"▁BGGg":6563,"▁d^cdf":6564,"▁(d/c/B)":6565,"▁[ce]3":6566,"B,A,G,":6567,"▁[Ec]3":6568,"▁(D/E/F)":6569,"▁[Aa]2":6570,"[G,":6571,"▁fcdB":6572,"▁d2b2":6573,"▁B,DD":6574,"▁A/B/c/":6575,"▁ceBd":6576,"▁(3(A/":6577,"▁F/G/F/E/":6578,"\"_>\"":6579,"▁EAAA":6580,"▁fBeB":6581,"b/a/)":6582,"▁(3(FGA)":6583,"▁X:1<br>L:1/8<br>Q:1/4=120<br>M:2/4<br>K:D":6584,"▁e/g/f/e/":6585,"▁X:1<br>L:1/8<br>Q:1/8=80<br>M:4/4<br>K:none":6586,"▁[M:4/4][K:G]":6587,"▁\"^13\"":6588,".d)":6589,"5<br>M:3/4<br>K:":6590,"^A/":6591,"g>b":6592,"▁d^cB":6593,"▁B^d":6594,"▁ec/d/":6595,"▁AGGA":6596,"▁dB^G":6597,"▁agg":6598,"▁c'3/2":6599,"▁\"^T":6600,">D,":6601,"▁G>FG>B":6602,"▁d^cdB":6603,"▁g<g":6604,"▁(fe)dc":6605,"▁e/e/e/e/":6606,"▁(c/B/A/G/)":6607,"▁X:1<br>L:1/8<br>M:3/8<br>K:C":6608,"▁!fermata!c4":6609,"▁A/G/F/G/":6610,"B/4)":6611,"C>E":6612,"▁AAF":6613,"▁Aagf":6614,"▁cc'":6615,"▁CFAc":6616,"▁dedA":6617,"EG]":6618,"▁(cf)":6619,"{e}G":6620,"\"^(a)\"":6621,"{A}GF":6622,"▁X:1<br>L:1/8<br>Q:1/8=28":6623,"▁|\"^(a)\"":6624,"▁A,DDE":6625,"▁Eeef":6626,"▁[Fd]":6627,"[A":6628,"dD":6629,"▁FF/G/":6630,"▁d2{c}":6631,"▁Bddc":6632,"▁^CD":6633,"▁b2ag":6634,"▁d'd'":6635,"^cde":6636,"▁X:1<br>L:1/8<br>M:2/2<br>K:Dmin":6637,"▁g>dB>d":6638,"▁|[M:6/8][K:G]SOSOO":6639,".B.c.d":6640,",][":6641,".c'":6642,"ua":6643,"▁Af/g/":6644,"▁gAA":6645,"▁gce":6646,"▁Fdc":6647,"▁c2>e2":6648,"▁eded":6649,"▁[c'":6650,"▁fd'":6651,"▁:|2[M:":6652,")(GB)":6653,"ce]2":6654,"▁|\"^D":6655,"▁(G6":6656,"0<br>M:6/8<br>K:none":6657,"▁f<c":6658,"▁[M:2/2]":6659,"▁.d.c":6660,"▁b>ga>f":6661,"Dmin]":6662,"▁to":6663,"▁(ba)(gf)":6664,"▁ggf":6665,"▁FBAF":6666,"▁A2e2":6667,"▁D2d2":6668,"▁[bg":6669,"▁a2c2":6670,"▁a2ab":6671,"▁CB,C":6672,"▁=GA":6673,"▁A/>G/":6674,"▁\"^In":6675,"▁dAfd":6676,"▁!fermata!F2":6677,"▁fefe":6678,"▁a>ge":6679,"▁(E4":6680,"{/B}":6681,"▁{ag}":6682,"▁dDFA":6683,"▁c2c2c2":6684,"▁(agfe)":6685,"▁(3EGB":6686,"▁[EG]2":6687,"▁(c/d/e)c":6688,"[A,":6689,"▁AA/G/":6690,"▁Gdc":6691,"▁(3A/":6692,"▁dBf":6693,"▁fd^c":6694,"▁fgfg":6695,"▁ABF":6696,"▁GBeg":6697,"▁AABc":6698,"▁gagd":6699,"▁^FGA":6700,"Gmin]":6701,"▁[Af]":6702,"▁A,/A,/A,":6703,"D.S.!":6704,"=cd":6705,"▁Aec":6706,"▁BBd":6707,"▁F\"G\"":6708,"▁(M":6709,"▁BA^GB":6710,"▁|:\"E\"":6711,"▁|1\"Bm\"":6712,"▁:|2\"G7\"":6713,"F/D/":6714,"AA>B":6715,"▁d/)":6716,"▁G,A,B,":6717,"▁bgfe":6718,"▁edcBAG":6719,"▁DFEF":6720,"▁(fed)":6721,"▁e>AA":6722,"▁X:1<br>L:1/8<br>Q:1/4=100<br>M:2/4<br>K:G":6723,"▁(Bc/d/)":6724,"▁(C3":6725,"▁ue200":6726,"\"^Trio\"":6727,".G)":6728,">^f":6729,"c<e":6730,"▁F2(":6731,"▁E2>F2":6732,"▁[eB":6733,"g/b/":6734,"▁Bc)":6735,"▁AdBA":6736,"▁fea":6737,"▁cB)":6738,"][DB":6739,"▁dABd":6740,"▁fbaf":6741,"\"^C\"\"F\"":6742,"▁(Bc)(dB)":6743,"▁dfga":6744,"'\"":6745,")F":6746,"E>A":6747,"d]2":6748,"▁AA\"":6749,"▁d2>A2":6750,"▁G2\"G\"":6751,"▁edf":6752,"▁E2C2":6753,"▁=E2":6754,"▁egga":6755,"▁A,3/2":6756,"▁FDCD":6757,"▁bga":6758,"▁bgf":6759,"▁gfed\"A\"":6760,"▁ddcB":6761,"▁dGeG":6762,"▁vd2":6763,"▁DEDB,":6764,"Eb]":6765,"B/B/B":6766,"▁G2B2G2":6767,"▁feel":6768,"▁(3:2:1":6769,"▁X:1<br>L:1/4<br>Q:3/4=100<br>M:6/4<br>K:":6770,"▁ue2003":6771,"hak":6772,"▁BC":6773,"▁e=f":6774,"▁gBd":6775,"▁a^f":6776,"▁CFF":6777,"▁fdgd":6778,"▁^cB":6779,"▁gffe":6780,"▁ABc\"D\"":6781,"▁\"^C\"":6782,"▁eAaA":6783,"EGU":6784,"▁edcB\"A\"":6785,"▁(3dBG":6786,"DF]":6787,"▁a>ef":6788,"▁FDDg":6789,"▁G<g":6790,"▁c6-":6791,"▁e'd'":6792,"▁X:1<br>L:1/16<br>M:3/4<br>K:Dmin":6793,"▁\"^Very":6794,"▁g2\"D\"":6795,"▁\"Fm\"":6796,"\"^=\"":6797,"▁GFF":6798,"▁B,)":6799,"B,}":6800,"F\"Gm\"":6801,"B2G2":6802,"▁[EC]":6803,"Bg]":6804,"▁(F/E/":6805,"▁=cAF":6806,"▁G>BA>G":6807,"<D)":6808,"e/4)":6809,"{d":6810,"fe>d":6811,"▁A,>":6812,"▁A,>D":6813,"▁C2E2":6814,"▁|\"^O)\"":6815,"fA]":6816,"▁E<D":6817,"▁X:1<br>L:1/8<br>Q:1/4=100<br>M:2/4<br>K:D":6818,"▁:|[K:C]":6819,"▁FFFF":6820,"▁!fermata!G4":6821,"][Ae]":6822,"hake\"":6823,"^fg)":6824,"{DE}":6825,"▁B2BB":6826,"▁e2>e2":6827,"▁(3D/E/F/":6828,"▁(3EDE":6829,"G\"G7\"":6830,"▁GAE":6831,"▁d'/":6832,"^F}":6833,"▁X:1<br>L:1/16<br>M:2/4<br>K:none":6834,"▁c'2c'2":6835,"▁uA2":6836,"▁(a4":6837,"▁X:1<br>L:1/8<br>M:2/4<br>K:Dmin":6838,"▁D,D,":6839,"▁.G3":6840,"▁X:1<br>L:1/8<br>Q:1/8=120<br>M:6/8<br>K:D":6841,"▁e/f/e/c/":6842,"!D.S.!":6843,"9/8][K:":6844,"as":6845,"▁J":6846,"▁AA/":6847,"▁A=G":6848,"▁cBGB":6849,"▁Edc":6850,"▁F2>E2":6851,"▁cAfA":6852,"\"^B":6853,"▁Bcef":6854,"▁(A>":6855,"▁|{GA}":6856,"▁c>dB":6857,"▁d>eg>a":6858,"▁X:1<br>L:1/8<br>M:6/8<br>K:Ddor":6859,"▁c>AB>c":6860,"▁f/g/f":6861,"▁CEAE":6862,"▁Afcf":6863,"▁g<a":6864,"ion\"":6865,"0<br>M:9/8<br>K:D":6866,"▁X:1<br>L:1/4<br>Q:3/4=90<br>M:6/4<br>K:":6867,"<d2":6868,"=gf":6869,"▁E^D":6870,"▁B2A":6871,"▁e2ee":6872,"▁(3BA":6873,"▁edfe":6874,"▁E2EF":6875,"▁cA)":6876,"▁GFFE":6877,"▁B,G,G,":6878,"▁=A2":6879,"E/B\"":6880,"▁\"^*\"":6881,"▁X:1<br>L:1/8<br>Q:1/8=180<br>M:2/2<br>K:G":6882,"▁a<A":6883,"▁e>fg>a":6884,"▁E>A,":6885,"▁(3(gab)":6886,"B/c/A/)":6887,"▁[Bg]":6888,"▁aAAB":6889,"▁a>ba>f":6890,".c)":6891,"▁Bbag":6892,"▁Dg":6893,"▁(3_":6894,"▁(3ef":6895,"▁(3B/c/B/":6896,"▁|]\"C\"":6897,"▁cdf":6898,"▁FA-":6899,"▁(A<d)":6900,"▁gfe\"D\"":6901,"▁B>AA":6902,"▁DFGA":6903,"▁g>be":6904,"▁dBBe":6905,"dF]":6906,"▁(cB)A":6907,"aca":6908,"{/G}":6909,"▁[dG,]":6910,"▁(fe).d":6911,"▁|[M:2/2][K:D]SOSOO":6912,"▁!>!d4":6913,"(dc)":6914,"G>c":6915,"▁df/e/":6916,"▁b(":6917,"▁a2fa":6918,"▁^E":6919,"▁Adef":6920,"de]":6921,"A,G,":6922,"▁GBBG":6923,"▁gfe2":6924,"▁affd":6925,"▁dgfd":6926,").f/":6927,"▁d>ec":6928,"▁BEcE":6929,"▁X:1<br>L:1/8<br>M:2/4<br>K:Eb":6930,"▁X:1<br>L:1/8<br>M:3/4<br>K:Eb":6931,"▁X:1<br>L:1/8<br>M:6/8<br>K:Gdor":6932,"ress":6933,".a.a":6934,"▁[ca]2":6935,"E>C":6936,"▁|2":6937,"▁BBG":6938,"▁Bfdf":6939,"▁c{d}":6940,"▁A2g2":6941,"▁A2\"A7\"":6942,"▁f2B2":6943,"▁cA\"G\"":6944,"▁AGBA":6945,"▁a2{GdG}":6946,"▁BG-":6947,"aga)":6948,"▁B,F":6949,"▁dfA":6950,"d2c2":6951,"▁c'f":6952,"▁g/^f/":6953,"b/c'/":6954,"E,E,":6955,"▁CB,CD":6956,"▁[eA]2":6957,"Variations:\"":6958,".A)":6959,">ef":6960,"a>d":6961,"▁A\"Em\"":6962,"▁AeA":6963,"▁as":6964,"▁c2{e}":6965,"▁e2dB":6966,"▁[Bb":6967,"▁:|2\"Bm\"":6968,"▁cdfg":6969,"▁dAeA":6970,"▁G>AB>d":6971,"▁X:1<br>L:1/8<br>M:3/4<br>K:Bmin":6972,"▁g>fd":6973,"▁!fermata!a2":6974,"▁(B>d)":6975,"▁B>cB>A":6976,"▁G>FE>D":6977,"(3cBA":6978,"▁X:1<br>L:1/8<br>M:9/8<br>K:A":6979,"▁X:1<br>L:1/4<br>Q:1/4=120<br>M:4/4<br>K:":6980,"▁(GAB)":6981,"▁X:1<br>L:1/8<br>Q:1/8=150<br>M:2/2<br>K:D":6982,",,]2":6983,"▁d\"Em\"":6984,"▁eef":6985,"▁e>E":6986,"▁Gz":6987,"▁:|\"A\"":6988,"▁::\"^C\"":6989,"▁C>":6990,"▁geBe":6991,"▁afdg":6992,"▁GGGA":6993,"c/B/A":6994,"▁[AE":6995,"▁AaA":6996,"▁Aeed":6997,"▁X:1<br>L:1/8<br>Q:1/2=11":6998,"▁X:1<br>L:1/8<br>Q:1/8=128<br>M:4/4<br>K:G":6999,"▁||[M:3/4]\"^B\"":7000,"▁|\"Gm/Bb\"":7001,"=FA":7002,"mf!":7003,"{C}":7004,"▁GcA":7005,"▁(3abc'":7006,"▁^F/":7007,"\"^C":7008,"▁ecfd":7009,"▁Tfe":7010,"▁\"^Reel.\"":7011,"▁DEE":7012,"▁|\"^3":7013,"▁X:1<br>L:1/16<br>M:6/8<br>K:":7014,"d/B/G/":7015,"▁AFEC":7016,"▁E/F/G/E/":7017,"▁(3(AGF)":7018,"▁[GB,]2":7019,"▁[ee]4":7020,"all":7021,"]-)":7022,"▁g>ab>g":7023,"▁D>FA>F":7024,"\"C":7025,"▁A_":7026,"▁f^d":7027,"▁FBc":7028,"▁(3FAF":7029,"▁.D.":7030,"▁ef=g":7031,"▁e3)":7032,"▁FDDD":7033,"▁(3(D":7034,"{g}c/":7035,"▁B>AB>d":7036,"▁X:1<br>L:1/8<br>M:2/4<br>K:Edor":7037,"▁gdgb":7038,"▁ddef":7039,"▁(g<e)":7040,"▁(e>c)":7041,"DFB":7042,"▁d<D":7043,"▁vA2":7044,"▁[BG]3":7045,"▁(BAG)":7046,"▁(G/A/B/c/)":7047,"▁X:1<br>L:1/8<br>Q:3/8=6":7048,"F/E/)":7049,"f/g/a/)":7050,"=c)":7051,"[d":7052,"ter":7053,"▁key":7054,"▁G=":7055,"▁a!p!":7056,"▁A2{B}":7057,"▁AGcG":7058,"▁BGdc":7059,"▁^G/A/":7060,"▁Bcc":7061,").c/":7062,"▁X:1<br>L:1/8<br>M:2/4<br>K:E":7063,"fa}":7064,"▁D/E/F/":7065,"▁f>de":7066,"▁(f>g":7067,"▁(fedc)":7068,"▁eBef":7069,"▁[M:5":7070,"▁(dc)B":7071,"▁g/a/g":7072,"Fd]":7073,"▁DBFB":7074,"{gcd}c":7075,"▁the":7076,"▁Td4":7077,"▁\"^21\"":7078,"(gf)":7079,"7/8]":7080,"<F)":7081,"^C/":7082,"▁DcBA":7083,"▁DDDD":7084,"▁(3EDC":7085,"▁[cc":7086,"▁=B/c/":7087,"▁=ge":7088,"▁efae":7089,"▁EFDF":7090,"▁GBBd":7091,"▁GB\"D\"":7092,"▁|\"Bb/F\"":7093,"▁gb/g/":7094,"▁A>BG":7095,"▁f>b":7096,"▁AECE":7097,"▁A>df>d":7098,"▁[cA][BG]":7099,"▁X:1<br>L:1/4<br>Q:1/4=16":7100,"f>e)":7101,"▁.A3":7102,"▁|\"^(E":7103,"▁A>GF>G":7104,"e/4f/4":7105,"▁D>EF>G":7106,"▁d>^cd>e":7107,"▁AF/G/A":7108,"▁\"^moderate\"":7109,"=b":7110,"fb":7111,"▁d(3":7112,"▁ex":7113,"▁GcBA":7114,"▁Fa":7115,"▁EAF":7116,"▁^fe":7117,")(ba)":7118,"▁ceee":7119,"▁|{^c}":7120,"GG,]":7121,"D/G/":7122,"▁X:1<br>L:1/8<br>M:2/4<br>K:Bmin":7123,"▁ADF":7124,"▁d<A":7125,"tro\"":7126,"▁d>BA>B":7127,"▁X:1<br>L:1/16<br>Q:1/4=100<br>M:2/4<br>K:D":7128,"m6\"":7129,"▁f\"A7\"":7130,"▁F>C":7131,"▁(^c":7132,"▁BAc":7133,"▁d/g/":7134,"▁fecd":7135,"▁GB-":7136,").B/":7137,"▁e>dB>G":7138,"▁(B>c":7139,"▁c/d/c":7140,"▁B>GB":7141,"▁\"^A\"\"C\"":7142,"▁(e/f/g":7143,"B,/A,/":7144,"▁c>cc":7145,"▁(ed).c":7146,"▁B2B2B2":7147,"▁||[M:3/4]\"^C\"":7148,"▁X:1<br>L:1/16<br>M:4/4<br>K:D":7149,"▁[EG]":7150,"▁aefa":7151,"][Bd]":7152,"\"^(F)\"":7153,"(b":7154,"A/4)":7155,"▁e=g":7156,"▁BAd":7157,"▁FADE":7158,"▁GFDE":7159,")(Ac)":7160,"G,,":7161,"▁DFEG":7162,"▁(e3/2":7163,"▁c>=B":7164,"▁BFB":7165,"▁(f/g/a":7166,"▁G>ED":7167,"{gef}e>d":7168,"▁[Dd]":7169,"f/a/)":7170,"\"^DC\"":7171,"▁A,ECE":7172,"▁TE4":7173,"(u":7174,"(AB)":7175,"Ed":7176,"[AA":7177,"am\"":7178,"▁Bff":7179,"▁G2\"F\"":7180,"▁B2>B2":7181,"G/^F/":7182,"\"^P":7183,"\"^a\"":7184,"▁f<ae":7185,"▁d>fa":7186,"▁G/F/G":7187,"▁ceea":7188,"C,/":7189,"▁\"^Strathspey.\"":7190,"▁e>cA>F":7191,"▁X:1<br>L:1/8<br>Q:1/4=120<br>M:2/2<br>K:A":7192,"rog":7193,"▁(3(cBc)":7194,"(g/":7195,"C>D":7196,"^\"":7197,"^DE":7198,"▁daf":7199,"▁B\"Am\"":7200,"▁BB/d/":7201,"▁cFA":7202,"▁F\"A\"":7203,"▁DdB":7204,"▁G2>F2":7205,"▁|:{g}":7206,"▁decA":7207,"▁\"^G":7208,"▁ABdF":7209,"▁BGEC":7210,"▁f>dd":7211,"0<br>M:2/2<br>K:Bb":7212,"▁(EC)":7213,"▁Bdd^c":7214,"▁X:1<br>L:1/8<br>Q:1/4=5":7215,"▁Ggfg":7216,"m/G\"":7217,"▁a>baf":7218,"▁||[K:F]\"F\"":7219,"c/4d/4":7220,"▁EGFD":7221,"▁(AG)(FE)":7222,"▁[dG,,]":7223,"EGUE\"":7224,"[ee":7225,"_a":7226,"▁Quick\"":7227,"▁B\"Em\"":7228,"▁G^":7229,"▁bc'b":7230,"▁CA,A,":7231,"A\"E7\"":7232,"\"^E":7233,"▁GEAG":7234,"▁EDFA":7235,"▁(F>E)":7236,"▁CEC":7237,"{G}c":7238,"▁BDAF":7239,"▁e>gf>e":7240,"A]SOSOO":7241,"▁D,/":7242,"▁B,CDE":7243,"<br>M:2/4<br>K:C":7244,"(G{A}":7245,"▁(b/a/g/f/)":7246,">^d":7247,"em":7248,"|:":7249,"▁gge":7250,"▁(.B":7251,"▁DF/G/":7252,"▁A2\"A\"":7253,"▁(3.A":7254,"▁F2>A2":7255,"▁dcB2":7256,"▁dBF":7257,"▁=FD":7258,"▁dfbf":7259,"▁GEGE":7260,"▁afbg":7261,"▁|\"^1\"":7262,"▁G>ABG":7263,"▁ddfd":7264,"▁(3dfd":7265,"▁X:1<br>L:1/8<br>Q:1/8=6":7266,"▁afea":7267,"▁g>fe>f":7268,"▁\"_Slow\"":7269,"▁(g/f/e)":7270,"C/B,/A,/":7271,"▁[ac]2":7272,"[c":7273,"f<a":7274,"reel":7275,"▁BB,":7276,"▁G\"F\"":7277,"▁cbag":7278,"▁fBbB":7279,"▁e2ge":7280,"▁(3e/f/g/":7281,"▁f2ff":7282,"▁D2>F2":7283,"▁F2ED":7284,"▁cAag":7285,"F\"C7\"":7286,"▁eccA":7287,"▁A/B/c/B/":7288,"c2A2":7289,"▁(Be":7290,"▁Bggf":7291,"▁CEA":7292,"dgd":7293,"▁GBAB":7294,"▁D<GG":7295,".G.A":7296,"▁X:1<br>L:1/8<br>Q:1/4=120<br>M:4/4<br>K:F":7297,"▁(BAB)":7298,"▁BBAA":7299,"▁|:[K:G]\"G\"":7300,"▁(3Bc^c":7301,"][cE]":7302,"'s":7303,".a2":7304,"▁A\"C\"":7305,"▁Bedc":7306,"▁c\"D7\"":7307,"▁fege":7308,"▁f(d":7309,"▁DcB":7310,"▁d2\"Em\"":7311,"▁f2\"A7\"":7312,"▁AF\"G\"":7313,"▁ef^g":7314,"▁BccB":7315,"▁A,A":7316,"▁|\"Ab/Eb\"":7317,"▁!p!":7318,"▁gdeg":7319,"eA]":7320,"▁AAAc":7321,"▁X:1<br>L:1/8<br>Q:3/8=120<br>M:9/8<br>K:":7322,"▁b3-":7323,"▁([FA":7324,"▁Aaec":7325,"▁|1,3\"D\"":7326,"▁(c/B/)(A/G/)":7327,"G/B/)":7328,"▁f^ef":7329,"^ab":7330,"oc":7331,"▁AA,":7332,"▁ez":7333,"▁e^g":7334,"▁ge/g/":7335,"▁EEF":7336,"Bd>B":7337,"<br>M:9/8<br>K:":7338,"▁|]\"G\"":7339,"▁.d)":7340,"▁(A>c)":7341,"▁G/c/":7342,"▁afba":7343,"▁G,6":7344,"▁G,>G,":7345,").e/":7346,"▁abga":7347,"▁A>^c":7348,"▁AGEA":7349,"Bb)\"":7350,"▁uE":7351,"▁GDEG":7352,"▁B,DGA":7353,"▁faga":7354,"▁F6-":7355,"▁[Gc]2":7356,"▁EcGc":7357,"▁a<e":7358,">fg":7359,"F>d":7360,"^F2":7361,"▁A\"A\"":7362,"▁EE/F/":7363,"▁B2F2":7364,"▁c2{d}":7365,"▁cABd":7366,"fdc":7367,"\"^~\"":7368,"▁ecaf":7369,"▁e/^f/":7370,"▁gdgd":7371,"▁A>GE":7372,"▁(G>B)":7373,"D2)":7374,"▁fdd^c":7375,"▁CEAB":7376,"▁\"^A\"\"^":7377,".F.F":7378,"▁bc'd'":7379,"▁[M:4/4][K:D]":7380,"▁X:1<br>L:1/4<br>M:3/2<br>K:G":7381,"▁dd/":7382,"▁G>f":7383,"▁G=F":7384,"▁(a/b/":7385,"▁dBFD":7386,"▁fd/e/":7387,"▁FDGE":7388,"▁GEBG":7389,"▁(3(aba)":7390,"f2d2":7391,"▁A>GAB":7392,"▁vG":7393,"▁eAAe":7394,"▁[EA,":7395,"▁b/g/":7396,"▁DB,DE":7397,"c'/d'/":7398,"{gef}e>c":7399,"^c/)":7400,"▁|]:[K:":7401,"▁(3(dcd)":7402,"▁||[K:F]":7403,">.d)":7404,"▁X:1<br>L:1/8<br>Q:1/4=120<br>M:3/4<br>K:D":7405,"▁::[K:G]\"G\"":7406,"▁suggestion)\"":7407,"▁d^d":7408,"▁B\"":7409,"▁Bz":7410,"▁Gcd":7411,"▁(=f":7412,"▁(c/e/":7413,"▁d2\"D7\"":7414,"▁G2{A}":7415,"▁E2g2":7416,"▁:|2\"Gm\"":7417,"F\"E\"":7418,"egb":7419,"▁gebg":7420,"▁(3(G":7421,"▁!4!":7422,"▁d>cde":7423,"▁ADE":7424,"▁_B,":7425,"▁X:1<br>L:1/8<br>Q:1/8=120<br>M:4/4<br>K:G":7426,"▁c>de>d":7427,"▁(eB)":7428,"▁gabc'":7429,"(3AAA":7430,"\"^(a)":7431,"▁G<F":7432,"▁AcAG":7433,"▁c/c/c/c/":7434,"▁f)d":7435,"▁[G,E]2":7436,"res":7437,"▁A/c/B/A/":7438,"▁B^GE":7439,"▁[ge]":7440,"▁f=efg":7441,"▁[M:2/2][K:D]":7442,"[E":7443,"^f/g/":7444,"press":7445,"▁dAAA":7446,"▁aBgB":7447,"▁edc2":7448,"▁BA^GA":7449,"▁dB\"D\"":7450,"\"^D.C.":7451,"▁gf)":7452,"▁AdAd":7453,"D/f":7454,"▁ddde":7455,"▁(e'":7456,"▁(B/c/dB)":7457,"▁dBcB":7458,"▁(Td":7459,".f.f":7460,"▁d(c/B/)":7461,"▁.A(":7462,"▁EDB,E":7463,"▁TE3":7464,"B-":7465,"pli":7466,"th":7467,"▁e{f}":7468,"▁A2FG":7469,"▁(3.A.A.A":7470,"▁C,3":7471,"ec]":7472,"▁efaf":7473,"▁_b2":7474,"▁!>!F2":7475,"▁CEAG":7476,"▁G<EE":7477,"▁DGG^F":7478,"▁BEEB":7479,"▁[ee]2)":7480,").d.d":7481,"G/F/E/)":7482,"▁X:1<br>L:1/8<br>Q:1/4=140<br>M:4/4<br>K:G":7483,"G/E/)":7484,"'s\"":7485,"5/4<br>K:":7486,"Ag":7487,"▁re":7488,"▁A\"E7\"":7489,"▁EED":7490,"▁E>g":7491,"▁c2E2":7492,"▁f2ga":7493,"▁[Gd":7494,"▁::\"D7\"":7495,"▁|1\"Gm\"":7496,"▁ecf":7497,"▁ec\"D\"":7498,"▁fe)":7499,"▁ge\"D\"":7500,"▁geae":7501,"▁\"^C":7502,"▁|\"Eb/Bb\"":7503,"▁f>ag>f":7504,"▁(3FGE":7505,"▁eAAf":7506,"▁DCB,C":7507,"dFd":7508,"▁Gggf":7509,"▁[ce]4":7510,"▁=G4":7511,"▁(g/f/e/":7512,"da":7513,"ub":7514,"▁AA/c/":7515,"▁cfAf":7516,"▁(^g":7517,"▁(.e":7518,"▁ac'a":7519,"▁c2F2":7520,"▁[b":7521,"▁a2ba":7522,"▁BGGE":7523,"▁^GE":7524,"\"^e\"":7525,"▁fe^de":7526,"▁X:1<br>L:1/8<br>M:6/8<br>K:Eb":7527,"▁GBBA":7528,"▁f/>e/":7529,"▁abc'a":7530,"E2)":7531,"▁vB":7532,"▁([D":7533,"▁gega":7534,"▁e>fe>c":7535,"▁.g.g":7536,"DCB,":7537,"0<br>M:3/8<br>K:C":7538,"▁X:1<br>L:1/8<br>Q:1/2=75":7539,"▁f=ed":7540,"{gdG}":7541,"3)":7542,"gG":7543,"|\"":7544,"▁AB/":7545,"▁cfec":7546,"▁A2>F2":7547,"▁F2GA":7548,")(f/e/)":7549,"or\"":7550,"▁X:1<br>L:1/8<br>M:4/4<br>K:Gmix":7551,"▁B<F":7552,"▁baag":7553,"▁ud2":7554,"▁A>cB>A":7555,"inal\"":7556,"{G}B":7557,"▁bagfed":7558,"▁C,C,":7559,"▁FGFD":7560,"▁B,CDB,":7561,")(FG)":7562,"▁(d/c/)(B/A/)":7563,"^fd":7564,"▁dEE":7565,"▁G\"G\"":7566,"▁fbag":7567,"▁|\"F":7568,"▁F2\"A7\"":7569,"▁a2b2":7570,"▁DEED":7571,"g2f2":7572,"▁X:1<br>L:1/8<br>M:2/2<br>K:Bmin":7573,"▁gbef":7574,"▁gdBc":7575,"▁g>fed":7576,"▁[EB":7577,"▁(AB)cd":7578,"▁.c.c":7579,"▁[db":7580,"▁(a/g/f)":7581,"▁X:1<br>L:1/8<br>Q:1/2=90<br>M:4/4<br>K:G":7582,"▁x2":7583,"▁(B/A/)(":7584,"▁[af]2":7585,"\"^cr\"":7586,"▁\"^Allegro\"":7587,"0<br>M:12/8<br>K:D":7588,"\"^(Bm)\"":7589,"▁feeling\"":7590,".a/":7591,"^c'":7592,"ac'":7593,"▁GcAG":7594,"▁c^c":7595,"▁FFA":7596,"▁F\"A7\"":7597,"▁(B,D":7598,"▁a{b}":7599,"▁e2>g2":7600,"/4G/4":7601,"▁BAeA":7602,"▁AG)":7603,"▁CG,":7604,"BG]2":7605,"F/A\"":7606,"▁GBD":7607,"{g}ed":7608,"▁gfed\"A7\"":7609,"▁c<Ae":7610,"▁BBBA":7611,"▁f>dA>F":7612,"▁f>gf>e":7613,"▁a>ec>A":7614,"▁[EB]2":7615,"▁(ef)ge":7616,".g.f.e":7617,"D,,]":7618,"▁X:1<br>L:1/16<br>M:3/4<br>K:A":7619,"▁[B,D]":7620,"dim":7621,"▁X:1<br>L:1/16<br>Q:1/4=5":7622,"▁!fermata!d3":7623,"▁d/^c/d":7624,"▁[Ge]2":7625,"\\n\\n":7626,"reel\"":7627,"^fe":7628,"e-":7629,"e]2":7630,"▁g\"D\"":7631,"▁(.c":7632,"▁(3Bdg":7633,"Bce":7634,"▁fged":7635,"▁dfff":7636,"▁EDB,C":7637,"{g}B/":7638,"▁edc=B":7639,"▁E/)":7640,"▁(FG)(":7641,"▁(3gec":7642,"▁F,>F,":7643,"▁adbd":7644,"▁Bee^d":7645,"▁\"_VB\"":7646,"▁(GABc)":7647,"▁X:1<br>L:1/4<br>M:6/4<br>K:G":7648,"▁[Be]2":7649,"▁A>^GA>B":7650,"[C":7651,"ful":7652,"▁Bag":7653,"▁e\"A7\"":7654,"▁aag":7655,"▁cdA":7656,"▁^GF":7657,"\"^NB1\"":7658,"▁FDGF":7659,"c2e2":7660,"▁c')":7661,"B/A/B/":7662,"▁AAGA":7663,"▁X:1<br>L:1/8<br>Q:1/8=120<br>M:2/2<br>K:":7664,"▁(3gdB":7665,"▁eeef":7666,"▁F<E":7667,"▁B)A":7668,"0<br>M:2/4<br>K:Bb":7669,"▁FBBc":7670,"▁f>ed>e":7671,"▁BFdB":7672,"▁C/E/":7673,"▁[dB][cA]":7674,").d.B":7675,"▁(3GBG":7676,"<br>M:6/8<br>K:C":7677,"▁ac'ba":7678,"▁[gB]":7679,"▁D>FA>d":7680,"▁X:1<br>L:1/8<br>Q:3/8=90<br>M:6/8<br>K:G":7681,"▁!>!e4":7682,".F2":7683,"qu\"":7684,"▁d=f":7685,"▁AG\"":7686,"▁g2ec":7687,"▁BAAF":7688,"▁b<":7689,"G/c/":7690,"][A,":7691,"B2c2":7692,"A,)":7693,"▁(3(B":7694,"▁cAAa":7695,"▁c<eA":7696,"▁(gfg)":7697,"▁G/G/G/G/":7698,"gB]":7699,"▁A>df":7700,"▁d>gB>g":7701,"▁[A,,":7702,"▁[Gc":7703,"▁GEFE":7704,"▁.G(":7705,"▁A,/B,/":7706,"impli":7707,"▁X:1<br>L:1/16<br>M:4/4<br>K:G":7708,"▁(A<c)":7709,"\"A/E\"":7710,"▁(3A,B,C":7711,"▁\"^Allegretto\"":7712,"▁!>!f4":7713,")a":7714,"3!":7715,"▁eec":7716,"▁(.d":7717,"▁(3EF":7718,"▁C>A":7719,"▁fd=cA":7720,"▁GFE2":7721,"▁fga2":7722,"d2e2":7723,"▁ceed":7724,"▁(A>F)":7725,"][B,":7726,"dcBA":7727,"▁b2bg":7728,"▁eaae":7729,"▁edc\"G\"":7730,"\"Em7\"":7731,"▁gdef":7732,"▁(f3/2":7733,"▁ggfg":7734,"▁B>cdB":7735,"▁[AF]3":7736,"▁X:1<br>L:1/8<br>Q:1/2=90<br>M:2/2<br>K:D":7737,"▁cBGF":7738,"▁X:1<br>L:1/4<br>Q:3/4=1":7739,"▁(d/e/f)d":7740,"▁(3CB,A,":7741,"▁spirit\"":7742,"8-":7743,">)(":7744,"d/4)":7745,"{Bd}":7746,"▁dFAd":7747,"▁fcB":7748,"▁d2(3":7749,"▁e2{A}":7750,"▁(3cAF":7751,"▁F2FG":7752,"▁BGcB":7753,"▁B,EG":7754,"▁efg2":7755,"▁E3)":7756,"▁(3(u":7757,"▁dggg":7758,"▁e>dB>d":7759,"▁(d>e":7760,"▁c>dec":7761,"▁(ecA)":7762,"▁f>ed>B":7763,"▁fecf":7764,"▁X:1<br>L:1/4<br>Q:1/4=14":7765,"▁|:[K:F]":7766,"▁X:1<br>L:1/16<br>M:3/4<br>K:C":7767,"ender":7768,"▁X:1<br>L:1/8<br>Q:1/4=120<br>M:2/2<br>K:C":7769,"{Gdc}d":7770,"▁f'2":7771,"▁TF3":7772,"▁[B,D]2":7773,"▁(3(A/B/c/)":7774,"implifi":7775,"!<":7776,"(c/":7777,"D/4":7778,"▁dB/A/":7779,"▁Aef":7780,"▁Ac/A/":7781,"▁(.A":7782,"▁DD/E/":7783,"▁g2bg":7784,"▁^e":7785,"▁gff":7786,")(3":7787,"▁GEc":7788,"▁!f!":7789,"^c>d":7790,"D/C/":7791,"▁|\"^A":7792,"▁(dcd)":7793,"▁(dBG)":7794,"▁_Bc":7795,"▁A<e":7796,"b/b/":7797,"▁(F3/2":7798,"▁BBBd":7799,"▁c'2b2":7800,"▁F/E/F":7801,"▁[A,A]2":7802,"▁[A,F]2":7803,"▁.B.B":7804,"/a/)":7805,"CCC":7806,"▁X:1<br>L:1/8<br>Q:1/4=140<br>M:4/4<br>K:D":7807,"▁BGDB,":7808,"ott":7809,"▁c'/b/a/g/":7810,"6<br>M:4/4<br>K:":7811,"ir":7812,"▁caf":7813,"▁E2FG":7814,"cde)":7815,"▁=EF":7816,"GFD":7817,"▁Ted":7818,"▁fac":7819,"▁BAB^c":7820,"▁!fermata!E2":7821,"▁BFBd":7822,"▁X:1<br>L:1/8<br>Q:1/4=100<br>M:4/4<br>K:G":7823,"▁gef^d":7824,"▁B^ABc":7825,"▁[DD]2":7826,"▁writ":7827,"▁X:1<br>L:1/4<br>M:2/4<br>K:G":7828,"▁\"^Moderately":7829,"[B,":7830,"es":7831,"gs":7832,"▁Ad/c/":7833,"▁GB/A/":7834,"▁c^":7835,"▁f<b":7836,"▁B2>G2":7837,"▁eddf":7838,"▁E2c2":7839,"▁a2fd":7840,"▁|\"Am/C\"":7841,"▁AccA":7842,"▁feaf":7843,"▁ce\"G\"":7844,"▁d/c/d":7845,"3/2{d}c/":7846,"▁(Bg)":7847,"▁!>!b2":7848,"▁(Te":7849,"▁ada":7850,"▁X:1<br>L:1/8<br>Q:1/8=180<br>M:6/8<br>K:A":7851,"▁aAce":7852,"▁[A,E]":7853,"▁B>AG>B":7854,"▁E/D/E/F/":7855,"▁a>ba>g":7856,"▁d>fe>c":7857,"▁!>!g4":7858,"▁(3(BdB)":7859,"peat":7860,">^g":7861,"ig\"":7862,"▁f{a}":7863,"▁g=f":7864,"▁F>f":7865,"▁FdAd":7866,"▁G2AG":7867,"▁(3.e":7868,"▁F2EF":7869,"▁::{g}":7870,"A\"C\"":7871,"▁:|2\"E7\"":7872,"▁Ad^cd":7873,"▁dBA=c":7874,"▁C2C2":7875,"▁G,<":7876,"{d}B/":7877,"▁d<gB":7878,"▁G/A/B/A/":7879,"Bg]2":7880,"▁c>BA>c":7881,"▁^f4":7882,"▁X:1<br>L:1/4<br>Q:1/4=18":7883,"▁{fg}":7884,"▁d>cd>f":7885,"▁F>GA>F":7886,"▁(ag).f":7887,"▁e=fe":7888,"\"C#\"":7889,">GA":7890,"B>F":7891,"_ec":7892,"har":7893,"▁{gcd}":7894,"▁EcBA":7895,"▁:|\"Em\"":7896,"▁(3c'ba":7897,"▁g2gg":7898,"▁X:1<br>L:1/8<br>M:none<br>K:":7899,"▁dB-":7900,"▁AFc":7901,"g/f/e/d/":7902,"\"^$\"":7903,"▁(ABA)":7904,"][M:":7905,"][Ec]":7906,"▁geB":7907,"▁ecAe":7908,"▁TcA":7909,"▁B>ABc":7910,"▁AGEC":7911,"▁e>fge":7912,"▁vf":7913,"Ae]":7914,"B>c)":7915,"▁[eG]2":7916,"▁(g/f/)(e/d/)":7917,"sus4\"":7918,"(cB)":7919,"e>a":7920,"▁Ad/e/":7921,"▁Aedc":7922,"▁ccBA":7923,"▁ffd":7924,"▁FA/B/":7925,"▁aaf":7926,"▁c2c":7927,"▁(3aga":7928,"▁f2b2":7929,"▁ecae":7930,"AF]":7931,"▁BAGD":7932,"▁FEEF":7933,"▁BEGA":7934,"▁GABe":7935,"▁GAB\"D\"":7936,"▁ADEF":7937,"▁d>BB":7938,"^gb":7939,"▁fdBe":7940,"▁BBBc":7941,"▁BABc\"D\"":7942,"▁X:1<br>L:1/8<br>Q:1/8=4":7943,"▁GEEA":7944,"g/a/b/":7945,"▁B,3-":7946,"▁\"_A":7947,"▁(GFED)":7948,"▁a>fe>d":7949,"▁e^fge":7950,"▁X:1<br>L:1/4<br>Q:1/4=120<br>M:3/4<br>K:G":7951,"implified":7952,"/c/)":7953,"5/2":7954,"=B/c/":7955,"e<g":7956,"▁c\"E7\"":7957,"▁F\"C\"":7958,"▁(3B/c/d/":7959,"▁||\"Dm\"":7960,"▁::\"A7\"":7961,"▁|:\"A7\"":7962,"cAc)":7963,"▁^F/G/":7964,"▁ecfe":7965,"▁ce-":7966,"][C":7967,"▁dBGd":7968,"▁|\"^a\"":7969,").d2":7970,"▁AAeA":7971,"▁f/g/a/b/":7972,"▁gdBg":7973,"▁f/e/d/B/":7974,"▁age^f":7975,":2:":7976,"▁.B.A":7977,"▁||[K:C]\"C\"":7978,"▁cgec":7979,"ly.\"":7980,"▁X:1<br>L:1/8<br>Q:1/2=104":7981,">uB":7982,"▁[Fd]4":7983,"▁EGAc":7984,"0<br>M:3/8<br>K:D":7985,"oda\"":7986,"▁(B/c/d).B":7987,"e^d":7988,"▁B\"F\"":7989,"▁cce":7990,"▁E=C":7991,"▁d2BG":7992,"▁e2cA":7993,"BAc":7994,"▁=fg":7995,"▁ABc2":7996,"▁d/>e/":7997,"▁dfcA":7998,"▁feae":7999,"▁ecAg":8000,"▁(3(E":8001,"{g}fe":8002,"▁g>ba>g":8003,"▁A<Ac":8004,"\"_h\"":8005,"▁(Gc":8006,"▁G/A/G":8007,"▁defd\"A\"":8008,"▁uD":8009,"▁G<BB":8010,"▁(b3":8011,"▁a<g":8012,">.B)":8013,"▁[CA]2":8014,"B,B,B,":8015,"▁A2(Bc)":8016,"▁A,CEC":8017,"\"^Da":8018,"▁!fermata!d4":8019,"▁eBGB":8020,"▁aege":8021,"/4a/4":8022,"▁ed-":8023,"▁AG-":8024,"▁C-":8025,"B/c/d)":8026,"▁eaed":8027,"C/E/":8028,".d.B":8029,"▁X:1<br>L:1/8<br>Q:3/8=112":8030,"▁d)B":8031,"▁(D4":8032,"▁acec":8033,"▁|:\"^variations\"":8034,"▁[AA]2)":8035,"▁de/f/g":8036,">.c)":8037,"▁Tc>B":8038,"▁(cd/e/)":8039,"▁dafd":8040,"▁d>GB>G":8041,"▁G,/G,/":8042,"▁X:1<br>L:1/4<br>Q:1/4=120<br>M:6/4<br>K:":8043,"0<br>M:12/8<br>K:G":8044,"^E":8045,"^gf":8046,"a-":8047,"▁l":8048,"▁AAc":8049,"▁eBBB":8050,"▁ce/f/":8051,"▁e2\"A7\"":8052,"▁F2\"A\"":8053,"▁dccc":8054,"d/e/f/)":8055,"FA]2":8056,"\"^-":8057,"▁GFDC":8058,"▁ec\"G\"":8059,"▁AFDc":8060,"▁eace":8061,"a2g2":8062,"▁(B>G)":8063,"a)f":8064,"▁[M:3/4][K:":8065,"▁FDDc":8066,"▁e>Af>A":8067,"▁(.G2":8068,".E.E":8069,"▁!fermata!c3":8070,"▁!slide![ee]3":8071,"▁g/a/g/e/":8072,"][af]":8073,"(e/f/)":8074,"/)":8075,"2!":8076,">=B":8077,"▁eeg":8078,"▁f_":8079,"▁gddd":8080,"▁A2{c}":8081,"▁f2\"A\"":8082,"▁eddd":8083,"A\"E\"":8084,"▁|1\"E7\"":8085,"\"^4":8086,"▁B,B":8087,"▁Bc\"D\"":8088,"▁Acfe":8089,"▁D3)":8090,"▁B,2-":8091,"▁c>dcA":8092,"▁e>fed":8093,"▁[M:6/4]":8094,"▁^FE":8095,"▁c>eA>e":8096,">C2":8097,"▁gcge":8098,"▁g/f/g":8099,"▁.d.e":8100,"▁g/a/bg":8101,"▁[df]3":8102,"▁A(F":8103,"▁fBBf":8104,"▁X:1<br>L:1/4<br>Q:1/2=9":8105,"▁\"^Lively\"":8106,"2<":8107,"=B2":8108,"DG,":8109,"E-":8110,"▁gBdg":8111,"▁F2AF":8112,"▁^a":8113,"af>d":8114,"▁ecGc":8115,"▁Accd":8116,"d2f2":8117,"▁F3)":8118,"A2G2":8119,"\"Bm7\"":8120,"▁dAdA":8121,"▁f<f":8122,"B,/B,/":8123,"▁|\"^(G)\"":8124,"▁(cB).A":8125,"Ador]":8126,"bbb":8127,"▁|[M:6/8][K:D]SOSOO":8128,"▁(3CDE":8129,"▁\"^slow\"":8130,"▁|[M:5/8]":8131,"▁|\"A/E\"":8132,"▁express":8133,"..\"":8134,"/!":8135,"=Bd":8136,">^F":8137,"{b":8138,"▁dece":8139,"▁fBAB":8140,"▁d2fg":8141,"▁g2g":8142,"▁BAG\"Am\"":8143,"▁\"^c":8144,"▁:|2\"C7\"":8145,"▁FAEF":8146,"▁=gf":8147,"▁FD/F/":8148,"▁fe^df":8149,").g/":8150,"▁ADDD":8151,"▁(3ABd":8152,"b/Ab\"":8153,"▁e<gd":8154,"▁d/e/f/e/":8155,".c.e":8156,"▁DB,DF":8157,"▁c>BA>B":8158,"▁^cded":8159,".G.F":8160,"D/E/)":8161,"▁B,/A,/":8162,"erse\"":8163,"▁!fermata!G3":8164,"▁|\"^(D)\"":8165,"_B,":8166,"em\"":8167,"zF":8168,"▁A{c}":8169,"▁A{d}A{e}A":8170,"▁fegf":8171,"▁(!":8172,"▁e2E2":8173,"▁(3^c":8174,"▁BGAc":8175,"▁ag^fg":8176,"▁B,>G":8177,"▁fgeg":8178,"▁Bc^c":8179,"][F":8180,"▁faba":8181,"▁!0!":8182,"▁G,3/2":8183,"▁(d6":8184,"▁(def)":8185,"efga":8186,"▁AAFA":8187,"▁cdeA":8188,"▁gaag":8189,"▁_BG":8190,"▁B<Gd":8191,"{e}dc":8192,"▁F>Ad>f":8193,"▁g/f/ed":8194,"▁g<f":8195,"▁caBg":8196,"]/[BG":8197,"▁a^gaf":8198,"▁.c2(":8199,"▁E/D/C/B,/":8200,"▁X:1<br>L:1/4<br>M:2/2<br>K:F":8201,"G\"^tr\"":8202,"G][Q:1":8203,"▁X:1<br>L:1/8<br>Q:3/8=88":8204,"▁DG,B,D":8205,",]3":8206,"/G/)":8207,"op":8208,"za":8209,"{GF}":8210,"▁dd/f/":8211,"▁Ac/e/":8212,"▁B{cB}":8213,"▁ee/":8214,"▁G{A}":8215,"▁cagf":8216,"▁A2\"C\"":8217,"▁(3T":8218,"efa":8219,"▁F2FA":8220,"▁BG/A/":8221,"FA>F":8222,"▁agba":8223,"▁^DE":8224,"B,>D":8225,"▁eccd":8226,"▁EFF":8227,"▁!1!":8228,"▁|\"^d\"":8229,"▁_d2":8230,"▁g>ec>A":8231,"▁bag^f":8232,"▁F>Ad>A":8233,"▁(EA":8234,"▁c)A":8235,"F,F,":8236,"▁d>gf>e":8237,"▁.B3":8238,").e.c":8239,"▁.g(":8240,"▁B,EGE":8241,"▁X:1<br>L:1/8<br>Q:1/2=90<br>M:4/4<br>K:D":8242,"▁X:1<br>L:1/8<br>Q:1/8=333":8243,"▁bbb":8244,"▁GGAA":8245,"▁!>!c4":8246,"▁(3AB^c":8247,"DFA":8248,"^ef":8249,"uB":8250,"{ab}":8251,"▁on":8252,"▁1\"":8253,"▁B\"A7\"":8254,"▁BBAG":8255,"▁cgg":8256,"▁F>e":8257,"▁A2(3":8258,"▁B2b2":8259,"▁BAAc":8260,"▁fd)":8261,"▁^fa":8262,"▁FAE":8263,"▁g3\"D\"":8264,"d2B2":8265,"▁(A>B":8266,"▁G/e/":8267,"▁ea^ga":8268,"▁eAdA":8269,"▁GBdG":8270,"▁(FB)":8271,"▁baa":8272,"▁G/A/BG":8273,"▁G/F/E/F/":8274,"▁(BA)GF":8275,"▁Beee":8276,"▁.c.A":8277,"▁:|2,4\"D\"":8278,"▁A8-":8279,">ud":8280,"▁B,A,G,":8281,"▁X:1<br>L:1/8<br>Q:1/2=80<br>M:2/2<br>K:G":8282,"▁.F3":8283,"▁|[K:C]":8284,"▁EB,E":8285,"▁G,A,B,D":8286,"\"E/":8287,"▁dc/":8288,"▁AG\"D\"":8289,"▁eBA":8290,"▁((":8291,"▁D2B2":8292,"▁D2DD":8293,"▁dB\"C\"":8294,"▁cddc":8295,"▁def2":8296,"▁e/>":8297,"▁cBBc":8298,"▁EDFE":8299,"▁abae":8300,"{d}BA":8301,"aa>g":8302,"▁X:1<br>L:1/8<br>M:2/4<br>K:Gmin":8303,"▁(a<f)":8304,"▁X:1<br>L:1/8<br>Q:1/8=180<br>M:2/2<br>K:D":8305,"▁g/a/b/g/":8306,"Eb)\"":8307,">c'2":8308,"▁c>dc>B":8309,"G,G,G,":8310,"▁C<A,":8311,"▁!breath!!fermata!":8312,"▁aeea":8313,"▁X:1<br>L:1/8<br>Q:1/8=80<br>M:6/8<br>K:none":8314,"▁(3afd":8315,".F/":8316,".e)":8317,"CA":8318,"str":8319,"▁df/d/":8320,"▁BBGB":8321,"▁GBcd":8322,"▁af/a/":8323,"▁B2{g}":8324,"▁(3DCB,":8325,"▁[GA":8326,"▁CD/E/":8327,"▁GAFA":8328,"▁dffd":8329,"▁c/f/":8330,"▁c/d/e/":8331,"e2c2":8332,"▁FGAg":8333,"▁F/>G/":8334,"▁EGcd":8335,"▁EGcB":8336,"▁dAfA":8337,"\"_a":8338,"F#min":8339,"▁(gfg":8340,"B,A,)":8341,"▁X:1<br>L:1/16<br>Q:1/4=7":8342,"▁(f/e/d)":8343,"▁X:1<br>L:1/8<br>M:3/2<br>K:D":8344,"nat":8345,"{B,}":8346,"▁O":8347,"▁dFA":8348,"▁dA/d/":8349,"▁gg/":8350,"▁gg/a/":8351,"▁(B,2":8352,"▁De":8353,"▁D^F":8354,"▁(3ed":8355,"▁cAfc":8356,"▁GAGA":8357,"\"^1":8358,"\"^M":8359,"▁egB":8360,"▁FDB,D":8361,"▁(A6":8362,"▁(A^G)":8363,"▁faaa":8364,"▁dBGD":8365,"▁c'6":8366,"▁dcB\"D\"":8367,"G,)":8368,"▁|\"^B\"":8369,"▁(d>f)":8370,"▁A,2-":8371,"▁(F<A)":8372,"▁f>dc>d":8373,"▁f>gaf":8374,"▁e>ce":8375,"▁uG":8376,"▁fcfg":8377,"▁E>DC":8378,"▁[AF]4":8379,"▁X:1<br>L:1/8<br>Q:1/4=100<br>M:4/4<br>K:D":8380,"▁[A,F":8381,"▁[dD]":8382,"▁e(c":8383,"▁EGEG":8384,">uA":8385,"▁=G3":8386,"▁(f/e/f/g/)":8387,"▁!fermata!B3":8388,"▁A,<A,":8389,"langs":8390,"B<G":8391,"Dd":8392,"]B":8393,"^G/A/":8394,"▁BBdB":8395,"▁BAAd":8396,"▁a2>e2":8397,"GAG)":8398,"▁f3)":8399,"▁edB\"D\"":8400,"▁gedB\"Am\"":8401,"▁A/B/d":8402,"▁gaga":8403,"▁e<B":8404,"▁FDDB":8405,"▁gcac":8406,"▁B,DGD":8407,"▁caec":8408,"▁.e.d":8409,"▁(.d2":8410,"▁d>cd>B":8411,"▁(AB)(cd)":8412,"▁Tg4":8413,"▁[eg]2":8414,"▁(3=cBA":8415,",F":8416,"A3":8417,"eb":8418,"g'":8419,"▁Ac/B/":8420,"▁Gee":8421,"▁(DEF)":8422,"▁DDE":8423,"▁BA\"G\"":8424,"▁a2\"G\"":8425,"▁fdAf":8426,"▁A3\"G\"":8427,"BGB)":8428,"▁=FA":8429,"▁=BG":8430,"▁dfAd":8431,"▁c/B/c/":8432,"▁geec":8433,"▁B/c/BA":8434,"▁(dA":8435,"▁gbfa":8436,"▁DGFA":8437,"▁(3Adf":8438,"▁_BAG":8439,"▁g>ef":8440,"▁A<FA":8441,"▁B>^AB":8442,"▁FDDG":8443,"▁X:1<br>L:1/4<br>M:3/4<br>K:Bb":8444,"▁EFEC":8445,"▁(a>f)":8446,"▁CDC":8447,"▁X:1<br>L:1/8<br>Q:1/4=120<br>M:4/4<br>K:Amin":8448,"▁{F}":8449,"▁[G,D]":8450,"C,]2":8451,"/f/)":8452,"▁Tc>d":8453,"▁A>ce>a":8454,"▁B,DFB":8455,"90]":8456,"▁d>E":8457,"▁B>a":8458,"▁Bagf":8459,"▁GFAF":8460,"▁GG/B/":8461,"▁g'":8462,"▁EG/E/":8463,"▁ace":8464,"▁[^":8465,"▁GAB2":8466,"A\"Em\"":8467,"▁AFFD":8468,"▁d'/c'/":8469,"▁c>b":8470,"▁[EA,]2":8471,"{a}g":8472,"▁(BA)G":8473,"▁[cC,]":8474,"▁dDcD":8475,"▁[ec]3":8476,"e>f)":8477,"▁X:1<br>L:1/8<br>Q:3/8=120<br>M:6/8<br>K:A":8478,"▁dbd":8479,"▁D>GB>G":8480,"DC)":8481,"▁g>fg>d":8482,"▁X:1<br>L:1/4<br>M:2/2<br>K:C":8483,"▁BGAF\"G\"":8484,"▁(3e^fg":8485,"\"^(Am)\"":8486,"▁B=A":8487,"▁DE/F/G":8488,"▁(c'b)":8489,"▁a>ec>e":8490,"▁B,/B,/B,":8491,"5/64":8492,"▁(e/d/)(c/B/)":8493,"es\"":8494,"z\"":8495,"▁dA/A/":8496,"▁Agg":8497,"▁Acdc":8498,"▁BBAB":8499,"▁fBBB":8500,"▁(c/A/)":8501,"▁EBA":8502,"▁B2{cB}":8503,"▁(3d2":8504,"▁b>B":8505,"▁dBFB":8506,"▁Bdga":8507,"▁fed\"A7\"":8508,"▁dfB":8509,"▁GE/G/":8510,"▁c'd":8511,"▁|\"^/":8512,"▁edB^c":8513,"/16<br>K:":8514,"▁FEDB,":8515,"▁c>dB>c":8516,"▁c<Ac":8517,"▁d<Bg":8518,"▁fAec":8519,"▁G>FGA":8520,"▁[AE]":8521,"▁F<DD":8522,"▁(A/B/c/d/)":8523,"▁(edc)":8524,"▁g>fe>g":8525,"▁.c3":8526,"en\"":8527,"▁.G2(":8528,"▁:|[K:A]":8529,"▁X:1<br>L:1/8<br>Q:1/2=100<br>M:3/2<br>K:":8530,"▁X:1<br>L:1/16<br>Q:1/4=100<br>M:2/4<br>K:G":8531,"▁dB/c/d/B/":8532,"oso\"":8533,"80<br>M:6/4<br>K:":8534,"uf":8535,"▁A{B}":8536,"▁DBG":8537,"▁B2gf":8538,"▁B2\"Am\"":8539,"▁c2eg":8540,"▁(3AA":8541,"▁f2>f2":8542,"▁fd-":8543,"▁defb":8544,")(FA)":8545,"▁AdBd":8546,"▁GECD":8547,"▁(Af)":8548,"▁de=fd":8549,"][d":8550,"▁f/e/f/":8551,"▁afdc":8552,"G,]3":8553,"▁e>dB>A":8554,"▁G>ABc":8555,"▁dded":8556,"▁A>GE>F":8557,"▁GEDB":8558,"▁(F>A)":8559,"▁aeed":8560,"▁FDDC":8561,"▁AAAG":8562,"▁d)c":8563,"▁[K:Bb]":8564,"▁d2B2B2":8565,"▁A(B/c/)":8566,"C#/":8567,"e'/":8568,"▁!fermata!A4":8569,"50]":8570,"7-":8571,"FGA":8572,"P\"":8573,"▁daa":8574,"▁dd/B/":8575,"▁BfdB":8576,"▁e{e}":8577,"▁eece":8578,"▁(3edB":8579,"▁f2ag":8580,"G\"_":8581,"▁D2C2":8582,"c/B/A/":8583,"▁Bdfa":8584,"▁^dB":8585,"▁^cc":8586,"▁.d/":8587,"▁B,EF":8588,"▁B/g/":8589,"▁A/c/A/":8590,"▁eggg":8591,"▁Ac-":8592,"▁(3(d/e/f/)":8593,"▁\"^4\"":8594,"▁gdga":8595,"▁(cG)":8596,"▁fefc":8597,"▁a>ga":8598,"▁ABGF":8599,"0<br>M:2/2<br>K:none":8600,"▁[BG,,]":8601,"▁BFBc":8602,"▁[cA]3":8603,"▁||\"^9\"":8604,"er\"":8605,"▁\"_No":8606,"and":8607,"▁dAAG":8608,"e'e'":8609,"▁X:1<br>L:1/8<br>Q:1/2=90<br>M:2/2<br>K:G":8610,"DBD":8611,"▁E>EE":8612,"▁(f/e/)(d/c/)":8613,"▁Bc/d/B":8614,"e/4f/4)":8615,"▁G,B,DB,":8616,"▁(B/A/B/c/)":8617,"\"^(E)\"":8618,"▁E^DEF":8619,"pirited\"":8620,"{g}c<e":8621,"▁(f/g/a).f":8622,"<C":8623,"=f/":8624,"=E/":8625,"=CE":8626,"Gdor":8627,"d>F":8628,"▁|[":8629,"▁dbg":8630,"▁EG,":8631,"▁aa/g/":8632,"▁aedc":8633,"▁B2{G}":8634,"▁D2\"C\"":8635,"▁||\"B\"":8636,"▁dBGF":8637,"▁|1[M:":8638,"fd]":8639,"▁^cBA":8640,"▁B,>":8641,"▁fedcBA":8642,"▁egab":8643,"▁e/)":8644,"▁d>fd":8645,"▁dAGF":8646,"20<br>M:3/8<br>K:":8647,"▁|[M:2/4][K:":8648,"▁c>Ac":8649,"▁f/g/ag":8650,"▁^c>e":8651,"G]/":8652,"▁F<G":8653,"▁[BG]4":8654,"▁X:1<br>L:1/8<br>M:9/8<br>K:Edor":8655,"▁X:1<br>L:1/8<br>M:3/4<br>K:Ddor":8656,"▁E>DE>F":8657,"▁g/a/b/a/":8658,"▁||\"^17\"":8659,"▁.B2(":8660,"▁X:1<br>L:1/8<br>Q:1/2=100<br>M:4/4<br>K:G":8661,"▁bc'ba":8662,"▁(3EGE":8663,"▁(de).f":8664,"▁[aA]2":8665,"▁X:1<br>L:1/8<br>Q:1/8=120<br>M:2/4<br>K:D":8666,"\"G/D\"":8667,"--":8668,"9/4":8669,"{a":8670,"▁dGGG":8671,"▁Afg":8672,"▁Gedc":8673,"▁GB/G/":8674,"▁DAFD":8675,"▁d2^c2":8676,"▁G2\"Am\"":8677,"▁(3f/g/f/":8678,"▁(3B,A,G,":8679,"▁ed\"G\"":8680,"▁E2e2":8681,"▁||\"D7\"":8682,"▁[gb":8683,"cdf":8684,"▁gfag":8685,"▁ceBc":8686,"▁GEAF":8687,"▁TG3":8688,"c'g":8689,"▁eAf":8690,").c'":8691,"▁dAc":8692,"▁dAf":8693,"▁B<dA":8694,"▁(3d'":8695,"▁!fermata![":8696,"▁cccd":8697,"▁dGdB":8698,"▁c<G":8699,"▁(3gfg)":8700,"B,DB,":8701,"▁DCA,":8702,"▁(TB2":8703,"{G}ED":8704,"GdG}":8705,"▁X:1<br>L:1/8<br>Q:1/8=180<br>M:4/4<br>K:Emin":8706,"▁X:1<br>L:1/8<br>Q:1/2=120<br>M:2/2<br>K:":8707,"▁X:1<br>L:1/16<br>M:3/4<br>K:F":8708,"▁c2e2c2":8709,"▁[B,E]2":8710,"▁Bffe":8711,"▁X:1<br>L:1/8<br>Q:1/8=128<br>M:4/4<br>K:F":8712,"▁B=GB":8713,"▁(3B,CD":8714,"▁(TA>G)":8715,"▁(CE)":8716,"!>(!":8717,"2d":8718,"<[":8719,"C]3":8720,"]\"":8721,"c3":8722,"▁BB/":8723,"▁e\"A\"":8724,"▁a>c'":8725,"ed>c":8726,"▁(3^":8727,"▁FAAG":8728,"\"^?\"":8729,"F\"E7\"":8730,"▁B/^c/":8731,"▁ecGE":8732,"▁AB^cd":8733,"▁Ac\"G\"":8734,"▁b2-":8735,"A2d2":8736,"f2f2":8737,"G,,]":8738,"▁(3dcA":8739,"▁(c>":8740,"▁eeed":8741,"▁e/d/e":8742,"d/B/d/":8743,"▁(BA)Bc":8744,"▁E<c":8745,"▁X:1<br>L:1/8<br>M:9/8<br>K:Ador":8746,"▁g<ee":8747,"▁caAa":8748,"▁B>AG>A":8749,"▁(ef).g":8750,"▁.a(":8751,"▁d/^c/d/e/":8752,"][EC]":8753,"▁B,<D":8754,"\"_d\"d":8755,"▁F/E/D/C/":8756,"4/4":8757,"=g)":8758,"B3/2":8759,"D>E":8760,"Gg":8761,"Part":8762,"▁fFF":8763,"▁aAAA":8764,"▁d2^cd":8765,"▁G2BA":8766,"edB)":8767,"▁AGGG":8768,"▁dB=G":8769,"▁dB=GB":8770,"\"^c\"":8771,"\"^Chorus\"":8772,"▁fggf":8773,"▁ecfc":8774,")(GE)":8775,"▁A,)":8776,"][DF]":8777,"▁b2ba":8778,"▁c'>c'":8779,"A2B2":8780,"▁\"^5\"":8781,"▁DEC":8782,"/4=120]":8783,"▁ddcd":8784,"▁(gB)":8785,"▁(G<B)":8786,"▁c'2)":8787,"▁aeeg":8788,"▁g>e\"D\"":8789,">C,":8790,"▁BeeB":8791,"▁fedf\"A\"":8792,"▁\"^A\"\"G\"":8793,"▁[A,D]2":8794,"▁|\"Dm7\"":8795,"▁[df]4":8796,"▁fBBg":8797,"▁X:1<br>L:1/8<br>Q:1/8=35":8798,"▁[DB]3":8799,"▁babc'":8800,"▁B,G,B,D":8801,"▁g>ab>a":8802,"D][Q:1":8803,"\"^(G7)\"":8804,"▁A,>CE":8805,"F3":8806,"▁AEG":8807,"▁cfed":8808,"▁FGG":8809,"▁(^cd":8810,"▁(D/E/F/":8811,"▁|\"F#/C#\"":8812,"▁e2\"A\"":8813,"▁(3Bdf":8814,"▁(3FAd":8815,"▁g2>d2":8816,"▁::\"Gm\"":8817,"▁CB":8818,"▁agb":8819,"▁^G/":8820,"▁deBd":8821,"AF]2":8822,"▁\"^E":8823,"▁ba^g":8824,"▁!>!E2":8825,"d'}":8826,"▁^FGAF":8827,"▁(B/c/d/B/)":8828,"▁AAA2":8829,"0<br>M:2/2<br>K:Emin":8830,"▁E/F/E/D/":8831,"▁cecB":8832,"▁cEGE":8833,"0<br>M:3/4<br>K:A":8834,"e/f/g/e/":8835,"rest":8836,"▁g(f/e/)":8837,"=eg":8838,"Iris":8839,"po":8840,"▁d{d}":8841,"▁Bfd":8842,"▁cc/A/":8843,"▁f\"C\"":8844,"▁Fine\"":8845,"▁(c'/b/":8846,"▁A2de":8847,"▁:|\"^C\"":8848,"▁(3dfa":8849,"▁(3A,A,A,":8850,"▁AGAG":8851,"▁::\"Bm\"":8852,"▁cBAG\"D\"":8853,"▁Addf":8854,"▁d/A/":8855,"▁df-":8856,"][dA":8857,"F2A2":8858,"▁A>GE>D":8859,"▁a>bag":8860,"▁fdec\"D\"":8861,"▁ffed":8862,"▁cFdF":8863,"]/[ec":8864,"(gfe)":8865,"(gfg)":8866,"▁X:1<br>L:1/16<br>M:3/4<br>K:Gmin":8867,"▁B,EED":8868,"▁(d<g)":8869,"▁X:1<br>L:1/8<br>Q:1/2=80<br>M:2/2<br>K:D":8870,"▁C<F":8871,"f/4g/4)":8872,"▁a>df>d":8873,"▁1/4":8874,"▁F^EF":8875,",\"":8876,"=f2":8877,"y\"":8878,"▁Bfe":8879,"▁eBcA":8880,"▁cDD":8881,"▁cc/e/":8882,"▁FA\"G\"":8883,"▁A2\"E7\"":8884,"▁e2G2":8885,"BA2":8886,"▁\"F#7\"":8887,"▁dc\"G\"":8888,"\"^g":8889,"▁.e)":8890,"▁B/^c/d":8891,"GB]2":8892,"▁e/>f/":8893,"▁GBef":8894,"▁|{=":8895,"▁G,E,":8896,"▁bggb":8897,"D/)":8898,"▁|\"^NB\"":8899,"▁E/C/":8900,"▁(B/4c/4":8901,"\"_(":8902,"▁c>AF":8903,"▁f>da>f":8904,"▁FEFE":8905,"▁va":8906,"▁edef\"G\"":8907,"\"^(F#":8908,"▁AFEA":8909,"▁(d/c/d/e/)":8910,"▁(ef)ed":8911,"▁=fedc":8912,"▁gbgb":8913,"▁|]:[M:":8914,">.A)":8915,"▁e(f":8916,"e'2":8917,"▁[GG,,]":8918,">uc":8919,">ue":8920,"7/C#\"":8921,"▁f/f/f/f/":8922,"▁X:1<br>L:1/4<br>Q:1/4=20":8923,"▁X:1<br>L:1/8<br>Q:3/4=4":8924,"({":8925,"<e2":8926,"▁d\"Am\"":8927,"▁A[":8928,"▁cBdB":8929,"▁d2>g2":8930,"▁:|\"Am\"":8931,"▁c2g2":8932,"▁(3G/A/B/":8933,"▁f2{gf}":8934,"▁BA/":8935,"▁[d'":8936,"▁AGBd":8937,"▁|1\"G7\"":8938,"BG]":8939,"▁ecag":8940,"▁cBAG\"D7\"":8941,"▁c/=B/":8942,"▁EDDC":8943,"▁Tf>e":8944,"g2e2":8945,"▁(def":8946,"▁DFBc":8947,"▁g>agf":8948,"▁GEDF":8949,"▁EAAE":8950,"▁B>dc>B":8951,"▁[GB][GB]":8952,"▁|:\"^S":8953,"▁(fe)fg":8954,"▁BAAg":8955,"▁.A.A":8956,"▁dAAB":8957,"▁th":8958,"▁g/g/g/g/":8959,"▁[Fd]3":8960,"▁[CA]":8961,"B/4c/4":8962,"▁A=FA":8963,"▁G>BA>F":8964,"▁(b/a/)":8965,"rot\"":8966,"▁g>be>g":8967,"(fd)":8968,"(Ac)":8969,"^dc":8970,"b>f":8971,"ne":8972,"▁dFG":8973,"▁GGAB":8974,"▁FD\"":8975,"▁EcE":8976,"G\"B7\"":8977,"B/G/)":8978,"▁a2>a2":8979,"▁|:\"Cm\"":8980,"▁Bd\"D\"":8981,"B,G,":8982,"▁=gfed":8983,"▁def^g":8984,"▁Bc^d":8985,")(e/":8986,"▁(3(GAG)":8987,"▁fab":8988,"ce}":8989,"▁|\"^g\"":8990,"▁A,2)":8991,"▁[M:9/8]":8992,"▁GccB":8993,"▁FFG":8994,"▁X:1<br>L:1/8<br>M:2/2<br>K:Ddor":8995,"▁F<AA":8996,"0<br>M:2/4<br>K:Emin":8997,"▁cffe":8998,"▁E,>E,":8999,"▁(b>a)":9000,"=fc":9001,"▁||\"^variations\"":9002,"▁[G,G]3":9003,"▁eGce":9004,"C,,]2":9005,"▁|1,3\"G\"":9006,"▁G8-":9007,"▁|:\"^A\"\"G\"":9008,"G,/G,/":9009,"▁a>fe>c":9010,"▁A>FA>d":9011,"▁.!fermata!PMTCOM":9012,"=c2":9013,"A>D":9014,"C]4":9015,"b4":9016,"▁fc'":9017,"▁EEEE":9018,"▁Bd\"C\"":9019,"\"^b\"":9020,"▁(ABcA)":9021,"▁(3(EF":9022,"▁AGF2":9023,"▁B/c/dc":9024,"▁|\"^f\"":9025,"▁B>AF>A":9026,"▁(d<B":9027,"▁FED2":9028,"▁c>de/f/":9029,"▁BGGf":9030,"▁EAE":9031,"▁efdc":9032,"▁E<A,":9033,"▁b>gd>B":9034,"▁[BC,]":9035,"▁(ag)fe":9036,"▁(3fag":9037,"▁e>fec":9038,"▁(e/d/c)":9039,"▁B(G":9040,"ime":9041,"▁c/B/A/c/":9042,"▁B=cB":9043,"▁g>ed>c":9044,"▁FBAc":9045,"Dmix]":9046,"▁suggestion\"":9047,"\"C/E\"":9048,"(!":9049,"(fa)":9050,".E2":9051,"DA,":9052,"▁dzd":9053,"▁cEGc":9054,"▁B2\"F\"":9055,"▁c2{GdG}":9056,"▁(3ede":9057,"▁f2>a2":9058,"▁ed^cB":9059,"▁cAed":9060,"▁cAF\"G\"":9061,"▁dB)":9062,"▁dBG\"D7\"":9063,"▁^f/":9064,"▁=D2":9065,"▁cBBB":9066,"▁\"^reel\"":9067,"▁DGBc":9068,"▁dddB":9069,"▁cccA":9070,"▁BGGD":9071,"▁d<GB":9072,"▁e>^f":9073,"▁gag\"D\"":9074,"▁BGB\"D\"":9075,"▁f>ga>g":9076,"▁(fB)":9077,"▁BgAf":9078,"G/A/F/":9079,"▁B)d":9080,"=B^c":9081,"▁AFEF\"D\"":9082,"▁X:1<br>L:1/4<br>Q:1/4=13":9083,"▁[GD]2":9084,">c2)":9085,"▁cegf":9086,"d/d/d":9087,"F/A/)":9088,"▁g=fed":9089,".g)":9090,"AGF":9091,"G>d":9092,"G>G":9093,"▁B=g":9094,"▁fAAA":9095,"▁aefe":9096,"▁B2\"G\"":9097,"▁(3AFD":9098,"▁(3Acf":9099,"▁[gd":9100,"▁::\"C7\"":9101,"▁a2{b}":9102,"▁fdce":9103,"ec'":9104,"▁B3\"D\"":9105,"▁B,,3":9106,"▁(A,2":9107,"▁eac'a":9108,"▁F/d/":9109,"\"Bbm\"":9110,"▁G>AB/c/":9111,"▁(3AFA":9112,"b/a/g/":9113,"=cG":9114,"▁ege\"G\"":9115,"▁cfc":9116,"▁E<e":9117,"▁([GA":9118,"▁|:\"^C\"":9119,"]/[AF":9120,"▁efec\"D\"":9121,"A,/G,/":9122,"▁X:1<br>L:1/8<br>Q:1/2=90<br>M:4/4<br>K:C":9123,").g.f":9124,"▁[dF]3":9125,"▁(fg/a/)":9126,"▁X:1<br>L:1/8<br>Q:1/2=80<br>M:4/4<br>K:G":9127,"D/D/D":9128,"ig.\"":9129,"▁(b/a/g)":9130,"▁X:1<br>L:1/16<br>Q:1/8=18":9131,"{d}G3/2":9132,"▁c>ed>c":9133,"Version":9134,"bc":9135,"▁dg/f/":9136,"▁d_B":9137,"▁A=Bc":9138,"▁gBc":9139,"▁(g/e/":9140,"▁|\"F#":9141,"▁A2fe":9142,"▁A2AF":9143,"▁:|3":9144,"ed2":9145,"ede)":9146,"▁(3e/":9147,"▁(3DFB":9148,"▁baba":9149,"f/d/)":9150,"A\"A7\"":9151,"▁cdBd":9152,"▁gf=e":9153,"▁=BA":9154,"▁=Bd":9155,"▁(A/4B/4":9156,"][EG]":9157,"▁(3(dd":9158,"▁|\"^4":9159,"d/c/B/A/)":9160,"▁D/C/B,/A,/":9161,"\"_c":9162,"▁e/f/ed":9163,"▁f>edc":9164,"{e}f":9165,"▁fAfA":9166,"▁B>dB>G":9167,"▁A>ce>g":9168,"▁GDBD":9169,"{a}fe":9170,"▁[DG,]":9171,"▁A>AA>B":9172,"▁X:1<br>L:1/8<br>Q:1/4=100<br>M:2/4<br>K:C":9173,"▁F>DF>A":9174,"▁|\"Gm7\"":9175,"▁|{/d}":9176,"ine.\"":9177,"▁ebge":9178,"Amix]":9179,"▁TF4":9180,"▁\"^Slow.\"":9181,"▁e=dcB":9182,"▁(gf).e.d":9183,"D/f+\"":9184,",D,":9185,".d'":9186,"B>f":9187,"^g/)":9188,"eE":9189,"▁de/":9190,"▁B{d}":9191,"▁BB/c/d":9192,"▁GA/":9193,"▁ffdf":9194,"▁FA/F/":9195,"▁A2{GAG}":9196,"▁G2EG":9197,"▁:|4":9198,"▁F2FE":9199,"▁GFGF":9200,"▁fed\"G\"":9201,"▁egdf":9202,")(^":9203,"A2A2":9204,"▁dAfe":9205,"▁F4)":9206,"▁(B>":9207,"▁B/A/G/B/":9208,"▁f<ad":9209,"▁EFGc":9210,"▁a>^ga":9211,"▁GDB":9212,"▁[AC]2":9213,"▁=cE":9214,"▁\"Eb7\"":9215,"▁[BG][cA]":9216,"▁.d.B":9217,"▁[cA,]":9218,"▁[Ge]":9219,"m/D\"":9220,"▁A,4-":9221,"▁c>Bc>A":9222,"▁[Bg]4":9223,"▁[gB][":9224,"▁B^cdB":9225,"▁X:1<br>L:1/16<br>M:3/8<br>K:G":9226,"\"^d.C.\"":9227,"▁X:1<br>L:1/8<br>Q:1/8=120<br>M:2/4<br>K:G":9228,"harp":9229,"Irish":9230,"-A":9231,"00]":9232,">d/)":9233,"B<d":9234,"G3/2":9235,"▁d\"F\"":9236,"▁A\"C7\"":9237,"▁(B/d/":9238,"▁(a/b/)":9239,"▁G2>G2":9240,"▁||\"Bb\"":9241,"cA>F":9242,"cB)(AG)":9243,"▁A,>G,":9244,"▁Accc":9245,"▁g3)":9246,"▁efg\"D\"":9247,"A,E":9248,"▁G/>F/":9249,"▁dga":9250,"▁|\"^D.C.\"":9251,"▁B>ABd":9252,"▁cBc2":9253,"▁(B<e)":9254,"\"_d":9255,"▁(Ge)":9256,"G/F/G/":9257,"^G>A":9258,"{A}G":9259,"▁d)e":9260,"▁[BG][AF]":9261,"▁cABc\"D\"":9262,"▁(A/c/":9263,"lich":9264,"▁[cC,,]":9265,"▁.B.c":9266,"▁cega":9267,"▁=g3":9268,"▁g6-":9269,"▁X:1<br>L:1/8<br>Q:1/8=232<br>M:4/4<br>K:F":9270,")(d>e)":9271,"▁(cde)":9272,"▁[CA":9273,"▁::\"^D\"":9274,"▁EdcB":9275,"{e}A3/2":9276,"▁f=ef":9277,"▁(af).d":9278,"{^d}":9279,"[BG,]":9280,"(ec)":9281,">^c2":9282,"c<A":9283,"▁B/4c/4":9284,"▁G/4":9285,"▁fBc":9286,"▁f>F":9287,"▁F2B2":9288,"▁E2DE":9289,"▁\"C":9290,"▁cA/":9291,"▁::\"Bb\"":9292,"cA]2":9293,"ec]2":9294,"▁.c)":9295,"▁B,>G,":9296,"▁cBAd":9297,")(dc":9298,")(FD)":9299,"▁AceA":9300,"▁feeg":9301,"▁G/>G/":9302,"▁G,D":9303,"{g}dB":9304,"▁E4)":9305,"▁(3A^GA":9306,"\"_g":9307,"▁GFGD":9308,"▁e>cc":9309,"▁B>^G":9310,"▁ggge":9311,"▁GcBc":9312,"▁ege^c":9313,"▁d>gf>g":9314,"▁(c/d/e/f/)":9315,"{F}ED":9316,"▁|\"_>\"":9317,"▁beeg":9318,"▁[eG][":9319,"▁[B,G]":9320,"▁F>FF":9321,"▁d8-":9322,"▁[DB]4":9323,"▁X:1<br>L:1/8<br>M:3/8<br>K:D":9324,"C/D/)":9325,"\"_b\"B":9326,"▁\"^25\"":9327,"▁f>af>d":9328,"▁b/b/b":9329,".D.D.":9330,"][eg]":9331,"\"D/":9332,"4<br>M:3/4<br>K:":9333,">a/":9334,"▁cCC":9335,"▁f{gf}":9336,"▁gz":9337,"▁A2\"C7\"":9338,"▁E2>D2":9339,"▁BGc":9340,"▁AFGF":9341,"▁=FE":9342,"▁A,8":9343,"▁dBAF\"Em\"":9344,"▁c'abg":9345,"▁G,E":9346,"▁FGA2":9347,"▁eAcd":9348,"▁|\"^d":9349,"▁EGBc":9350,"▁EGGE":9351,"▁X:1<br>L:1/8<br>Q:1/8=120<br>M:3/4<br>K:":9352,"a/g/f/e/)":9353,"▁(fA)":9354,"▁B>df":9355,"(3efg":9356,"▁[DB,]2":9357,"▁X:1<br>L:1/4<br>M:3/4<br>K:Amin":9358,"▁(DG":9359,"c'/)":9360,"]/[cA":9361,"▁e>ee":9362,"▁[GB]2)":9363,">.f)":9364,"▁b>ab":9365,"▁[Bg]3":9366,"▁(B/A/G/F/)":9367,"{GAG}A":9368,"▁a(g/f/)":9369,"▁\"^Moderate.\"":9370,"][AA]":9371,"▁(3(ddd)":9372,"=f)":9373,">_":9374,"^!":9375,"f-":9376,"▁&":9377,"▁4":9378,"▁Bd/e/":9379,"▁eedc":9380,"▁B2D2":9381,"▁(3A2":9382,"▁F2f2":9383,"▁[de":9384,"▁BGe":9385,"▁agge":9386,"\"^2":9387,"▁B/d/c/B/":9388,"▁=GB":9389,"▁df\"A7\"":9390,"▁geee":9391,"▁TED":9392,"▁fa-":9393,"c'b)":9394,"▁G,>A,":9395,"▁dgec":9396,"▁eAde":9397,"▁d>efg":9398,"d/c/B/A/":9399,"▁ddg":9400,"▁^c3/2":9401,"▁vD":9402,"▁vE":9403,"▁X:1<br>L:1/4<br>M:4/4<br>K:Emin":9404,"▁cGce":9405,"▁X:1<br>L:1/8<br>Q:1/8=180<br>M:4/4<br>K:Amin":9406,"▁EDEC":9407,"▁GgdB":9408,"▁(A/c/)":9409,"▁F>DE>F":9410,"▁{b}":9411,"▁.c.e":9412,"▁[G,D":9413,"▁cGEC":9414,"▁.f.f":9415,"▁dbca":9416,"▁C,/":9417,"▁[fd][ec]":9418,"▁(.F":9419,"▁X:1<br>L:1/8<br>Q:1/2=100<br>M:2/2<br>K:G":9420,"▁Acdf":9421,"B/4c/4)":9422,"▁X:1<br>L:1/4<br>Q:1/2=11":9423,"][Dd]":9424,"▁\"^Tender":9425,"4-":9426,"=a":9427,"GBd":9428,"d3/2":9429,"{AGAG}":9430,"▁d{f}":9431,"▁c{e}":9432,"▁cBdc":9433,"▁fBgB":9434,"▁(agf)":9435,"▁D\"":9436,"▁D>g":9437,"▁beg":9438,"▁E2B2":9439,"▁[fB":9440,"▁cAEC":9441,"▁CEF":9442,"▁|]\"^C\"":9443,"ec>e":9444,"▁.C2":9445,"B,][":9446,"▁ef\"G\"":9447,"▁Ta>g":9448,"c'e":9449,"▁\"^variations\"":9450,"▁F/>E/":9451,"▁d>=c":9452,"▁d>efe":9453,"d/c/d/":9454,"▁D4)":9455,"▁DFDF":9456,"▁A>Bcd":9457,"\"_D":9458,"▁d>eg":9459,"▁gecg":9460,"▁fdBf":9461,"▁eBgf":9462,"{c}B":9463,"▁(Tf":9464,"E/D/C/":9465,"▁(Bc)de":9466,"▁cEAc":9467,"▁(fe)d":9468,"▁=fef":9469,"▁A>Bc>B":9470,"▁A>Bc>e":9471,"▁G>EE":9472,"▁d(B":9473,"▁^gb":9474,"▁[cE]4":9475,"Af]2":9476,")(dA)":9477,"▁dgg^f":9478,"▁DA,D":9479,"▁d=cB":9480,").a.f":9481,"▁X:1<br>L:1/4<br>M:6/4<br>K:D":9482,"▁(G/F/E/D/)":9483,"▁(ed).c.B":9484,"▁(g/f/e/f/)":9485,")!":9486,"7/8":9487,"A[":9488,"B>B":9489,"^GF":9490,"▁3\"":9491,"▁Bba":9492,"▁B\"E7\"":9493,"▁GG,":9494,"▁cDBD":9495,"▁g\"C\"":9496,"▁edgB":9497,"▁D2DF":9498,"▁E2FE":9499,"feg":9500,"▁cAfd":9501,"▁cA^FA":9502,"▁fdag":9503,"▁BGcG":9504,"C\"G\"":9505,")(ED)":9506,")(EG)":9507,"▁A,F,":9508,"▁gfea":9509,"e2g2":9510,"A2c2":9511,"▁e4)":9512,"▁(cBc)":9513,"▁(eA":9514,"▁ba^ga":9515,"▁BAGFED":9516,"▁dfe^c":9517,"▁CEEG":9518,"B,DG":9519,"▁[AC]":9520,"▁^F3/2":9521,"▁(B/c/B)":9522,"▁(E3/2":9523,"▁[dD]4":9524,"▁e(f/g/)":9525,"▁c>Bc>e":9526,"▁(fga2)":9527,"7/F#\"":9528,"▁[Dd]4":9529,"▁Bbb":9530,"▁X:1<br>L:1/8<br>Q:1/4=88":9531,"▁e^f^g":9532,"▁[eg]":9533,"▁d^cAG":9534,"▁[A,E]4":9535,"▁(dc).B.A":9536,"(A/":9537,"=Bc)":9538,"with":9539,"▁ddf":9540,"▁gg/e/":9541,"▁c2\"E7\"":9542,"▁(3.B.c.d":9543,"▁F2\"C\"":9544,"▁||\"G7\"":9545,"G/b\"":9546,"▁^ab":9547,"▁=ce":9548,"dB}":9549,"{gBG}":9550,"▁ED)":9551,"▁dggd":9552,"▁|\"^e\"":9553,"▁(3AGE":9554,"▁_a":9555,"CEA":9556,"▁a/^g/":9557,"▁|[M:4/4][K:":9558,"▁Bgd":9559,"▁G<e":9560,"▁GFGABc":9561,"▁cfag":9562,"▁cfAc":9563,"▁(TB>A)":9564,"▁(E>D)":9565,"▁e>dc>e":9566,"c'/c'/":9567,"(dcd)":9568,"0<br>M:4/4<br>K:Dmin":9569,"▁D/E/FD":9570,"▁|\"^(F":9571,"G/G/G":9572,"▁e(d/c/)":9573,"▁e/f/g/f/":9574,"▁g>ag>f":9575,"▁B,EGB":9576,"▁(g/f/g/a/)":9577,"▁(f/g/)a":9578,"▁^fgaf":9579,"▁X:1<br>L:1/8<br>Q:1/4=120<br>M:2/4<br>K:C":9580,"▁(A,B,)":9581,"(D)\"":9582,"F/4G/4":9583,"aint":9584,"▁e>^de>f":9585,"\"C#m\"":9586,"'b":9587,"=F/":9588,">=e":9589,"c)\"":9590,"▁d_e":9591,"▁A/4B/4":9592,"▁B\"G\"":9593,"▁ee/c/":9594,"▁cgc":9595,"▁(6":9596,"▁EcAF":9597,"▁B2\"A7\"":9598,"▁e2{d}":9599,"▁(3bbb":9600,"▁ed\"A\"":9601,"▁E2>G2":9602,"▁AF\"A\"":9603,"▁B,A,B,":9604,"▁fed\"C\"":9605,"▁cBAa":9606,"▁A/>A/":9607,"▁Bcd\"A\"":9608,"▁ecAd":9609,"▁(3(BAB)":9610,"▁|{^g}":9611,"▁dgeg":9612,"▁ded^c":9613,"▁|\"^S":9614,"▁E/>F/":9615,"▁D/B,/":9616,"\"_-":9617,"▁d'bg":9618,"▁d'>b":9619,"▁!>!B4":9620,"▁e<ac":9621,"▁uF":9622,"▁[EB]":9623,"▁d>fB>d":9624,"▁dfdA":9625,"▁E<AA":9626,"▁(cB)cd":9627,"▁X:1<br>L:1/8<br>M:9/8<br>K:C":9628,"▁X:1<br>L:1/8<br>Q:1/4=120<br>M:4/4<br>K:Bb":9629,"▁d(f":9630,"m/B\"":9631,"▁a>ee":9632,"▁cgeg":9633,"▁B,EEF":9634,"▁=e3":9635,"▁X:1<br>L:1/8<br>Q:1/8=150<br>M:4/4<br>K:G":9636,"▁B,,B,,":9637,"▁AA/B/c":9638,"▁G>BA>c":9639,"▁=fdcA":9640,".G.G.G":9641,"\"_e\"e":9642,"[Q:1/8=3":9643,"Brisk\"":9644,"{^F}":9645,"▁AEFG":9646,"▁B(A":9647,"▁eGG":9648,"▁GGFG":9649,"▁cf/g/":9650,"▁c\"G7\"":9651,"▁g\"D7\"":9652,"▁DE/D/":9653,"▁d2\"Am\"":9654,"▁(3AG":9655,"▁(3.d.d.d":9656,"▁BAE":9657,"▁|:S":9658,"A\"Bm\"":9659,"▁^fed":9660,"▁.A)":9661,"▁=cde":9662,")(EF)":9663,")(g/f/)":9664,"▁e/g/e/":9665,"▁(ABcd)":9666,"▁(3(eg":9667,"▁|{c'}":9668,"▁B/c/d/":9669,"▁FE)":9670,"▁(B<A)":9671,"{d}A/":9672,"▁BdB\"D\"":9673,"▁c'2a2":9674,"▁vB2":9675,"▁ECB,C":9676,"▁X:1<br>L:1/8<br>Q:1/2=5":9677,"▁fcaf":9678,"▁(a>g":9679,"▁X:1<br>L:1/8<br>Q:1/4=2":9680,"▁||[M:2/2][K:":9681,"▁::[K:Bb]":9682,"▁FdcB":9683,">d2)":9684,"▁(gf)e":9685,"]/[dB":9686,"▁d(g":9687,"▁|\"^(C)\"":9688,"▁X:1<br>L:1/16<br>M:3/4<br>K:Amin":9689,"▁dAAd":9690,"e'd'":9691,"▁e>ac>a":9692,"▁A,CEG":9693,"▁X:1<br>L:1/8<br>Q:1/2=100<br>M:2/2<br>K:D":9694,"▁a>gf>g":9695,"▁(d'c'":9696,"▁G,A,CD":9697,"▁X:1<br>L:1/8<br>Q:1/2=75<br>M:4/4<br>K:":9698,"▁X:1<br>L:1/4<br>Q:1/4=9":9699,"empo\"":9700,"')":9701,"8\"":9702,"^A)":9703,"_e/":9704,"b/4":9705,"d{g}":9706,"fG":9707,"our":9708,"▁A{g}":9709,"▁ee/g/":9710,"▁Gb":9711,"▁f=g":9712,"▁(^d":9713,"▁(c/A/":9714,"▁(B,C)":9715,"▁DBc":9716,"▁A2>d2":9717,"ed>B":9718,"▁(3afa":9719,"▁ag/e/":9720,"g/a/g/":9721,"▁.B/":9722,"▁ef^d":9723,")(ed":9724,"▁A,>F":9725,"▁EF^GA":9726,"][EA":9727,"][Gc":9728,"][CE]":9729,"▁ge)":9730,"▁ADA":9731,"▁AABA":9732,"▁efe^c":9733,"▁a>ge>c":9734,"▁e>cB>A":9735,"▁EAGB":9736,"FFF":9737,"▁fgae":9738,"▁[EA,]":9739,"▁=c>d":9740,"0<br>M:2/2<br>K:Gmin":9741,"▁(AB)c":9742,"▁A>BcA":9743,"▁[A,A":9744,"▁[GD]":9745,"▁ed/d/":9746,"▁.G2)":9747,"▁dAAF":9748,"▁d2(cB)":9749,"▁(3:2:5":9750,">A/)":9751,"▁Bbfd":9752,"▁X:1<br>L:1/8<br>M:3/8<br>K:F":9753,">e/)":9754,"▁Aaa^g":9755,"▁ccdd":9756,"▁\"^Intro\"":9757,"75":9758,"▁{gf}":9759,"▁A)(":9760,"▁Bfed":9761,"▁e\"D7\"":9762,"▁cz":9763,"▁D\"C\"":9764,"▁d2fe":9765,"▁e2ag":9766,"▁(3CCC":9767,"▁ed=c":9768,"▁BA-":9769,"▁D2A2":9770,"▁a2ge":9771,"▁fdb":9772,"▁fd^cd":9773,"FAB":9774,"<br>M:6/4<br>K:":9775,"▁|]\"A\"":9776,"▁agf2":9777,"▁X:1<br>L:1/8<br>M:4/4<br>K:Bdor":9778,"▁fg)":9779,"▁d/>":9780,"▁FDA,D":9781,"▁c/>d/":9782,"▁de^c":9783,"][Aa":9784,"▁ge'":9785,"▁gfe^c":9786,"▁DGBA":9787,"▁(Bg":9788,"▁A<dd":9789,"▁B/A/B/d/":9790,">!tenuto!":9791,"▁bar":9792,"▁dAFG":9793,"dgb":9794,"▁fdf\"A\"":9795,"▁(TG":9796,"Ae]2":9797,"B,/D/":9798,"{/b}":9799,"▁{Bc}":9800,">.e)":9801,">.g)":9802,"▁C<C":9803,"▁(AB)(cA)":9804,"A/4B/4":9805,"▁g>abg":9806,"▁e=ce":9807,"▁\"^Variation":9808,"▁B,<G,":9809,"G,A,)":9810,"▁B2E2A2":9811,"▁[AD,,]":9812,"▁[M:5/4]":9813,".A,":9814,"/1":9815,"=c'":9816,"▁d^ce":9817,"▁cG/G/":9818,"▁fz":9819,"▁F=":9820,"▁FcAF":9821,"▁(DEF":9822,"▁(g/e/)":9823,"▁(G/B/)":9824,"▁E\"G\"":9825,"▁EGGG":9826,"▁E^GB":9827,"▁|\"E/B\"":9828,"▁f2\"G\"":9829,"▁D2B,2":9830,"▁AGGE":9831,"fd>f":9832,"▁agd":9833,"▁=c/":9834,"▁=GF":9835,"▁dfab":9836,"▁EDB":9837,"A,}":9838,"▁GBg":9839,"▁Tb2":9840,"▁c'aa":9841,"▁gddc":9842,"▁ddd2":9843,"▁X:1<br>L:1/4<br>M:none<br>K:":9844,"▁cde\"G\"":9845,"▁agf\"G\"":9846,"▁g>^fg":9847,"▁c>dcB":9848,"▁efe^d":9849,"▁X:1<br>L:1/16<br>M:2/2<br>K:":9850,"▁gecB":9851,"▁(F<D)":9852,"▁f>dc>A":9853,"▁X:1<br>L:1/16<br>M:2/4<br>K:Amin":9854,"▁c>ec>A":9855,"▁vF":9856,"▁c>eA>c":9857,"▁(DG)(":9858,"▁(a>b)":9859,".e.e":9860,"▁([ce":9861,"▁A^FD":9862,"C2O":9863,"▁(A/B/c":9864,"▁b>ge>c":9865,"▁[Ec]6":9866,"▁|\"^(B":9867,"\"^C\"\"C\"":9868,"▁(a/g/f/e/":9869,"▁e>cA>G":9870,"▁|{/e}":9871,"▁(d'2":9872,"▁e/d/c/B/A/G/":9873,"▁X:1<br>L:1/8<br>M:3/2<br>K:G":9874,"▁B=GGB":9875,"▁A<FF>A":9876,"▁(F/G/A)F":9877,"▁\"^Pl":9878,"][Be]":9879,"▁(F/E/D)":9880,"▁Jig.\"":9881,"▁\"_Alleg":9882,">EF":9883,"D#\"":9884,"^D/":9885,"l\"":9886,"▁A\"^":9887,"▁fe/":9888,"▁c2>c2":9889,"▁[_":9890,"ecB":9891,"▁^ef":9892,"▁=c'":9893,")(DE)":9894,"▁cB^A":9895,"GEC":9896,"▁c'c":9897,"▁\"^D\"":9898,"▁FGGF":9899,"G,][":9900,").g2":9901,"efg}":9902,"▁A>cd":9903,"▁!fermata!C":9904,"▁X:1<br>L:1/8<br>M:6/8<br>K:Gmix":9905,"\"_F":9906,"▁fdBF":9907,"▁(G^F)":9908,"▁(3F,":9909,"▁uc2":9910,"▁fAdA":9911,"▁B>dc>e":9912,"▁B>GE":9913,"▁ECDE":9914,"▁age^c":9915,"▁(E<A)":9916,"▁(b4":9917,"▁BEEc":9918,"▁e>dc>A":9919,"▁{ef}":9920,"▁ed/^c/":9921,"▁=gfg":9922,"A,/B,/":9923,"▁X:1<br>L:1/8<br>Q:1/4=96":9924,"▁d2(ef)":9925,"▁(GA)(Bc)":9926,")(Ad)":9927,"\"^(Dm)\"":9928,"E/E/E":9929,"▁[Aa]":9930,"▁eBGE":9931,"\"^1\"a":9932,"][eG]":9933,"▁(^FG)":9934,"(cA)":9935,"ABA":9936,"^B":9937,"_Bc":9938,"a]2":9939,"d>G":9940,"om":9941,"zD":9942,"▁Ae/f/":9943,"▁BDF":9944,"▁eba":9945,"▁Ggd":9946,"▁c\"C7\"":9947,"▁c{e}A":9948,"▁B2ed":9949,"▁BAdc":9950,"d/f/)":9951,"▁^d/":9952,"▁.A/":9953,"▁.d'2":9954,"F\"_":9955,"▁fgg":9956,"▁gf\"C\"":9957,"▁Bcec":9958,"▁AcFc":9959,"][fa":9960,"▁EDBA":9961,"▁TBAB":9962,"G2G2":9963,"▁ABA\"G\"":9964,"▁G,>F,":9965,"▁dgdg":9966,"▁|\"^=\"":9967,"▁BEG":9968,"▁EGDC":9969,"▁(d^c":9970,"a!p!":9971,"▁gaa":9972,"▁B<EE":9973,"▁X:1<br>L:1/8<br>Q:1/8=120<br>M:4/4<br>K:D":9974,"▁ccec":9975,"▁d>B\"D\"":9976,"▁(e^d":9977,"▁(e^d)":9978,"▁(GA/B/)":9979,"▁!>!a":9980,"▁F,E,":9981,"{e}d":9982,"▁(3FG":9983,"▁vG2":9984,"\"^(b)\"":9985,"▁X:1<br>L:1/4<br>M:4/4<br>K:Bb":9986,">C)":9987,"▁DB,G,B,":9988,"▁F>GAB":9989,"▁[BG,]2":9990,"▁e>ge":9991,"▁X:1<br>L:1/8<br>M:9/8<br>K:Bmin":9992,"▁\"^A\"\"F\"":9993,"▁.d3":9994,"▁[AF][BG]":9995,">A2)":9996,"▁||\"^D\"":9997,"▁[ec][dB]":9998,"▁eccg":9999,"▁e'3":10000,"▁e>fg>f":10001,"m/E\"":10002,"▁:|2,4\"G\"":10003,">.G)":10004,"▁(e/g/":10005,"d/4e/4)":10006,"▁g/e/d/c/":10007,"▁X:1<br>L:1/4<br>Q:1/2=120<br>M:2/2<br>K:":10008,"▁(B/G/)":10009,"][DB]":10010,"26":10011,"=C\"":10012,"Db\"":10013,"D>D":10014,"^EF":10015,"sic":10016,"▁B(d":10017,"▁ce/g/":10018,"▁fAB":10019,"▁ge/f/g":10020,"▁(.f":10021,"BAF)":10022,"▁BA/A/":10023,"c/d/e/":10024,"▁AGD":10025,"▁fdeB":10026,"cA]":10027,"▁^c)":10028,"EDF":10029,"▁=B/":10030,"▁d/B/A/G/":10031,"▁feec":10032,"▁Tag":10033,"▁TE>D":10034,"▁|{EF}":10035,"▁afda":10036,"df]2":10037,"▁BEEG":10038,"▁X:1<br>L:1/8<br>M:3/4<br>K:Ador":10039,"▁ddBd":10040,"▁B,2D2":10041,"▁B<dB":10042,"▁GGBd":10043,"\"_*\"":10044,"▁B>cBA":10045,"▁(c>e)":10046,"▁(g<b)":10047,"▁(F>G":10048,"▁AGAd":10049,"▁(GD)":10050,"▁EABc":10051,"▁edea":10052,"▁ve2":10053,"▁ECEF":10054,"▁a/g/a/b/":10055,"▁A/G/A":10056,"▁fbf":10057,"a/f/d/":10058,"▁EBDB":10059,"▁[ec]4":10060,"▁e^deg":10061,"▁X:1<br>L:1/8<br>Q:3/8=120<br>M:6/8<br>K:F":10062,"▁|1,3\"A7\"":10063,").d.e":10064,"▁Pc2":10065,"▁cdB\"A\"":10066,"▁X:1<br>L:1/8<br>Q:1/2=112":10067,"▁f6-":10068,"c/c/c":10069,"▁X:1<br>L:1/8<br>M:2/4<br>K:Amix":10070,"<br>M:6/8<br>K:F":10071,")(AE)":10072,"▁f(e/d/)":10073,"▁[eA]":10074,"▁X:1<br>L:1/16<br>Q:1/4=120<br>M:2/4<br>K:G":10075,"\"^(Gm)\"":10076,"▁!>!A4":10077,"▁(B/A/)(G/F/)":10078,"\"^4\"A":10079,"2c":10080,"g-":10081,"imat":10082,"▁d=B":10083,"▁FBBB":10084,"▁FcAc":10085,"▁DA,A,":10086,"▁D>A,":10087,"▁D^CD":10088,"▁A2{BA}":10089,"▁B2B,2":10090,"▁f2F2":10091,"▁BAG\"C\"":10092,"▁dccA":10093,"▁dBG\"D\"":10094,"▁ag\"D\"":10095,"\"^rit.\"":10096,"▁GF)":10097,"▁A,A,A,":10098,"▁EFFE":10099,"▁GEB":10100,"▁GEcA":10101,"B2B2":10102,"a/e/":10103,"▁GBec":10104,"▁dcB\"D7\"":10105,"g2g2":10106,"▁|\"^G":10107,"▁|\"^3\"":10108,"▁gbgd":10109,"▁gdbg":10110,"▁ddcA":10111,"▁AAce":10112,"▁g>af":10113,"▁efe\"G\"":10114,"▁(c>B":10115,"▁(G<E)":10116,"▁bag\"D\"":10117,"▁!>!G4":10118,"▁f>de>f":10119,"G/A/G/":10120,"▁[M:9/8][K:":10121,"▁fAed":10122,"▁G<GG":10123,"▁G>EF":10124,"▁edd^c":10125,"▁e2e2e2":10126,"▁sharp":10127,"▁f2f2f2":10128,"▁|\"^2\"":10129,"▁gefa":10130,"▁(c/B/A/":10131,"▁A2(AB)":10132,"▁Tg>":10133,"▁(3c/d/e/":10134,"][Af]":10135,").c/.B/":10136,"(C":10137,"(eg)":10138,"FG)":10139,"e3/2":10140,"o.\"":10141,"▁fa/g/":10142,"▁d2{ed}":10143,"▁c2AB":10144,"▁f2e":10145,"▁bfa":10146,"▁cA\"D\"":10147,"▁AG/":10148,"d/g/":10149,"▁ag)":10150,"\"^H":10151,"\"^p":10152,"▁.d'":10153,"▁def{a}":10154,"▁AcF":10155,"▁d/>d/":10156,"▁FD-":10157,"▁feee":10158,"▁(3(GFG)":10159,"▁FEEA":10160,"d/c/d/)":10161,"Ac]":10162,"a2f2":10163,"▁(BF)":10164,"▁e/f/gf":10165,"▁BgBg":10166,"▁eAAg":10167,"\"^(Bb)\"":10168,"▁gBeg":10169,"▁(TED)":10170,"▁(Tgf)":10171,"▁EFAF":10172,"▁DAD":10173,"▁^defg":10174,"▁(A/F/)":10175,"▁(3(AcA)":10176,"▁(ed/c/)":10177,"▁(cd)ef":10178,"▁|]:\"D\"":10179,"▁(c/d/e":10180,"▁|\"_f\"":10181,"▁[BD][":10182,"▁(ec)A":10183,"oderato\"":10184,")(gB)":10185,"▁c(B/A/)":10186,"▁B8-":10187,"▁B^c^d":10188,"▁|][M:4/4][K:":10189,"▁A,<D":10190,"▁[dA]2":10191,"\"^(C7)\"":10192,"alleg":10193,"▁expression\"":10194,"-][ee":10195,"2-":10196,">C/":10197,"G/4)":10198,"▁I":10199,"▁eedB":10200,"▁cGA":10201,"▁F=EF":10202,"▁d2c":10203,"▁B2GA":10204,"▁e2d":10205,"▁e2(3":10206,"▁(3BAF":10207,"▁D2f2":10208,"▁E2\"G\"":10209,"▁||\"A7\"":10210,"B/F#\"":10211,"▁a2aa":10212,"▁GAce":10213,"▁|1\"C7\"":10214,"▁B,8":10215,"▁B,DE":10216,"▁=B,C":10217,"▁AB)":10218,"▁AB^G":10219,"▁ABc\"G\"":10220,"▁A,>A":10221,"▁dfAf":10222,"▁GE/F/":10223,"▁dgBG":10224,"{g}ec":10225,"▁eafe":10226,"▁|\"^F":10227,"▁ccce":10228,"CE)":10229,"▁e<E":10230,"▁e<Ac":10231,"\"^(Eb)\"":10232,"▁e/d/B":10233,"▁E/F/E":10234,"▁(aA)":10235,"▁(AG)F":10236,"▁Ggga":10237,"{/F}":10238,"▁FdEc":10239,"0<br>M:3/4<br>K:Amin":10240,"/B/)":10241,">B2)":10242,"▁[AA,,]":10243,"▁(de)fg":10244,"▁[dB]3":10245,"ert":10246,"▁(GF)ED":10247,"c'ba)":10248,"▁A(B":10249,"▁|:\"^A\"\"D\"":10250,"\"_c\"c/":10251,"▁X:1<br>L:1/8<br>Q:1/2=96":10252,"▁gGBd":10253,"▁[cE][":10254,"▁[ge][fd]":10255,"▁c/B/A/^G/":10256,"▁(e<a)":10257,"▁X:1<br>L:1/4<br>Q:1/4=120<br>M:2/2<br>K:":10258,"▁Begf":10259,"▁(f/d/)":10260,"▁d=cAG":10261,".d.c.B":10262,"▁G/^F/G":10263,"▁Writ":10264,"=dc":10265,"=ce":10266,"[FA]":10267,"▁dGAB":10268,"▁B<b":10269,"▁BG\"D7\"":10270,"▁G\"":10271,"▁c\"F\"":10272,"▁caaa":10273,"▁ffg":10274,"▁DGE":10275,"▁A2cB":10276,"▁e2\"D7\"":10277,"▁f2ec":10278,"▁b-":10279,"▁E2ED":10280,"▁||\"C7\"":10281,"▁dc=B":10282,"cA2":10283,"cA>c":10284,"▁BdFA":10285,"fd]2":10286,"B,]3":10287,"▁fedg":10288,"▁ABcf":10289,")(d/B/)":10290,"▁efgB":10291,"c2c2":10292,"▁(AE)":10293,"][ac":10294,"][Fd]":10295,"▁!^!":10296,"▁\"^R":10297,"▁c>def":10298,"^ga)":10299,"▁|[M:7/8]":10300,"▁(g>f":10301,"▁(g3/2":10302,"▁BBBG":10303,"▁(f>e":10304,"▁EAA^G":10305,"▁B>GD":10306,"▁FDDe":10307,"▁AEC":10308,"▁cfef":10309,"▁^c2d2":10310,"▁A^G/A/":10311,"▁A>dd":10312,"▁(e2d2)":10313,"▁X:1<br>L:1/8<br>Q:1/4=120<br>M:4/4<br>K:Emin":10314,"▁[AA,]2":10315,"▁ecca":10316,"▁X:1<br>L:1/8<br>Q:1/8=160<br>M:6/8<br>K:Amin":10317,"▁X:1<br>L:1/16<br>Q:1/4=11":10318,"▁fBBa":10319,").f.d":10320,"▁(fga)":10321,"▁::\"^variations\"":10322,"▁Tf>ed":10323,"▁|\"G#m\"":10324,"▁|{/g}":10325,"▁[K:D]\"D\"":10326,"▁(3aed":10327,">vA":10328,").d/.c/":10329,").f/.e/":10330,"!<)!":10331,"▁(3(EFE)":10332,"(Bc":10333,"5d\"":10334,"Ephr":10335,"b.\"":10336,"cb":10337,"g>c":10338,"▁GdFd":10339,"▁cba":10340,"▁cage":10341,"▁E>B,":10342,"▁DDF":10343,"▁A2cd":10344,"▁B2f2":10345,"▁f2{e}":10346,"c/f/":10347,"▁dc=Bc":10348,"A/C#\"":10349,"▁c/>c/":10350,"▁fa\"A\"":10351,"G2A2":10352,"▁dcB\"A\"":10353,"▁EGGB":10354,"▁X:1<br>L:1/8<br>Q:1/4=17":10355,"▁A<Ae":10356,"\"_2\"":10357,"▁\"Am7\"":10358,"▁C/D/E/F/":10359,"▁dcBcdB":10360,"▁AFFc":10361,"▁X:1<br>L:1/8<br>Q:1/4=100<br>M:4/4<br>K:":10362,"▁Agec":10363,"▁PB2":10364,"▁:|2,4\"A7\"":10365,"▁a)g":10366,"▁X:1<br>L:1/8<br>Q:3/8=5":10367,"▁[cE]3":10368,"▁.a.g":10369,"7/B\"":10370,"▁BGA^F":10371,"▁D8-":10372,"▁dDDF":10373,"▁cBGE":10374,"▁x4":10375,"\"^SEGUE\"":10376,"▁|][K:G]":10377,"▁[GG,]3":10378,"▁[EA]3":10379,"][AE]":10380,"▁[DA]3":10381,"=FD":10382,"A>E":10383,"^A2":10384,"▁dc/A/":10385,"▁Be/d/":10386,"▁e/4f/4":10387,"▁(.g":10388,"▁ED\"":10389,"▁EBAG":10390,"▁|\"D/":10391,"▁D^":10392,"▁B2\"Em\"":10393,"▁e2{GdG}":10394,"edit":10395,"G\"Bm\"":10396,"C\"Dm\"":10397,">B,2":10398,"▁.B)":10399,"▁def\"A\"":10400,"▁ABBB":10401,"▁eg-":10402,"▁ce\"D\"":10403,"▁ceAB":10404,"▁c'>d'":10405,"▁FGA=c":10406,"▁gfedcB":10407,").G2":10408,"▁X:1<br>L:1/8<br>Q:1/4=120<br>M:9/8<br>K:":10409,"▁B>cde":10410,"▁vc2":10411,"▁vg2":10412,"▁variation":10413,"(3g":10414,".d.f":10415,"▁dfed\"A\"":10416,"▁fBBd":10417,"▁X:1<br>L:1/4<br>M:4/4<br>K:Amin":10418,"▁[G,G]4":10419,"▁^g3":10420,"▁^g4":10421,"▁X:1<br>L:1/8<br>Q:1/8=160<br>M:4/4<br>K:G":10422,"▁X:1<br>L:1/8<br>Q:1/8=160<br>M:6/8<br>K:Emin":10423,"▁|\"^(a)":10424,"\"^C\"\"Bb\"":10425,"▁dbb":10426,"▁[B,E":10427,"▁[B,G]4":10428,"▁g2f2e2d2":10429,"▁Teil":10430,"▁[Dd]3":10431,"▁(fa)fd":10432,"{gBd}B":10433,"▁ceAg":10434,"▁e=fed":10435,"▁GCEG":10436,"▁Begb":10437,"▁X:1<br>L:1/8<br>Q:3/8=90<br>M:6/8<br>K:D":10438,"▁=cBAG":10439,"▁B>cA>B":10440,"▁|\"^(Em)\"":10441,"5/8<br>K:":10442,"<G2":10443,"=AB":10444,"=FE":10445,">ED":10446,">.A":10447,"E3":10448,"[ce]":10449,"{fa}":10450,"▁H":10451,"▁d^f":10452,"▁Baf":10453,"▁F\"Em\"":10454,"▁(ae":10455,"▁(G/E/)":10456,"▁D\"D\"":10457,"▁DB/c/":10458,"▁d2cA":10459,"▁d2gf":10460,"▁B2{GdGe}":10461,"▁bBB":10462,"▁E2\"A7\"":10463,"e/g/)":10464,"▁^ge":10465,"▁.e/":10466,"F\"Dm\"":10467,"▁A/>":10468,"▁AB-":10469,"AA)":10470,"▁egc'":10471,"▁AcGA":10472,"▁AccB":10473,"▁d/f/e/d/":10474,"▁efg\"G\"":10475,"▁FDAG":10476,"▁(Aa)":10477,"][FD":10478,"A,]3":10479,"▁geBG":10480,"▁(3(a":10481,"▁c'ge":10482,"▁f/>g/":10483,"A2F2":10484,"▁bg\"D\"":10485,"▁bggf":10486,"e/f/g)":10487,"▁X:1<br>L:1/8<br>Q:1/8=120<br>M:4/4<br>K:":10488,"▁!fermata!z":10489,"▁c<ec":10490,"▁(c/4d/4":10491,"▁EAAF":10492,"▁ECGE":10493,"▁G<d":10494,"▁(E>F":10495,"▁BcAG":10496,"f)}":10497,"▁(ed)c":10498,"▁^cdeg":10499,"▁g>dB":10500,"▁[AF][GE]":10501,"▁[G_B":10502,"m/Eb\"":10503,"▁:|2,4\"A\"":10504,").e.f":10505,"▁X:1<br>L:1/8<br>M:12/8<br>K:Ador":10506,"Af]":10507,"7/E\"":10508,"▁.!fermata!PMTuC2O":10509,"f/d/f/":10510,"▁(3(faf)":10511,"\"^f#\"":10512,"▁!>!d3":10513,"▁X:1<br>L:1/4<br>Q:1/8=2":10514,"!mf!":10515,"'2":10516,"(ge)":10517,".f)":10518,"2A":10519,"2<br>M:3/4<br>K:":10520,">c/)":10521,"d3/2)":10522,"▁Aefg":10523,"▁A12":10524,"▁e[":10525,"▁ff/":10526,"▁FBdf":10527,"▁ave":10528,"▁A2fg":10529,"▁B2df":10530,"▁g2>g2":10531,"▁edd2":10532,"▁E2EG":10533,"▁dc-":10534,"d/A/":10535,"Bdim\"":10536,"▁cdBG":10537,"▁^CE":10538,"\"^p\"":10539,"F\"Bb\"":10540,")(d'":10541,"▁AdG":10542,"▁(AFD)":10543,"][bg":10544,"▁ecA\"D\"":10545,"▁G/D/":10546,"▁GBEF":10547,"▁fade":10548,"▁C2A,2":10549,"▁af\"G\"":10550,"▁dg^fa":10551,"▁ea2":10552,"▁g/f/g/":10553,"ee>f":10554,"▁e>dd":10555,"dd'":10556,"▁ccBc":10557,"▁(f/4g/4":10558,"▁c>=Bc":10559,"▁eBBc":10560,"▁uce":10561,"▁X:1<br>L:1/8<br>Q:1/8=9":10562,"▁(gf).g":10563,"{B}AG":10564,"▁Affe":10565,"▁X:1<br>L:1/16<br>Q:1/2=":10566,"▁(f/g/f)":10567,"▁^d4":10568,"▁(A/B/c/A/)":10569,"▁B,/D/":10570,"▁f2e2d2":10571,"▁:|[M:3/4]":10572,"\"Gb\"":10573,"▁X:1<br>L:1/8<br>Q:3/4=90<br>M:6/4<br>K:":10574,"▁g^f/g/":10575,"▁CB,A,G,":10576,"▁ccBB":10577,"5/32":10578,"▁CDFG":10579,"▁|\"^fine\"":10580,"\"^a.\"":10581,"▁X:1<br>L:1/4<br>Q:3/4=120<br>M:":10582,"▁f_edc":10583,"({d}":10584,"(EF)":10585,"^ge":10586,"^G/)":10587,"final\"":10588,"g^f":10589,"n\"":10590,"ow":10591,"{cBA":10592,"▁A\"E\"":10593,"▁cEF":10594,"▁c(A":10595,"▁DAB":10596,"▁DBAG":10597,"▁e2{f}":10598,"▁(3G2":10599,"▁CFG":10600,"▁BGDC":10601,"d/F/":10602,")(B>c)":10603,"▁A,>E":10604,"▁A,,4":10605,"▁FD)":10606,"{gf)}":10607,"][c":10608,"▁b2e2":10609,"▁ecA2":10610,"B/A/G":10611,"▁DFAD":10612,"▁ddA":10613,"▁gae":10614,"▁d>Bg>B":10615,"▁dGd":10616,"▁Be-":10617,"▁A>GE>G":10618,"▁d<a":10619,"▁BBB2":10620,"▁(f>a)":10621,"▁(TE2":10622,"C]SOSOO":10623,"▁cGe":10624,"▁=B4":10625,"a/b/c'/":10626,"ent":10627,"▁^GABG":10628,"▁(.B2":10629,"▁X:1<br>L:1/8<br>Q:1/8=232<br>M:4/4<br>K:Bb":10630,"▁.g.e":10631,"▁EGEC":10632,"e/e/e":10633,"▁(3DGB":10634,"a>g)":10635,"▁C6-":10636,"▁DB,DG":10637,"!wedge!B":10638,"\"^sic\"":10639,"▁!fermata!g3":10640,"▁|\"^c\"":10641,"▁X:1<br>L:1/4<br>Q:1/4=115<br>M:4/4<br>K:":10642,"▁X:1<br>L:1/16<br>Q:1/8=8":10643,"▁|:[K:C]\"G7\"":10644,"▁DF/G/A":10645,"▁(Te>d)":10646,"({a}":10647,"4<br>K:":10648,"=D":10649,"TcA":10650,"e.\"":10651,"{G":10652,"▁Reel.\"":10653,"▁BFG":10654,"▁BfB":10655,"▁gBg":10656,"▁(^f":10657,"▁(^G":10658,"▁(d/B/":10659,"▁E/4":10660,"▁D>f":10661,"▁a<b":10662,"▁d2BA":10663,"▁(3f2":10664,"▁(3B,B,B,":10665,"▁g2\"D7\"":10666,"▁BAB2":10667,"▁D2\"G\"":10668,"▁F2GF":10669,"▁F2DF":10670,"▁bef":10671,"▁b>c":10672,"▁E2\"D7\"":10673,"▁[^c":10674,"▁cA/A/":10675,"▁fd\"Em\"":10676,"A/c":10677,"Bd]":10678,"▁GAAB":10679,"▁^d/e/":10680,"▁=eg":10681,"▁eg\"D\"":10682,")(ab)":10683,"▁(Ae)":10684,"▁ecAa":10685,"B/c/d/B/)":10686,"c']":10687,"B/A/F/":10688,"▁\"^p\"":10689,"BBB)":10690,"▁DFFE":10691,"▁c>dc>A":10692,"▁dGBA":10693,"▁(FG":10694,"▁BGEd":10695,"▁a>ga>b":10696,"▁f<de":10697,"▁^c>A":10698,"▁aeae":10699,"▁A3/2{d}c/":10700,"▁G>B,":10701,"▁G>BE":10702,"▁efdA":10703,"\"^B\"\"G\"":10704,"▁||[M:6/8][K:":10705,"▁d>AF":10706,"stit":10707,"▁=gfe":10708,"▁gAf":10709,"C#dim\"":10710,"^C)":10711,"▁[CE]4":10712,"7/G#\"":10713,"▁CA,CE":10714,"^F/)":10715,"▁Td>c":10716,"▁(A<G)":10717,"ll\"":10718,"][DA":10719,"▁(ge)(dB)":10720,"▁:|[M:6/8][K:":10721,"▁(F/G/A":10722,"▁[BE]":10723,"▁X:1<br>L:1/16<br>M:3/8<br>K:C":10724,"▁X:1<br>L:1/4<br>Q:1/2=100<br>M:3/2<br>K:":10725,"/4=100]":10726,"▁1st":10727,"▁!fermata!D4":10728,"][Q:1/4=":10729,"▁X:1<br>L:1/4<br>Q:1/2=8":10730,"▁A/^G/A":10731,"▁(3G,A,B,":10732,"____":10733,"▁ec/d/e":10734,"{g}c/{d}A3/2":10735,"ternat":10736,"ubstit":10737,"][dA]":10738,"/C/":10739,"2e":10740,"8v":10741,"B>":10742,"ID":10743,"[GG,]":10744,"^d/)":10745,"a/4)":10746,"uE":10747,"▁d_":10748,"▁B(3":10749,"▁G^G":10750,"▁d2fa":10751,"▁c2\"Bb\"":10752,"▁(3^cde":10753,"▁D2\"A7\"":10754,"▁F2F":10755,"▁[EE":10756,"▁cA^G":10757,"▁fd/d/":10758,"A/c/)":10759,"▁BdD":10760,"▁Bd^cd":10761,"\"^f\"":10762,"▁.f/":10763,"▁B/e/":10764,"▁Bcd\"C\"":10765,"\"G\"_":10766,"▁dBAF\"D\"":10767,"▁(3(EDE)":10768,"▁|\"Bb":10769,"▁edc\"E7\"":10770,").c2":10771,"▁EGC":10772,"▁EGDF":10773,"▁d>cB>d":10774,"▁A<AA":10775,"▁(gab)":10776,"▁^FGAB":10777,"trag":10778,"▁dfed\"G\"":10779,"▁gBe":10780,"▁X:1<br>L:1/4<br>M:3/4<br>K:Dmin":10781,"▁(Tf>e)":10782,"▁X:1<br>L:1/8<br>M:9/8<br>K:F":10783,"▁^d>e":10784,"▁^f>g":10785,"▁e>Ac>e":10786,"0<br>M:3/4<br>K:Dmin":10787,"▁Aa^ga":10788,"▁(cd)cB":10789,"▁g)e":10790,"▁X:1<br>L:1/8<br>Q:3/8=120<br>M:6/8<br>K:Bb":10791,"▁ADDA":10792,"▁aeca":10793,"▁Pg2":10794,"▁cgBg":10795,"▁(e/c/)":10796,"▁A^GAc":10797,"▁c/e/d/c/":10798,"▁f>ef<a":10799,"=B/^c/":10800,"▁.E3":10801,"▁d>fe>g":10802,"▁D>FA>B":10803,"0<br>M:4/4<br>K:Ab":10804,"▁!fermata!A3":10805,"▁Ddd^c":10806,"▁X:1<br>L:1/16<br>M:3/8<br>K:D":10807,"▁!fermata!e3":10808,"▁[EC]3":10809,".D.D.D":10810,"!plus!":10811,"\"F#":10812,"=A/":10813,"^d/e/":10814,"^de)":10815,"a]":10816,"nd\"":10817,"npi":10818,"vA":10819,"▁{gfg}":10820,"▁Af/e/":10821,"▁A\"Bm\"":10822,"▁AEEE":10823,"▁Bece":10824,"▁eBde":10825,"▁ebgb":10826,"▁f\"Em\"":10827,"▁gGB":10828,"▁Dgfe":10829,"▁d2AG":10830,"▁c2ed":10831,"▁g2{f}":10832,"▁g2c'2":10833,"▁BdF":10834,"▁AFBG":10835,"F/G/A/":10836,")(e>f)":10837,"▁FDd":10838,"▁c/a/":10839,"▁(A>G":10840,"GG)":10841,"▁e>dcB":10842,"▁FED^C":10843,"\"_S":10844,"▁baaf":10845,"▁bag2":10846,"▁!>!a4":10847,"▁F,<":10848,"▁vf2":10849,"▁uG2":10850,"▁F>Ad>e":10851,"▁G<GB":10852,"▁(TF":10853,"▁(TBAB)":10854,"▁eagb":10855,"▁Aafd":10856,"▁.e.c":10857,"AD,]":10858,"▁{cd}":10859,"▁e^dec":10860,"▁B,4-":10861,"m/A\"":10862,"▁|1,3\"A\"":10863,"▁Ddcd":10864,"en!":10865,"▁X:1<br>L:1/8<br>Q:1/8=232<br>M:4/4<br>K:C":10866,"▁X:1<br>L:1/8<br>Q:1/8=232<br>M:4/4<br>K:Amin":10867,"▁X:1<br>L:1/8<br>Q:1/2=100<br>M:4/4<br>K:D":10868,"▁X:1<br>L:1/8<br>Q:1/4=120<br>M:6/8<br>K:A":10869,"▁dfgf":10870,"d/4e/4":10871,"ten\"":10872,"!wedge!d":10873,"▁bBaB":10874,"\"^shake\"":10875,"▁ga/g/f/e/":10876,"▁X:1<br>L:1/4<br>M:6/4<br>K:F":10877,"▁[BE]2":10878,"D.S.\"":10879,"<br>M:3/8<br>K:G":10880,"[AD]":10881,"▁G>ED>E":10882,"open!":10883,"▁|[M:1":10884,"▁(D/E/F/G/)":10885,"▁\"^Tenderly\"":10886,"/1<br>K:":10887,".B,":10888,"8<br>M:4/4<br>K:":10889,"TBA":10890,"bd'":10891,"ded":10892,"▁feg":10893,"▁F^G":10894,"▁FF/E/":10895,"▁(_B":10896,"▁c2\"D7\"":10897,"▁(3^d":10898,"▁(3GFG)":10899,"▁BAdF":10900,"▁D2>D2":10901,"▁b^g":10902,"▁[fc":10903,"▁cAa":10904,"▁:|2\"Cm\"":10905,"▁cd)":10906,"F\"Bm\"":10907,"▁=Bcd":10908,"▁A,DE":10909,"▁Bcd\"A7\"":10910,"▁c/d/e/d/":10911,"d2d2":10912,"▁GE=C":10913,"▁(AGA)":10914,"▁!3!":10915,"▁c'afa":10916,"▁af)":10917,"▁\"^with":10918,"▁|\"^p\"":10919,"▁G>ABB":10920,"▁gdBA":10921,"▁agf\"A\"":10922,"▁D/)":10923,"▁dGGA":10924,"{d}cA":10925,"▁(gc)":10926,"▁c>A\"G\"":10927,"▁d<BG":10928,"▁e>Bc":10929,"▁a>ga>e":10930,"▁F,G,":10931,"▁X:1<br>L:1/16<br>M:2/4<br>K:Dmin":10932,"▁ede^f":10933,"▁ee'":10934,"▁DCA,C":10935,"▁G<D":10936,"▁X:1<br>L:1/4<br>M:4/4<br>K:Dmin":10937,"▁(Bc)d":10938,"▁(Bc)dB":10939,"▁B,DA,D":10940,"▁ecdf":10941,"▁|:\"^A":10942,"g/a/b":10943,"▁gfdg":10944,"BeB":10945,"▁(F/A/)":10946,"▁[G,E":10947,"▁|:[K:Bb]\"Bb\"":10948,"▁|\"Db/Ab\"":10949,"▁EGBE":10950,"▁A,B,CE":10951,"▁f/e/d/c/B/A/":10952,"▁D>GG":10953,"▁f2a2f2":10954,"▁X:1<br>L:1/8<br>Q:3/8=100<br>M:6/8<br>K:C":10955,"▁^cAG":10956,"\"D#dim\"":10957,"▁(c/B/)A":10958,"▁(AB).c":10959,"▁(de)(fg)":10960,"!wedge!c":10961,"▁A=FF":10962,"▁g2(fe)":10963,"▁G/A/B/d/":10964,"...\"":10965,"▁d>cA>F":10966,"qu's\"":10967,"▁|\"A/C#\"":10968,"▁c/d/c/d/":10969,"langsam\"":10970,"(Bd)":10971,",/":10972,"<c2":10973,"<a2":10974,"Gmix":10975,"[F":10976,"^f}":10977,"c-":10978,"▁e\"E7\"":10979,"▁cge":10980,"▁f{f}":10981,"▁gBG":10982,"▁F\"D\"":10983,"▁FFD":10984,"▁BAAe":10985,"EDB,":10986,"\"^\\":10987,"▁.f)":10988,"▁ABe":10989,")(de":10990,"▁Ad-":10991,"▁BcdG":10992,"dB]":10993,"▁de)":10994,"▁EDED":10995,"▁G,)":10996,"f/e/d/c/":10997,"▁d>(":10998,"▁dcBA\"G\"":10999,"▁abf":11000,"▁B,2)":11001,"▁gaeg":11002,"E2F2":11003,"(3gfe":11004,"▁F>Ad":11005,"▁A)G":11006,"▁(TF2":11007,"▁(Tfe)":11008,"▁D>EG>A":11009,"▁aAaA":11010,"▁.d.f":11011,"▁g<B":11012,"0<br>M:3/4<br>K:Emin":11013,"▁[GC,]":11014,"▁[Gc]":11015,"▁a>bc'":11016,"▁|\"^(b)\"":11017,"c/e/c/":11018,"▁.G2.B2":11019,"▁[eC,,]":11020,"▁f>ff":11021,"Ec]2":11022,"▁^A3":11023,"▁C>DE>F":11024,"▁(e/f/)g":11025,"<br>M:2/2<br>K:A":11026,"▁X:1<br>L:1/8<br>M:9/8<br>K:Dmix":11027,"▁|{/c}":11028,"▁A2B2c2":11029,"▁_e3":11030,"▁AEEA":11031,"▁[EA]4":11032,"ain\"":11033,"▁!fermata!E4":11034,"▁|\"^37\"":11035,"{gcd}c{e}A":11036,".E/":11037,"2B":11038,"4<br>M:4/4<br>K:":11039,"55/64":11040,":M":11041,"=GA":11042,"B^G":11043,"[B":11044,"_G":11045,"ai":11046,"um":11047,"zz":11048,"▁d\"E7\"":11049,"▁e\"Bm\"":11050,"▁eede":11051,"▁gdf":11052,"▁F\"C7\"":11053,"▁d2dA":11054,"▁G2\"A\"":11055,"▁c2d":11056,"▁c2ef":11057,"▁(3cd":11058,"▁z/4":11059,"▁g2gb":11060,"▁ed\"A7\"":11061,"▁eddg":11062,"G\"Bb\"":11063,"▁BAce":11064,"▁F2Ac":11065,"▁||\"Bm\"":11066,"▁fdAc":11067,"▁BdFB":11068,"▁FAEG":11069,"▁ef)":11070,"▁Bc^cd":11071,"▁(AGF)":11072,"][GA]":11073,"GE]":11074,"▁TcB":11075,"▁face":11076,"▁afab":11077,"▁G,8":11078,"▁G,CEC":11079,"▁gfg\"D\"":11080,"GG,":11081,"▁|\"^~\"":11082,"▁AAd":11083,"▁B<=G":11084,"▁ccc2":11085,"▁(ga/b/)":11086,"▁(e>f":11087,"▁fedc\"G\"":11088,"▁baa^g":11089,"▁f>d\"A7\"":11090,"▁f>gfd":11091,"▁EA^G":11092,"▁uD2":11093,"▁B>Gd>B":11094,"▁[DB,]":11095,"▁AEcA":11096,"▁B)c":11097,"▁AFFB":11098,"▁(edB)":11099,"{gef}e2":11100,"▁(GA)Bc":11101,"▁eccf":11102,"▁|:[K:A]":11103,"▁=gedB":11104,"▁||[K:Bb]":11105,"▁.G.A":11106,"▁E>AA":11107,").B.c":11108,"{gcd}ce":11109,"▁X:1<br>L:1/8<br>Q:1/2=90<br>M:2/2<br>K:C":11110,"▁g>fga":11111,"B/4A/4":11112,"▁|[K:F]":11113,"][Dd":11114,"▁dd/e/f":11115,"▁X:1<br>L:1/8<br>Q:1/2=60<br>M:2/2<br>K:G":11116,"▁X:1<br>L:1/4<br>Q:1/4=2":11117,"\"_fine\"":11118,"▁(B>AG)":11119,"▁(3.A.c.A":11120,":2:6":11121,"▁(3FG^G":11122,".E)":11123,"=ed":11124,"F,2":11125,"GC":11126,"I=":11127,"I:M":11128,"ram":11129,"zE":11130,"▁L":11131,"▁dB/":11132,"▁GG/":11133,"▁GGE":11134,"▁G\"Am\"":11135,"▁G12":11136,"▁cfg":11137,"▁ce/d/":11138,"▁g>c'":11139,"▁gBgB":11140,"▁Fedc":11141,"▁(efg":11142,"▁(=c":11143,"▁E=F":11144,"▁Egfe":11145,"▁adf":11146,"▁d2{gdc}":11147,"▁c2{g}":11148,"▁(3^g":11149,"▁(3fdB":11150,"▁BAG\"D7\"":11151,"▁dBG\"C\"":11152,"cd2":11153,"▁BG/G/":11154,"▁Bdfg":11155,"▁BdeB":11156,"▁AFFG":11157,"▁:|2[K:":11158,"▁B3\"A\"":11159,"\"^NB2\"":11160,"▁.G)":11161,")(ag":11162,"GFED":11163,"▁GEFA":11164,"][gB]":11165,"▁GB\"D7\"":11166,"▁afff":11167,"▁|{DE}":11168,"▁|{GdG}":11169,"▁G,G,G,":11170,"▁dgdc":11171,"▁\"^alleg":11172,"▁ged^c":11173,"▁eAgA":11174,"▁|\"^NB1\"":11175,"▁g/f/g/e/":11176,"dd)":11177,"▁AFA\"G\"":11178,"▁ga)":11179,"B)\"":11180,"▁c>AG":11181,"D2D2":11182,"▁F,,2":11183,"▁f>ge":11184,"▁X:1<br>L:1/16<br>M:2/4<br>K:Emin":11185,"▁f<ac":11186,"▁c>BAG":11187,"▁uE2":11188,"▁fAf":11189,"▁GDBG":11190,"(3FED":11191,"▁[EG,]2":11192,"▁DCDF":11193,"▁FFE":11194,"▁d>fA>f":11195,"▁X:1<br>L:1/4<br>M:4/4<br>K:Eb":11196,"▁(afd)":11197,"▁aAcA":11198,"▁.d4":11199,"▁d>gb>g":11200,"▁FAd^c":11201,">f2)":11202,"▁A,3-":11203,"▁d2B2G2":11204,"c/A/c/":11205,"▁[eC,]":11206,"▁[GE][FD]":11207,"▁[dF]4":11208,"▁EGGc":11209,"[Q:1/8=150]":11210,"▁prog":11211,"F,/F,/":11212,"▁B,<E":11213,"▁g^fge":11214,"▁||[K:G]\"G\"":11215,"▁F>EF>G":11216,".B.B.B":11217,"\"^(B7)\"":11218,"▁X:1<br>L:1/16<br>Q:3/8=5":11219,"rog:":11220,"IDI=":11221,"I:MIDI=":11222,"▁program":11223,"D3":11224,"[sic":11225,"_B2":11226,"_B)":11227,"c>F":11228,"uG":11229,"▁3":11230,"▁A\"Gm\"":11231,"▁G\"A7\"":11232,"▁GD/G/":11233,"▁(.a":11234,"▁a\"G\"":11235,"▁c2\"F\"":11236,"▁e2\"E7\"":11237,"▁g2ef":11238,"Bc2":11239,"▁bBAB":11240,"▁|\"D\"{c}":11241,"▁^gf":11242,"▁^g/a/":11243,"\"^1)\"":11244,"▁egaf":11245,")(bg)":11246,"▁Addg":11247,"▁AcfA":11248,"▁c'>e":11249,"▁f/a/g/f/":11250,"▁|{FG}":11251,"▁|\"^bar":11252,"▁dcBAGF":11253,"▁gbd":11254,"▁d/c/A":11255,"▁A>C":11256,"▁f>da>d":11257,"▁Bggg":11258,"▁B>^c":11259,"▁B>dB":11260,"{a}f":11261,"▁gBBA":11262,"▁gBeB":11263,"▁dfd\"A\"":11264,"▁(DFA)":11265,"▁AfcA":11266,"{f}g":11267,"▁degb":11268,"▁dFBF":11269,"▁(a^g)":11270,"▁dBAB\"G\"":11271,"▁aAfA":11272,"▁d>edA":11273,"▁D/D/DD":11274,"▁||[M:6/8]":11275,"▁A>df>a":11276,"^fga":11277,"▁caBa":11278,"▁(c2B2)":11279,"▁[cA]4":11280,"▁X:1<br>L:1/8<br>Q:1/4=100<br>M:3/4<br>K:G":11281,"▁f>ad>f":11282,"A/A/A/":11283,"▁{AB}":11284,"!p!!p!":11285,"▁b>ge>g":11286,"▁[BD]4":11287,"▁a)f":11288,"▁B/A/G/F/E/D/":11289,"EC)":11290,"▁:|\"^2\"":11291,"▁:|\"^last":11292,"▁X:1<br>L:1/8<br>Q:3/8=7":11293,"▁(cd)(ef)":11294,"▁G>cE>c":11295,"▁(d<c)":11296,"▁(c/B/c/d/)":11297,"▁G>DG>B":11298,"▁c/A/B/c/":11299,"{ag}a2":11300,"▁|{/A}":11301,"▁d=fed":11302,"▁(BA)(Bc)":11303,").a.g":11304,"=B/)":11305,"chne":11306,"▁::[M:6/8]":11307,"▁F/G/A/c/":11308,"▁X:1<br>L:1/8<br>Q:3/4=5":11309,"▁X:1<br>L:1/8<br>Q:3/8=80<br>M:6/8<br>K:G":11310,"▁f^dB":11311,"▁AABB":11312,"▁[GG,,]2":11313,"\"^3\"c'":11314,"▁a^fge":11315,".c.c.c":11316,"▁X:1<br>L:1/4<br>M:4/2<br>K:G":11317,".g.g.g":11318,"▁E=CE":11319,"▁(e/f/g).e":11320,"▁(6:2:6":11321,"tragen\"":11322,"!4!":11323,".D2":11324,"7b":11325,"D>A":11326,"Ff":11327,"IN":11328,"[FA":11329,"bA":11330,"▁ec/c/":11331,"▁cGF":11332,"▁cGAB":11333,"▁gBBB":11334,"▁(f/d/":11335,"▁E^C":11336,"▁Da":11337,"▁G2>E2":11338,"▁z!D.C.!":11339,"▁D2c2":11340,"▁AGA\"G\"":11341,"BG2":11342,"EFD":11343,"B,G":11344,"▁=B,2":11345,"▁Aca":11346,"▁FDGD":11347,"][FB":11348,"▁ge=c":11349,"▁fa{b}":11350,"▁DE)":11351,"▁afd\"A\"":11352,"▁gb/a/":11353,"▁X:1<br>L:1/8<br>M:3/4<br>K:E":11354,"▁dddc":11355,"▁g>bg":11356,"▁(3dfe":11357,"▁D/>E/":11358,"▁f>gf>d":11359,"▁c>Bcd":11360,"▁uB2":11361,"▁eAAa":11362,"▁CEA,C":11363,"=c^c":11364,"▁GcBd":11365,"▁=cBcd":11366,"]/)":11367,"▁(DB,)":11368,"{f}ed":11369,"▁^c2A2":11370,"▁DABc":11371,"▁G)A":11372,"▁cGGA":11373,"▁[cA][dB]":11374,"▁X:1<br>L:1/4<br>Q:1/4=15":11375,"▁.c.B.A":11376,"▁.B.d":11377,"▁(BA).G":11378,"▁EDCA,":11379,"▁e'4":11380,"▁cede":11381,"(g{a}":11382,"▁[df][df]":11383,"▁X:1<br>L:1/16<br>M:3/4<br>K:Bb":11384,"A,/A,/":11385,"▁|\"^1)\"":11386,"▁ecBc\"A\"":11387,"▁(cB)(":11388,"f/4g/4":11389,"▁(3(fef)":11390,"▁X:1<br>L:1/8<br>Q:1/4=115<br>M:4/4<br>K:":11391,"NB3\"":11392,"▁X:1<br>L:1/4<br>M:6/4<br>K:C":11393,"▁::[K:D]\"D\"":11394,"▁X:1<br>L:1/16<br>Q:1/4=120<br>M:2/4<br>K:D":11395,"▁d>ec>d":11396,"(B/c/)":11397,"/b/":11398,"=BA":11399,"Dc":11400,"co\"":11401,"d3":11402,"uF":11403,"v\"":11404,"▁A/4":11405,"▁B2(3":11406,"▁:|\"F\"":11407,"▁c2\"G7\"":11408,"▁dc\"D\"":11409,"▁cAaf":11410,"▁AGGB":11411,"Bd>f":11412,"▁Bdfe":11413,"▁FAcd":11414,"▁.A,":11415,"▁fgd":11416,"▁def\"Em\"":11417,"▁AB\"C\"":11418,"][Bg]":11419,"▁ecA\"G\"":11420,"▁GBDB":11421,"▁|{C}":11422,"{g}A>B":11423,"▁BEBE":11424,"▁DGGE":11425,"a2a2":11426,"▁(3dBA":11427,"▁(G>E)":11428,"▁!>!c'2":11429,"▁BcdB\"D\"":11430,"▁f<ag":11431,"▁f/e/d/^c/":11432,"▁A>FE>D":11433,"treb":11434,"▁fBaB":11435,"▁(dc)Bc":11436,"{f}e":11437,"▁X:1<br>L:1/8<br>M:2/4<br>K:Dmix":11438,"▁(AB)AF":11439,"▁B,DGF":11440,"0<br>M:3/4<br>K:Bb":11441,">e2)":11442,".g.e":11443,"▁X:1<br>L:1/8<br>Q:1/4=120<br>M:4/4<br>K:Gmin":11444,"]/[fd":11445,"]/[cE":11446,"▁{de}":11447,"▁[dB]4":11448,"▁g2g2g2":11449,"▁c'bab":11450,"▁.g.f":11451,"▁:|\"^9\"":11452,"▁(Bc)(de)":11453,"▁(efe)":11454,"DB]":11455,")(dF)":11456,"▁[FD]3":11457,"▁c>de>g":11458,"▁X:1<br>L:1/8<br>Q:1/4=120<br>M:6/8<br>K:C":11459,"▁(3(FGF)":11460,"▁(dc)(de)":11461,"▁d>BAF":11462,")(A>B)":11463,"d/4c/4":11464,"▁(cA)(GF)":11465,"▁[gB]4":11466,"▁(e/d/)c/B/":11467,"▁c/B/c/d/e/f/":11468,"▁var.":11469,"▁e/d/c/A/":11470,"▁A>aa":11471,"▁X:1<br>L:1/4<br>M:3/2<br>K:D":11472,"▁.D3":11473,"▁B>GA>B":11474,"▁!slide![ee]2":11475,"▁FdFd":11476,"▁[bd]2":11477,"ubstitut":11478,"Ad}":11479,"^f/e/":11480,"^F/G/":11481,"g3":11482,"▁d{g}":11483,"▁BB,B,":11484,"▁ec/":11485,"▁c\"E\"":11486,"▁caea":11487,"▁(P":11488,"▁aeee":11489,"▁G2G":11490,"▁B2\"E7\"":11491,"▁e2d^c":11492,"▁[BA":11493,"▁cA\"E7\"":11494,"▁cA=F":11495,"▁AGF\"Em\"":11496,"▁C>c":11497,"ag^f":11498,"A\"Am\"":11499,"▁AF-":11500,"B,>C":11501,"▁=cc":11502,"▁cBAE":11503,"▁c/G/":11504,"▁(3(BBB)":11505,"▁TG4":11506,"▁c'>g":11507,"▁gfg\"C\"":11508,"▁a3)":11509,"Ac]2":11510,"▁A>^F":11511,"▁GGG2":11512,"▁!fermata!a":11513,"▁(BE":11514,"▁A<FE":11515,"▁cAFc":11516,"▁d>B\"A\"":11517,"▁d>e{g}":11518,"▁d'f":11519,"▁(ca)":11520,"▁(g^f)":11521,"▁(FGA)":11522,"▁BBg":11523,"▁e/f/)":11524,"▁e>cB>c":11525,"▁(Bc)BA":11526,"ff!":11527,"▁d'2c'2":11528,"▁(bag)":11529,"▁(bc')":11530,"▁||\"^last":11531,"▁[dD,":11532,"▁Pd2":11533,"e'c'":11534,"[Q:1/4=":11535,").A.A":11536,"▁X:1<br>L:1/8<br>Q:1/4=120<br>M:6/8<br>K:Gmin":11537,"▁f>Ae>A":11538,"▁X:1<br>L:1/8<br>Q:1/8=128<br>M:4/4<br>K:C":11539,"7/G\"":11540,"▁(d/^c/":11541,"▁(d/f/)":11542,"▁X:1<br>L:1/8<br>Q:1/2=80<br>M:4/4<br>K:D":11543,"▁A2F2F2":11544,"▁|{/B}":11545,"▁X:1<br>L:1/8<br>Q:3/8=110<br>M:6/8<br>K:C":11546,"▁(ge)(dc)":11547,"▁abc'd'":11548,"▁A,G,A,B,":11549,"▁a^gf":11550,"[DA]":11551,"▁(DE)(FG)":11552,"▁X:1<br>L:1/4<br>M:4/2<br>K:F":11553,"▁G,CEG":11554,"{AdB}":11555,"ive\"":11556,"{ba}":11557,"C#/A\"":11558,"/d'/":11559,"=G/":11560,"A>A":11561,"Tc":11562,"vd":11563,"▁li":11564,"▁dg/a/":11565,"▁B{B}":11566,"▁cgf":11567,"▁fBd":11568,"▁F=E":11569,"▁ade":11570,"▁d2{d}":11571,"▁d2d^c":11572,"▁(3age":11573,"▁BA\"D\"":11574,"▁E2>g2":11575,"▁\"_B":11576,"▁Bd\"D7\"":11577,"fdA":11578,"▁B/=c/":11579,")(e/f/)":11580,"eg}":11581,"▁c/B/c/A/":11582,"▁ge^ce":11583,"▁G/B/d/":11584,"▁(3(c/":11585,"▁faAc":11586,"G2F2":11587,"▁af\"A\"":11588,"▁bggg":11589,"▁|\"^C\"":11590,").A2":11591,"e/f/d/":11592,"▁abc'b":11593,"▁ADDF":11594,"f/g/a/f/)":11595,"▁(B{cB}":11596,"▁d')":11597,"{d}ce":11598,"▁(e<d)":11599,"▁(e>g)":11600,"▁c>AA>c":11601,"▁F,D,":11602,"▁(f>":11603,"▁EAcB":11604,"▁a>=g":11605,"(3BBB":11606,"\"^(b)":11607,"{a}ed":11608,"▁fgaf\"A\"":11609,"=cE":11610,"0<br>M:2/4<br>K:Amin":11611,"▁e)c":11612,"▁(AB)AG":11613,"▁X:1<br>L:1/8<br>M:9/8<br>K:Amin":11614,"▁cafd":11615,"▁d>AF>D":11616,"▁(bagf)":11617,"▁fbfd":11618,"▁[cG]":11619,"EA]2":11620,"▁|\"^(G":11621,"▁A(G":11622,"▁(.e2":11623,"▁c'bc'":11624,"▁X:1<br>L:1/8<br>Q:1/8=128<br>M:4/4<br>K:Bb":11625,")(gd)":11626,"▁d2e2f2":11627,"▁X:1<br>L:1/16<br>M:4/4<br>K:A":11628,"▁a>Aa":11629,"▁(B/A/G)":11630,"▁(FD)FA":11631,"▁(f/e/)d/c/":11632,"▁X:1<br>L:1/8<br>Q:1/2=60<br>M:2/2<br>K:D":11633,"\"G#7\"":11634,"A/F/)":11635,"▁X:1<br>L:1/4<br>Q:3/4=80<br>M:6/4<br>K:":11636,"▁DAAG":11637,"▁[Be]":11638,"▁eedd":11639,"▁X:1<br>L:1/4<br>M:2/4<br>K:D":11640,"▁A,DDC":11641,"\"_g\"g":11642,"][ee]":11643,"▁fcdf":11644,"Q:3/8=120]":11645,"\"^(Cm)\"":11646,"▁g/^f/g":11647,"▁D/E/F/D/":11648,").B/.A/":11649,"[sic]\"":11650,"\"\"^":11651,"=FG":11652,"=B,C":11653,"b>e":11654,"c>E":11655,"▁dGA":11656,"▁d\"_c\"c":11657,"▁AG\"C\"":11658,"▁BBcd":11659,"▁eg/f/":11660,"▁Ga":11661,"▁G(3":11662,"▁G\"G7\"":11663,"▁E^FG":11664,"▁|\"C/E\"":11665,"▁aAc":11666,"▁A2B":11667,"▁G2ce":11668,"▁G2{B}":11669,"▁c2AA":11670,"▁(3FDF":11671,"▁(3.g.f.e":11672,"▁g2dB":11673,"▁BGG2":11674,"▁cd=e":11675,"▁z2!D.C.!":11676,"\"^:":11677,"▁.c/":11678,"▁fedd":11679,"▁B/>B/":11680,")([":11681,"▁FDG":11682,"▁e/a/":11683,"][dF]":11684,"▁G,,4":11685,"▁\"^p":11686,"▁B/c/)":11687,"▁g/>f/":11688,"▁(dcd":11689,"▁d/c/B/":11690,"▁DEFB":11691,"▁B<dc":11692,"▁Beeg":11693,"▁gecG":11694,"A/B/G/":11695,"▁(G>F":11696,"▁GFEC":11697,"▁^c6":11698,"▁uF2":11699,"(3DDD":11700,"(3dcB":11701,"▁DCB,D":11702,"▁GBAG\"D\"":11703,"▁(D>F)":11704,"▁E<AA>B":11705,"▁dfad'":11706,"▁DGGF\"G\"":11707,"▁(a^g":11708,"▁(AG)FE":11709,"▁dfaf\"A\"":11710,"▁f)e":11711,"▁BEEd":11712,"▁[ec][ec]":11713,"▁[dB][cA":11714,"▁[dB][ec]":11715,"▁cegc'":11716,"▁ADDB":11717,"▁(3f(ed)":11718,">.a)":11719,"▁(.f2":11720,"▁.G4":11721,"▁(^fg)":11722,"▁(^GA)":11723,"▁(Bcde)":11724,"▁(e/g/)":11725,"▁CA,C":11726,"▁Tf3/2":11727,"▁(DF)(AF)":11728,"<br>M:2/2<br>K:C":11729,"▁.F.A":11730,"▁a/b/a":11731,"▁a/b/a/f/":11732,"▁EFDB,":11733,"▁g/e/c/e/":11734,"▁X:1<br>L:1/4<br>Q:1/2=112":11735,"▁G,A,B,C":11736,"▁(3a^ga":11737,"▁[Fc":11738,"▁dABF":11739,"▁A>gf>e":11740,"▁BFFB":11741,"▁!slide![ee]4":11742,"▁ddcc":11743,"▁\"^Brisk\"":11744,"▁|!>(!":11745,"▁[FB]":11746,"▁([de-]":11747,"▁|:\"_Slow\"":11748,"fully\"":11749,"otted":11750,"({e}":11751,"=e2":11752,"AF\"G\"":11753,"B>E":11754,"D4":11755,"ace":11756,"f3":11757,"▁Afec":11758,"▁B_B":11759,"▁Bd/d/":11760,"▁ef/":11761,"▁GB/":11762,"▁G\"Em\"":11763,"▁GB/B/":11764,"<br>M:1":11765,"▁ff/a/":11766,"▁ge/f/":11767,"▁(f/a/)":11768,"▁(C/D/)":11769,"▁A2\"Gm\"":11770,"▁(3DE":11771,"▁by":11772,"▁b^a":11773,"▁E2EE":11774,"▁dccd":11775,"▁fdAB":11776,"▁Bdd2":11777,"0<br>M:9/4<br>K:":11778,"▁cBAg":11779,")(dg)":11780,"▁geBg":11781,"▁ecAE":11782,"▁dBGg":11783,"▁afd'":11784,"▁e>de>g":11785,"▁X:1<br>L:1/8<br>M:2/2<br>K:E":11786,"▁(dcA":11787,"▁G>ABd":11788,"▁cBc\"D7\"":11789,"▁d>Bg>e":11790,"▁a/e/":11791,"▁d'afa":11792,"▁B/A/G/E/":11793,"▁(G^F":11794,"▁f>dB>d":11795,"▁f>gfe":11796,"▁^F>G":11797,"\"^B\"\"C\"":11798,"0<br>M:2/2<br>K:Dmin":11799,"▁B)G":11800,"{G}F":11801,"BE]":11802,">A2\"":11803,"▁g>fe>c":11804,"▁fdcf":11805,"▁Bede":11806,"▁a<c":11807,"▁\"_Key":11808,"▁G>AG>F":11809,"▁beed":11810,"▁DdAF":11811,"▁.A2(":11812,"▁[fd]3":11813,"▁.G.G":11814,").B.G":11815,"{gf}g":11816,"▁:|[K:C]\"C\"":11817,"▁D>DD":11818,"▁[GE]3":11819,"▁(d/c/)B/A/":11820,"▁^fgag":11821,"▁DDD2":11822,"▁eEEF":11823,"▁(ba)gf":11824,"▁::[M:6/8][K:":11825,"▁X:1<br>L:1/4<br>M:3/2<br>K:F":11826,"{^f}":11827,"▁A/G/F/A/":11828,"▁TB>AB":11829,"▁=cdef":11830,"[A,E]":11831,"▁(3e/f/e/":11832,"(e/":11833,"-B":11834,"//!":11835,"<A/":11836,"^GA)":11837,"no":11838,"▁or":11839,"▁Ab":11840,"▁A(3":11841,"▁AA,A,":11842,"▁eefe":11843,"▁ebag":11844,"▁e=cA":11845,"▁G\"A\"":11846,"▁G(F":11847,"▁c>D":11848,"▁c{dc}":11849,"▁f=f":11850,"▁D\"G\"":11851,"▁A2\"E\"":11852,"▁(3GA":11853,"▁(3^F":11854,"▁(3EDE)":11855,"▁g2fd":11856,"▁f2\"C\"":11857,"efr":11858,"▁D2\"D\"":11859,"▁E2GB":11860,"▁cAae":11861,"▁AG/E/":11862,"/2=1":11863,"FA,":11864,"▁GAcG":11865,"▁BdGA":11866,"▁d3\"C\"":11867,"▁|]\"B\"":11868,"\"^,\"":11869,"▁.v":11870,"▁fed\"Em\"":11871,"▁defc":11872,"▁Ad^ce":11873,"▁Ac=fc":11874,"▁d/=c/":11875,"▁c/>":11876,"▁GE-":11877,"][CE":11878,"][Bg":11879,"A,]4":11880,"▁(3(fd":11881,"▁Tc>A":11882,"▁dg{a}gf":11883,"▁\"^in":11884,"▁\"^last":11885,").d'":11886,"▁e>d\"A7\"":11887,"▁(db)":11888,"▁cAFE":11889,"▁cccB":11890,"b/g/)":11891,"{d}cB":11892,"▁ba=g":11893,"▁fef\"G\"":11894,"▁f>ag":11895,"▁v[":11896,"▁[EC][":11897,"▁ECDB,":11898,"▁Gccd":11899,"fedB":11900,"▁F/G/F":11901,"▁E,G,":11902,"▁c)B":11903,"▁c)d":11904,"▁(ed)Bd":11905,"▁[BG,,]2":11906,"F,,":11907,"▁(AB)cA":11908,"▁d'2d'2":11909,"▁GdG":11910,"▁[A,F]":11911,"▁X:1<br>L:1/4<br>Q:1/4=120<br>M:4/4<br>K:G":11912,"{gef}ed":11913,"▁F>DD":11914,"▁X:1<br>L:1/8<br>Q:1/8=160<br>M:9/8<br>K:G":11915,"▁d^ced":11916,"▁=cAGB":11917,"▁.f.a":11918,"▁slow\"":11919,"▁(cB)(cd)":11920,".F.G":11921,"▁X:1<br>L:1/4<br>M:2/2<br>K:A":11922,"▁^fga":11923,"▁bc'd'b":11924,"[Q:1/8=120]":11925,"e/4d/4":11926,"E>D)":11927,"▁X:1<br>L:1/16<br>M:2/4<br>K:Amix":11928,"igh":11929,"▁ceAa":11930,"\"^/D\"":11931,">vB":11932,"▁[af]":11933,"▁\"^simplified":11934,"▁A,B,CA,":11935,"▁G/^F/G/A/":11936,"▁D^CDE":11937,"▁e/^d/e":11938,"▁D<GG>A":11939,"▁(c/e/)":11940,"(df)":11941,"(AF)":11942,")E":11943,"<d/":11944,"TB":11945,"Var":11946,"X\"":11947,"c4":11948,"f>c":11949,"pp!":11950,"▁Age":11951,"▁ec/B/":11952,"▁Gfed":11953,"▁GGAG":11954,"▁c\"C\"":11955,"▁f_e":11956,"▁(C/":11957,"▁G2\"Dm\"":11958,"▁e2\"Dm\"":11959,"▁(3AF":11960,"▁g2\"G\"":11961,"▁f2{a}":11962,"▁ed\"D\"":11963,"▁dcd2":11964,"▁dcc2":11965,"▁|]\"Am\"":11966,"▁cdfa":11967,"\"^L":11968,"\"^version":11969,"▁AdBG":11970,"▁Acfg":11971,"▁Acce":11972,"▁EFG2":11973,"b\"_":11974,"b\"A\"":11975,"][Ec":11976,"▁ge-":11977,"▁fad'":11978,"▁c'b/a/":11979,"▁G,>G":11980,"▁\"^2\"":11981,"▁eAed":11982,").A/":11983,"▁dcBA\"E7\"":11984,"ore":11985,"▁g>aba":11986,"▁(B<g)":11987,"▁BGGe":11988,"▁gec\"D\"":11989,"▁e<gf":11990,"▁e<ae":11991,"▁f<dc":11992,"▁f/e/d/":11993,"▁CEGB":11994,"E/F/E/":11995,"▁=cEE":11996,"▁(dc)de":11997,"▁dFBd":11998,"▁cAcf":11999,"Edor]":12000,"▁(f/g/f/e/)":12001,"▁|:\"^Reel.\"":12002,"▁B>cd>c":12003,"▁(A/G/F/E/)":12004,"▁E>GE":12005,"▁d(c":12006,"▁b4-":12007,"▁[cG]2":12008,"▁(d/e/d/c/)":12009,"▁.A.F":12010,"▁X:1<br>L:1/8<br>Q:1/8=160<br>M:9/8<br>K:D":12011,"▁d^cBA":12012,"▁a<a":12013,"C,C,":12014,"M:12/8]":12015,"▁decB":12016,"▁:|[K:F]":12017,"▁(e/d/).c/.B/":12018,"▁F>GA>c":12019,"G/B/G/":12020,"▁(ed)(dc)":12021,"▁c'/c'/":12022,"▁(AB)(AG)":12023,"▁(e<f)":12024,"▁F2F2F2":12025,">vd":12026,"▁(3c/d/c/":12027,"[GB]G":12028,"▁d<Bg>B":12029,"▁e/g/e/c/":12030,"(dB)":12031,".b2":12032,"Eg":12033,"dcd":12034,"prog:":12035,"und":12036,"▁ebg":12037,"▁e(A":12038,"▁Gec":12039,"▁Gc/B/":12040,"▁cGAG":12041,"▁FA/A/":12042,"▁(B,/C/":12043,"▁D/4":12044,"▁Dcc":12045,"▁DDEF":12046,"▁d2{f}":12047,"▁d2Ad":12048,"▁A2df":12049,"▁A2\"Em\"":12050,"▁G2A":12051,"▁c2{dc}":12052,"▁e2cd":12053,"edcB":12054,"▁(3cAG":12055,"▁eddA":12056,"▁ed=cB":12057,"G\"C7\"":12058,"D\"Bm\"":12059,"▁cAeg":12060,"▁AG^FG":12061,"▁GA_B":12062,"▁cdBA":12063,"F\"Eb\"":12064,"▁ec-":12065,"▁=\"":12066,"▁cBABcA":12067,"▁A,,3":12068,"▁(A>d)":12069,"▁geb":12070,"▁GBFA":12071,"▁(3(v":12072,"▁(3(FA":12073,"▁Ta3":12074,"▁C2DE":12075,"▁c'e'":12076,").e2":12077,"▁E/A/":12078,"▁_a2":12079,"▁dGGB":12080,"▁AGE^F":12081,"▁(e6":12082,"▁(GBd)":12083,"]3)":12084,"▁f>dA>d":12085,"▁fffe":12086,"▁F<f":12087,"cEc":12088,"▁[BG]2[":12089,"▁[FA][FA]":12090,"▁::[K:Bb]\"Bb\"":12091,"▁g>dg":12092,"▁gfefge":12093,"▁cBAc\"G\"":12094,"▁d^c=c":12095,"▁|\"D#m\"":12096,"▁||[K:A]":12097,"▁\"^Spirited\"":12098,"alz":12099,"▁(a/g/)(f/e/)":12100,">.F)":12101,"▁(.A2":12102,").e.d":12103,"▁.g.f.e":12104,"▁:|\"^3\"":12105,").A.B":12106,"▁X:1<br>L:1/8<br>M:12/8<br>K:A":12107,">uf":12108,"▁.a.a":12109,"▁[Cc":12110,"{Gdc}d2":12111,"{Gdc}d>e":12112,"▁d2(cd)":12113,"▁[Af]4":12114,"▁|{/f}":12115,"A/4B/4)":12116,"▁::[K:G]\"D7\"":12117,"▁X:1<br>L:1/8<br>Q:3/4=6":12118,"▁^fdcA":12119,"]\"^prog:":12120,"▁Eee^d":12121,"{g}f<a":12122,"▁ddee":12123,"▁(d>ed)":12124,"▁|:[K:D]\"D\"":12125,"▁a=gfe":12126,"▁sig.":12127,"▁(3ef^g":12128,"\"E/G#\"":12129,"▁|\"^(Bm)\"":12130,"▁\"_Allegro\"":12131,"(FE)":12132,"(ba)":12133,"/[":12134,"2<br>M:4/4<br>K:":12135,"=d/":12136,"=F)":12137,"EB,":12138,"^f/g/)":12139,"▁{gBd}":12140,"▁Key":12141,"▁AzA":12142,"▁A{BA}":12143,"▁BG\"C\"":12144,"▁BB/G/":12145,"▁EBG":12146,"▁Dd/c/":12147,"▁A2GE":12148,"▁A2\"Bm\"":12149,"▁A2A,2":12150,"▁B2{B}":12151,"▁c2{B}":12152,"▁(3de":12153,"▁g2ab":12154,"▁||{g}":12155,"▁Bd)":12156,"▁|1\"Cm\"":12157,"\"^qu\"":12158,"▁B/d/B/G/":12159,"▁gf\"A7\"":12160,")(a/g/)":12161,"▁Bcd\"D\"":12162,"dB]2":12163,"▁(Ag)":12164,"][EB":12165,"dc'":12166,"▁b2f2":12167,"▁!2!":12168,"{g}e>f":12169,"▁dedcBA":12170,"▁eafd":12171,"▁FG)":12172,"▁(ded)":12173,"▁(defg)":12174,"▁BAB\"D\"":12175,"▁DFFF":12176,"▁ABdg":12177,"▁_B/":12178,"▁A<A,":12179,"\"_p\"":12180,"▁efge\"G\"":12181,"▁a/f/e/d/":12182,"▁f/g/a/":12183,"▁A/B/AG":12184,"▁F,,":12185,"▁(fb)":12186,"▁fafc":12187,"▁FEFB":12188,"▁ABde\"D\"":12189,"▁(D<G)":12190,"▁AcBA\"G\"":12191,"▁([AF":12192,"▁([G,":12193,"▁[FA,]2":12194,"▁aba^g":12195,"▁d>ef>a":12196,">B,)":12197,"▁=fefg":12198,"▁(ede)":12199,"D,D,":12200,"▁.f.g":12201,"▁(3ceg":12202,"▁(.E":12203,"▁A<AeA":12204,"▁A2G2G2":12205,"▁(fe)(dB)":12206,"▁(3Gce":12207,"▁E/D/C":12208,"▁EDB,G,":12209,"G\"^4\"":12210,"▁f>BB":12211,"▁G2(AB)":12212,"▁g/f/e/^d/":12213,"{g}A3/2{d}c/":12214,"▁e^d/e/":12215,"▁|:[K:G]\"D7\"":12216,"....":12217,"▁.d2(de)":12218,"▁(3c/B/A/":12219,"▁g>Af>A":12220,"▁f^gaf":12221,"▁[Bb]2":12222,"▁repeat":12223,").g/.f/":12224,"\"F/A\"":12225,">=c":12226,"B).B":12227,"B<A":12228,"C>A,":12229,"G<B":12230,"Ted":12231,"[G":12232,"c<a":12233,"f>B":12234,"▁A{A}":12235,"▁G_A":12236,"▁f^ga":12237,"▁ff/d/":12238,"▁Fff":12239,"▁Ea":12240,"▁d2e":12241,"▁d2\"E7\"":12242,"▁A2{d}":12243,"▁G2GE":12244,"▁B2a2":12245,"▁c2{c}":12246,"▁e2{e}":12247,"▁D2GA":12248,"fga)":12249,"A/E\"":12250,"▁GAd":12251,"▁cd-":12252,"▁ag/":12253,"g/d/":12254,"▁.B,":12255,"B,>A,":12256,"F\"D7\"":12257,"▁=ec":12258,"▁efff":12259,"▁ceAf":12260,"▁cBGA":12261,"▁deBA":12262,"E/A/":12263,"A,,]":12264,"▁C2D2":12265,"▁!//!":12266,"f2a2":12267,"▁G,G":12268,"▁dg{a}":12269,"▁AFD2":12270,"▁dcB^A":12271,"abc')":12272,"▁\"^NB\"":12273,"▁ea-":12274,"▁edcG":12275,"▁X:1<br>L:1/8<br>M:3/4<br>K:Edor":12276,"agf}":12277,"▁_ED":12278,"▁!fermata!z2":12279,"▁D/>D/":12280,"▁B/A/G/^F/":12281,"0<br>M:4/4<br>K:Ador":12282,"▁(g6":12283,"▁c>Ae>A":12284,"▁e>ag":12285,"▁ABcdef":12286,"▁!>!b4":12287,"▁ua2":12288,"▁ggfe":12289,"▁A>Fd>B":12290,"b2a2":12291,"▁A)B":12292,"▁[DG,]2":12293,"▁(B/c/B/A/)":12294,"▁d)f":12295,"▁cdec\"D\"":12296,"▁dFd":12297,"▁aAeA":12298,"▁D/D/D/D/":12299,"▁E>DEF":12300,"▁=f>g":12301,"▁Aeeg":12302,"▁X:1<br>L:1/8<br>Q:1/4=100<br>M:4/4<br>K:C":12303,"▁X:1<br>L:1/8<br>Q:1/4=120<br>M:4/4<br>K:Dmin":12304,"(dcB)":12305,"▁[ce][ce]":12306,"]/[GE":12307,"(ABc)":12308,"▁DBD":12309,"▁.e2.e2":12310,"▁DddB":12311,"▁slow":12312,"▁(BcB)":12313,"▁(e/c/":12314,"▁g>gg":12315,"▁ef/e/d":12316,"▁B>ee":12317,">uG":12318,"▁(3(FEF)":12319,"▁d>GB>d":12320,"{d}A{g}":12321,"▁X:1<br>L:1/8<br>Q:1/8=150<br>M:4/4<br>K:D":12322,"▁E8-":12323,"▁Aage":12324,"▁B/G/B/d/":12325,"▁Slow\"":12326,"▁|[M:2/2][K:A]SOSOO":12327,"▁X:1<br>L:1/4<br>Q:1/4=8":12328,"▁(B<d)d":12329,"▁c'/b/a":12330,"F#/D\"":12331,"▁(3A/B/A/":12332,"ocal\"":12333,"▁(cB).A.G":12334,"trebl":12335,"']2":12336,"(f/g/)":12337,"15":12338,"33\"":12339,"=BG":12340,"=ga":12341,"gec":12342,"nimat":12343,"x\"":12344,"▁d[":12345,"▁A\"^/\"":12346,"▁Befe":12347,"▁GCEC":12348,"▁cEG":12349,"▁c(3":12350,"▁c/4d/4":12351,"▁(!tenuto!":12352,"▁D\"D7\"":12353,"▁d2FG":12354,"▁g2{g}":12355,"▁g2\"C\"":12356,"▁f2dB":12357,"▁a2fg":12358,"▁a2\"A\"":12359,">A,2":12360,"▁GA=B":12361,"▁^f)":12362,"\"^l":12363,"▁=B)":12364,"▁A/F/A/":12365,"▁efc":12366,"▁eg\"G\"":12367,")(=":12368,"][eA]":12369,"▁(3(DDD":12370,"▁gfeB":12371,"▁AFDC":12372,"GGG)":12373,").B2":12374,"▁(dF)":12375,"▁ADFG":12376,"▁edcB\"A7\"":12377,"▁dddf":12378,"▁A>(B":12379,"▁A,2A,2":12380,"▁A<aa>g":12381,"▁B>ce":12382,"d/e/d/)":12383,"▁(cf":12384,"▁(cE)":12385,"▁\"Ab/Eb\"":12386,"▁(FED)":12387,"▁(3g(ag)":12388,"▁EA-":12389,"▁ede\"D\"":12390,"▁B>^d":12391,"▁A>FE>F":12392,"▁B>GD>G":12393,"▁A)F":12394,"▁[DG]":12395,"▁(B/c/d/e/)":12396,"▁DDFA":12397,"▁dfdc":12398,"▁dBBa":12399,"▁e>gc>e":12400,"▁([G-":12401,"▁ecdA":12402,"▁X:1<br>L:1/8<br>M:9/8<br>K:Amix":12403,"▁aaaf":12404,"▁.d2.d2":12405,"▁[cA][BG":12406,"B>G)":12407,"▁Adc\"D\"":12408,"▁Pf2":12409,"▁A,B,DF":12410,"▁!slide!B2":12411,"▁d2c2B2":12412,").B.d":12413,"wedge!f":12414,"▁gGGA":12415,"▁(dc)(cB)":12416,"▁A2c2A2":12417,"▁(dB).G":12418,"F/E/D":12419,"▁Tf>g":12420,"▁X:1<br>L:1/16<br>M:4/4<br>K:F":12421,"▁(DF)AF":12422,"▁(ag)(gf)":12423,"▁!fermata!G6":12424,"▁FDCF":12425,"▁f2(ed)":12426,"▁dGBg":12427,"▁E>FG>E":12428,"▁[ac]":12429,"olo\"":12430,"▁X:1<br>L:1/8<br>Q:1/8=300<br>M:6/8<br>K:D":12431,"▁!>!e3":12432,"▁X:1<br>L:1/16<br>Q:1/4=90<br>M:2/4<br>K:G":12433,"▁[bd]":12434,"▁X:1<br>L:1/8<br>Q:1/8=110<br>M:6/8<br>K:G":12435,"▁X:1<br>L:1/8<br>Q:1/8=320<br>M:6/8<br>K:D":12436,"▁G^F/G/":12437,"zz.\"":12438,"▁(3(DDD)":12439,"(A,":12440,"D>B":12441,"Td":12442,"_D":12443,"_ba":12444,"c.\"":12445,"ett":12446,"▁|O":12447,"▁dB/B/":12448,"▁cfd":12449,"▁Eedc":12450,"▁D\"A7\"":12451,"▁az":12452,"▁adgd":12453,"▁c2\"C7\"":12454,"▁(3BG":12455,"▁(3c'":12456,"▁edgf":12457,"▁b>d'":12458,"▁E2E":12459,"c/a/":12460,"▁cAEF":12461,"C\"^":12462,"▁GA,":12463,"▁G3\"D\"":12464,"▁GF-":12465,"▁GF\"G\"":12466,"▁.M":12467,"▁B,A":12468,"▁B/d/c/":12469,"▁B/^A/":12470,"▁=ga":12471,"▁A/f/":12472,")(E/D/)":12473,"▁cB-":12474,"▁(AGFE)":12475,"GE]2":12476,"A2\"":12477,"▁FGBd":12478,"▁B/c/dg":12479,"▁G>AB>A":12480,"▁gafd":12481,"▁dcdefg":12482,"▁X:1<br>L:1/8<br>Q:1/8=17":12483,"▁defg\"A\"":12484,"▁c>Ac>e":12485,"▁!>!B3":12486,"▁f>=e":12487,"▁X:1<br>L:1/8<br>Q:1/4=120<br>M:3/8<br>K:":12488,"▁B>dg>f":12489,"▁X:1<br>L:1/8<br>M:4/4<br>K:Cdor":12490,"▁fffd":12491,"▁E>FGA":12492,"0<br>M:2/2<br>K:Amin":12493,"▁DB,B,D":12494,"Gdim\"":12495,"▁G)B":12496,"▁A^A":12497,"▁^f6":12498,"▁.d2)":12499,"▁D<B":12500,"▁[A,D]":12501,"▁[A,A]":12502,"▁GecA":12503,"▁(de)fd":12504,"▁a^gae":12505,"▁e2d2c2":12506,"▁dDFD":12507,"▁AgA":12508,"▁g)d":12509,"▁B2A2A2":12510,"▁DdcB":12511,"▁FGFG":12512,"▁.f2)":12513,"▁(ef)(ge)":12514,"▁b>af":12515,">uF":12516,"▁ecBe":12517,"▁A>DF>D":12518,"▁(A<F":12519,"!wedge!A":12520,"▁Sig":12521,"\"^/B\"":12522,"▁c2(BA)":12523,"\"^crot\"":12524,"▁!>!c3":12525,"▁|{^d}":12526,"▁fd/e/f":12527,"▁(B,D)":12528,"▁line":12529,"▁|\"^(F)\"":12530,"[Q:1/8=360]":12531,"▁\"_Brisk\"":12532,"!slide!":12533,"\"G/":12534,"2f":12535,"a3/2":12536,"time":12537,"▁dc/c/":12538,"▁BG\"Am\"":12539,"▁B_A":12540,"▁ea/g/":12541,"▁c{B}A":12542,"▁FB,B,":12543,"▁(c'a":12544,"▁Ef":12545,"▁aa/b/":12546,"▁d2eg":12547,"▁A2{A}":12548,"▁:|33":12549,"▁c2AF":12550,"▁F2AA":12551,"▁||S":12552,"▁CC/C/":12553,"▁BddA":12554,"▁^A/":12555,"▁ABFA":12556,")(dB":12557,")(ge":12558,")(FE)":12559,"▁FD/E/":12560,"][DD":12561,"▁dBAG\"D\"":12562,"▁ED^C":12563,"▁GB\"A\"":12564,"▁(3(C":12565,"▁TG":12566,"▁Tb":12567,"▁TAG":12568,"▁f/a/f/d/":12569,"▁ABAE":12570,"▁dg^fg":12571,"g2a2":12572,"G,]4":12573,"▁|\"^E":12574,"▁g/^":12575,"▁EGcE":12576,"▁(d>B":12577,"BB)":12578,"▁G>AGE":12579,"Ac}":12580,"▁DG{A}GF":12581,"▁X:1<br>L:1/4<br>M:5/4<br>K:":12582,"▁Be^de":12583,"B\"Dm\"":12584,"▁fdBg":12585,"▁f/g/)":12586,")\"G7\"":12587,"▁e<cB":12588,"▁BdBF":12589,"▁c>ec":12590,"▁uf2":12591,"▁B>dd":12592,"▁c3/2)":12593,"▁[AC][":12594,"▁a/g/f/d/":12595,"▁^F)":12596,"▁AEGA":12597,"0<br>M:2/4<br>K:none":12598,"▁(D6":12599,"▁dBBf":12600,"▁\"Em7\"":12601,"▁Afef":12602,"▁E<GG":12603,"▁BDB":12604,"▁^G>B":12605,"▁(ac)":12606,"▁(AG)AB":12607,"▁cEA":12608,"▁X:1<br>L:1/8<br>Q:1/8=25":12609,"▁(de)dc":12610,"▁(3(dBd)":12611,"▁g)fe":12612,"▁F/F/F/F/":12613,">g2)":12614,"▁[fd]4":12615,"▁.G2.G2":12616,"▁E>Ac>A":12617,"]))":12618,"▁X:1<br>L:1/8<br>Q:1/8=232<br>M:4/4<br>K:Emin":12619,"▁(Ac)BA":12620,">G2)":12621,">ug":12622,"▁[Cc]":12623,"▁X:1<br>L:1/8<br>Q:1/2=80<br>M:2/2<br>K:A":12624,"▁::\"^B\"\"G\"":12625,"▁C>DE":12626,"▁(ed)(ef)":12627,"{GdG}c":12628,"▁_e4":12629,"▁(A,C)":12630,"▁(d'/c'/":12631,"g/4a/4":12632,"▁:|[M:6/8]":12633,"▁|][K:D]":12634,"B,,/":12635,"▁bcac":12636,"▁(B>AB)":12637,"▁[dA]":12638,"▁spirit.\"":12639,"▁\"^Part":12640,"▁c/d/c/A/":12641,"▁d'afd":12642,"▁af/g/a":12643,".a.a.a":12644,"\"^(F#m)\"":12645,"▁AG/^F/":12646,"{cBA}":12647,"treble]":12648,"(af)":12649,".^c":12650,"10]":12651,"4<br>M:2/4<br>K:":12652,"<E2":12653,"FC":12654,"{d'}":12655,"▁dB/G/":12656,"▁Aaca":12657,"▁B/4":12658,"▁GDF":12659,"▁GCC":12660,"▁GG,G,":12661,"▁GzG":12662,"▁cDEF":12663,"▁f\"D\"":12664,"▁fce":12665,"▁E\"D7\"":12666,"▁EG/A/":12667,"▁A2Bd":12668,"▁G2\"B7\"":12669,"▁e2gf":12670,"▁g2dc":12671,"▁g2>b2":12672,"▁befe":12673,"▁[aA":12674,"▁AG/G/":12675,"▁a2c'2":12676,"▁dB\"A\"":12677,"▁Bd\"A\"":12678,"▁^B":12679,"▁GFG2":12680,"▁B,DEF":12681,"▁Bc-":12682,")(C":12683,"▁Adfg":12684,"▁FDBA":12685,"b\"D7\"":12686,"▁ge\"G\"":12687,"▁b2>g2":12688,"▁(3(cA":12689,"▁gfe\"G\"":12690,"▁af^d":12691,"ge]":12692,"▁dg^f":12693,"▁\"^v":12694,"▁\"^(A":12695,"{g}f>e":12696,"df>d":12697,"▁|\"^C":12698,").G/":12699,"▁DFA=c":12700,"▁EGED":12701,"▁G>AGF":12702,"▁DFBD":12703,"▁X:1<br>L:1/8<br>Q:1/4=19":12704,"▁X:1<br>L:1/8<br>Q:1/4=132":12705,"▁X:1<br>L:1/4<br>M:9/4<br>K:":12706,"▁AAGF":12707,"▁GGD":12708,"▁!fermata!ad":12709,"▁D/F/A/":12710,"▁d'af":12711,"▁(F6":12712,")\"Dm\"":12713,"▁BGEB":12714,"▁f>de>d":12715,"▁(f6":12716,"▁eBeg":12717,"▁ug2":12718,"\"^(1)\"":12719,"▁ECD":12720,"▁ECA,C":12721,"▁FDDf":12722,"▁e/d/^c/d/":12723,"▁c>eg":12724,"▁c>eg>e":12725,"▁X:1<br>L:1/4<br>M:3/4<br>K:Gmin":12726,"▁(EB)":12727,"▁[GB]6":12728,"▁[BG,,":12729,"▁BFdc":12730,"▁||[M:3/8]":12731,"▁B>cdd":12732,"▁(3(AGA)":12733,"▁fbdf":12734,"▁^g>a":12735,"▁(3(d^cd)":12736,"▁D/E/D":12737,"▁\"_c\"":12738,"▁[BF]":12739,"▁bdfd":12740,"▁B2d2B2":12741,").A.F":12742,"▁B,A,B,C":12743,"▁EDDA":12744,"▁[Cc]2":12745,"▁(eg)ec":12746,"c/4B/4":12747,"▁[M:3/4]\"^C\"":12748,"▁X:1<br>L:1/8<br>Q:1/4=120<br>M:3/4<br>K:F":12749,"▁a>gf>a":12750,"▁[Fc]2":12751,"▁::[M:2/2][K:":12752,">vc":12753,"▁[DD]":12754,"▁[BE,]":12755,"▁(b/a/g/":12756,"▁(ab)ag":12757,"▁\"Bbm\"":12758,"▁A=FFA":12759,"▁[DA]4":12760,"▁!>!g3":12761,".d.e.f":12762,"▁([de-]2":12763,"▁!slide![AA]2":12764,"▁|\"^(Am)\"":12765,"]/[BG]/":12766,"▁(3ed^c":12767,"▁cA/B/c/A/":12768,"▁(A/B/c).A":12769,"(ce)":12770,"<e/":12771,"<B2":12772,"=g/":12773,"=g2":12774,">ab":12775,">.g":12776,"A3/2":12777,"TcB":12778,"[e":12779,"^g/a/":12780,"ace\"":12781,"b>d":12782,"▁d)(":12783,"▁d{c}":12784,"▁d\"Bm\"":12785,"▁d7/2":12786,"▁AED":12787,"▁A\"G7\"":12788,"▁G\"Bb7\"":12789,"▁c!p!":12790,"▁ge/c/":12791,"▁E\"A7\"":12792,"▁aefg":12793,"▁d2dg":12794,"▁d2gd":12795,"▁A2ed":12796,"▁:|1":12797,"▁(3dB":12798,"▁(3egf":12799,"▁(3G,G,G,":12800,"▁g2^fg":12801,"G\"B\"":12802,"▁E2AB":12803,"▁[FF":12804,"▁fdbf":12805,"▁|:\"Eb\"":12806,"▁GA-":12807,"▁GAAA":12808,"▁^a2":12809,"\"^**\"":12810,"▁A/G/A/":12811,"▁AB\"D7\"":12812,"GBe":12813,"▁A,B,A,":12814,"▁ceB":12815,"▁EDDB":12816,"▁(3(BGB)":12817,"G2B2":12818,"▁\"^Chorus\"":12819,"▁bgge":12820,"▁eAa":12821,"▁eAdf":12822,"▁eA^ce":12823,"▁afd\"A7\"":12824,"▁|\"^B":12825,"▁gdad":12826,"▁DFBA":12827,"▁(3AdA":12828,"▁A>EF":12829,"▁_B>A":12830,"▁agfedc":12831,"▁d>BG>A":12832,"0<br>M:4/4<br>K:Eb":12833,"▁(FGA":12834,"▁d<fc":12835,"▁e>(d":12836,"▁cdef\"G\"":12837,"▁eBfB":12838,"▁GcG":12839,"▁A)FD":12840,"{A}B":12841,"▁cAFA\"G\"":12842,"▁c)e":12843,"▁BDGA":12844,"▁fgfc":12845,"▁e)cA":12846,"arg":12847,".e.d":12848,"▁f>edf":12849,"▁([A-":12850,"▁(d/c/B/c/)":12851,"▁[cA,,]":12852,".G.B":12853,"▁e2d2c2B2":12854,"▁{D}":12855,"▁|]:\"G\"":12856,"▁cegb":12857,"a>f)":12858,"▁A(c":12859,"A,/B,/C/":12860,"▁(a/g/).f/.e/":12861,"▁E>CE":12862,"▁e<g\"G\"":12863,")(d<B)":12864,"▁X:1<br>L:1/8<br>Q:1/4=120<br>M:6/8<br>K:F":12865,"E>F)":12866,"ather":12867,"G,/F,/":12868,"▁G(A/B/)":12869,"▁e/g/e":12870,"▁d=ef":12871,"▁f>ga>b":12872,"▁\"^Verse\"":12873,"B/c/B/)":12874,"▁d/^c/B/A/":12875,"▁A,>B,C>D":12876,"▁(g/a/b)g":12877,"▁|\"^cr\"":12878,"▁(E/G/)":12879,"▁[fa]2":12880,"▁|\"^sic\"":12881,"[df]":12882,"▁ggff":12883,"▁Bc)dB":12884,"res.\"":12885,"▁BG/A/B":12886,"\"_a\"A":12887,"▁A/c/A/F/":12888,"ertempo\"":12889,"▁G>BE>B":12890,"efrain\"":12891,"40]":12892,"<B,":12893,"<F2":12894,"DGB":12895,"E>d":12896,"E,]":12897,"TB>A":12898,"^Bc":12899,"c>G":12900,"db":12901,"ht":12902,"m7b":12903,"rac":12904,"▁R":12905,"▁BBAF":12906,"▁e{fe}":12907,"▁FcA":12908,"▁F>B,":12909,"▁E=c":12910,"▁DBGB":12911,"▁D=E":12912,"▁D_E":12913,"▁A2\"G7\"":12914,"▁G2(3":12915,"▁B2{A}":12916,"▁c2\"E\"":12917,"▁(3dc":12918,"▁(3F2":12919,"▁z\"D7\"":12920,"D\"D7\"":12921,"D\"Am\"":12922,"▁F2\"Gm\"":12923,"▁ba/b/":12924,"▁b^ab":12925,"FA}":12926,"▁.g/":12927,"▁=efg":12928,"▁=c/B/":12929,"▁cBA\"Em\"":12930,"▁ABG\"D\"":12931,"▁ABcA\"G\"":12932,")(gf":12933,"▁e3\"G\"":12934,"▁AcGB":12935,"▁Bcd=e":12936,"egue":12937,"▁A4\"G\"":12938,"▁cB\"Am\"":12939,"][fA]":12940,"A,>B,":12941,"▁(3(A,":12942,"\"A\"_":12943,"▁gfg\"A7\"":12944,"▁eAef":12945,"▁FGBc":12946,"▁e>deg":12947,"▁(d^cd":12948,"▁ADAD":12949,"▁E/c/":12950,"▁dcdg":12951,"▁(3dAF":12952,"▁!fermata!b2":12953,"▁AGAE":12954,"Bb7\"":12955,"▁e<ge":12956,"▁e<aa":12957,"▁GFE^D":12958,"▁BGBe":12959,"▁f>cd":12960,"0<br>M:6/8<br>K:Eb":12961,"▁B>dA>F":12962,"▁AAAd":12963,"▁[BG][BG]":12964,"▁e>ge>c":12965,"▁X:1<br>L:1/8<br>Q:1/8=220<br>M:2/4<br>K:":12966,"▁Gdef":12967,">B,/":12968,"Bmin]":12969,"▁E>GF>A":12970,"▁gegB":12971,"▁(f2e2)":12972,"]2[D":12973,"▁dDd":12974,"▁(BG)G":12975,"▁[ee])":12976,"▁.f.d":12977,"▁.A2.A2":12978,"▁(^c2":12979,"▁g>agd":12980,"▁(BcdB)":12981,"▁dGGg":12982,"dim7\"":12983,"ca]":12984,"▁X:1<br>L:1/8<br>Q:3/8=100<br>M:6/8<br>K:F":12985,"(FED)":12986,"▁^cAA":12987,"▁d2(de)":12988,"▁|{/a}":12989,"▁DA,DE":12990,")(c>d)":12991,"▁B2(AG)":12992,"{d}c{g}":12993,"▁\"^Moderate\"\"^A\"":12994,"{edc}":12995,"▁d>Bc>d":12996,"E,/E,/":12997,".f/.e/":12998,"▁GB/c/d/B/":12999,"▁!fermata!g4":13000,"<br>M:3/8<br>K:C":13001,"{e}G3/2":13002,"-][ee]-)":13003,"!0!":13004,"2<br>M:2/4<br>K:":13005,"=fg":13006,"=G)":13007,">.f":13008,"D,2":13009,"]c":13010,"^c/d/)":13011,"▁h":13012,"▁dad":13013,"▁Bg/f/":13014,"▁FD\"A\"":13015,"▁Ez":13016,"▁EB,B,":13017,"▁a{g}":13018,"▁aua":13019,"▁d2ba":13020,"▁G2\"Em\"":13021,"▁(3c2":13022,"▁z\"G\"":13023,"▁\"G/D\"":13024,"▁\"F/C\"":13025,"▁[de]":13026,"▁fd\"C\"":13027,"▁BGg":13028,"▁BGFA":13029,"ece)":13030,"\"^r":13031,"▁.g)":13032,")(B2":13033,"d2g2":13034,"▁ge^f":13035,"▁ABA^G":13036,"AB]":13037,"▁G,>E,":13038,"▁\"^/\"":13039,"▁eABd":13040,"▁eAec":13041,"▁F/E/F/":13042,"▁BEFA":13043,"▁B>AGB":13044,"▁edcB\"D\"":13045,"▁d/c/d/":13046,"▁A>fe":13047,"▁g4)":13048,"▁_Bd":13049,"▁_edc":13050,"▁_B,2":13051,"▁efeB":13052,"▁d>B\"C\"":13053,"a)g":13054,"▁dGGF":13055,"▁A>GFE":13056,"▁A>GF>A":13057,"B\"F7\"":13058,"A/B/c)":13059,"▁(3g^fg":13060,"▁e<Ae":13061,"▁f>gag":13062,"▁e>c'":13063,"▁d/e/fe":13064,"▁eeec":13065,"▁X:1<br>L:1/8<br>M:4/4<br>K:Cmin":13066,"(3ddd":13067,"in.\"":13068,"▁a/g/f/":13069,"▁[DG]2":13070,"▁A>A,":13071,"▁dBce":13072,"▁(D3/2":13073,"CDC":13074,"▁d/c/B/A/\"E7\"":13075,"▁adde":13076,"▁B/c/dF":13077,"▁(cB)c":13078,"▁X:1<br>L:1/8<br>Q:1/8=180<br>M:12/8<br>K:D":13079,"▁acfc":13080,"▁GgG":13081,"▁FdcA":13082,"▁d>AB>G":13083,"c'/a/":13084,"▁E/E/E/E/":13085,"▁(edef)":13086,"▁[dG]2":13087,"▁(fg)af":13088,"▁c/B/A/G/\"D7\"":13089,"▁MS":13090,"C,,":13091,"st\"":13092,"▁.B2)":13093,"▁.e2(ef)":13094,"▁c2B2A2":13095,"c/e/)":13096,"▁d>cd>A":13097,"▁A<AcA":13098,"▁(Ac)ec":13099,"▁d/B/G/B/":13100,"\"^4\"ec":13101,").c.A":13102,"▁(FE)D":13103,"▁[FD][GE]":13104,"▁[Af]3":13105,"▁c'afd":13106,"▁[M:6/8][K:Amin]":13107,"▁(de)(fd)":13108,"▁A>AA>A":13109,"▁GBeG":13110,"\"^/C#\"":13111,"g/4a/4)":13112,"▁:|[M:2/2][K:":13113,"][df][df]":13114,"▁X:1<br>L:1/8<br>Q:1/4=200<br>M:4/4<br>K:D":13115,"▁d>Bd>B":13116,"▁(A/G/)(":13117,"▁F/E/D/E/":13118,"▁GGBB":13119,"▁||[M:4/4]\"^B\"":13120,"ivace\"":13121,"▁g/b/a/g/":13122,"▁bga^f":13123,"▁\"^A\"\"^ge":13124,"andant":13125,"\"F":13126,".b/":13127,".F)":13128,"6-":13129,"8]":13130,"<f2":13131,"Ee":13132,"\\\\\"":13133,"_ED":13134,"{ce}":13135,"▁|33":13136,"▁dan":13137,"▁Aae":13138,"▁A\"Bb\"":13139,"▁A\"Eb\"":13140,"▁AA\"G\"":13141,"▁BFE":13142,"▁B{e}A":13143,"▁e\"B7\"":13144,"▁e(g":13145,"▁G>C":13146,"▁G\"B7\"":13147,"▁g^g":13148,"▁gBAB":13149,"▁FA/c/":13150,"▁(E/D/":13151,"▁aa/f/":13152,"▁d2\"F\"":13153,"▁d2(d":13154,"▁e2{fe}":13155,"▁(3B2":13156,"▁(3BcA":13157,"▁g2{ag}":13158,"▁BAA2":13159,"▁F2FD":13160,"▁bfe":13161,"▁bff":13162,"▁a2\"D\"":13163,"▁a2d'2":13164,"▁C=B,":13165,"e/d/c/B/":13166,"<br>M:3/2<br>K:":13167,"▁B,>B":13168,"▁=ed":13169,"▁=B>c":13170,"▁cBAA":13171,"▁fe\"A\"":13172,"▁ecAf":13173,"▁TD2":13174,"e2e2":13175,"▁AFDd":13176,"▁DE^FG":13177,"▁eAeg":13178,"▁FE-":13179,"▁g/>":13180,"▁AAGG":13181,"▁DEF\"G\"":13182,"▁_BB":13183,"▁(3dec":13184,"▁d>Be>d":13185,"\"_?\"":13186,"\"_=C\"":13187,"▁B/A/G/":13188,")\"Gm\"":13189,"▁a>ge>d":13190,"▁gag^f":13191,"▁!>![":13192,"▁GFEd":13193,"▁f>dg>e":13194,"▁f>dc>B":13195,"▁c>BB":13196,"▁c>_B":13197,"▁B>b":13198,"▁B>dG>B":13199,"▁Ace^g":13200,"▁fBf":13201,"▁DDDE":13202,"▁d^cd2":13203,"▁e)g":13204,"▁[BG][BG":13205,"▁cdc\"G\"":13206,"▁D>EG":13207,"▁cGcd":13208,"▁Ggec":13209,"▁^defe":13210,"▁[FA]2[":13211,"▁FAAf":13212,"▁g/a/b/c'/":13213,"▁[ce]2[":13214,"▁[cG,]":13215,"▁=cAB":13216,"▁G>AG>E":13217,"▁B/d/B/A/":13218,"▁(c/B/)(":13219,"▁(a/g/f/g/)":13220,"▁X:1<br>L:1/16<br>Q:1/4=120<br>M:3/4<br>K:":13221,"▁:|[K:F]\"F\"":13222,"▁[Ac]4":13223,"(fed)":13224,"▁A,CA,":13225,"▁(C4":13226,").c.c":13227,"▁(fgf)":13228,"▁^cABc":13229,"▁B>AB<c":13230,"▁|[K:A]":13231,"▁||[M:2/4]\"^B\"":13232,"▁(ed)(cB)(AG)":13233,"(E{F}":13234,"▁(GFG)":13235,"(3(M":13236,"▁X:1<br>L:1/4<br>M:3/2<br>K:C":13237,"▁cefa":13238,"\"^cr":13239,"▁X:1<br>L:1/8<br>Q:1/8=200<br>M:4/4<br>K:G":13240,"▁(AG)(AB)":13241,"▁[ca]4":13242,"\"^da":13243,"▁DD/D/D":13244,"▁ddBB":13245,"▁ccAA":13246,"▁(Tc>B)":13247,"▁(e>fg)":13248,"▁[M:2/4][K:G]":13249,"▁|\"^(A7)\"":13250,"▁note\"":13251,"▁(ag).f.e":13252,"▁|[M:2/4][K:G]SOSOO":13253,"▁(B/4c/4d3/2)":13254,"][fa]":13255,"#/":13256,"(de)":13257,"6<br>M:3/4<br>K:":13258,">fe":13259,"^G,":13260,"^FD":13261,"▁Bc/":13262,"▁B{g}":13263,"▁eab":13264,"▁e\"C\"":13265,"▁con":13266,"▁ccAc":13267,"▁FG\"":13268,"▁EF/A/":13269,"▁aBB":13270,"▁a{g}a":13271,"▁d2AA":13272,"▁G2ed":13273,"▁c2>G2":13274,"BA/":13275,"▁(3cA":13276,"▁(3ce":13277,"▁F2a2":13278,"▁F2\"Em\"":13279,"▁bed":13280,"▁\"C#7\"":13281,"▁[c'a":13282,"▁C(":13283,"▁fdbg":13284,"▁cdAG":13285,"▁^dc":13286,"▁B3/4":13287,"▁FAdg":13288,"▁.!tenuto!":13289,"F\"F\"":13290,"▁=b":13291,"▁cBAf":13292,"▁ABBd":13293,"AAB":13294,"▁eg^fa":13295,"▁c/{d}A3/2":13296,"▁EDAD":13297,"▁b2d2":13298,"▁(3(efg":13299,"e2a2":13300,"▁f/)":13301,"▁DEGE":13302,"▁bgfd":13303,"▁F/B/":13304,"gfa":13305,"▁B/c/B/c/":13306,"f/e/d":13307,"▁g/(":13308,"ee)":13309,"▁GABG\"D\"":13310,"▁EG-":13311,"▁DFEC":13312,"FDF)":13313,"▁(B>d":13314,"▁c<g":13315,"▁(cB/A/)":13316,"▁(F<B)":13317,"▁c>AF>D":13318,"▁!>!F":13319,"▁fdda":13320,"▁X:1<br>L:1/8<br>Q:1/4=120<br>M:6/4<br>K:":13321,"▁X:1<br>L:1/16<br>M:2/4<br>K:Eb":13322,"▁(fed":13323,"▁eecA":13324,"▁a>)":13325,"▁a>fg":13326,"▁ggag":13327,"▁g>eg":13328,"b2)":13329,"▁a/g/e/c/":13330,"▁(gf)(ga)":13331,"▁X:1<br>L:1/8<br>M:2/2<br>K:Gdor":13332,"▁(TG2":13333,"▁(E<G)":13334,"▁Afff":13335,"arco\"":13336,"▁cEc":13337,"▁B>cd/e/":13338,"▁GdGd":13339,"▁AFFd":13340,"▁[GD":13341,"▁||\"^Chorus\"":13342,"▁AGGc":13343,"▁[cF,]":13344,"▁(dB)d":13345,"▁D,>D,":13346,"▁^G2A2":13347,"▁E)D":13348,"▁(fg)fe":13349,"▁e'c'":13350,"▁e'>d'":13351,").d.c":13352,"▁(.g2":13353,"▁A,CEF":13354,"▁[CF]2":13355,"7/A\"":13356,">)e":13357,"▁f>ef>a":13358,"▁X:1<br>L:1/8<br>Q:1/4=90<br>M:4/4<br>K:G":13359,"▁A>DF>A":13360,"▁|[M:6/8][K:A]SOSOO":13361,"▁::[M:2/4][K:":13362,"a/a/a":13363,"rom":13364,"▁f2(ef)":13365,"▁[DD]4":13366,">^f2":13367,"▁(D/C/)":13368,"▁[GG,]4":13369,"{gde}d>B":13370,"▁(3(cec)":13371,"▁(d>ef)":13372,"▁A/^G/A/B/":13373,"▁!>!f3":13374,"▁TBAFA":13375,"▁2:\"":13376,"▁af/g/a/f/":13377,"▁c'>ba>g":13378,"▁(3(DFA)":13379,").e/.d/":13380,"\"C/G\"":13381,"<g2":13382,">=g":13383,"AR":13384,"A>a":13385,"B[":13386,"Te>d":13387,"c>g":13388,"ecA":13389,"e>B":13390,"e>e":13391,"f>ed":13392,"g3/2)":13393,"{_":13394,"▁7":13395,"▁pl":13396,"▁d/4":13397,"▁d\"^":13398,"▁Ge/d/":13399,"▁G\"Bb\"":13400,"▁c[":13401,"▁cGAc":13402,"▁fD":13403,"▁for":13404,"▁fAc":13405,"▁fA/B/":13406,"▁fine\"":13407,"▁g{ag}":13408,"▁Dz":13409,"▁a(g":13410,"▁d2\"Bm\"":13411,"▁A2Ad":13412,"▁c2(3":13413,"▁e2ae":13414,"edf":13415,"▁(3D2":13416,"▁(3g/a/g/":13417,"▁F2E":13418,"▁b^":13419,"▁||\"Eb\"":13420,"▁[GF":13421,"▁[^F":13422,"▁C>G":13423,"▁fd{e}dc":13424,"▁BGed":13425,"e/^f/":13426,"e/c/)":13427,"A\"_":13428,"▁FAFE":13429,"▁Bccc":13430,"▁Aded":13431,"▁fe-":13432,"▁GE=CE":13433,"▁deBe":13434,"E/C/":13435,"▁dBG2":13436,"▁c'ee":13437,"▁ead":13438,"G,G]":13439,"▁g/)":13440,"▁DFAG":13441,"▁dAcd":13442,"▁gbbg":13443,"▁G>AF":13444,"▁gd^cd":13445,"▁BABe":13446,"▁d>cBd":13447,"▁d>c\"G\"":13448,"▁d/c/B/d/":13449,"▁GGd":13450,"▁A,2CE":13451,"▁d>Bg>d":13452,"\"_NB1\"":13453,"CE]2":13454,"▁BecA":13455,"▁!>!D2":13456,"▁f>df":13457,"▁f<aa":13458,"^G]":13459,"▁c/d/)":13460,"▁vD2":13461,"▁fga\"A\"":13462,"▁B>dG>d":13463,"=c>A":13464,"in\"":13465,"▁[Ad]2":13466,"▁[DB,":13467,"▁F/G/AA":13468,"▁G/F/G/B/":13469,"0<br>M:2/4<br>K:Dmin":13470,"▁cffg":13471,"▁cfcA":13472,"▁BDG":13473,"▁fcac":13474,"▁d>ed/c/":13475,"e>c)":13476,"▁.e.f.g":13477,"▁DEGD":13478,"▁||\"^Variations:\"":13479,"▁[cD,]":13480,"▁.c.B":13481,"▁[dD]3":13482,"▁.A4":13483,"▁X:1<br>L:1/8<br>Q:1/8=160<br>M:6/8<br>K:A":13484,"▁EcGE":13485,"▁fafd\"A7\"":13486,"▁=g>e":13487,"▁dbfd":13488,"▁dbge":13489,"▁[Bf":13490,"▁gAeA":13491,"▁!slide!c2":13492,"▁bdaf":13493,"▁(^de)":13494,"▁E>^D":13495,"▁[Ac]3":13496,"7/e\"":13497,"▁(ga)gf":13498,"▁[Ae]3":13499,"▁[Ae]4":13500,"▁c/e/e":13501,">)A":13502,"▁X:1<br>L:1/8<br>Q:1/4=120<br>M:3/4<br>K:Dmin":13503,"▁afgd":13504,"▁X:1<br>L:1/8<br>M:3/4<br>K:Amix":13505,"▁a2f2d2":13506,")(fc)":13507,"▁^gafd":13508,"▁.b.a":13509,"▁(B,3":13510,"▁X:1<br>L:1/8<br>Q:1/8=100<br>M:4/4<br>K:G":13511,"▁d2d2d2g2":13512,"▁(GF)(GA)":13513,"▁^c/d/e/c/":13514,"8<br>M:3/4<br>K:G":13515,"▁(E/F/G)E":13516,"▁d>dd>d":13517,"▁X:1<br>L:1/8<br>Q:1/8=320<br>M:6/8<br>K:G":13518,"▁c<Ae>A":13519,"(cd)":13520,"(GF)":13521,",G,]2":13522,"5/8]":13523,"9/":13524,"hee":13525,"▁A\"Am\"":13526,"▁GGFE":13527,"▁GB,DG":13528,"▁ccde":13529,"▁cEEE":13530,"▁czA":13531,"▁g\"A7\"":13532,"▁FF/A/":13533,"▁a>B":13534,"▁d2AF":13535,"▁G2>c2":13536,"▁(3g2":13537,"▁(3g/f/e/":13538,"▁edAB":13539,"▁BA\"Em\"":13540,"▁D2\"A\"":13541,"▁D2DC":13542,"▁[gc":13543,"▁BGDB":13544,"GA>B":13545,"▁GAFD":13546,"▁|1\"B7\"":13547,"▁cdAd":13548,"▁^Ac":13549,"\"^0":13550,"F\"Cm\"":13551,"▁gf-":13552,"▁A/-":13553,")(c'":13554,"▁EF^G":13555,"▁feB":13556,"▁feBc":13557,"▁ecA\"E7\"":13558,"▁(3(GGG)":13559,"▁TG>F":13560,"▁ABA^F":13561,"▁ABAG\"D\"":13562,"▁BAGG":13563,"▁\"^H":13564,"▁eaue":13565,"▁|\"^D/":13566,"▁DFA\"G\"":13567,"▁BABF":13568,"▁_ec":13569,"▁A<DF":13570,"\"_VB\"":13571,"▁(g<e":13572,"A/B/c":13573,"▁(FGAB)":13574,"▁(3gba":13575,"▁bafg":13576,"▁BBgB":13577,"▁f>d\"A\"":13578,"▁X:1<br>L:1/16<br>M:2/4<br>K:Ador":13579,"▁(fef)":13580,"▁c>FA":13581,"▁B>=c":13582,"▁eee2":13583,"▁a>(g":13584,"▁va2":13585,"▁DEDE":13586,"▁B>dA>d":13587,"▁GDBA":13588,"▁F>A,":13589,"▁(TcB)":13590,"▁(dc)d":13591,"▁a>ff":13592,"▁B/c/dG":13593,"▁(d2c2)":13594,"=B>c":13595,"▁(ad)":13596,"▁Bdd\"D\"":13597,"▁BFGA":13598,"▁Ae-":13599,"▁X:1<br>L:1/8<br>Q:1/4=100<br>M:6/8<br>K:G":13600,"▁[ec][fd]":13601,"eB]":13602,"▁|\"^(b)":13603,"▁[fd][fd]":13604,"▁e(a":13605,"▁(f/g/a)g":13606,"▁[CE]3":13607,"▁(=c2":13608,"▁G>DB,>D":13609,"c/4d/4)":13610,"<br>M:2/2<br>K:F":13611,"▁EdcA":13612,"▁X:1<br>L:1/8<br>Q:3/8=110<br>M:6/8<br>K:F":13613,"▁Bbba":13614,"▁(A<B)":13615,"▁Tg>f":13616,"▁eBBe":13617,"]-[":13618,")(e>d)":13619,")(f>g)":13620,"▁FCF":13621,"!wedge!e":13622,"][ce][ce]":13623,"\"^/F#\"":13624,"{GAG}A2":13625,"▁c2(Bc)":13626,"▁(Ac)(":13627,"▁(Ac)(ec)":13628,"\"G#dim\"":13629,"▁FDCA,":13630,"▁dGBe":13631,"▁|][M:6/8][K:":13632,"{g}B<d":13633,"▁df/g/a/f/":13634,")(ac)":13635,"▁d=cAF":13636,"▁d{e}d":13637,"▁c=BcA":13638,"c'd')":13639,"\"_f\"f":13640,"▁|\"Cm/Eb\"":13641,"▁Ggg^f":13642,"▁X:1<br>L:1/8<br>M:6/4<br>K:G":13643,"[BG]":13644,"▁EccE":13645,"▁(fe).d.c":13646,"▁(FG)(AB)":13647,"▁c/B/c/e/":13648,"▁(c/B/A/B/)":13649,"▁X:1<br>L:1/4<br>Q:1/8=232<br>M:4/4<br>K:":13650,"▁X:1<br>L:1/4<br>Q:3/4=120<br>M:6/4<br>K:":13651,"(GA)":13652,"/time":13653,"5<br>M:6/8<br>K:":13654,"G[":13655,"GB,":13656,"_AG":13657,"d>a":13658,"sic\"":13659,"▁A\"Dm\"":13660,"▁Abag":13661,"▁Bfg":13662,"▁eege":13663,"▁G\"_>Teil":13664,"▁GedB":13665,"▁c\"Em\"":13666,"▁cGAF":13667,"▁fg/f/e/d/":13668,"▁(^fg":13669,"▁D\"A\"":13670,"▁DGFE":13671,"▁G2{AG}":13672,"▁g2Bc":13673,"▁g2dg":13674,"eful":13675,"▁bfge":13676,"▁cAA2":13677,"▁cA=FA":13678,"▁dB{d}":13679,"▁:|2\"^":13680,"\"^bar":13681,"▁.u":13682,"▁B,-":13683,"▁fed{d}":13684,"▁=AB":13685,"▁=FG":13686,")(g/e/)":13687,"▁e/d/e/":13688,"][Fd":13689,"▁(3(DEF":13690,"▁(3(e/f/g/)":13691,"▁T^c2":13692,"▁C2EG":13693,"^c>e":13694,"G,E":13695,"df]":13696,").f2":13697,").a2":13698,"▁d>=cB":13699,"▁ab/c'/":13700,"▁gbfg":13701,"▁gbdg":13702,"▁DG{A}":13703,"▁efe\"D\"":13704,"▁(B<c)":13705,"▁(ca":13706,"^FE":13707,"▁(eG)":13708,"▁(FEF)":13709,"▁c>A\"E7\"":13710,"▁c>Ae>c":13711,")\"C7\"":13712,"▁(G/4A/4":13713,"▁e>(":13714,"▁f>efg":13715,"d'd'":13716,"▁f>g{fg}":13717,"▁dBd\"C\"":13718,"▁c'2>b2":13719,"▁BggB":13720,"▁c/B/AG":13721,"▁B>de>f":13722,"▁A>FE":13723,"▁ffef":13724,"▁F>Ad>c":13725,"▁FDDd":13726,"▁e/d/B/G/":13727,"DEFG":13728,"▁(TA2":13729,"▁EEEF":13730,"▁E/F/G/F/":13731,"▁BGBd\"C\"":13732,"▁E,,":13733,"▁E,<":13734,"▁degB":13735,"▁cec\"G\"":13736,"▁X:1<br>L:1/8<br>Q:1/8=180<br>M:6/8<br>K:Amin":13737,"▁B,DFD":13738,"▁X:1<br>L:1/8<br>Q:1/4=24":13739,"▁[FA,]":13740,"▁[FA][FA":13741,"▁(d/c/).B/.A/":13742,"{/E}":13743,"▁(3(Ace)":13744,"▁D<E":13745,"(def)":13746,"▁g>fe<d":13747,"▁(cd)e":13748,"▁[cc'":13749,"▁[dD,,]":13750,"▁(GF)E":13751,"▁=cABG":13752,"▁Part":13753,"▁(FG)A":13754,"▁B/d/d":13755,"c/e/g/":13756,"▁(.c2":13757,"▁.G.F":13758,"[Q:1/4=1":13759,"lyd":13760,"▁.a.f":13761,"▁(d/f/":13762,"▁G>DG":13763,"▁aAAc":13764,"B/4A/4)":13765,"▁fAAf":13766,"▁||[M:2/4]\"^C\"":13767,">B/)":13768,"d'/c'/":13769,"F/F/F":13770,"▁EGDB,":13771,"▁TF>E":13772,"▁B<EB>A":13773,"▁(GB).d":13774,"▁DCB,G,":13775,"▁!fermata!e4":13776,"▁(3bge":13777,"▁ee/f/g":13778,"▁\"Gm/Bb\"":13779,"▁[FB]2":13780,"▁Ad{e}dc":13781,"▁[bg]2":13782,"▁G,A,B,G,":13783,"▁|\"^33\"":13784,"▁[M:5/8]":13785,"▁(e3/2f/4g/4)":13786,"▁written\"":13787,"▁c/=B/c":13788,"▁(B>cd)":13789,"▁a>^ga>b":13790,"\"_Fine.\"":13791,"C/4":13792,"FB,":13793,"F]4":13794,"Not":13795,"Trio\"":13796,"cec":13797,"see":13798,"{fg":13799,"▁d\"G7\"":13800,"▁d\"^/\"":13801,"▁d/4e/4":13802,"▁BDE":13803,"▁B\"^/\"":13804,"▁BEFE":13805,"▁ccdc":13806,"▁ge/d/":13807,"▁F/4":13808,"▁Fcc":13809,"▁F_E":13810,"▁EE/D/":13811,"▁E{F}":13812,"▁G2EF":13813,"▁B2{e}":13814,"▁c2C2":13815,
[...]
