#version: 0.2
, /
] [
- ][
, ,/
, ,
| [
, -
] |[
Ġ |
, ][
, -][
- [
,, -][
n l
' /
- =
- ]
,, ][
- ^
- ]|[
, ,,/
, ]
E C
Ġ d
Ġ A
D B
- _
Ġ B
Ġ e
Ġ G
F D
Ġ c
] |
C A
s e
se p
G E
][ =
-][ =
Ġ f
, ]|[
Ġ g
A F
-][ ^
,, ,
[ =
,, -
][ ^
,, ]
Ġ (
B G
Ġ F
,- [
E B
,, ]|[
- |
Ġ E
D A
Ġ| "
[ ^
c A
Ġ D
,- ]|[
č Ċ
Ġ a
EC A
,, -[
d B
C G
Ġ :
,, ,-][
FD A
-][ _
, =
- |[
EC G
][ _
,, ,][
, ^
G D
, [
B A
x x
F DB
[ _
,, -]|[
' '/
F C
e c
' -
A E
G DB
Ġ: |
> <
F CA
e d
D G
A G
GE B
G B
,- =
E D
] =
,, [
E A
,] |
: <
f d
A A
F B
F A
,- ^
Ġ z
G G
A B
C F
G EC
] ^
c B
|[ =
g e
G F
,- ]
c d
E E
, |
]|[ =
D D
e f
F E
C B
Ġ b
, _
,][ =
,, -]
a r
E G
f e
C C
B B
s h
ar p
sh arp
sharp s
d A
c G
D C
-[ =
F F
,-][ =
Ġe d
Ġ| |
,][ ^
x G
Ġ [
x A
A FD
Ġ: :
ĠA B
F G
|[ ^
A D
Ġ "
G C
-[ ^
a f
,-][ ^
x E
]|[ ^
,,-][ =
,,][ =
A EC
x B
Ġ C
g f
B F
> |
a t
C E
,,-][ ^
c AF
G A
,- _
D F
Ġe f
e B
] _
Ġf d
x D
,,][ ^
x C
d c
,, ]|
x F
D E
| =
B E
Ġ| ]
Ġd B
a g
' '
Ġg f
,, |
" ^
-] =
AF C
B GE
d BG
c C
1 2
l at
A ECA
lat s
f lats
, |[
d e
/ )
Ġ ^
-]|[ =
d D
d G
c E
|[ _
Ġd c
A C
-] ^
c F
Ġc A
ĠB d
e E
E F
,, ,]
e cA
ĠB A
-]|[ ^
]|[ _
B D
Ġc B
Ġ| :
e A
-[ _
BG D
1 0
,][ _
GD G
ĠB c
B FD
Ġ .
ĠB G
,, ,]|[
g a
ĠA G
A m
c e
ĠG B
E m
-] |
Ġd e
,-][ _
g d
C D
,, =
c GE
d F
> [
' d
1 6
Ġc d
B b
G ECG
Ġ =
Ġf ed
Ġg e
g G
| ^
Ġc BA
EC B
f F
Ġd f
,- |
Ġe c
ĠB AG
>| :
e G
, >
ĠF A
Ġf e
cA E
ĠG A
,,-][ _
b g
12 0
d d
) (
ĠA F
Ġd BG
Ġd ef
,,][ _
a A
AE A
-] _
Ġf g
A FDA
f c
Ġa g
FC F
g B
f A
] (
Ġ FD
AB c
,, |[
B FDB
i n
Ġa f
Ġc e
Ġ| {
,, ^
AF A
E DB
ĠA c
B c
,, ,-[
Ġf a
xx xx
Ġe g
dB F
> |[
f B
ĠB cd
D m
| (
,]|[ =
,, ,,,/
1 7
, <
Ġe dB
ĠF G
a e
-]|[ _
e e
Ġe cA
Ġ T
,, ,-]|[
b B
d f
Ġd cB
ĠG F
| _
d AF
Ġ !
AF CF
BA G
E b
x c
FD D
b a
Ġg fe
AF CA
,- |[
1 3
Ġg a
ĠA GF
f g
e BG
GE G
ĠA d
EC C
ĠD E
B GEB
ec G
c c
' =
,, ,,/
ĠA FD
GEC C
B m
d E
G x
f dB
]| =
ĠAB c
ĠE F
GE E
ĠG E
Ġe a
D x
c D
,] =
E x
G DA
x d
ĠG AB
Ġef g
D CA
G CA
e C
,,]|[ =
, (
BG DB
A x
,,, [
C x
BG DG
Ġe A
,]|[ ^
A CA
G m
Ġed c
F CG
,- [=
Ġd cd
GE D
Ġgf ed
ĠF E
' ''/
' ^
g c
Ġa fd
F x
G ECA
B d
Ġd g
A c
,, >
fd A
E DA
ĠB AB
Ġ|" ^
B FB
a c
,] ^
ed c
B cd
,, _
g ec
e g
FD C
Ġd BA
c GEC
EC E
xx x
ef g
BG B
f D
Ġdc BA
1 4
ĠA BA
,,- |
a d
ĠE D
f cA
G CG
Ġb g
10 0
> ^
Ġd d
) .
FG A
B C
ĠE G
,,]|[ ^
,, -=
GE DB
ĠA A
c BA
Ġb a
ĠA FA
g E
> "^
FD G
B DB
x e
Ġc AA
Ġc de
AF F
o r
m at
,-[ ^
fe r
fer mat
fermat a
Ġed cB
Ġa gf
ĠF ED
8 0
ĠG G
e F
FD F
AFD D
B x
A DA
b f
FD CA
ĠD F
ĠB GG
Ġd ed
ĠGB d
) "
FC B
ĠD FA
B EB
AF DB
A b
GE A
" _
F ED
,-]|[ =
ĠB GB
,,,][ =
EC F
c x
1 5
A d
f G
Ġ _
,,-[ =
g A
,, <
D CG
,, ,-]
d x
ĠA D
]| ^
-|[ =
AF E
-| =
Ġa b
Ġc AG
' _
ĠcBA G
BG G
d C
Ġgf g
ĠA GE
e D
Ġd A
a F
ĠF GA
cG C
G FDB
g dB
ĠB e
Ġc AF
' -=
Ġg b
A DB
f f
,,-[ ^
ĠB B
,,,-][ =
Ġc c
Ġg dB
f cAF
,-]|[ ^
> =
,, (
ĠD G
a fd
Ġf dB
, [=
cA EA
' '-
ĠB E
AF B
Ġ |[
ge B
f a
Ġ|: "
Ġg ec
,,] =
Ġef ge
g g
,, -^
E DG
> "
cA A
ĠG FE
GF E
GEC B
cA G
dA FD
-| ^
dA D
,,,-][ ^
Ġg d
,]|[ _
A EB
DE F
/ "
,,, |
b d
e x
ĠA GA
g D
F EB
ĠE A
Ġdef g
g C
a b
,,- |[
ĠG ABc
Ġge dB
BGE E
> !
,, [=
GD C
f C
/ ^
Ġa ge
1 1
Ġd G
x f
-|[ ^
ĠcB c
Ġe fe
ĠG ED
' -^
Ġfed c
,,,][ ^
a B
ĠB GE
] "
eB GE
AE D
AG F
, [^
G FD
,] _
ĠAB cd
f E
/ >
b e
d cB
Ġe e
g dBG
Ġe B
g fe
ĠB dB
f ed
9 0
Ġ! >!
a D
D b
Ġ DB
' -[
,, ,-
a ec
a a
b G
ĠBc dB
a E
ĠdBG B
,, [^
< =
cd e
A GE
F EC
Ġg ed
]| _
,,-]|[ ^
,, ,,
,,] ^
Ġd cA
Ġ {
Ġf ef
d ef
ĠB AF
ĠG FG
c EC
' [
ĠE FG
Ġf ga
ĠAB cA
dB FB
AA A
Ġb ag
BG F
GD D
b ge
ĠdB d
ĠdB AF
D CB
Ġcd ef
G FC
x g
Ġ" ^
dB B
Ġfd d
F ECA
ĠA FE
Ġf af
Em in
BG EC
,-[ _
. "
g F
eB E
,,-]|[ =
Ġed e
ĠBAG F
Ġde fd
# "
cAF C
ĠA ce
b c
i x
ĠG AG
ED C
Am in
ecA E
d or
ĠB ABc
Ġ v
cAF F
a C
,,]|[ _
c EA
Ġ u
Ġf A
Ġd BB
b E
gf g
"^ (
,- ]|
Ġed ef
14 0
B DG
o n
a G
d DB
-| _
Ġ:: "
Ġa e
xxxx xxxx
AEC E
fd AD
d g
G AB
c CA
C m
f x
ĠD ED
cA C
dB A
Ġag fe
" "
Ġfd ec
1 10
ec GC
dBG G
ĠD EF
d FD
Ġf f
ĠD GG
,, ,]|
ĠF F
Ġe ce
Ġg g
Ġf B
dBG D
ĠB cB
Ġfg af
< ^
Ġe AA
A CF
G FB
2 0
1 80
,| =
Ġd BAG
Ġafd f
ĠA dd
ĠBcd e
,, ,,,
,, -_
FC C
F EA
g x
ĠAGF E
Ġa ga
Ġef ed
] "^
' ]
cA EC
cA D
AFD C
a ecA
GB d
GF G
AD F
cG ECG
ef e
ĠA BAG
Ġg B
Ġg ag
AG EC
t r
dB D
Ġfd f
x a
ĠE AA
' |
ĠGA BG
ĠcB cd
,,,][ _
ĠD D
ec e
cA ECA
Ġdcd e
16 0
A BA
AF EC
' -_
ĠAB d
,-]|[ _
Ġ| |[
Ad or
g GG
d FB
B AF
Ġd AF
cB c
a AA
ĠD EG
b F
ĠG EE
ĠGF ED
Ġe ge
AE E
ĠA BG
AE DA
ĠB AFA
ĠAG AB
af c
ec C
Ġa d
Ġ EC
BG C
,]| =
D CF
] /
f ga
ĠAB de
ec E
Ġdf ed
b ag
dd d
ĠG c
Ġ EB
ĠE E
ĠFG AB
13 0
ĠG FGA
ĠFD D
dB E
ec GE
b D
ĠF AA
x b
,,-[ _
E FG
Ġcd ec
A GD
a gf
ĠedB d
> _
g b
,,,-][ _
>|: "
G c
Ġa c
ĠF B
Ġgf ga
Ġg c
ĠB F
Ġfd cA
B EC
-|[ _
eB GEB
BA B
e GE
ED E
Ġb ge
Ġ|| "
c ECG
GD E
GG G
ĠE FGA
d AE
ĠF EF
ĠBAG B
FC D
Ġc f
ĠedB A
A e
1 8
ĠC E
' ][
Ġaf ge
e EE
cA FD
dA FDA
ĠE FE
Ġea ag
BB B
Ġf c
DD D
Dm in
ĠGAB d
E c
c CC
ĠAFD F
,- ]=
ĠBGB d
# %
6 0
GC E
e a
ĠcA BG
Ġc AFA
ĠT B
B EE
" {
Ġ DA
f FF
a x
ĠA AA
' >
g dG
ecA A
,[ _
Ġd F
ec B
]| (
AEC F
d cA
Gm in
ĠBG AF
Ġe fd
Ġd fd
EE E
Ġba gf
Ġf gf
,| (
b A
e EB
B e
c f
ĠB ee
/ .
15 0
e dB
ĠB cA
ĠB AA
ĠE FA
ĠcA GE
,,-] |
b BB
ĠecA c
Ġf efg
c CG
BFD F
cd c
Ġdf a
Ġc dc
,,, >
ĠDE FG
c GD
Ġ:: [
> (
ĠAc BA
ĠA f
B FE
ge G
ĠB g
/) (
d DA
G CB
c FD
BA E
ĠdBA B
,- ]^
ĠA E
DC D
dB FD
ĠD C
dBG DB
fd F
,,] _
GEC E
d DD
B cB
3 2
E dor
,| ^
AG A
12 8
Ġc ABc
Ġc eA
a eA
ĠcA c
d ed
AEC C
Ġd fe
Ġa a
ĠC D
A ECG
'' ''/
c BG
ge f
c FC
ĠA GEG
Ġg edc
A DD
ĠBd d
c EG
FF F
ĠdB cA
Ġc G
AF CC
Ġdf af
ecA EA
f AF
Ġde dB
B EG
Ġc ec
ĠG BAG
Ġd edc
dB GE
ĠA GG
ĠGB dB
BFD G
Ġ( [
GD CG
cAF CA
Ġfed f
Ġa A
,, [_
ĠE DE
c FA
b b
fd D
g BG
ĠB EE
AE F
Ġ( .
G CC
Ġge fd
cGE G
ĠFG AF
b gd
/ {
f cF
Ġa ba
,, ,,][
Ġeg fe
ĠT c
c ECA
ĠG D
12 5
A f
ĠBc BA
BG DD
7 0
d GB
Ġ|| "^
d AG
c GF
D FA
< _
FE F
FD CD
,,, =
Ġgb ag
d GD
,,, |[
Ġc F
d GE
ge E
Ġbg af
Ġga b
ge C
Ġ( ^
/ =
ĠE DB
F d
af A
ĠdcB c
Ġgf ge
ĠAD FA
c FCA
,]| ^
Ġd AFA
ĠAB AF
Ġgec e
Am ix
,,-] ^
B g
Ġab ag
9 6
BG FD
BGE D
e EC
on e
Ġag ed
8 8
b fd
B FDA
GE F
e BB
Ġc dB
ec AF
,, |=
Ġc E
ĠT e
ĠDG BG
G AG
> )
2 5
Ġea a
c a
cB F
Ġfg fe
1 15
dB FDB
n one
ĠDF AF
1 12
Ġef ga
f gf
Bm in
Ġga ge
d FA
ĠEF GE
) {
b x
ĠdG BG
ĠBd ef
ĠT f
20 0
i m
B FG
ĠA dc
Ġe gf
B FF
, |[=
gd g
B FC
GF CG
C DE
AFD F
'' '
d a
ĠA df
Ġ:| "^
cc c
Ġf ec
a cA
Ġe G
cA c
ĠA FF
FD E
dA DA
ĠBAG A
,,-] =
Ġgf ef
ĠBAB d
dB FF
C EG
ĠAd fd
C EA
Ġed cd
ĠA e
,, ,,,-][
i on
B ED
ĠBe ed
af F
Ġg fd
fd AF
ĠcBA B
e GC
d cd
Ġe ag
ĠFD F
ĠAFE F
A CE
Dm ix
Ġg bg
d AA
FD CB
ĠG BA
]/ [
EC D
b C
,,-]|[ _
ĠE DC
cA CA
7 5
l i
ĠAGF G
ĠAd dc
FE DA
e AE
,,]| =
ĠG BG
Ġ:: "^
cA B
ĠB BB
S O
Ġgfe g
i t
,,,]|[ =
,, ,-|
Ġfd ed
f FD
c GG
Ġfe dB
Ġc a
10 4
G xG
ĠBG GB
ĠgdB d
d GDB
ĠE DEF
ĠDE FA
> .
f dBF
g ecG
ĠDEG A
g GE
ĠA a
- "
ĠF AF
e AF
'' '-
Ġdf ec
ĠeA cA
A CG
,, |[=
a AF
ĠFA d
l o
Ġ|: [
Ġfa gf
ĠG e
ec GEC
ĠFD FA
ĠB dc
10 8
Ġaf a
Ġce e
Ġa fe
ED CA
d FDA
Ġage f
dA d
c EB
ĠA cA
Ġd dd
ĠF d
ĠG GG
in e
e EA
b fdB
ga b
G dc
g ag
' -|
>|: "^
ĠDE FD
DG B
ĠB D
Ġb d
cG CG
Ġ|] :
Ġec dB
B DF
Ġd cAG
AF G
Ġdef e
AFC D
cAF CF
Ġc AB
cA EE
BG A
ee e
13 2
g ed
, |[^
2 1
,, ,,-][
CC C
D d
Ġfd c
dB DB
* "
ĠA GED
BFD D
Ġd ec
AG C
cG A
Ġ: |[
{ /
10 5
ĠA DD
8 5
r e
ĠG d
' (
ĠG EG
2 4
e BA
e GB
Ġ M
ĠcBA c
Ġef ec
lo w
Ġec BA
, )
Ġge g
ĠG g
1 9
Ġb e
ĠGED E
d AFA
c GECC
Ġfa fd
AEC B
Ġ:| "
B ECG
1 16
t e
f af
Ġ|"^ (
eBG B
BA FD
Ġfd ef
g GB
Ġcd ed
ĠT A
d FDB
Ġec c
cA GE
G d
d EB
ĠE GB
GE DG
ĠE c
Ġ CB
ĠAc ec
f AD
7 2
12 6
ec F
' |[
ĠBd g
,,| (
Ġaf ed
ecA ECA
AE G
Ġga bg
f BG
ĠAGE F
cGE A
BGE G
,,| ^
fd G
Ġc edc
Ġed d
' -][
ge BE
,| _
xG x
e CA
"^ /"
Ġ CA
ec BG
f FB
Ġcd cB
F GF
af cF
ĠeA ce
FF FF
9 5
13 5
Ġf BB
Ġeg dB
ĠBd cB
Ġd D
fd c
F c
Ġga gf
Ġed cA
EB E
li de
ĠD AFA
/) .
s lide
ĠcA eA
A DC
ED CB
s t
BG DE
c FF
d DG
B f
C xC
,-] _
ec GECG
cAF A
B DA
Ġa ec
e ECA
ĠG BB
" "^
f cG
Ġab af
Ġ P
a ge
Ġfed e
B EA
ED CG
BA D
gec C
ĠDFA d
ĠGB AF
F m
c FDA
ed A
G CF
A xA
G dG
c EE
d cG
b BG
Ġ|" _
Ġg dBG
G e
dB d
,,, ^
Ġfa a
12 4
12 2
e r
B ECA
g dA
'' ''
e AEA
AG G
ED D
E FE
A DG
d GG
. !
Ġf ag
AG ECA
ĠFE FG
D CC
B DD
de r
c g
ĠedB c
g DB
] )
xxxx x
C EC
FA c
Ġ CC
EA c
b dB
ĠB dBG
bg B
Ġ( =
ed e
ĠBd AF
cAF E
GE DE
ĠE GG
d FF
> "_
fd BG
2 32
Ġegf a
e BF
S low
g cd
D FB
g GC
G FCA
d AEA
f DB
c DB
c CF
( {
T e
a AE
Ġb af
a fdA
eB EB
A a
Ġb c
GC D
D xD
b fB
11 8
Ġd AG
ĠFA df
,,, _
xE x
Ġg A
ĠGFE F
g cG
D ED
Ġfa af
e GEB
GE DC
gg g
ĠBd gd
ĠAG FA
ĠAF ED
Ġd GG
Ġf b
dBG B
,,,]|[ ^
Ġbg ag
cGE E
ab c
ĠGBd g
N B
ĠcAA B
ĠG EC
E GB
Ġfd df
b BE
ĠT d
a AC
GD F
ĠcB cA
Ġcde g
Ġde ga
c FCF
ge A
Ġfd ad
,, |[^
ĠE DD
Ġge e
9 2
e AA
GD CA
f ec
e GG
ĠB GF
dBG DG
' )
xxxx xx
D FD
fdB B
EE EE
Ġed BG
ed ge
ĠdB BA
xA x
ĠD d
ĠD FB
E GE
Ġdc dB
ĠT g
Ġage g
w edge
a CA
ge cA
Ġef gf
Ġ CF
ĠD GB
FE DB
G FCF
Ġe cAF
Ġa ece
,]| _
o der
ĠAB ce
e ECG
oder at
ĠB ed
AB d
Ġd gB
Ġdcd f
eB EE
Ġe cB
AF ECA
ĠFD EF
Ġe cBc
FC E
c GEB
fd f
ĠFA dA
Ġde g
ĠcAG F
A GDB
ĠceA e
ĠB de
ĠF GF
f CA
ĠBG AG
g GD
ĠBA GE
t o
ĠdBG A
Ġfg ag
xC x
1 14
cB GE
Ġce g
f FA
,,, <
Ġaf ec
Ġed ce
A cA
ĠA cB
8 4
ĠcA ce
e EG
D dor
u s
ĠBG dG
Ġf ge
Ġe gdg
ge BG
ĠAD FD
B dB
BF EB
ĠAd de
f ef
Ġged e
d GDG
Ġ FDA
ĠdBA c
12 3
Ġfd e
ĠEAA B
ĠA g
ĠBG dB
Ġd GBd
AG B
Ġfe e
dA FDD
CC CC
g cA
f b
f FC
ĠBF AF
b DB
> )(
xF x
9 8
ĠB f
Ġf ece
i l
10 2
ce g
GF F
Ġ in
ĠAG FD
,,]| ^
fd AFDA
Ġd cAF
Ġd AA
Ġad fd
c dB
c CE
Ġg dd
f BF
a fe
ĠfA eA
/ (
Ġc cc
ĠFGA c
C DC
Ġdg gf
8 6
ĠcAA c
Ġc GE
12 7
Ġ s
A ce
Ġfd de
b gG
g dc
Ġd ge
Ġ. !
E xE
b eB
Ġfd fa
e CG
a ba
7 6
8 2
dAF B
" "_
,,-] _
a AD
14 5
ĠEA AG
ar i
Ġeg ec
xd x
AF ECF
ĠT E
AFD CA
,> ^
A CC
fcA C
g BE
Ġd gf
xD x
'' =
f AA
ĠE e
! [
d AB
Ġaf ef
ĠDGG F
f FCA
ĠGF GB
Ġfd AF
9 4
Ġc g
ĠdB gB
AC D
Ġc ed
13 8
l y
Ġgf ec
dBG F
' <
af cA
ĠT F
Ġd b
Ġ|] "
Ġged g
gf ed
at ion
ff f
M T
ĠD GBd
Ġdef a
B CG
BA GF
c FB
BA A
g fd
EG A
ari ation
dB AF
10 6
Ġdg g
ĠG DG
DA D
Ġg af
f cB
13 6
Ġaga b
ĠG DB
ĠG EA
ĠE GE
P MT
a cF
f DA
Ġgf gd
SO O
SO SOO
7 8
a dA
g EB
Ġd a
af D
9 3
Ġef dB
Ġg ef
Ġb f
GEC D
GE DA
Ġu e
ĠceA c
6 4
B FCF
M oderat
17 0
14 4
d GEB
ĠcB ce
xx D
,,,-[ ^
Ġg G
v e
AF CG
fd AFD
GF EB
aa a
ĠA de
ĠB EA
AF CB
,> =
Ġe ee
Ġg dc
Ġf dA
cB E
6 5
,] (
ĠeA fA
ec D
, "
a l
ag a
dAF F
,< =
B FA
Ġ|: "^
afd D
c DA
c ec
Ġagf g
,,, (
Ġfa ec
fdB FB
xx E
,|[ _
ĠBd f
Ġec gc
Ġc ecA
f ine
fd AA
Ġ t
a AB
ec EC
FE G
ĠFA c
Ġbge g
gB d
d FG
ĠA dB
Ġg ba
at h
i c
C O
1 13
5 0
BG FDB
Ġea af
c FE
fd cA
+ "
ĠF AD
ĠdcB d
Ġ m
B CA
ĠB GA
xc x
Ġed eg
Ġa AA
ĠAce g
ĠB AFE
-] |=
BB BB
b BF
Ġd AFD
ĠcA d
d im
ĠBd cA
dB C
6 6
a AG
cG c
a n
ĠC DE
dc BA
e DB
b af
ĠF GE
ge BGE
ĠF EE
Ġb b
Ġfd cB
ĠD DD
G dor
ĠG FD
f FDA
Ġdcd A
Ġf AA
ED F
F ECB
g dD
xx A
FD CG
B DE
G BG
] >[
e ge
ĠA cd
gec GC
e fd
ĠAB df
"^ *"
1 17
"_ >
ĠAB cB
Ġagf a
a eE
6 8
ĠD CB
Ġa ecA
10 7
ĠBG AB
ĠAF d
Ġe BB
ĠBA BG
gdBG DG
B xB
e GEC
eB GEE
Ġeg g
ĠEFA B
G FDA
C c
a ed
Ġcd cA
9 7
F AF
d cAF
r o
Ġd DD
c GDG
gd GDB
ĠB gf
te n
Ġga ba
3 0
ec GG
7 4
gdB D
EG c
ĠcB AF
cE F
ĠBcd c
d xd
e ED
g BD
ĠBGG A
c ED
d DF
BE DB
Ġfa ge
ariation s
ge GE
xx B
Ġc BB
cA EG
ĠF c
d AFC
Te il
AG FE
Ġfd dc
d CA
DD DD
df a
gd GD
Ġfd cd
ĠcA ec
ĠBcd f
ĠF ADF
12 1
b BD
Ġ| ][
ĠG EF
cd ef
Ġag bg
FA d
g BB
GD CD
) "^
10 9
8 9
n o
ed BG
G FDG
i g
r it
-]| ^
d FC
Ġg ecA
ĠBd dB
Ġfef a
BG DC
fdB FDB
A GDG
ĠfdB d
E e
ĠE EE
ĠcA AG
d GF
ĠAF GE
Ġce a
c GB
f cC
/ -
ĠD FD
AA AA
,,,] =
GG GG
AD CF
,,]| _
Ġeg ed
Ġdfe g
,,| _
PMT u
g BGDB
r i
ĠdcA B
A BG
E FA
f FDB
ĠBe ef
f BB
Ġd gfg
ĠdB g
13 4
ĠeB dB
7 3
F xF
{ ^
10 3
ĠB dAd
,, ,-[=
BG DF
af a
Ġbg b
6 7
g GF
AFD CD
ĠdB c
e AC
ĠFAA B
ĠBdc e
Ġd FF
C FA
D GD
ĠB AFB
af B
ĠEG AB
Ġab c
f AC
A CB
Ġdg fe
AF EF
dB FG
ĠB dG
d b
Ġf cA
g dAD
Ġdg bg
,, ,,,-[
Ġ( !
cA EF
Ġea ab
b ecBG
GG F
13 3
f ge
ĠEDC E
BG BG
ĠF FF
ĠGB c
,,,]|[ _
Ġa ee
Ġdf f
ĠFED F
BA DB
,- |[=
ge g
,- |=
gdBG G
ĠAFA B
b gf
Ġ ECE
gd GDG
dd dd
ĠE GFE
ĠBA AG
] >
F ECF
l l
xx C
Ġ|{ /
a dB
Ġb faf
eB e
eBG G
GD CB
DC E
6 9
Ġa dd
c FDB
ĠF BB
GEC F
e GA
ĠFDA D
GF ED
xB x
Ġfga b
AE DB
b geB
ĠdgB g
Ġ| !
ed cB
ĠAdf a
d ec
Ġf ecA
ĠE FD
ĠG f
Ġac gc
bg dB
ĠDFA c
Ġ x
Moderat e
Ġec ec
'' ^
PMTu CO
GA c
fcAF C
ĠA EA
Ġgb af
AD CA
Ġ|] "^
Ġgb eg
ĠcdB c
cB B
C DF
AF ED
d EA
,,,-]|[ =
ĠEF GB
8 7
9 9
Ġag ec
fcAF F
cd f
EE F
u e
BG DA
c BAG
G FA
fd FD
ĠFED E
F ine
g GEB
Ġfe fd
ĠeB e
cc cc
,- |^
FD CF
BE DG
AG AG
8 3
ĠA FG
xxxx xxx
D EG
g cC
d GC
AFD G
ĠFD DF
c xc
ĠBE ED
g cE
n d
AEC D
G g
ecA C
im e
Ġdf Bf
ĠGE ED
aec AF
f FE
fd E
e b
C DB
ĠT G
dB AG
bg dG
s ion
Ġd Ad
ĠG ECE
C FC
,,, [=
Ġb B
bg E
fc f
Ġfa ef
ĠF GFE
ed G
,< ^
9 1
ĠG AGF
a cC
g GDB
fB FB
ĠecA G
eBG C
F EE
,,,] ^
} "
ĠFA DA
] -
c ECC
ĠGBA c
u to
ĠG AF
ĠBcA B
B ECB
b re
'''' [
a st
ten uto
ĠBG d
f BD
BG ECB
ĠB dA
g BGD
ĠC EG
ĠdBB d
ĠF ABc
ĠGE FD
Ġd E
Ġ. [
Ġce ge
bre ath
B cA
Ġfd fd
Ġge be
Ġgd g
c CB
xe x
ĠBGE F
xx G
ĠFD E
24 0
G FDC
ĠdBA d
gdBG DB
ĠF DB
ar t
GED CG
ĠF f
af AF
a cE
ĠAFA c
gf c
ĠdcA c
Ġf ff
fcAF CF
afd AD
e y
DG A
Ġag af
7 7
ĠB GEG
d ECA
e AD
12 9
ĠFED C
ĠC DEF
ĠAFD E
' }
b dG
af C
ĠED EG
2 2
cG FC
ĠGA BA
Ġaga e
G ABc
,, ,-|[
Ġ CG
ĠB GFG
Ġg gg
'' _
Ġefd e
ĠABG A
,,, [^
Ġfd ge
: "
Ġc EE
gB fB
F ECG
cA ED
Ġa ed
ĠdB dB
ĠB DAD
FB F
ge dB
ĠAc BG
ĠE Ac
DD E
Ġed gd
BGE DB
ĠBc e
,,,-]|[ ^
13 1
ĠE AG
e GD
Ġba ge
p l
f edc
'' |
FED C
b BA
fe B
Ġeag a
ĠFD AF
14 2
Ġae a
Ġfg fd
/ _
e AFC
de g
25 0
cA CF
u g
ĠD GA
ĠAF cF
Gm ix
ec ECA
10 1
B FCA
Ġe cd
ĠGA GE
ĠAd cd
ĠGE cE
g EC
ĠAc c
Ġece g
ĠBd GB
fdA DA
aecA A
) }
p o
Ġb gec
T B
ĠF AB
d FE
fe cA
A g
g cGC
ef c
Ġdf g
Ġe af
' -|[
ĠAGG F
p i
ĠF GEF
Ġaf af
E ED
Ġ [^
ecA G
ĠAFA d
ĠgA fA
gd E
ĠAF dF
Ġu d
Ġaf f
ĠFE FA
e DA
Ġec ce
fdB FD
bge E
ĠGA c
fcA A
Ġgc ec
g ECG
ĠdB e
14 8
it h
ĠB GD
11 9
D EA
G FCB
xx F
Ġfd af
d fd
Ġeg fd
g GA
Ġed fd
ĠB gB
Ġd gd
ĠcAG A
7 1
,- |[^
2 9
3 3
Ġc BG
BA EA
fd C
cGE D
ĠFA dc
ĠM S
ge BGEB
gec E
E d
d FDD
Ġd AB
FA B
B AFDB
Ġf G
ĠcA dc
ĠT a
er sion
e AG
AF CE
6 2
D FG
Ġed dc
ĠcAG c
GxG xG
D xC
d DC
ĠF AG
"^ /
ĠDGG A
d GA
ĠAF FA
c h
BE F
ĠcA dB
2 3
,, |[_
Ġu A
Ġg BB
DD C
fcAF CA
B AFB
a eB
d CG
Ġf gef
BG FDG
13 7
Ġag fd
Ġt ime
Q u
BG ECC
dA DD
Ġv ar
e BGD
B ECC
AD E
Ġbd ad
b dD
f cGC
g CG
ĠcA cA
a DA
ee ee
e CC
g af
,,] (
ĠE d
cF EA
ĠBGG F
D xE
8 1
> [=
ae AE
11 1
f FG
ĠE GA
ĠBd ed
or i
/ "^
c DG
GB e
ĠBE GB
Ġ"^ (
/ <
ĠD FF
ĠB AFD
cA FDD
ĠBG BG
AG DA
( ^
CE F
FG AB
dc F
A AG
ĠA dF
ĠBd de
-]| _
Ġafe g
1 90
ĠGA cd
,,< =
f AB
ĠAd cA
ĠB GDG
BG FE
ic k
Ġf dAd
,] /
ĠG EDB
ĠFA de
Ġ p
cA EB
aA CA
xD E
E AE
F GE
cA GF
ĠD c
Ġfa df
ĠeAA B
a dF
> {
Ġ|{ ^
x DB
BFD C
Ġce dB
ĠA cAF
aecA EA
C xB
Ġc AFD
dB GEE
ĠE AB
) !
d DE
gdB B
= "
B DC
Ġg efg
Bd g
ĠEG ce
ĠBe dB
BG FG
Ġa bg
ĠAc f
A GEA
z d
BA c
gdBG D
c GDB
'' -=
BG ECG
Ġef a
' [=
GG A
ecA EC
ll eg
f AFD
CE GE
ĠfB BA
f BA
x EG
eB C
ĠFA AF
ĠBAA B
v ariations
A GDD
Ġd ddd
D c
xf x
A GEB
x CE
bB DB
ĠAB GE
fc D
Ġv A
Ġe E
bf dBF
4 0
dB GEB
GFC C
e AEC
ĠC EA
ĠGB e
ee l
D EE
ĠAG BG
ĠGFE G
7 9
F GB
ĠB a
FB d
gd C
f AE
in g
g cAE
Ġce ae
Ġv e
AxA xA
e FB
D FDB
ĠE GD
ĠBEE F
,, ,,]|[
Ġe ae
ĠFD DE
Ġbg g
d FCA
AF EA
A lleg
C CB
T c
AG FD
f AFC
AF EB
ag ec
'' '-[
ĠBd gf
ĠB b
Ġfd gf
g CA
ec GA
DG G
ĠDE GB
Ġ" _
'' ''-
bg D
Ġaf bf
ag fe
ĠAc ef
ĠFA dB
cB d
Ġfa eg
afd AFD
fd AB
FED CA
Ġv d
a ecAE
ĠEA cA
Ġd EBE
ĠG BGB
ĠAB BA
dB DG
2 20
f AG
ĠA AAA
cG CE
B CB
ĠA cde
ĠBd ge
fcA D
ĠcAA A
# /
Ġdc BG
Ġba b
u r
af cAF
Ġbag b
B BA
e GF
Cm in
Qu ick
A GED
ĠF e
ĠE GDG
ge F
ĠdA BG
aec E
dA DF
cG ECA
a FCA
ĠF AFA
ge D
a j
f EB
ef a
Ġafd e
pl us
Ġge af
> [^
a dD
Bb m
Ġge a
14 3
15 5
> |[=
ĠAF AF
Ġea gf
GdG e
e AECA
af cC
ĠBd AB
z A
ĠF AFD
d eB
,,< ^
Ġdfd f
B CF
Ġc ac
AA B
ĠB DGB
Ġge eg
ĠBAF G
) ^
Ġa B
E GEB
ĠcA BA
Ġdf dB
' ]|[
( [
AG x
16 5
ĠfA df
ĠeG dG
Ġce ag
u d
,, ,-=
ĠG C
cA FDA
dA C
Ġ:: {
T BA
d EC
x EE
Ġeg de
ĠfB dB
d ECG
ĠBGG G
d GEC
g bg
ĠGF GE
o da
DB D
cA DD
AB cd
'' -^
Ġgfd c
,, ,,]
ĠA BB
Ġec ac
ĠEG c
ĠEG BG
Ġec ge
ĠFD EC
Ġdc c
< (
17 5
15 2
D FDA
cC D
6 3
g de
ĠFG AG
Ac f
d ED
Ġf cAc
Ġe gfg
cG CC
xg x
D GDB
b fF
BF CG
a DB
GE x
AG ECG
GB c
ĠdB ge
Ġc b
ĠC EAc
/ "_
C FCA
af dB
Ġea ge
B df
u c
ĠF C
c ECE
e BAE
Ġed ge
Ġfa ea
fdB D
,,> ^
Ġage a
b EB
BA EB
Ġdec d
ĠG ce
ge BB
ĠG GGG
ĠG EBE
ĠF AGF
Ġfa d
AE DD
,,,-]|[ _
ĠAGA c
ĠdF cF
F xE
h or
ĠA gfe
ĠF AEA
A cd
Ġe b
ba b
AFD E
dc c
a ECA
g GEC
,< _
Ġ S
ĠecA B
ec BA
CC x
AG CA
G b
b dF
Ġe gd
u A
ĠB BA
AF EDA
Ġgb ge
Ġc ccc
ĠA ece
ĠBcd g
BGE A
dG FB
AA x
cAF EC
ĠdB de
da n
Ġeg ge
Ġ|]: "
ĠDFB d
C DG
D xB
30 0
ĠA gf
ĠA aa
Ġc D
ĠFA cA
AE DE
ĠBc BG
ĠAce a
E xD
ĠE DCD
cE c
a FD
c ECB
e xe
EE G
ae C
ĠAFE G
,,,-[ _
ĠEF ED
T A
T f
z B
cA GA
F FE
g BGE
Ġce ef
bB C
5 5
BFD E
ĠcAG B
ĠEB BA
C EB
ĠB ef
Ġ( _
' |(
ĠA AB
ĠcB BA
d GED
pi rit
ĠDFA B
ĠBdB A
g cB
/) {
fc FC
ĠBdA c
a EC
ae F
c DD
i ve
cG DA
ga e
Ġ|"^ /"
ĠCD EG
ĠdB ed
Ġdg ed
e FDA
Ġe cde
af E
ĠBde g
A n
Ġf bb
Ġge ag
5 8
Ġg GG
G xE
GF x
E FD
G AF
Ġ 2
ĠB gdg
cA DA
- )
x DD
Ġa aa
g BGDG
eB d
Ġbg dB
Ġ w
ĠB BBB
BA GA
cd d
,> _
ĠcAA g
ĠA ag
A df
B FCB
,,, |=
AG FC
6 1
A dA
ĠA ff
cB AF
CC D
DE x
B a
x DG
ĠBd fd
Ġde e
? "
ĠedB e
Ġdg b
z e
,,,] _
ĠED CB
Ġce ec
a bg
x AA
ĠB eg
A xG
a m
cA x
ĠGB EB
,,,- ]|
Ġ| ({
fd AE
Ġdg dB
,,,- ]=
BG FB
ed d
xE F
"^ +"
x FA
FD x
Ġc ef
ĠFE FD
ĠAF cA
ĠAd dB
ĠFE ED
ec EA
u B
a dAD
e FDB
Ġ [=
ĠG cc
dB EB
dA GDG
ĠGB ed
C ECA
p e
q u
BGE DE
ĠcA e
Ġu c
g AGAG
h e
Ġ 1
Ġd GB
xD xD
'' '-^
16 8
ĠD CD
Ġge ef
. .
B xA
cd ec
eB D
DE FG
ĠBA cA
c cB
f BE
f cAE
ĠB gec
cd eg
ĠEC EG
ĠAcB d
e GEG
x EA
ĠBd dg
, }
ĠA dA
ge BEB
' -]|[
d FDF
Ġdf ag
ĠB ge
AE DCA
ĠAAA B
ĠA C
ĠEA ce
a AFD
ĠG cB
a cD
f BGD
,,, [_
ĠD GF
Ġec g
14 6
' .
Ġfa ag
ĠcF AF
ĠD dd
ec CA
GF EC
ĠAc fc
gc fc
gdB E
ĠDFB F
c ed
,, ,,,-]|[
dB FC
EE x
ff ff
ĠBdB d
A DCD
re s
g BA
Ġb ee
13 9
eBG F
ĠEF GF
ĠdBd g
hor us
c gc
x CB
ĠBG cA
fdB A
C DD
l ast
AFD CF
G ce
xB xB
Ġdf Bd
ĠBdG d
C DEF
c FDD
l e
15 4
h r
FE x
)( {
ĠdF AF
bb b
Ġea c
dAF E
ĠEG cG
Ġgfd e
D DB
d AED
Ġ o
BG CB
Ġa dfa
FG x
Ġgf gf
bg BG
Ġeg c
ae AA
Ġu f
g cGE
ĠG ge
AF x
ĠE BGB
,, ,-_
ĠA FGA
FF G
,-| _
ĠEG FA
Ġgfg b
ĠB cAF
ĠGB df
fc FF
ĠeB BA
ĠFB BA
] .
C horus
cd ed
xC D
bge BE
2 6
R eel
d EE
x BA
Ġef fe
Ġae fd
' "
T d
a efc
f xf
ĠdB eB
ĠdB fB
ecG CC
ĠBd AG
gec GECG
d efg
d GEA
f GC
v b
ĠA cGc
Ġc fe
Ġb gd
Ġgaf g
e CF
Ġc GEG
GD CC
ĠC a
Ġea ca
f ECA
Ġ ECC
Ġb gdg
Ġfg ec
B dc
ĠA af
eE F
15 6
ĠA fe
Ġfd dd
c r
e FCA
} (
CD x
FFFF FFFF
PMTuCO M
BA ECA
ĠFD C
Ġeg b
ĠcAA e
ĠGEE G
ĠB GFE
E FCA
e AFD
e GEE
f BFDB
z G
( =
x DF
Ġd de
ĠA ee
ecG CG
fdB DB
gec GEC
x CG
Ġe ga
ag d
Ġm s
ri s
b fD
e FD
ed AD
ĠAc fa
Ġeg ce
ĠDC DE
b dE
z c
Ġ ECA
ĠB gfg
ae a
Ġea ec
x AB
cAF G
ĠB gg
BG ECA
g DA
g GECG
ĠAB dB
ĠD FG
Ġgf dB
ĠcA cd
dB c
"^ >"
Ġaf dB
BG CC
cAF B
Ġfd dB
Ġfd AG
An dan
f CF
ĠB EB
Ġe AB
'' [
ĠGEE F
Ġbe ge
' [^
B CE
ĠAF dB
14 1
a CF
g BF
fd DB
dc C
ĠBGB c
> |[^
d EG
Ġec a
xd xd
ĠfdB c
C xG
E FB
G BA
a dAF
d gd
,,- |[^
DG F
DC x
ĠgB fB
3 60
fd e
ce a
bg C
ĠFD FG
Bcd e
Ġu B
" [
Ġf ecB
AxAxA xAx
F f
c xB
,,- |^
aecA EC
x GG
,, ,,,-]
dBG C
>"^ (
ĠcAF G
x ED
Ġe BG
Ġe AAA
C ECG
W ith
s ic
ec GD
b ec
x FB
ĠE ee
dc GG
d fe
g BGB
,, ,,,][
xG c
ĠAB dA
Ġfd fg
afd F
C xD
g cF
af G
CD CB
Ġp art
a eG
ĠB DD
G AA
N o
a FDA
EC x
Ġc ece
ĠBd gb
V er
b fc
cA ECF
cd cB
ĠGB EG
oda l
Ġdg ga
Ġu g
ur n
! !
B ce
a AFC
d cAG
f AFA
ĠE GF
Ġv c
/ !
b eA
17 2
ĠFAA c
Ġgfd f
ris k
,,- |=
BG CA
BA GD
,,> =
' s
a xa
ĠE FDE
eB c
a cG
x EB
Ġc FF
ĠE GDE
Ġge ge
ĠDF ED
ĠdA df
G xA
V ariations
d dc
BA GE
Ġfa ab
Ġ|"^ *"
x GB
ed D
gf a
Ġfd a
ĠAd FA
ĠEB B
i s
~ "
BE DA
EF x
Ġfe ef
D EB
Ġm odal
G xB
p hr
AG CG
ĠEFA c
ĠCa po
C xA
Ġ|| {
ĠGE DG
ĠAdd d
c DF
Ġ(! >!
b eE
,/ )
ĠD FE
dA DB
dc x
ĠGEG A
S eg
x FF
ĠB FDF
fd FDA
Ġeg dc
,, ,,,-][^
Ġe eee
gec B
BG CE
fe A
5 6
a EB
a dc
g DG
ed E
AB B
Ġed ec
gd GB
Ġfa fe
ĠfB de
ĠdE cE
) )
t to
cA GEA
GG x
ae D
fdA DD
2 7
\ "
Ġfd BG
Ġdf fe
fc FA
Ġv B
BGE F
Ġu a
! >!
- "^/"
3 20
e GECG
ĠG DGB
DD F
Ġced f
ug ge
' -]
A xB
B risk
b fe
u f
ĠF BA
ED x
Ġ. ^
Ġefg b
GED CB
ri o
) [
2 10
x ed
DD x
Ġdf ef
Ġe F
ĠE cB
Ġa cA
eB FB
Ġcde a
F xG
ĠA AG
gd GG
ĠdBB B
dBG A
Ġ|"^ >"
xb x
E EB
AE DC
ugge st
B AFE
ec ECG
/) "
ĠAd cB
ĠcAA d
aec C
Ġfdd g
a cAF
Ġc AEA
fd cB
Ed it
e ae
ĠB FB
Ġc fA
ED xD
ĠdB ec
)( ^
ĠGE FG
Alleg ro
cB x
Bc dB
cB cd
Ġde ed
eG CC
gB DB
dAE DD
d CF
e FC
f cE
g dBF
,- |[_
ĠB EF
Ġe dA
Ġa fc
GF GF
18 5
e AFE
cA DB
ec CG
Ġb fdB
ĠAG AF
c DC
ĠA ed
gB GEB
cGEC B
FED E
D FE
ĠG gg
ĠBA dB
Ġfe ed
ĠDB B
ĠCD EC
ori al
uggest ion
ĠB gfe
cAF DB
dc D
x DC
CG C
ĠFA GE
T E
t urn
AE DG
AG FG
fd FDB
ĠBA BA
Ġeg gf
ba gf
"{ /
a cAE
b FD
e ed
g ECA
ĠD CA
17 6
ĠeA BA
]) [
Moderat o
E xC
G xF
ĠA EE
Ġa ef
xA xA
Ġbag a
Ġs ig
T g
e FE
f CG
ED CD
bg dBG
ĠFD FD
15 8
g EA
Ġc efg
Ġfd g
Ġaf cA
bf G
bfdB B
d de
' ]|
B de
f GB
g xg
ĠG AA
cA DF
BB c
ĠdB GE
dF d
ĠBe ge
Ġv G
ĠG BE
ĠBA dA
16 2
gB C
Bc BA
Andan te
D xA
c FG
f GF
Ġf F
cB EC
ĠAd fe
Ġgec d
( .
A eA
T rio
b dBB
Ġb gfg
2 8
D xF
E FGA
I n
b eBE
f DD
xG A
ecA GA
Ġfc ec
ori an
A cB
E xB
Ġe ed
Ġc FAc
Ġa nd
ĠDG GB
E xA
ĠG dBd
dB DD
ĠGA AG
ĠeA AG
Ġefd f
ĠA EAc
Ġc efe
dA GD
gf dB
CE x
ĠdB cd
ĠGB FB
ĠG GA
eG CG
cAE DA
bg F
Ġcf af
' [_
C DA
T G
c fc
GA BG
ĠFD DA
ĠdBB g
G GB
,, ,,][=
ĠG DE
eB EG
xc xc
cGEC E
gBfB gBfB
b FB
d cGC
f GDB
AB cB
GxGxG xGx
v A
Ġd orian
bg b
Ġv ersion
19 2
e GDB
g BGG
Ġf cAF
Ġec cB
afd AF
'/ )
,,- |[=
ĠF Bd
ĠdB fd
ĠBd dd
eA CA
ĠBG FD
Ġec ef
gec GE
e dBD
ED ED
'' -_
Ġdc e
14 7
re tto
Ġs uggestion
B ECF
f BFD
ec GEG
gd fd
T F
d AEE
u a
cA GEC
xE xE
a EA
Ġg efe
Ġef f
ĠBd gB
ĠBA cB
Ġc GG
ĠD dc
BA x
DE FE
Bb B
Ġeg cg
E FF
g EE
Ġce eg
ĠeA e
ĠDA A
C xE
b CA
se g
ĠD EDC
,,,- ]^
f GE
ĠA cGE
EA B
gf B
16 4
Ġv g
seg no
f ag
f AFDA
aA DA
Ġ|]: [
c FDG
x CC
CF G
ĠdBB c
ĠecB d
A cAc
a cB
>| (
Ġba fe
ĠEC CE
bfdB FB
f EA
ĠFA cf
cBA B
E GG
BA EC
AB cA
cAF EF
Ġfd dA
G f
G GE
b GE
ĠB gdB
ĠF ECE
dA GE
aA a
Ġgd cB
$ "
f DG
Ġd afa
ĠG gfe
Ġc aa
ED CC
GF EF
>|: {
ĠAd dA
ĠABA B
' -[=
b FDB
ĠA ecA
ĠA aga
fd FB
cGE F
gG CG
bg ec
ĠGE GB
Ġece a
z f
Ġe EE
ed f
FF x
GA BA
bg A
15 3
Ġgd ec
Ġgd fd
Ġdgf a
D xG
E AG
de e
ĠdA cA
gdB A
Edit orial
f AEA
g GDG
Ġd eB
Ġf fff
GB B
FG AF
bg ed
eg b
a dG
Ġd ABc
ĠC c
dc e
16 3
Ġaf fa
Ġbg bg
C xF
F xA
Ġe ABc
Ġc aB
ĠBE dE
xa x
ĠAa ag
" (
ĠA FB
ĠG cEc
GE DCA
BG CG
dB GED
DE DG
14 9
' -[^
' ).
C CG
f EC
Ġfed A
fg c
ĠDd dc
f ECG
ĠF AAA
ĠFGA d
a cAA
s p
x CA
cG CA
Ġfd eg
ĠcA AF
ive ly
5 9
d GEE
cAF CC
fg af
Ġafd A
Ġfag b
Ġadd ed
/ [
a dBF
d xc
g AD
Ġc Gc
CA E
,,, |(
Ġdc cB
Ġs pirit
a in
v a
Ġed g
Ġag gf
D a
u l
Ġd dc
ĠB AAA
16 6
dAF DB
aec F
D EC
c GDC
o l
,, ,,-]|[
ĠG FDF
ĠG AFG
Ġb gab
ĠeA c
. ^
Ġe cdc
ĠG gf
cB FD
Ġed dB
xG xG
ĠF dd
cA GECA
cB FCB
>| =
ĠBe ec
ĠBE GE
ĠaA gA
e AB
ĠG DEF
EG C
dA FDF
Ġu G
m oderat
Ġ -
Ġa l
Ġa cc
AG AB
Ġef ef
ĠcB cB
ĠGB eB
ĠAF FE
Ġgb b
Ġgb e
Ġv f
ĠADD E
Ġo f
) =
2 80
xA d
GA x
'' <
fcA G
ĠGc ec
Ġfb ba
3 1
x AG
x dd
GA d
gd DB
ac CA
ĠEGG A
ĠEDD E
ĠEe ed
ge GC
fe dB
Ġed de
gd F
Ġdf b
Ġab ge
Seg no
c BGF
fd BGG
AB x
cd x
f GG
f FCF
ĠA FBF
Ġe gB
AE AE
ĠC EE
Ġcd cd
Ġba fd
b eG
c FCC
ĠF AGB
DA G
ge CC
Ġef gd
tr o
x BB
Ġg cc
Ġg ceg
dA EC
eB GEG
gd cG
ĠcAA f
ĠaA a
C ED
u t
ĠFA BA
Bc c
ĠFB dB
G cG
ĠA fed
dAF CA
Ġu E
Ġbe ef
4 5
F FA
b dA
k e
cG FD
Ġaf g
B EDE
f AFF
'' -[
Ġgf af
eA c
Bc x
Ġfa da
Ġba a
ĠgB aB
A xF
ĠA EF
Ġc AE
Ġb fdf
ĠdB gd
ag c
cBA E
FED CB
ĠB FD
BG FC
ed ef
ĠGB DG
Ġfaf a
a AEC
ecA D
Ġge ed
Ġfa e
,,> _
Ġbge f
g cD
o t
z g
ec BGC
Ġce af
ĠBcd A
ĠcG BG
f fe
Ġ( (
ĠE GBd
DF x
k ey
dB EDB
ecA FD
Ġde ge
Ġaf ga
Ġce ac
Ġfc f
Ġgdd g
F GFE
x FG
x ee
,/ >
Ġc ff
EG x
CC E
ecA CA
aecA ECA
ĠCE GE
B CC
,, ,,,-][=
Ġf cc
ed cd
cB cB
Ġeg bg
ĠfdB A
tr ath
PMT CO
trath sp
g CC
ec d
FE FG
fe g
cG CF
ĠcA f
ĠAA cA
GxG x
trathsp ey
C EE
Ġg de
ĠdB BG
ĠcB cG
Ġaf gf
)" _
5 7
e ef
e CB
ĠB FF
Ġe cG
fc GFCG
ĠAc FA
ĠA GB
DE DB
ĠCF AF
ĠAEA B
P art
c FDC
f DF
g EG
ec GB
BFE DB
ĠEGG F
L ively
a edA
ĠA cBc
ĠG EB
ec EE
Ġfa c
ĠDE FE
bf BF
ĠdA BA
ĠdcA d
ĠBcB c
ĠAE GE
' |=
K ey
T cB
c cA
f bc
m f
ĠE g
dB FE
ef ga
ĠGEE E
E xG
F GG
T fe
gf ef
fed e
cBG CB
5 4
E xF
F ast
g ba
ĠG BBB
Ġc cd
xB c
ĠFA dF
gB DG
>( !
ĠfBB c
v d
ĠA cAc
ĠG ceg
ĠFD ED
15 1
b DG
c BGD
n e
ĠA dAF
Ġg eB
cB C
Ġfa ed
Ġea aa
Ġgd de
ĠGED C
Ġu D
ĠFAA d
f AFCA
Ġd dB
Ġc ag
ĠC FA
ĠBGG c
ĠAdc e
S trathspey
e bc
ĠA FDA
ĠA DBD
ĠB GED
ec CC
cd cd
fA DA
Ġba bg
ĠGDG A
x DA
Ġg ggg
AF AF
fd AG
ef ge
te r
e CE
ge BC
GF ECG
ef f
ĠEG AG
ĠDA G
ĠBcA c
, .
A BAG
ĠA BGB
ĠdB df
dAF G
ĠDGG G
Ġfc fa
G AGF
a s
ĠA FFF
'' -|
17 4
ĠEAA c
Alleg retto
' >=
> [_
e ECC
u G
Ġ W
Ġc dA
dB AB
cd A
xF xF
dG FC
bge BGED
Ġ Ġ
ĠF EC
cA GC
BA AG
CF F
dA FDC
cc x
Ġbg ed
GFC D
' "^
< [
B ECE
g AA
,,, >_
Ġa fcf
ed x
cG CB
gf f
dG BG
a CG
d cAD
s low
GD CF
Ġec BG
aa aa
dg b
Ġbaf a
Ġbaf b
5 3
l an
Ġ no
,, ,,_
cA cA
ed C
ĠBd df
,,,-] _
Ġae ef
ĠEGB e
a y
g cAEA
ĠA cF
ĠB EEE
gdBG B
" !
x ff
ĠD f
Ġdf cf
Ġ|"^ +"
bf a
GxGxG AGC
G dB
V B
b ar
s o
s us
BA EE
ed ed
af cAFCF
Ġaf fe
ĠgB dB
cGD CG
>) !
c cd
BFD CB
Ġcd d
eBG EC
ĠGG BG
ĠGG GB
Ġgd ed
a FC
m in
ĠA DF
Ġc C
CG c
ec AFE
FA cA
17 3
ĠfA gA
eBA EA
ro t
a AECA
g FDB
Ġd ba
ĠD GFG
dB EG
af g
cF CG
CD CA
Ġdf ba
Ġ{ /
ĠeAA c
Ġege g
ĠEB E
b GDB
e gf
ĠB GDB
ĠG BGE
dB FDG
cG BG
FED D
ĠAD ED
x GF
ĠA fd
ĠG dd
Ġgf a
dcB c
c FCB
e FA
t h
v ersion
Ġc EBE
df g
Ġded e
B xc
E GF
e DG
ĠA fA
ĠF BAF
BB x
ĠC EGc
fB DB
ae AEA
ĠdA de
T ED
c BGEC
f GD
ĠG dBG
xC EG
dG d
ĠBd fb
ba d
gg gg
ĠEA GE
Ġv a
18 2
\ ""
cA ECG
dB AFD
xC xC
ĠcA dA
Bd or
bge G
] {
u F
BG x
Ġa aaa
ec GF
cd g
DC DC
de x
ecA B
ĠAF dA
Ġaf b
* *"
f BFDG
x dc
Ġ CCC
ĠF GB
dB FA
Ġb gf
dA DG
eA e
CD EG
d dB
e ac
} "^
CG B
af cE
18 8
ĠB ec
ĠF ABd
DA d
EA A
cB FB
gf BF
fcAF A
E FC
{ =
FD CC
ĠGB dc
gd GC
Ġag g
ĠAc ed
ac a
ĠBGG d
ĠdgB d
_ _
c ef
Ġc cB
dB AD
ĠGB de
in al
Ġdg ba
ĠDB A
DxD x
' ][=
A AF
F e
Ġ 3
ĠG ed
cA GECG
ec GEA
fe e
gf cF
CD ED
ĠBg ed
A dc
a ke
x CF
Ġd z
Ġe Bd
ĠF dAF
ĠE AAA
dc GE
ĠedB g
xc c
ĠAdF d
Ġw ith
F AG
v B
ĠA z
BF ED
CE GECE
cAF ECA
'' >
ecA EE
Ġde gd
Ġag ag
Ġdg ge
ĠeB gB
C GE
G xD
b ECA
d xdx
x FE
Ġ ECB
Ġd bag
ĠB eB
cA ECE
dB dB
fd DA
FG AG
ĠBd cd
EF ED
ĠBGG g
Ver y
b ae
g FDA
g FCA
ĠD g
Ġa eg
dB EE
BA FDA
Ġgf f
Ġdf ce
bB EB
ĠDB BA
f GEB
f BGE
x cd
Ġ to
Ġd ag
Ġf ba
ef ef
Ġb fd
ĠBd dc
16 7
Ġec cc
)( .
df b
C CA
d xB
Ġc eBe
GE DD
ĠF dF
dA EB
ĠdB gf
Ġdc ed
Ġged f
D FF
e t
x cB
ĠG DD
ĠG FF
ec AFF
fd d
Ġed f
ĠeA aA
Ġdcd c
ĠfB eB
Ġfc dB
ĠAGG A
CxC DxC
- "^
ĠD EDB
ĠC FAc
Ġdc ec
Ġedc BAG
ĠfB df
C FB
C dor
G AE
a ag
f efg
ĠA agf
ĠG dB
BA Bc
Ġb ga
Ġdf A
Ġded A
ĠEe ef
b dBG
Ġc eBd
cA d
ec x
ĠAB F
geB EE
Ġfef e
moderat e
S EG
a GE
b dBD
c GDD
d GEG
e AGC
cB cA
Ġdf ga
Ġfe a
eBG DA
,,,, ,-=
Ġu F
, {
G FDD
c rot
d edc
f FDD
g FD
l ing
Ġd DFA
ĠB Bc
AG FCA
xA c
ĠBc c
aA FDA
fA DD
bge BGE
T gf
d CC
e xd
ĠG FA
ĠF FFF
ĠD FEF
FE DG
ĠGB eg
ĠdG eG
a ecG
b BGD
f ecE
ĠE ed
ĠD AF
dB DF
xx xB
ec BF
Ġed ed
ĠGB BG
bg dD
ĠGF FE
Ġbg fe
18 4
200 3
Ġfb af
ĠA ABc
ĠD EE
cB D
Ġgf fe
fc GF
fc FCF
ĠFD CD
Ġeg ag
bB CA
Eb m
"_ >"
bge BG
Ġgag d
ĠaAA B
a FDB
a cAC
d GEDB
Ġd ABd
Ġe Bc
ĠG AE
AF ECC
Ġcd f
Ġeg ga
Ac x
Ġdd cB
T cA
U E
ĠA dBA
ĠG dc
dB GEDB
BA C
fd cAF
ge ECG
ĠdB f
dD d
gd GEB
gc GEC
ĠFDD g
Ġt he
gcfc gcfc
In tro
B dd
B FCD
E AEA
F xD
c GFG
Ġf gfg
DA B
ge CE
GF GA
dBG FDB
dD CA
ĠFA ce
ĠAF EC
bge BEB
Ġfee ling
SEG UE
s s
ĠA aA
Ġe z
ge CG
Ġfd gd
ĠcA fA
17 8
cde b
EEEE EEEE
CEGECE GE
T a
T AG
a cAECA
c b
ĠG GB
Ġc BGB
Ġg ae
ecA GE
ĠdA fd
Moderate ly
E cB
d EDB
g edc
Ġ J
Ġ Quick
Ġed fe
ĠAG cG
,,< _
- "^(
a AEA
e n
e FF
e be
AG FED
ĠcB d
ĠBc ef
gd GEC
! >)!
B xG
c BGC
ĠA fcf
EB EB
cA CE
ĠD FGA
'' (
de fd
EF GF
aA DB
ĠT b
ad ad
afd AFDA
CCCC CCCC
3 7
4 4
T ed
Ġ( ([
ĠE dc
ĠD DDD
ef ed
af ec
"^ #"
Ġdg fd
ĠdA eA
ĠBE cE
FEC D
ĠdBB e
BBBB BBBB
' )(
- >
G xc
c res
g AF
u b
ĠA GEA
ĠB bag
Ġa s
Ġ|: {
Ġgd gb
dcA EDCA
c DE
Ġg AA
Ġg eBe
dB AFB
ed AE
DG x
FA x
xE FA
gf cD
BGE DG
ĠBA c
fc FCA
Ġaf fd
BGBG dGBG
D DA
] "_
a FA
d GDD
e dBA
g FB
ĠF dc
FE FE
ĠAG BA
ĠFD DD
ĠAd ef
cD CA
Ġafd g
afd c
ĠCE AE
CEG c
cA FDC
Ġcd fg
>|: "_
ĠT BA
ĠGE AG
15 7
ĠDB FB
C ECB
a ECG
d FDG
d cdc
ed GE
cB GEB
Ġec fd
ĠT fe
gec EC
Ġv D
ĠAe ed
Ġ key
ĠA ECE
ĠF dB
dB x
ec EB
ed GEC
ĠBG dc
ĠeB ef
# <
A xc
^ "
ĠB fdf
GE GE
ĠE FDF
cA CC
ĠD cBA
AE FD
AG ECE
GF EE
DD CD
Ġef ae
Ġdd ef
ĠAAA c
CxC x
B eB
f i
f ecAF
ĠD FEG
ĠC EC
'' '^
fcA CF
cBA A
"{ ^
al l
x EC
Ġd BF
Ġg ge
CC DE
gf G
dG ECG
cF EB
gG CA
Ġdd de
Ġfec d
ĠFAD E
ĠG FDE
Ġa efa
xx xE
dc BG
ecA c
Ġce ee
Ġga bc
eBG A
ĠBE EB
edB GE
E GEG
G FDF
d cAFD
ĠA ec
DB g
ĠB edc
ĠG z
ĠG BAB
Ġc cA
ec FA
CF x
ĠAB dF
"_ ="
ro g
b BGE
c xA
g cAA
m po
v c
Ġd af
Ġd ecA
ĠB GEC
ĠG cBA
Ġg Bd
GD CE
fe BD
AD CG
ĠEG FD
AxA x
' |^
D DG
F ECE
c GFE
e m
g AE
Ġ [_
EC DA
ĠF Bc
Ġb bb
ĠdB FD
gd GE
Ġce ea
ĠBD AF
E EA
c xd
ĠD dB
FC EC
Ġdf bf
ĠFD GE
Ġdd fd
15 9
Ġafe a
ĠGBB d
der ly
/ >^
r eel
| "
ĠA cAG
ĠB BAA
ĠG gfg
Ġc bag
Ġf BbB
BG FEB
cA BG
xx d
AG FDA
fe x
gf F
xC EA
dBG FG
ĠcA ag
ga c
ĠGE GE
ĠED FA
ĠBg gf
ĠGD EG
i r
p res
ĠA DE
ĠA aec
Ġg deg
ĠD cB
GD GD
gf x
dBG DD
Ġec cA
Ġaf bg
fcA CA
u E
ĠB C
Ġe x
ĠF AE
ĠE cGc
cB FCF
ge GEB
DE DA
ĠBc cB
gd cA
Ġfe ge
Ġaf ba
ĠFG FD
Ġgb d
ĠCE AG
Ġfag a
a DD
a dBG
f AEC
g AEC
g xf
s tr
ĠG GF
cA ECB
af AD
Ġec af
ĠFD DB
fg g
Ġab ga
gdB GE
ĠeAA e
dAE F
ĠGGG A
ĠcAB d
ĠCEA B
g FC
,, ,,-][=
EC EC
Ġd AAA
ĠG cA
FD FA
Ġf aA
ed cA
ef gf
fe BE
sh ake
af cAC
Ġ. =
ĠGE BG
Ġgd gd
b GD
d xe
e xc
e AFF
BA FDD
AA c
CF E
cB FDB
ge EB
ĠBA d
ce e
fg ag
18 6
BGBG BG
f gd
ĠA dAd
ĠdB cB
ĠBA AF
BGBG cGBG
ĠaB gB
a BG
d GDE
p li
Ġc fa
AG FCF
ED CE
Ġef af
gd GDC
ĠGg gf
, )(
ĠA AF
ĠF dE
fd FA
Ġge ae
Ġec f
gB g
def e
ĠeAA f
Ġad a
ĠP c
F ECC
b dC
Ġ:| {
AG CE
dc E
ĠBA eA
ĠBG GE
Ġge ga
fg fe
gec D
Ġcf ec
ĠcfA f
' |[=
b DA
c ge
g cGECG
Ġd EE
CA FA
ed AA
DG BG
,]| (
dBG FD
Ġba ag
Ġv F
Ġbagf ed
] !
e ec
x FD
ĠG cAG
Ġf bag
,,, |[^
ed F
"^ ~"
ce ge
ĠGB BA
bB FB
Ġgb ef
" ({
B dBd
C xx
D AF
E xEx
c FCD
f BGF
f cBF
x ef
Ġ re
ĠA DA
CA C
ĠF EDB
GF ECA
gf ga
ĠFD GF
, "^
e ECB
ĠB ag
ec EG
ge GB
bg fd
dd x
fA CA
ĠDE ED
edc BA
ĠgdB c
Ġad bd
F xFx
f ul
cA DG
dB FDA
af AC
Ġdf ff
ĠcAA a
ĠBF dB
F FD
g cGCG
ĠA GEC
Ġc BGF
GE FB
,,, |^
ĠE FF
ge fd
ge cAE
FG Ac
DF AF
eB AF
dG CG
Ġge bg
Ġfg ed
ĠGE FE
im pli
ĠFBB c
A cc
D EDE
] "^(
n at
z F
ĠA AGA
ĠB FA
,,, |[=
ĠF ine
cd cA
ĠBG cB
Ġea ae
gdB DB
Ġgd ef
bd DB
Ġv E
' ][^
' -[_
' <=
F xB
a FB
f inal
Ġd FAd
ĠG BD
dB FDF
BA DA
dA CA
ĠGE c
dAG G
Ġfec f
Ġs low
fi ed
impli fied
/ "^(
b fdF
f BGG
f AFB
g s
g AC
Ġe BGB
Ġg gfg
"^ ="
eE DB
ecA EF
Bcd c
Ġee ef
19 5
fdBG FDB
gcA GECA
Ver se
4 9
F AA
F AFC
e AFB
z a
ĠB z
fd AFB
AB e
ĠBA GD
ĠAc cA
ĠGE EA
Ġdg gg
bf BB
Ġw rit
A de
b GEB
b ECB
c GDE
e GEA
ĠA eA
ĠB FBd
ĠG cd
Ġf fe
cA FDCA
GD x
fd FF
Ġed df
dG FD
eA GE
Ġdf B
Ġfe af
Ġce ed
bB GEB
ĠGAB e
gec ECG
ĠAA eA
"_ #"
ĠBB BA
pe at
> |[_
D f
a FF
f cGE
ĠA ef
DB A
ĠB Bd
]| :
ĠF dAd
DA f
Ġa af
BA BA
af CA
af cAFCA
ag ed
ĠaA ce
ot t
D GDG
a BA
e dBE
f EE
EC EA
ĠA edc
Ġf cB
ĠE cBA
ge GECG
ee x
fcA FD
] -[
e ga
Ġc gec
dB e
EE DB
af AFCA
ĠAF c
fcA GF
ĠdA f
ĠFEE F
A dB
P l
V ersion
ĠG FDC
ge BA
gf cC
Ġec fe
ĠecA e
ĠdA dA
Ġae ge
,,,]| =
]. [
M d
c ECF
ĠB EGA
ĠE GAc
Ġa ag
AD CB
BF EA
dG DA
Ġec ae
Ġfe ae
dcB F
F FB
F dor
,- ]|^
Ġd afd
Ġc cBA
ga ba
fF CG
Ġdf cA
ĠdBG d
fc FD
ae AD
ĠfdB e
ĠFDD c
Ġac ec
DED F
CDC DC
V o
c xG
c ce
f xe
Ġe ef
Ġe BBB
FD FD
cd cBA
Ġed dd
Ġce gc
ĠAFD c
Ġea ed
ĠeA dA
Ġno te
Ġex pres
gs am
# )"
. ."
5 2
A GEE
d EF
f GA
Ġ 4
cB FC
Ġdc cc
ga bc
ĠAc fe
ba c
Ġea ce
Ġba bc
Ġgc ge
ĠfBB f
B BG
f ac
v G
v f
ĠA DEF
ĠA DDD
Ġg ddd
Ġg Bdg
AG FA
EA EC
FB cB
fe F
gf ge
ĠdB FB
bg c
ba ge
dE DA
CEA EC
ĠBBB c
' "_
A ec
d xG
x FFF
Ġd ece
ĠB BAG
Ġf BAB
ĠF AEF
ĠD e
ED EF
ĠFD DG
Ġcde A
ĠGG AA
fdAD F
ca l
ĠP B
ĠBGA c
33 3
. =
F GD
g ECB
p p
Ġe ec
Ġc agf
dA ECA
FG c
af cD
ĠAc cd
Ġfa ba
ĠecA g
Ġga ag
ĠAA AG
ĠBB dB
bge BGEE
18 3
ĠBee e
ĠP g
2 30
D GE
e DD
u n
DB G
dc FD
Ġfe gf
bg BGDB
Ġag ba
ĠED FE
ĠdA fA
Ġ{ ^
ĠCF F
Ġfge g
- -
G cB
x GE
ĠB gA
ĠE GEG
FB B
dA CF
eB FD
ĠGB dG
fg b
bge C
3 50
b ed
b dBF
d AGF
g CE
g bd
o so
,, ,,-[
Ġd bd
Ġe cGc
,,, |_
FDA D
FB c
EE EEE
eB EA
Ġcd dc
fA CF
Ġab ae
be ga
ĠdD cD
ĠcBB c
Ġaee a
ĠcaB g
a eBE
ĠB BGB
Ġc aec
fd AC
af cG
eB ED
ĠGB cd
Ġec cd
Ġ|{ =
eBG DB
GED CC
Ġafd c
ĠEG cB
ĠEG cd
ĠFGA g
pirit ed
A s
E EC
E dc
E phr
F GFG
b cB
d cAE
s implified
ĠA AFA
ĠB BAB
Ġe eg
ĠD EC
xx c
fe E
DE FA
"^ $"
ĠcA fc
gd DG
gd AG
CD EC
Ġdf fd
Ġfa aa
ĠT D
ĠBAA c
lan gsam
1 96
< )
d AEDA
g DD
ĠA cdc
ĠG AFA
ĠG ee
cA Bc
cd G
ĠC DF
ag A
ĠEF EC
Bd im
GFD CB
ĠGAG A
Ġgag a
Ġgc ac
Ġfc fg
ĠJ ig
G dg
d cde
e AFA
g gf
Ġd Ac
Ġe BA
Ġg bfa
EB e
ĠE cc
Ġa gd
ec BE
ag G
ecA GECA
Ġge ec
Ġdf Ad
fga b
ĠfdA f
C e
D EDC
a dE
c FEF
g cAG
v g
x ABc
ĠB fdB
ĠB agf
FD EF
Ġg ce
BG ECE
AG ECC
FE ED
/) "^
ĠBd fa
ĠAF FD
ĠGF AF
Ac BA
ĠdA AG
ĠgdB g
Ġae ed
ĠBAA d
a DG
b CG
f bf
Ġ I
Ġc fc
Ġf BBB
EB A
cA GG
dB EC
GB dB
FA D
GG GGG
BB d
Ġ|] {
ĠBd ga
eG e
Ġ|"^ /
bf C
ĠDG FA
Ġgd ga
ĠfA ec
Fm in
]- )
a ce
b BFDB
x AAA
,, ,,|
ĠA gg
ĠG ECD
Ġc BBB
BG FDA
ĠF FG
ĠE ED
Ġa AAA
AG FDB
GF EDA
ag x
ga gf
ĠFA AG
Ġdef b
ĠFD DC
ac EA
ĠGED F
Ġfef c
ĠP f
B dA
B AFC
b xb
x cA
x de
ĠA BGF
ĠA dBd
Ġc af
Ġa edc
dB FCA
ĠAG AG
gd ga
Ġdf ad
dd f
ĠAF EA
ĠdBG F
17 7
)" "
ĠBFB c
e GECC
Ġd bb
ĠA GGG
ĠB ff
Ġe ece
Ġe gab
CA F
BG CF
cA GD
ĠC DC
>| ^
de dB
Ġfed cBA
Ġeg gg
Ac FA
ab x
bc a
b GB
g cGA
Ġd AGF
Ġd GGG
ĠG edc
Ġc eBc
Ġc aAa
ĠE EF
cA CG
fd DD
cB EG
af ed
BF EC
cC cc
ĠBG e
)( [
ĠGE AF
Ġdd dB
or e
afd AA
ĠdG dB
ĠDA FD
ĠBBB d
ĠEDD C
ĠBf fe
: ""
Ġe cGE
Ġc ecB
cA ce
AA AG
GF EDB
af AA
cE DG
eE DA
ded e
f ad
,, ,,,-
ĠB gd
ĠE AF
xx e
dBG EC
de Gdc
cF fF
Ġec fc
Ġfg gf
ĠGG AB
ĠBe eB
ĠeB cA
20 5
ĠfBB g
ĠP d
Ġaee g
4 8
B eg
c o
x BBB
Ġd zd
Ġc fed
Ġg gf
AF ECG
DG d
fd DF
fd BGD
fd cAD
eB EC
ĠcB dB
gec GG
Ġdd ed
bf cF
ĠBGG f
aec B
ĠcE GE
eBA EB
ri sh
. [
M A
V ariation
c fcf
x AF
Ġ l
Ġ Reel
Ġf fed
cA eA
ed g
EF xF
Ġdd cd
ĠGc cB
ĠcF dF
eAF EA
re st
te mpo
bgf G
Ġf AAA
ĠF a
CG A
dc cB
ĠBG c
ĠGB ef
gd GDF
ĠcBA d
Ġag b
gB EB
ĠFE FE
Ġbg gb
cBA c
ecAF ECA
Ġgbg b
ĠdAA B
! ^
B CD
d af
f BGB
g cAF
x AFC
z D
ĠA GBd
Ġe GG
Ġc FA
ĠD EB
GF EDC
af f
"^ ?"
de a
ĠBG GD
16 9
fc fc
Ġce gf
gec F
Ġdd g
bf E
Ġcc cd
ĠEA AE
Ġee ed
ĠBAA g
Dd im
B xF
a cAEA
c FDCA
g CF
,,- |_
dB AE
AG ECF
fd GC
AB F
ge ACG
xE FGF
Ġfd ce
bg BB
ecG ECA
Ġcf fe
ĠeG ce
ĠDFB c
" .
/ "^/"
G cd
b eBG
d AGA
Ġ se
Ġd ga
Ġd eBd
Ġc gg
BG d
ĠF BAc
ĠE AE
DG C
CC CB
Ġec ag
Ġfg g
eg fe
gdB DG
Ġefd c
fcB FB
ĠGDB D
gdfd gdfd
Ġexpres sion
E dim
a GDB
v o
ĠA fg
Ġc EGc
GE GB
ĠE EEE
fd cF
cB EB
ge cAG
Ġb ac
xC xB
Em ix
gd cGC
ĠGF GD
ĠAdd f
afe cA
' -][=
A GEG
E EDC
b fA
b dBDB
c gec
c FDF
d CE
f AFE
v er
,, ,,,-]=
Ġc DD
Ġf fd
DA A
Ġa efe
fd GE
Ġgf ag
ĠcA ed
EF GE
ga d
Bd x
Cm aj
ĠDGB c
F BA
e BAG
g fdBG
Ġe bge
ĠG GFG
Ġf gd
Ġf bf
ec DB
FF FE
bg BE
)( =
Ġga a
Ġba ba
ĠfA fA
cGF CG
CDE FG
ĠBgA f
E FEF
G AGA
e AFCA
f AFCF
g AG
g CB
g be
Ġd BGD
ĠB fd
Ġc ce
Ġf fdf
Ġg Bc
AF EDB
DA DA
DA dADA
cA ECC
ec AFC
ef x
af cB
BF EE
cAF CB
de A
dD CG
ĠAF GF
Ġce ga
ae AC
df x
ĠdA fe
ĠEFG c
ĠcG ce
Te n
Ġegd f
D phr
I rish
a xg
b EE
f ecG
Ġd FG
ĠA EFG
GE GA
Ġ( {
ĠE dcB
BA GB
ec FF
cd cdc
fe BF
xG AB
'' '-=
Ġge ee
fc BG
Ġfa b
ĠGF GF
Ġdg ec
Ġgg ge
DFA d
dGE DG
ĠcdB d
li ch
CEGE cGEG
) "^(
e AEF
v F
z z
,- ]|=
ĠB BG
ĠB EG
ĠB fe
ĠG cBc
Ġc GEC
AF EE
BG FDD
dB cd
FA cf
Ġ|| "^(
gf C
'' |[
Ġfe eg
ĠAc eA
Dx DD
BGB deGdc
afd G
Ġ!>! [
Ġ|"_ >"
Ġbee g
F cF
a AFCA
a gfg
d gf
f CC
Ġe edc
Ġc DBD
ĠD DE
BA GG
CF AF
ge BGB
Ġ:: !
DE FD
CD EA
Ġag ge
ĠAc cc
ba a
ĠeA cd
ĠEG GE
Ġcc cA
bge BGEB
B EDC
^ !
a ef
c xe
x DDD
Ġ &
,, ,-^
Ġd FA
Ġd df
Ġd aa
ĠG gdB
Ġf Bc
ĠE FDB
dB EA
ec ec
ec AFCF
ec GECC
fe AF
CC CCC
af AFDA
af AFA
'' ]
ĠcA fd
EF GB
ĠcB dc
eA GEA
ĠeA de
). ^
xe xe
aec ECA
bb bb
DxD xD
B xd
a DF
e s
ĠB AE
Ġc AEC
Ġc EAc
cA GB
ĠD FDF
GB x
Ġb ar
af DA
ĠC EEG
cF EC
fc FB
Bc BG
ĠfdB f
ĠeB gf
ĠfB gB
cBG A
ĠEGB c
ĠAcd f
<( !
Ten derly
E GEC
c eA
d FDC
g xe
x gg
Ġd bca
ĠB DF
Ġf FF
AF ECB
ĠF GG
cA GED
BA DF
xx xC
fd GG
Ġed gB
AFD CB
xE FG
Ġfd ag
ĠBAG FED
Ġgfe a
fa b
ĠM d
gcG CA
4 7
< )!
B gf
T dc
V ar
b GC
b BFD
d FDCA
e ag
f BAD
g GEDB
w ith
z E
,,, <=
dB DA
xx xF
ec FB
fd FDD
fe BC
ecA EB
Ġdf ab
Ġdg gd
ĠED EC
ĠGFG ABc
ĠEB A
Ġcf ag
ded A
Ġt h
ain t
D xx
G cF
a bd
d xD
d ECB
g cAD
x ce
ĠB ba
ĠB bb
Ġc eG
Ġc gc
Ġc geg
Ġc cdd
,,- |[_
ĠE cAF
GB E
CF c
GF EA
'' ][
16 1
ĠcBA a
eG ECA
ĠdA AF
BFE F
ĠGg ga
' {
B ed
a GD
ĠA Ac
BG FF
ĠF dcB
ĠE GGG
cA AG
cA FDF
Ġa bf
dB ED
ec c
ec ECE
ge GG
GF GEF
cAF EA
xF d
ag cGF
bg DB
ĠecA d
ba B
gec AF
Ġgec g
ex f
ĠdAA d
Ġdge g
' |[^
' -|_
A xx
F ed
G BGF
T he
d xA
x GGG
,, ,,-][^
ĠA EC
ĠB bfd
ĠE GDB
ĠE AGB
EG BG
cG FA
xG Ac
ĠC EF
cF FB
eG CA
ae EA
ĠT ed
Ġfga e
Ġfc af
dAG C
bfd BG
B fd
C ECE
C oda
E BG
b cF
c ac
c BGG
e BAB
f fg
f ecB
h o
ĠA gec
ĠB fed
EE Ex
xB EB
BF xA
xD FB
fc GG
ad a
Ġgec B
ĠDB c
aec EC
Ġede a
ĠdAF G
ĠM A
ĠcfA c
cFFB cBc
E GEA
b EC
b ecF
c cBB
Ġd dA
Ġc dBG
Ġg z
ĠF cAF
ĠF GGF
ĠE GDC
CG CG
ec BEC
ed EB
dA dA
eB FE
ĠBc ec
ĠBG cG
ĠAG GE
ĠGB g
cGE DG
ĠT BAB
fdB FF
Ad im
Ġcc ec
ĠDG BA
Ġgd dc
""^ *"
ĠCF G
> ).
c fa
e AED
Ġe BGE
Ġf dBF
EA ECE
af FCA
xC DC
ĠBA dc
gd AA
gG ECA
ee g
ĠED DB
Ġdd cA
ĠAGA d
ĠDB G
ĠfA dA
ĠEC DE
dBGE F
ĠBEE c
bfB FB
BxB x
exe xe
E g
a BE
b eC
b eF
Ġd gdg
ĠA GD
ĠA EG
ĠG gd
ĠF BBB
ed BGG
ge a
ge AA
Ġdc cA
ĠT ED
Ġ|"^ ="
Ġee dB
GAB d
Ġecc g
ĠAcF c
A xGx
B cBc
G AD
b GG
f CB
x fe
x CCC
Ġc BGE
Ġf cd
ĠE ABc
BA GFE
ec FD
Ġb BB
Ġfd b
Ġfd eB
xF ED
ĠBd F
Ġfe ec
cc cB
ĠEF AF
ĠAA BA
ĠAA ce
ĠEC EF
ĠEB DB
ĠBEE G
CxC xC
ĠP a
ig h
EFA B
DAdADA dA
C DCD
a dBA
d GFG
f xd
i mat
,,] /
ĠF cAc
ed xd
ge e
EG ce
cG x
Ġef gB
eA dA
ĠGB ec
ĠGA ce
fA DB
]( [
Ġce AB
ĠAc cB
cc BA
"_ (
ĠfA ed
ĠeAA g
ĠgB e
AFEC D
ĠDA D
cBG ECB
ĠEDB A
ĠP e
Ġgef a
GFGEF GEF
' ]^
b fdD
g FF
Ġd dBd
ĠB fB
Ġc z
ĠF FE
ĠE cE
cA CB
gf A
xC DE
Ġfe ee
ĠT cB
cD CG
ĠFE EA
ĠBB BG
ĠEA AF
ĠgB eg
xa xa
'''' -=
all eg
L ast
S o
a GB
b AEC
i o
,, ,,[
ĠA dG
Ġe ba
ĠE f
DA c
ĠD GE
AG CC
fe G
BB BA
FF FA
xB d
ĠC EB
cAF CG
cAF ED
ag ag
"^ ->
ĠT ag
ĠABc f
ĠEF FE
Ġea fe
Cx CC
Ġdg BG
ĠBe gf
ĠdG AB
cFD CB
ĠW rit
A fe
F xC
F cf
] <[
b FCA
b ga
Ġd fdA
ĠB cAG
Ġc aaa
EB c
ed AG
AB g
fe C
ĠBd FA
Ġfed g
Ġdf Af
Ġec ca
fc GD
bB f
Ġ! ^!
Ġgfed cB
dx f
Ġgb gd
ĠFDD e
ĠFB df
Ġcf ef
ĠAE EA
bfd G
eBA C
ĠfBB a
ĠfBB d
ĠBeg b
ĠFdE c
E cE
F xx
e FG
e gc
e AEE
f ED
f EG
u D
x eee
Ġ on
Ġd bg
ĠA FDB
ĠB dD
ĠG GBd
ĠG dFd
Ġf z
Ġg GBd
BA GDB
AG c
AB AF
ge EC
DC DE
xE GB
xD FG
ĠcA a
gG d
fB cB
ĠGF EC
gec BEC
ĠEG GB
cBA EA
ĠdG d
ĠEB AG
ĠdcBc dB
ĠAFF c
ĠdDD F
ĠBgB g
] <
d GECC
e AGA
f cGA
Ġ O
EC EG
ĠA BBB
ĠB GDC
ĠG CEG
GE BG
dB DE
BA ED
ed it
GG FE
DD DE
af FD
cGE DC
bB ede
ĠGE cA
bf BG
"_ =
Ġgd bg
ĠDB AG
aecA C
>( ^
ĠceA g
ĠTe il
Ġca ge
ĠFDA G
Ace bBede
FxF xF
pe n
EDxD EDxD
FCEC FC
a ve
c BGB
f BAB
f BADB
Ġ H
ĠB af
GE c
dB AFDB
cB FF
cAF CD
DF xF
eA BA
Ġdf gf
bg dA
bg dBGDB
ĠecA a
xc f
Ġbg gf
ĠDFA D
Ġcc ce
ĠEC GE
ĠCD FG
ĠaA fA
Fm aj
GEDC E
DDDD DDDD
PMTu C
A GEDB
C FAc
C dim
E cA
T BAB
b cA
g fdc
m p
x FC
ĠA efg
ĠG BEF
Ġc eB
Ġc cBB
ĠE GEC
Ġa Ac
Ġa ve
fd AFA
GF EG
Ġb eg
fe AE
dA c
xD xE
BGE DC
bg EB
ĠFD d
Ġfa de
Ex EE
Ġafd a
ĠAD DA
Ġ"^ *"
Ġu ce
ĠAf fe
bfdB FDB
BAGF ED
ĠeBB c
DFDB FDB
xed g
ebe ae
" =
B xe
G fe
x ad
x EEE
ĠA cGA
Ġe fdA
AF EDD
BG ECF
GB cFA
fd ec
DD FG
dc GEDCG
ag F
eG BG
fc CF
ae dB
ĠT cA
bB DG
fdB E
>"^ *"
Ġae ae
DFA B
Ġeag b
ĠM D
D e
G a
S ub
c fe
e FCF
e GEDB
f ecF
g Ad
x GFE
ĠG dG
ĠE DCA
ĠE GDF
dB CA
AB BB
ge EE
GF ECB
dA FDCA
GC FCECFC
eB FF
cF ED
bg dBGD
cc ccc
gec e
ĠDF FE
gA fA
ĠdG BA
ĠBGE d
ĠBAA e
ged BG
Gd im
st it
age A
age n
fcB AFDB
dxd xd
cxc xc
ĠbB aB
pi pe
eae be
ter nat
__ __
A xD
B cG
D EGA
G ed
b CB
e xB
f xc
x BBBB
ĠB FG
ĠG AAB
Ġc gBg
AF d
ĠD dcd
dB g
ec ECB
GDB A
GB dg
FF FG
gf cE
ag dG
ce x
Ġge BG
17 1
gdBG F
Cm ix
tr agen
ĠDA B
19 4
ĠdGG A
Sub stit
E xx
G xC
I D
S pirited
e dBB
n pipe
o pen
ĠA afd
ĠA EEE
ĠB ece
Ġe bgb
Ġc CC
Ġc cBc
Ġf AB
Ġg BG
ĠD gfe
ge BF
DD DC
EG cG
cG e
FF FFF
af ACA
af cCA
CE AE
"^ ,"
ĠBd FB
ĠBA dF
ĠAF BG
ae CA
gc BGDB
Ġba af
ĠBB g
ĠeB de
20 2
ĠcG e
CxC D
Ġaec a
il y
ĠAAB B
ful ly
2 70
4 3
5 1
A GDC
e gd
g BGC
u m
u ne
Ġe cdf
Ġc EF
Ġc GAB
BA Bd
xx xG
fd BGF
Ġb BAB
ĠAB e
eB DB
eE e
ga a
ce gc
Ġec cf
ĠBcd G
ba fd
fdB C
ĠgdB A
fed AD
ĠDC DF
.. ."
ne ll
Ġwrit ten
! >(!
G BAG
T ag
a FCF
a AFF
g cGEG
i sh
Ġ Slow
Ġf eB
Ġg GB
ĠF AEG
CG G
ec ECC
ed cG
AG FF
fd g
fd cD
GG FGF
fe BG
ĠC DB
dc DC
cF cF
eA EB
cGE DB
ĠAF FB
ĠAc fA
fB C
ad C
ad gd
Ġdd dc
fG FC
Ġcc cB
gg ag
GFD CG
ĠfA f
ĠgB gB
AGD E
18 7
ĠaA aA
ly d
ĠcaB a
4 1
C CF
F xEx
a BF
a ADF
b FDA
b ECG
b dBA
d fB
,] >[
Ġe ede
AF ECE
ĠF FA
cA e
cA DC
cA EDC
dB ECA
xx xD
ec CF
AG GG
AG GF
ge GEC
DC CB
Ġed dg
ĠBd eB
ecA GC
ĠBA ce
ĠGB DB
gd x
aA CF
Ġfa ce
Ġeg af
Ġ|"^ ~"
FED F
gx dd
ĠAE cA
ExE xE
ĠfdA c
40 0
A l
B BAG
F AFA
M ID
d CB
d FCF
g GEE
p rog
r am
x dB
Ġd FBF
ĠB DB
Ġc ge
Ġc GF
Ġc ba
ĠF edc
ĠE gfe
dB GEG
dB GEA
EA BA
AFD CC
gf gf
dBG FB
cF x
Ġaf ab
ĠGE FA
ĠeA gA
ĠAA d
bf FB
ĠAFF G
EFE FE
ĠGDB G
Ġp rog
xBA BB
PMTCO M
Ġgae g
Pl ay
MID I
Ġprog ram
E GD
F cA
a dBDB
c cG
e GDG
e dBF
g GECC
ĠA fcA
ĠG gG
Ġc ede
ĠF dFd
DG xB
fd FDF
ef b
Ġb ef
FF AA
eE DG
Ġde gb
Ġaf ff
fg x
Ġdg dc
ĠdcBA GF
ĠED ED
ff x
fa gf
bge GE
ĠAdd g
ĠgB BA
ĠgB eB
xb xbx
ĠaA cA
CEA c
ĠADD F
19 1
ĠEGB E
ĠEGG c
ch nell
B AFA
D FDF
F in
I N
P i
a GEB
b fdA
c DCD
f BGC
g GEG
g ECC
n ce
o w
t in
x fd
ĠB EBE
ĠG cBd
Ġc GGA
Ġg gd
Ġg BBB
AF cFfF
Ġa eee
BA CA
DG Bd
af AFF
gf ec
'' -[=
/) )
gB EE
ĠAc a
fB FF
gc gc
eg g
ĠED DA
ĠeAA a
ĠBF FB
ĠDA Bc
dAG DA
is s
ott ed
' ][_
2 15
A ed
A xE
A xd
A AGF
B fB
C f
a EE
a AFA
b DD
f xg
g FE
g dADA
g fdG
i ce
o o
} .
nl y
ĠA ae
ĠB GEB
ĠB Bcd
ĠB ede
Ġc AFE
GE FD
GE GF
Ġf Ad
DA E
BA BG
ec FC
AE x
ge x
DD CB
CC xC
xE xC
AEC EAECE
DF c
eB FC
dG ECA
ĠcA af
ga fd
ĠAG GB
ĠcBA E
gB gBfB
ee ed
dAF ED
ĠDG GE
ĠfB aB
tr eb
Ġgfd g
ged e
ĠM G
ut ion
FBcB fBcB
imat ed
gBgBfB fB
treb le
' ]=
2 16
B AFF
C FD
F dF
T gfg
a dBE
c fg
d GDC
f ADF
g bc
t ime
x BG
Ġ or
ĠB ggg
Ġe edd
Ġc fg
Ġc aea
Ġf cdf
ĠF GFG
ed AEA
GB AF
fe fd
Ġfd AB
BGE DA
cE DB
cE DA
ĠFD G
ĠeA f
gc EC
ad DD
Ġbg gg
FED CG
ĠcAF c
bge dB
ĠgB g
cccc cccc
' |_
G xx
G cx
c edc
e xA
u nd
x FDB
Ġ li
ĠA zA
Ġc afd
Ġf bfd
BA d
ed ADA
AB E
EE FE
af cAG
"^ :
dBG CA
dG FDB
ĠBd fg
ga ge
ĠGB eG
gd AGDA
fc CA
fA f
fB f
dAF CB
ĠDE FB
gc GG
ĠBGG e
ĠEA cB
BGF EE
bag fe
18 1
/. ^
dcd cdcdc
fecA ECF
ĠfaA c
exexe xex
Substit ution
A dd
] /)
a ab
b EG
b bg
f z
t t
z er
,, ,,][^
Ġd ecB
Ġd dcc
ĠA dBG
Ġe cAE
Ġe efe
se e
Ġg ecG
BG dG
DA x
ĠD dAF
BA GEB
FC FA
FG ABc
eB FG
Ġfd cf
xC EC
dc BAG
,,]| (
"^ |"
cF ECA
Ġfed d
ĠcBA g
ĠFA cd
ĠFD GD
gec GDC
ad FDA
fcA B
cBA GF
ĠAD DB
bge BB
dAE DB
ĠDA AG
ĠBee g
ĠBEE d
''' -|[
gdc GD
dddd dd
Ġ|! >(!
pi zz
ĠdAB F
xDB GA
gae gd
bBf bA
' -][^
< .
G xAx
T ge
b AF
k a
,- ]|_
ĠA gA
ĠB DG
Ġe EEF
Ġa z
Ġa de
dB DC
ec GEE
cB cBA
ge cAA
Ġb y
CC Cx
BB Bc
xA C
xD FD
DE FGA
'' '-_
ĠGA cG
dd dc
ĠdBG g
aA DD
ac FCA
ab ag
,,,]| ^
20 1
ĠEC DB
ĠAf ec
BFC E
fdc CB
Seg ue
ĠgeB g
' |[_
D xEx
a af
f CE
f AECA
g FA
ĠG fed
ĠE GC
ec GDG
fd GD
FA f
ge BGC
EE ED
ef r
fe BB
BB cB
dA FDG
cG FCF
af CF
Ġef c
Ġdc cd
ĠcA ae
bg fe
ae ECA
Gm aj
gc GD
ĠAA e
ĠGG AG
ff a
afd AFA
ĠdG GB
aecA GA
ABA B
ĠGc cd
ĠceA a
ĠcG AG
acA CA
gag g
ĠM c
Ġbe ed
fcG FC
aeB FB
ĠS ig
Ġdde e
gecAE DB
f gfg
} ^
Ġd FBd
cA GDA
CG D
FC x
ec AFA
FE FA
Ġed dA
FG CxCD
CE GF
dBG DC
dG BGBGBG
ĠcA cf
ĠBd fe
CD FD
Ġcd fa
Ġdef c
aA e
ĠAc fg
Ġ! /
Ġgfe B
ĠeA ed
ĠFE FB
afd cA
AED CB
dBA GD
ĠCE GB
Ġdfd c
ged G
ĠP A
AAAA AA
! <)!
( _
G FDCA
S y
T GF
a GG
a cAFC
b eBGEB
d gB
e GED
v E
,, ,,,-][_
DB FB
ĠB efe
ĠG GBB
Ġc EG
Ġc gf
Ġg GGA
ĠE BG
GB ed
fd GDG
fd BGB
AA xA
AB f
FF EE
Ġed cG
gf fe
xD FA
DE GE
ag g
ĠcA eg
BD FB
ĠGB FA
ĠGA d
ba G
gec BB
ad FD
bf BD
dx AB
aB a
ĠDB D
Ġff fe
afc FCA
ĠaA eA
Ġgfef ge
ĠcBAB cA
ĠM B
ĠM e
al zer
Ġecd A
.. ..
GBcFA B
DDFG AGFC
' >^
2 60
B xx
D dD
a BB
e xex
f FDF
x aa
Ġ Key
ĠB dBF
Ġe bag
ĠG BF
Ġc EA
Ġf Bd
Ġg Af
BG c
ĠD DEF
ED CF
EA ce
fd FE
FA cAFA
AB cde
cB FDC
cd dd
cd efg
BB BBB
AFD CG
Ġ:: "_
ĠAB dg
gf cB
Ġ= "
Ġge b
ĠAc ce
ĠAFD C
dE DG
Ġea fd
Ac ec
Bcd f
fcAF E
aec CA
bge BC
Ġfaf c
ĠdBB f
afc FC
ĠAAA d
ĠceA f
Ġdedc BA
dcG x
en t
Ġre peat
aint ive
EABA eABA
tin o
efr ain
' ]_
A AEA
M in
a dAFD
b dBFD
e DF
e dBFB
f ECF
x eg
x DGG
,, ,,]|[=
FD AF
Ġc dBA
Ġc BGA
Ġg gfe
AF EDC
,,, <^
ĠD cc
ĠD FFF
dB eB
GD GB
ec BAEA
AA BA
EE EG
ef ec
AD FA
af FB
af DD
ag B
Ġ^ ^
ĠBd GA
eA DB
eA FDA
BGD CG
Ġde BA
fF EB
bg GDB
ae AG
Ġga fd
Bd cB
fcA c
xf xf
ĠeB fB
dg ed
20 8
Ġad de
ĠAa ge
ĠDd dB
ĠecB e
ĠAee g
Ġl ine
ggag gagg
B ef
B dG
B AFCA
C d
C xDE
S c
a cAEC
e DC
f fc
g xgx
p art
r d
x AGF
,, ,,-
Ġd Dd
ĠA DB
ĠG CEC
ĠG zG
Ġc GA
GE DF
ĠE edc
Ġa BB
fd AFDD
DC DA
af AFC
af cAFC
ag b
cF c
bg BF
ĠFD CF
ĠT AG
ad AE
ĠDF AG
Ad x
ĠAD FG
ab e
ĠdBB a
ĠDD FA
ĠdF d
Ġaa af
age cA
ĠdGB g
ol d
FAcAFA cA
, "_
A sus
F EEE
G GD
] )"
b xa
b ecB
d ge
f GEC
f FDG
x ddd
ĠG ecA
Ġc AEF
BG dB
ĠF GBd
EB F
DA df
cA f
ĠD dcB
Ġa ce
FC FC
ec BGA
fd FC
GG FG
GF GFE
Ġed gf
ĠAB FA
BF c
DE FB
ecA ECE
eA CC
gG gG
ĠcBA A
dd ddd
in str
fB FC
df ed
eBG DG
Ġff fd
Ġad gd
ĠFDD f
cGF F
){ /
ĠdD FD
va ce
Vo cal
A cG
C a
G BGB
R efrain
V i
a GDG
b ba
d FCB
g cBGE
,] >
ĠA EGA
ĠG cG
AF dA
xx xA
Ġef ff
'' -][
'' [=
"^ \
ĠBd dA
ga x
aA EB
ĠFD CA
xc BA
fdB AD
Ġdcd efg
gc BG
ac EC
ĠABA E
ĠEG cE
ĠfdB g
AGE F
dcA DCA
Ġfgf c
ĠAf ef
CEG CB
Ġddd f
Ġbc ac
cdB c
gdc D
ch or
F a
G eG
\ \"
a CE
b CF
d ba
f AFDB
g cc
Ġ L
,, ,,]|
,, ,,,]
Ġd ad
ĠA ge
ĠA aca
Ġe bg
Ġc ae
Ġc DEF
Ġc Ec
Ġf Ac
ĠD a
ec BC
ed BGD
AG FCB
EA e
AA BB
FA FD
cB GEE
DD ED
DD DDD
Ġb ff
Ġb efe
,,-] |^
fe D
af EB
ag fd
ecA GEA
BD CF
bg x
Bc f
df f
ĠDE GD
afd FDA
dAFD CB
ĠeB eg
on g
bag a
ĠFAA f
ĠBF dc
cGD F
ĠAdf g
Ġbd fd
ĠM a
Ġfb df
ĠDFB D
ĠFDB A
gfc gc
cAx cAx
chor us
! =
< "^
D dA
G r
b EA
b DF
b GDG
c xcx
x GD
x ec
Ġ ECG
ĠA AGF
ĠA AGG
ĠG GD
ĠG AAA
FD CE
GE FG
Ġf or
Ġg gff
ĠE GED
Ġa efg
Ġa ua
dB FDD
AG ECB
fd x
cB BA
ge GA
Ġb fa
ar g
EG d
dA GDB
GC EG
DF GF
Ġfd bf
DE FGAB
ĠdB ce
ag E
"^ -"
dBG DE
Ġfe g
Ġce gb
xc cc
Ġea d
ĠeA df
Ġbg ge
Ġagf edc
eF d
ĠBGB e
afd f
afd FD
Ġgd ad
Ġee ec
fed A
Ġfdd a
ĠfB f
Gc dBcd
ĠP G
ath er
G xFx
a GEC
b BGB
c xx
d ad
d EDE
g ge
Ġd dBB
ĠG def
ĠF dcA
ĠE DA
ec BGE
ed GD
AG e
FA BA
ge GEG
cG BGBGBG
FF ED
xA xG
FG FD
xE xCx
gf D
DF GB
eB GEDB
Ġ|] !
dBG FDG
ĠBG g
ĠAG AE
Ġge gB
dd g
dd cB
fA d
ĠAc GB
17 9
ĠecA f
ba gfed
ĠeA ef
Ġdcd g
ĠBAB e
ĠDF BA
ĠBB AF
gg x
ĠDB GB
20 4
ĠBg gB
cFA c
ĠGD DG
bfdB FD
ĠdGG g
an dan
ro m
eBe bBfbA
xDB A
xBABB dAB
3 8
4 2
A aA
E GED
F dB
b FC
c xAx
ĠA ED
ĠA cG
ĠB DGA
Ġe ABd
cd F
DD EF
xA xGx
xB e
DF EA
ĠBG FA
gd GF
CD CG
ĠBAG G
aA CG
ĠT gf
ĠeA ec
xe b
ĠDF EC
ff fg
ĠDG AG
ĠBE FA
Ġefe B
ĠABcd ef
Ġee ge
Ġ"^ /"
afc FF
ĠEC D
Ġac fc
Ġgc g
ĠBF d
dcA c
bfd DB
ĠAFF d
19 8
BxB xB
GGGG GG
GAd FGA
! "
: ""^
E cG
F FC
f AFDD
x ECA
x gf
x ag
x bc
Ġ R
DB F
ĠB zB
ĠG gec
Ġc fd
Ġc cAc
Ġc efa
Ġf ine
Ġg BAB
ĠF CF
ec ED
ec BAA
AG CF
fd ef
fd cG
ge AE
GF Ex
xA cA
xC ECA
xC DF
Ġdc BAG
fB AF
fB FE
BAG DA
xd b
ad AA
ad FB
ĠGFE d
GAB B
Slow ly
ĠdGG F
gdc GDG
ĠeBB e
moderat o
AAEA AE
B xE
B gB
T FE
b BGDB
c BGDG
d dA
e ECE
g ED
v D
DB DB
Ġe ecA
ĠG AFD
ĠG dGd
Ġc cAA
Ġc on
Ġc cdc
CA EA
Ġf D
BG AB
ĠF GBc
ĠE DAD
CG F
AG AF
GB g
fd CA
cB EE
cB FE
ge ge
Ġb ed
Ġb fe
ar co
Ġfd bg
xC xA
BE GB
ecA ED
BD CA
eA DA
gd GEDC
cGE eG
Ġcd AG
ĠcBA f
ĠFA dg
dAF EDA
ĠDE GE
Gx d
ĠGE EB
ac ECA
gec BG
Ġgb bg
ĠTB AFA
ĠcG cd
ĠABB d
is ch
lan d
ternat e
) >"
A xC
G de
d cAFC
g cAC
Ġ pl
Ġd bge
Ġd eBe
ĠB BGG
ĠG b
Ġc fcA
Ġc cde
Ġc GAc
Ġc zA
BG Bd
BG FEC
ĠE cGE
cA DCA
xx f
fd FDG
ge BGDB
GF FE
CE FA
CE GEC
eB EF
xD ED
ag ac
cE GE
gd DA
bg bg
Ġaf gd
ĠFG AA
ĠAd ed
ĠAFD d
Ġea ue
ĠeA eg
ĠGG d
ĠdA cd
Ġgg ag
gx a
BAF CB
Ġcf fg
Ġfc ac
Ġbd af
ĠgA eA
ĠDDD E
In str
Ġ!/ /!
A AGA
C cC
M G
a ECB
a cAD
e GCE
x BAG
Ġd GA
Ġd bfd
Ġd GBe
ĠB FE
ĠB ecA
ĠG CC
ĠG GFE
Ġc EEE
Ġf eBc
ĠF AFE
ĠF ff
ĠE dcA
AE DF
FB FB
Ġed AB
GC x
eB fB
"^ **"
/) !
ecA CG
ĠBG ed
gG DA
gG CC
eBG ECB
dE d
ac GF
ac ef
ĠAA AF
Ab A
ĠBB gB
ĠBE FE
Ġgd bd
gfe g
Ġv ariations
BDG B
ĠDED E
ĠAGG c
ĠEc cE
DFB F
fec BA
ĠGDB A
ĠaAA c
ĠBb ba
GcdBcd AB
2 25
E AGFE
a GECA
a dBD
b aA
d Tc
g xd
g cGEA
x edc
ĠA bag
ĠB FGA
ĠG edB
Ġc efc
AF EDCA
,,, >=
ĠF FD
ĠD GFE
ec AFCA
ed ED
,,-] |=
Ġed G
xG AG
ĠAB cc
GA cB
DF AFC
dc GDG
DE FF
ag C
ĠBc cc
Ġde gB
Ġcd AF
fF EA
bg edBG
eBG FDG
fdB AB
gc ECG
fdA DB
Ġbg fd
dAFD E
xf ed
Ġff ef
ĠFDD d
BFE G
ĠcG AF
eBA A
ĠP art
Ġbf ge
fdcA FDCA
an t
ĠfAA f
,]/ [
xCECA AEC
E GBd
L arg
M a
b eBEE
d ga
g AFC
Ġ r
Ġd AGA
ĠA b
ĠA EEF
ĠF CA
Ġa ecB
dB AGG
dB eBe
xx g
ed GDB
ed GEB
fd GB
fd BGDB
cB e
GF EDCA
af ecF
ĠC e
xD EF
dc dB
xF xE
"^ [
ĠcA fe
gd GED
dF EB
dF CG
Ġge gb
bg dBGDG
fA c
fg fd
ĠGAB g
Ax ABcd
ĠeA a
ĠBAB B
ĠBAB F
gec CG
eg no
Ġdd dA
bf FDB
Ġgb fg
ĠBB cB
ĠDG AB
afd C
cAG c
Ġgd dB
AGF EC
ĠeB dA
AGE DC
bge D
ĠEB EB
ĠAe eA
ĠAa af
ĠBD GD
ĠGBB c
ĠgA g
ĠaAA g
EFA Bd
ĠS egno
acef ul
, ).
3 5
B BAB
G AEG
] )([
x ba
Ġ sharp
Ġd GFG
ĠA Ec
ĠG GE
ĠG ef
FD EC
Ġc dAd
Ġf fg
Ġa aga
dB de
dB ADB
AG FDC
fd ad
AB de
ge ga
Ġb Bb
Ġb bg
xG xGx
eB x
Ġfd bd
ĠdB fe
ecA GEC
ĠGA cA
Ġeg gd
ĠGE cG
bf BA
gdB EB
Ġgb ed
xf ef
Ġged A
def a
Ġae gd
ĠcBcd ef
ĠEC EC
AGD F
ĠBg fd
ĠAE FA
Ġegf edc
ĠAa ab
ĠGEG c
Ġbaf g
ĠAde g
ĠaAA a
Andan tino
Ġno t
aged AF
2 18
4 6
C g
C h
D g
M o
b BGG
f DC
f DCA
n t
v ar
,, ,,-[=
ĠA dD
ĠA fdB
ĠA ABd
ĠB Bcc
Ġc EEF
,,, |[_
ĠE ecA
cA EDCA
Ġa df
GD FD
BA FDF
ec FDB
DG c
EA x
GG c
GG AB
cB xB
ge GF
Ġfd eA
xC FA
dc g
DE FEDA
dG x
dG CA
CD FG
ĠcBA e
ĠcBA GFE
fB GEB
ee r
Cx CB
Ġ|"^ *
gec CC
Ġbg ga
bf b
Ġgb dg
cAG CF
fed f
Ġ"^ >"
ĠfA de
BDG Bc
Ġgg ga
ĠdF BA
GAG FE
Ġcedc BA
]) )
Ġt w
EDCD EC
alzer tempo
) _
2 12
A ag
a AFB
d xcx
e DE
e EDD
g AECA
g AGA
Ġ qu
Ġd gc
ĠA fff
ĠB fg
ĠB eAe
ĠG cAF
Ġc GGG
GE xE
Ġf Bb
Ġg df
ĠF BDB
ĠF cEc
ĠE DG
ĠE AFD
cA AB
cA cAc
DG AG
GB eB
fd ed
FE AE
Ġb dd
xA FD
gf cG
ag ab
ag ecE
ĠBc eg
Ġ. _
Ġdf fa
ĠFA fe
bg dBGB
ĠFG AD
bB DA
cc cd
fdB d
Ġea b
gc CG
eg x
gdB FDG
ĠeB ge
aec D
xg xg
Ġv C
GAB cd
Gc f
ĠBD DB
eBA EE
ĠgA gA
ĠEDD F
>)( ^
)"^ >"
ĠEEE F
dddd dddd
ĠABB c
BAGA BG
xBxB xBxB
alleg retto
iss ing
EAGFE AGF
B ge
G eB
G xEx
T D
a BD
a xc
c ecA
c cAA
d fdf
d dcc
e AEDA
g EF
t ly
Ġd AFE
ĠA DAD
ĠB GEA
Ġe zc
ĠG FDB
Ġf ccc
ĠD CC
BA GEC
ed eg
AG CB
GB de
FA ce
ge BD
ge tragen
Ġb gfa
EG xB
CC CD
xA ce
af cAA
gf BG
dc BAB
Ġ|] "^(
eA cA
ĠGB gB
Ġde a
gG FB
bg GEB
ĠdBG c
ĠAc EA
ĠAc fd
fB DG
ĠecA A
ĠT cBc
bB CG
dAF CF
ĠGE AE
xd dBd
ĠdBA A
ĠEG cA
cBA GA
ĠDF AA
Ġgb eb
dg x
aecA G
tr ain
ĠEE GE
ĠcF c
gecG CG
Ġ|]: "^
19 3
ĠdGG d
Ġcg ge
adA DD
]- )[
/"_ ="
pe l
ĠegB g
ir st
Sy m
cGEeG fG
# "^
' >_
A R
I I
a cGE
a dd
b cE
b dBFB
u ed
x fg
x DGA
Ġ 6
Ġ h
Ġd FD
Ġd dBG
Ġd cAE
Ġd GBc
Ġc AD
Ġc aA
GE EDCDEC
Ġf ce
BG FEDB
ĠE a
ĠE cd
ĠE GFG
ĠD z
Ġa AbA
BA ECB
ec BAF
FB fG
GG d
cB cBE
ge AG
dA DC
Ġed eB
FG C
af dBA
CE GEB
dBG DF
ĠcA ef
Ġge ea
gG BA
Ġec gf
ĠGA GD
bg xdb
ĠFD CE
ĠBcd d
ae AF
ĠT gfg
BAG FD
xc gd
xd bgxdb
ĠeA eA
ad cA
bf DB
ĠDG c
ĠDG GD
ĠgB ed
gdG FDCF
edB EB
bgd DB
ĠGD FD
ĠGD GD
""^ )>"
EAc eB
EGB e
ĠeBB d
aed AD
edBG c
22 2
xDxD xDxD
crot s
Vi vace
' <^
2 24
A cF
F AGF
a EG
b AE
b dc
b xg
f cd
f GDG
g AEA
u re
v ariation
Ġd aca
ĠA DGA
DB B
GE EA
Ġ( [^
ĠF g
AE c
FB x
FB df
GF EDCB
DD EE
EG AG
BB cd
af dBB
Ġef fd
Ġef ab
dc FDB
ĠdB dF
ag D
BGD CB
Ġ. .."
Ġdf ge
ĠdBG G
Ġfg ga
ĠeA cB
Ġedc a
ĠFE DA
Ġafd d
Fx ED
Ġdg ag
or o
ĠAD FE
on d
ĠFF AA
AGEC D
ĠEB GE
gb x
ĠEFE F
gdG DA
ĠeG BG
ĠAe ef
ĠfBB e
Fm ix
ĠDGB e
ten derly
Ġfff a
Bdf b
Ga ily
( (
/ "_>
A cAF
A cde
B cF
C FCF
D dF
a cGC
d cAA
f BGDB
g gd
u se
} =
ĠA cEc
ĠB FDB
ĠB aa
ĠB AEF
Ġe GBd
Ġe ve
ĠG a
ĠG ec
ĠG fe
ĠG dcB
ĠF EB
ĠE z
ĠE dB
ĠE AFA
Ġa efc
CG CA
FDA DEA
ECG CEC
BA BAB
ec DA
ec FE
ge EA
fe xe
af AFD
af af
CE c
eB CG
DE EDE
EF xx
eA CF
Ġcd g
eG c
bg ecB
ĠAc cf
ae AECA
cGEC F
dx g
afd AFDD
ĠdG cG
." "^
ĠEB AF
GAG AG
DFB fc
DFB Fc
fef c
fcB B
GGGG GGGG
eeee eeee
An imated
BDGBc FAB
A ecA
B gd
B xAx
E FDE
E EAc
F AE
_ "
a ae
a AFDB
b ecA
c xC
g GEA
g cAFCF
x gd
x ECE
{ /^
Ġd agf
ĠA cE
ĠA gfg
Ġf bd
ĠF BF
ĠF BEB
ĠD ec
dB ECG
dB AA
BA cB
BA EF
GB GE
EA d
fd cd
FB FD
ge CA
FE FDE
Ġb efg
Ġb bbb
Ġb dgb
DC xB
af cAE
gf edc
GA GE
Ġef ce
eB GED
eB GEA
'' -|[
/) ^
ĠcA g
ĠcA ac
ecA EG
ĠcB e
Ġde ee
Ġfe ag
Ġce AG
Ġ|{ /^
ĠAd AG
ecG c
cD CB
or s
ff fe
ĠBE dB
AEB E
dcB B
Ġff af
ADF c
ĠEC CD
AGD CG
ĠBF FE
cFD CD
>) ^
Slow ish
an d
dxd xdx
AAAA AAAA
axa xa
ĠcGG c
ĠcdA c
CAFA CAFA
edit ed
tt ing
andan te
GAdFGA dF
' <_
2 88
D cB
F xd
G AAA
S ee
^ ^
a ECC
a AFE
a dBFB
b cC
e xE
g GED
,/ -
Ġe AG
ĠG eG
Ġf cde
Ġf zf
Ġg eA
,,, >^
BG FDC
ĠF cA
ĠF cc
ĠF FGA
ĠF AED
ĠF FEF
ĠE DF
ĠD dD
CG cG
AG FGA
GB dc
cB EA
EE EF
Ġb ut
Ġed F
af cGC
xE FE
ĠC CB
gf GF
CE FE
ag dc
AC FA
ĠBd ec
ĠBd fB
fc a
Ġfa ad
Ġfa cf
Ġfa st
ae BA
bB CB
Dx CC
ĠeA AF
ĠED GD
ĠGG GE
ĠDF d
"_ -
ĠBE EA
GFD E
Ġee a
aa x
GFG FA
ĠEC CB
ĠFB dc
18 9
Ec ho
BFE DA
ĠAE cE
ĠcE dE
ĠBdc BAG
FFFF FF
Ġs chnell
ĠFf fg
DxC xB
ch ott
aj or
ive n
cres c
3 6
< !
A fd
A fc
B FCC
D AFA
E ee
E nd
F or
M e
a CC
a GA
c ae
u AB
Ġd gG
ĠB cG
ĠB AD
ĠB DE
ĠG ccc
Ġc aga
Ġf gdg
Ġg ga
Ġg cea
Ġg eBc
EB B
ĠE AFE
ĠE cBc
cA GFF
dB FCF
CG x
GDB G
GG g
ge m
DD CC
Ġb gae
fe dBFB
FF c
xA df
BF ECA
CE FG
DF d
eB ECB
dc GEC
ĠdB b
ĠdB ba
Ġgf gB
dG e
cF ECF
BFD CA
ce ae
gd gd
Ġcd cG
Bb dim
Ġfe be
ĠFD EG
xxxx B
fB d
ae ge
ae EE
ba D
fg ec
fdB FE
xd g
ĠdBA f
ad DA
ad AB
cBA GE
FDF AF
ĠDF FA
ĠAD dD
Ġgd b
Ġgd eB
ĠDB AB
ĠBABc dB
ĠeAA d
Ġfdf b
dAE G
ĠDA c
ecB ECG
Ġcdc BAG
Ġdfe A
ĠCD ED
bgd GDB
GxG xGx
ĠEDD g
dec d
ĠGBE d
AEAE AEAE
adad adad
igh land
Ġli b
D sus
G cGE
G ceg
M D
R e
b GF
b FF
c xex
d cAFA
e DCA
i i
o m
r r
u de
x cde
,/ ^
EC cd
EC FE
ĠA fdf
Ġe ze
ĠG gfa
ĠG eFd
Ġc fdB
Ġc zc
ĠE GCE
DA dA
ĠD fe
ĠD DF
ĠD de
ec f
ec de
AG GA
fd EB
GG GA
Ġb egb
BB e
xG xF
BF x
dc GD
eG cG
ĠAF BA
aA aA
ĠFD dc
Ġaf fg
Ġce BG
ae bega
dAF CC
Ġedc BA
Bd ed
fdA fdA
gec GEG
FED CD
fa x
eBGE F
,,,- |=
AGE DA
Ġv b
dBA GDG
gx gg
ĠEB BE
ĠEE ED
eEB cx
Ġaa ag
ĠeG dB
ĠGGG F
ĠGg bg
afdA DA
beB EG
Ġda nce
adB AGA
Gce gd
xAxA xAxA
fGA cx
chott isch
D FDC
] /"
a GC
b cG
c eB
e edc
e AFEC
f xfx
g GDF
h lich
DB E
ĠG AEA
GE EE
ĠF GEC
ĠF fe
ĠF BAB
ĠD CE
BA e
ec EF
ed ec
fd CG
fd ECG
fd ff
FB dB
GG GF
CF xA
GF AG
Ġb gc
ar ch
eB FDB
xC xD
dc GDCG
BFD CF
bg BGE
bg dBD
aA gA
ĠFD dD
fdB FG
ĠeA d
ĠeA dc
FCG C
Ġbg gd
). =
ĠAA dd
dAFD CD
Ġgd cA
bd FB
ex g
ĠEA cd
ĠdG gG
ĠdcA g
ĠEFG g
ĠEC DC
ĠEE cE
Ġac a
Ġfc ag
ĠAE ED
Ġaba b
ĠGBB e
ĠCC CC
ĠgA aA
ĠDd fd
oderat o
beB C
Ġgaf a
ĠDDD F
cccc cc
' ]|[^
- (
D al
E xGx
E xFx
a FE
e gB
f ce
f efe
f cGCG
f ig
{ _
Ġ n
Ġd cG
Ġd eA
Ġd AFB
Ġd EBe
DB GB
DB BAGABG
ĠB bab
Ġe gBd
FD FB
Ġf Acf
Ġf fee
Ġf rom
Ġg iven
ĠE AGF
ĠD FCF
ĠD ddd
dB f
BA fe
xx a
AG Ac
AG FEDB
ge AF
fe a
dA x
af x
xB cd
Ġef fg
DE ED
DE FED
'' "
dBG DA
eA eA
eA ce
ĠFA cB
fc FE
xxxx G
fB FG
Ġ! /!
ĠAd fA
xd xdx
ĠeA ca
gc fgc
ĠED FD
ĠAA a
cx cB
gdB FB
ĠcAF B
,,,, ,-|
ĠFF FD
ĠGEE c
EFG AB
ĠBF GB
cGD CB
ĠBg gd
ĠaA df
ĠFd dc
CEC EC
Ġgba b
ĠaAA f
ur ce
/"_ #"
xAA C
axa xbxbx
oo k
ccAA cA
chottisch e
/ >=
3 4
A P
C xDx
a p
a z
a dADA
b BGDG
e CD
e ab
r il
x AE
} !
ĠG DC
CA G
Ġf fa
ĠF z
ĠF dA
ĠF AEC
cA AA
dB AGE
ec BAE
ed AB
GB BB
GG AG
ge GD
ef cAc
fe AGF
cG FDG
xG cd
cAF ECF
BE x
ĠBd DF
EF CG
EF GFE
ce G
Ġdf c
Ġdf Ba
Ġfe ac
bg BGB
bg BEG
aA GE
fA CC
Ġeg ba
ae AEC
ee a
df ga
ĠAFD f
ĠABc BAG
Ġefg g
Bcd ef
bf cB
cx f
Ġgb ba
bd FDB
Ġefe A
Ġbag d
ĠfA e
20 6
]/ >[
eGE DG
ĠEc cB
ecBG ECB
ĠdgB c
ĠbB fB
ĠfG eG
Ġeb ba
Ġcfe g
Vo ors
Voors pel
B AFCF
C EDC
J ig
b AD
b ee
d m
d CD
d GECB
e ECF
e xdx
g FG
g BGF
m aj
u Bc
x gc
x FGA
x fff
EC EF
Ġd FB
Ġd DE
ĠB efg
ĠB eGe
Ġe efg
Ġc GBc
GE e
Ġg aea
DA FD
dB FDC
ec FCA
FCA CFC
ed AC
DG BGDB
fd AFE
AA d
cB ECB
ge GEE
DD FD
FE GE
dA dBeBe
cG FCA
Ġed AF
xG xE
ĠAB E
xE xEx
ĠC DCB
dc f
ag cA
cC EAc
gd AE
Ġcd fd
gG g
eG DA
ĠFD GA
ae e
ae g
ĠdcB e
eBG ECC
Bd gb
ĠED DG
fcA DC
ĠGG c
"_ /"
ĠAD FB
gdB FC
gg fe
ĠGFE c
ĠDB AF
Ġgg gf
ĠDD FD
Ġac fa
cCC cx
ĠEDB D
CEA cCEAc
eGB e
fdc BGG
'''' -_
Ġdb af
gedB GEDB
Ġeae a
CECG ECE
ol ce
bgfd BGFD
B xdx
C eCC
D S
H ighland
a xf
b GEC
b eD
d s
e AECC
f fd
g xB
g ADA
h t
x efg
Ġ 8
Ġ sh
Ġ sharps
Ġd zB
Ġd ze
ĠA AFD
Ġc cAF
Ġg cBc
ĠF EG
ĠE EB
ĠE Ad
Ġa n
BA DG
ec BGEC
AE DCG
ed ce
AA AAA
ge BGG
Ġb ook
dA df
ĠAB cG
af CC
xB BA
CE GB
eB FDA
xD CB
xD EG
xC ECD
xC cCCcx
ĠdB dA
ag io
dBG dB
,,,] (
ecA e
ecA GD
Ġge ba
gG CB
Ġdf fg
Ġdf Ac
Ġdf Bg
bg g
bg GB
)( _
gB FB
ba F
fdB AG
Ġea ac
ĠGAB B
ĠeA ge
Ġ|"^ $"
cGEC D
ĠAA GE
afd E
afd cD
ĠEA BA
dcB d
Ġfga c
bge EB
Ġv er
Ġgg bg
ĠcBcd ec
ĠEB eB
Ġfc gc
cf b
DFA C
DFA FDFAF
ecAF EF
im o
Ġca ac
bfdB D
FFFF G
ĠBf fB
ege ga
Ġto o
vo cal
Ġth is
"_( ""^)>"
IN E
Substitution s
cxAx cA
' >"^
B fe
B dBA
E cx
G ADFc
M E
R ather
a xe
a use
b BFDG
c k
c ag
d xx
d bg
e AFDB
h y
i e
u cd
x ga
x EGA
Ġ langsam
Ġe AGA
ĠG AEG
Ġc AED
CA B
Ġg geg
AF EG
AF GA
ĠE gf
ĠE cAG
cA CD
Ġa AB
dB AFA
FDA DFD
BA GDG
ec BGG
FA e
FA Bd
GG GE
CB EB
Ġb ec
EG AA
dA fe
FF EC
Ġ|| !
af FF
af dBF
af cAFF
af cACA
xB FB
ĠC GEG
ĠC ECE
xC DCB
dc FA
'' '_
dBG FE
de ee
ĠcA GD
ĠAG c
gG FDG
fF EC
bg DG
bg BGD
bg fdFDB
gB FDB
fA eAdA
ae DD
ĠGF EA
BAG x
BAG ECA
ba x
fdB GE
ĠEF AE
cD CF
ĠeA cf
Ġdg bd
Ġ|"^ [
ac GEC
eg ed
ĠAA BG
ĠDF dF
gdB d
afd DA
ĠBE FG
be b
be dB
Ġfga d
Ġ"^ \"
Ġu ed
Ġae be
fx fe
20 7
BAF G
ĠEB c
Gc ec
ĠBF GE
Ġcf ac
gBG DE
dAG gAfA
gag a
FGF GF
ĠBed f
CCCC CC
ĠgG fG
Ġt une
ĠFAD d
Ġm issing
FAF AF
DDDD CCCC
DGDB DGD
xAB x
Edit ed
dCC c
FCEC FCGC
AFcFfF AG
gfdG FDG
BGdG gGBA
aceful ly
CeCC dCCc
C GEG
D FFF
D EDCB
E GFE
F dc
F ce
F GGG
a EDB
b dBE
c xBx
f BAG
f ba
g ga
i ge
t ion
u fg
x eA
x AGFE
-] )
ĠA ab
ĠA EBE
Ġe nd
ĠG DF
Ġc FFG
GE AE
ĠD DB
GB eg
ED EB
ED xC
fd AFDB
ge BGF
GF GB
cd ee
EE GG
EG FA
fe AD
cG FDB
DC Dx
Ġ|| "_
xG xA
af DB
xB f
Ġfd gB
dc FCA
xF AF
"^ *
dG AG
Ġge BA
Ġge gd
gG FDB
ĠFA e
bg BD
Ġfg ge
dBF EB
eBG FE
eBG DE
gc GF
ac FF
gec GECC
efg b
ĠdcBA Bc
ĠEG AE
cBA FD
>"^ $"
or npipe
Ġgb gf
ff ed
Ġgec f
Ġee fd
fed cB
Ġae ga
Ġff fg
ĠDA AD
ĠAAA e
ĠBAA f
ĠAf fA
ĠAE FE
cBG ECG
ĠAa ae
Ġbe ae
te s
ĠdD AF
EEEE EE
il l
afe A
""_ -
ĠbB gB
po l
AAG AD
ĠEGD c
hor npipe
axa x
gdga dgd
/ "^*"
A AE
B dBG
B xcx
D FC
F g
F xc
M dc
b xc
b ecG
b bc
b feB
d FCC
e bg
f AGF
f BAFD
x dA
x bd
x CCCC
,] "
Ġd FDF
Ġd cAA
Ġd DEF
ĠA GEB
ĠA FCF
ĠA FDD
ĠB eA
Ġe BAB
ĠG GEG
ĠG FDG
ĠG cde
Ġg E
Ġg BA
ĠF FED
ĠF CFG
ĠE AGA
ĠD EA
CG EC
BA GFG
FC FG
ed AEDA
ED DD
EA EB
EA cA
fd fd
cG cG
xA BA
AD FDADFD
af AFB
BF ECB
dc GF
dc xc
ĠAG cA
gd f
gd FD
gd GDE
fF f
ĠGA de
dd ef
ĠAF ec
ĠBcd F
ba ss
ĠGE e
Ġ|"^ #"
ĠABA c
ĠAA fA
ĠDFA g
"_ *"
dx dc
cAG FD
dcB C
ĠeB cB
aec EA
Ġ"^ +"
Ġu ca
EFG C
cAFD CD
gdG CG
ĠAGG g
ĠeG d
BED D
gecG ECA
ĠBD cD
ĠADD c
ĠGg gd
Ġefgf ed
afe F
ĠFFF G
)} (
Bbm aj
ĠS pirit
ĠGBE g
gefd ef
-- --
Ch eer
( !
A dG
E a
E FDA
E FCE
T dB
T cBc
b cAE
b FCF
c ba
e FEDA
f or
g xc
g fdA
m ore
u cB
u ef
x EAc
x eeee
-] ([
EC DE
ĠA FC
ĠB FFF
ĠG ga
ĠG cGE
ĠG zB
Ġf cBA
Ġg ABc
Ġ( [_
ĠF GDG
ĠF ECB
EB g
ĠE cA
ĠE ADA
cA GDB
cA GDG
cA GEG
ĠD ECD
Ġa cea
BA AA
ED EA
fd GDB
FA AF
GG FF
cd fd
cd cAG
DD Dx
ef A
Ġb BbB
fe FE
fe BGB
CC ECD
cG Cx
xA GE
af cAD
xB xA
DF ED
dc FF
ag dB
cF AF
eA GDB
ĠBG FB
Ġde gf
gG FC
Ġdf Bc
Ġdf ac
eG ecx
ĠFA f
ĠAF AA
Ġfg dB
Ġag gg
gB eBG
df dB
ĠDE GG
Ax e
gc GDG
ĠABA GFE
ĠAA ec
ĠAFA f
afd AB
ab b
ĠcBc a
ĠcBc f
Ġu b
ĠfA aA
ĠGc cG
ĠEE GB
agf ed
Ġfc a
ĠBg ge
ĠBEE e
ĠTf ef
GxG A
Ġfagf ed
ĠM E
ĠM g
DCC x
afdA DD
ĠDd de
ĠgG g
gBfB eBfB
gedB EG
ĠEAc f
Adf ae
AxG xAxGx
ĠBEB d
Ġfcc f
ĠW alzertempo
ĠceG c
C b
E ex
F xGx
G cA
G BGD
G sus
T R
a ac
a geC
b ecE
c gf
c xF
d ag
d cAFF
g FDG
x GBe
} [
Ġ K
EC DB
ĠA S
ĠA fdA
ĠA DBA
ĠA aBa
Ġe EGB
ĠG zd
Ġc ADF
CA c
GE DCD
Ġg zg
ĠF EA
ĠF CEC
cA GEB
ĠD fed
dB cB
BA GED
ec CE
AG CD
AG FDG
fd cC
FB cd
FA cx
AB Bc
cB GEG
ge dBE
Ġb fed
ar k
fe BGE
cG FB
cG FCC
af AG
ĠC ED
gf E
>| _
cAF EE
xC xCx
xF GF
ĠBA DA
BD FD
ĠBG AD
ga bg
ĠGB cB
ĠGB gf
ĠBAG d
bg BC
fc CG
ĠFD FB
Ġce eA
ae CF
ecG CA
fdB DF
xd cB
Cx CA
ĠFE d
gc BGC
Ġdg gb
ĠdBA D
ĠAA cd
xe xd
Bx BA
ĠcAG G
ĠAGE c
ĠBB e
ĠBAF f
ĠDGG c
ĠfB ce
Ġac ge
Ae a
ĠAE cB
DCD AF
DFA c
dGD F
dcd A
FGF GFGF
ADC E
ĠCF E
Ġs o
fcB C
Ġm oderato
baf B
bgf B
Ġ|! <(!
ĠFAB F
Qu ad
ĠS chottische
PMTuCOM A
,,,,,-] _
Ġnote s
cAeA aAgA
xAFC xAFC
Mo d
fAeAdA cF
E FFF
b dBFDB
c xE
e AGEC
f xx
f FCB
u ABc
x ge
Ġ tempo
,, ,,-]
ĠA fa
ĠA eee
ĠB ecB
ĠB DBD
ĠB DAG
Ġe GB
ĠF GEG
ĠE EG
ĠE dcd
ĠE cdf
CG CGC
BA EG
ec ECF
GF c
GF xE
cd BG
EE xE
FE EC
FE FD
Ġb ad
CC DC
AD x
GC ECGCEC
af AB
ĠC EDC
Ġfd fe
dc FC
"^ ^"
dG CB
EF EDC
eA CE
ga dgd
ce ag
ĠGB ce
dF ED
dF cF
Ġdf cd
Ġec cG
Ġfe ea
bg dBB
ĠdBG f
ĠT dc
df ad
ba ed
ba ba
Ac eA
ĠABA A
ĠGG dG
bf BFDB
ĠDF FD
afd BG
bd GB
be AD
,,,- |^
def ga
Ġ"^ /
ĠDEF d
Ġac ga
Ġac ac
dcA DA
edB d
cGF EDA
bfd c
25 5
CEA A
ĠAa ed
ĠADD d
ĠGg ge
ĠEc DB
ĠP dc
age AGEA
Ġ|"_ #"
gcG ECA
ari ant
ĠBEA B
23 5
ĠgBB g
AAG AE
CEGE cEGE
afcAF CG
ffff fffg
Ġo nly
xCEA xC
,,,,,- ]|=
EFEFE FEF
cAxcAx cA
- {
A fA
B ee
D xCx
T GFG
a GF
a BGD
a dBB
b AA
c gdx
e ba
f FDCA
g li
o ur
r imo
u ce
x FFFF
x fdf
x EEF
ĠA AD
ĠA fG
ĠA zd
ĠG dcA
Ġg ze
AF c
BG Bc
cA cd
dB AFDA
ec DG
ed a
ed dc
ed EDG
ed AEB
DG AB
AG FB
AG FCG
EA BFB
fd GF
fd FG
FA Bc
ge gaegd
GF EDG
EE AE
EE xB
CB c
CC DD
Ġed cc
FG d
cAF EB
Ġef A
dc FCF
xF AFC
ĠBA e
ĠBA af
ĠAG FB
ĠAG cB
ĠGB cA
ĠGB dd
Ġde ef
gd AF
gd cB
CD FE
Ġdef B
Ġdef f
fc GFG
Ġfa bf
Ġeg be
ĠedB f
ae be
ae AEE
ba E
Ġga af
GDA GDG
ĠAA cc
ĠGG GD
gA GE
gdB FG
fcAF G
afd AFB
dAFD AFdA
be a
bge GEB
Ġedef ge
Ġae ec
Ġff ec
ĠfB fB
AGD CA
EEE EB
ĠaA ag
/{ /
bfd FD
bfd FB
CEG A
CEG C
ĠGBA d
Ġca ag
bfdB DB
ged C
ĠP E
gdA C
ĠFAD c
cgc fg
xdxd xd
ĠcFF c
aaaa aaaa
th m
xFE c
et c
gdga dg
Ġbar s
alleg ro
edit orial
um ent
Al ternate
DGAG dGAG
EABFB cBF
E FAd
G AFD
G lyd
a xd
b AG
b AFD
b BGEC
c cdc
d fc
d gg
d FCD
d TcB
e AFCF
e gec
e AGF
s pirited
u C
x FAB
x GBc
,, ,,-][_
Ġd dBA
ĠA edB
ĠB FAB
ĠB fAf
FD ED
Ġg AAA
ĠF dcd
EB GE
ĠE ec
ĠE DDD
cA BA
GD xB
ed cc
AG GAB
ED Ex
FB E
FA df
GG Gx
cB FG
cB ce
EE FG
ĠAB C
ĠAB FB
ĠAB cF
FG AA
af FC
ĠC cB
cAF CE
cAF ECB
dc DB
xF c
DE xE
Ġgf ba
dG c
cE d
AC FCACFC
ĠcA ea
EF EC
EF GG
ĠBG gB
ga gefdef
Ġcd dd
ĠFA DB
ĠFD CB
in tro
AFA c
Dm aj
ae DA
ae st
ĠT FE
ĠT fed
ĠT AGA
bB DF
ĠABc a
ĠEF GG
ĠGE ed
gc ecG
Bd gd
ac EG
edc BAG
Ġdd gd
bf cG
ĠFGA f
ĠBB dd
cAG FC
dcB E
AGE DG
bge A
Ġu C
ĠfA ce
ĠfA eg
on y
ĠGEE g
ĠGc EG
AGD CB
gb eg
Fd im
ĠcAB F
re peat
19 7
EGB E
gecA GC
an s
aed GE
pl et
ug h
CEGE FAcA
Ġcac a
ĠAgf a
PMTuCOM B
ot ch
xff xf
CEGc ecGE
Pl aintive
A BGA
A ceg
C DDD
E xc
G cc
T fd
a AEDA
c gfed
d EDCG
f DE
f ECB
f bd
f xex
g DC
g EDB
r ea
r AP
x cdc
x AGA
x FAc
x CEF
x aff
Ġ '
Ġ is
,/ <
,, ,,,]|[
EC EB
Ġd bf
Ġd FED
ĠA aaa
ĠB FEF
Ġc DFA
Ġc CEG
GE ED
BG FA
BG FDF
ĠE dd
BA AF
BA FDG
ec fF
ed GG
ed cBc
ed FBd
AG Fx
cB cG
ge DA
ge AC
cd cf
cd GBG
Ġb eee
dA e
dA eAdA
FF FD
Ġed AG
FG AD
xE xA
BF cFcF
GA e
xC xG
BGE DD
dBG FF
de G
cE dF
ĠcA de
ĠcA aA
ĠcB ed
ĠGB ED
ĠGB ge
CD FA
fF AFcFfF
>|: !
eG CB
dd cd
aA GD
Ġag B
Ġag c
gB c
in or
Ġce AA
Bc ec
ae ae
ĠT ime
bB DD
ĠGF EB
ba bc
fdB AF
ĠeA gf
gc CC
gc FDG
Fx FE
ĠBAB cde
Ġ|"^ ?"
ac DB
gec GF
gec BGDB
ĠdBA E
ĠED EB
ĠED FG
Ġbg dc
Ġcde e
Ġded d
)" {
gdB AG
ex fx
be EB
be BA
be gae
." {
ĠFF GG
ĠfB ec
ĠfB ed
ĠBcB F
20 3
gx ff
Ġaga c
Ġdcde fd
dFB deB
dFB dBGdB
Ġad fe
agf edc
'> .
cFA cdGBG
gBG DA
bgd E
bgd DG
BGFD E
){ ^
Ġca ed
gecG CC
eGB edFBd
ĠP F
Ġfb bf
xxxxxx E
Ġgef c
Ġeee g
aed E
AdA dedA
cgc fgc
bfe E
AAF AFD
Ebm aj
ĠFdE d
CDCDC DCD
EEDC DC
CxCxC xCx
So lo
BDFB cFAc
BGdB eGBG
hy thm
cdcAG AGA
xfdf fdff
ecfF AF
A gf
B fA
G cC
M BA
] >(
a DCA
b EDB
d afd
d GBd
d AFCD
d xBxB
g AFD
i b
p t
p ause
r u
r all
x fa
x dddd
} "_
Ġ No
,, ,,,-]|[=
Ġd zc
ĠB bge
ĠB geg
Ġe eB
Ġe gG
Ġe zd
ĠG ECA
ĠG zA
Ġc fcf
CA A
ĠF cB
ĠF CD
ĠF CDE
ĠE m
ĠE AD
cA GCA
ĠD GD
Ġa dc
Ġa def
BA DD
BA FDC
ed AF
ed dd
fd a
AA Bc
cB FDA
cB CB
cB GED
cB Fx
ge GEA
cd gf
FE FEF
EG FB
dA GDD
GC GEG
xB cB
eB DG
eB EDB
Ġfd ba
xD xGx
xF GB
BD CB
ĠBc cA
ĠGB FG
Ġdf gd
ĠBAG FE
eG CF
bg BEB
xxxx xE
dBF CG
fB EE
ee ef
ĠT C
bB ECG
Eb dim
xc xB
ĠGAB D
ĠeA fe
fdA d
BGB e
Ġdd ad
ĠAA AE
gdB C
gdB DD
ĠBe GB
Ġcc f
geB EC
gdBG DE
ĠeB ce
fed AFDA
ĠGFG e
bge F
ĠGEE d
Ġad cd
Ġad ag
Ġad ad
ĠEB dB
ĠFEF d
"{ =
cf efc
edB AB
cFD CF
ĠAE FD
Ġ(. [
CEA ECE
ĠGBA GFE
Ġ::"^ *"
ĠBdc BA
Ġbd gd
re it
ĠdD DB
xDx DD
gfed cB
ig n
22 8
DFG x
PMTuCOM D
PMTuCOM d
ExC xG
ĠĠ ĠĠ
xff xffxf
Ġse tting
xCCC CB
ĠWrit ten
adgd adgd
Pi a
fdad edd
Ġqu ick
Ġver se
FAFAF AFA
Quad ril
$ ?
' ]|[=
' -]=
- "^/
A AGG
B old
C on
D FDG
D EGc
E AF
F cB
F INE
G xBx
I O
T dcd
a ECF
c gfcgc
d FEDA
e nd
f BGDG
f afd
g GDD
j ed
l u
u oso
x af
x ABd
Ġ last
Ġd GF
Ġd bB
Ġd geB
Ġd DDD
ĠA m
ĠA GEE
ĠA dGd
ĠB gb
FD GD
Ġc gfe
BG FCA
BG AG
EB D
EB AB
ĠD EBE
ĠD zD
ec GEB
ec Bc
ec AFEC
ec GECE
AE AEA
DG DA
GB dd
fd FCA
fd AFDF
AA AB
FB D
AB C
CF AFC
ge ECA
ge fe
ge BFB
ef gab
Ġb reit
EG AE
fe AFE
dA GEA
DC xC
af dBD
ĠC EDF
gf cc
CE FC
ag dD
ĠBA cd
ĠBG ge
fF c
ĠBAG c
,> (
,> )
ĠFA ed
bg ecE
fc FG
gB e
fA cA
fA df
ĠFD dB
Ġaf gb
ĠedB B
ĠT cBA
ĠT on
ba dB
Ġga c
Ġga ef
ĠEF GD
gc GDB
gc EG
Ġ|"^ **"
gec g
ĠEG e
bf cC
ĠAD cD
Ġab ba
ĠBB fB
bd GDB
ab af
ĠABcd ec
ĠDB fB
Ġ{ =
Ġff gf
ĠEB BB
xb b
EFG x
AGD CF
ĠBF dF
ĠceA d
Ġaa ab
bb bc
cGF EC
dGE DA
ĠcE AG
acA B
Ġedcd ef
Ġddd g
ged A
ĠCF EG
ĠeBB g
ĠdDD f
bgf dB
Ġabg b
.. .
fxf xf
No t
dccB BAAG
GGFE FD
____ ____
pol ka
aest oso
cgfed ecx
rea k
jed er
! <(!
, )"
: ""^*"
> {^
A cC
A phr
B BAA
G dBG
a df
a xgx
b cAF
b xd
c BGDB
c cBc
d cAEA
f GECA
f be
s u
v ed
x BGD
x DDDD
x AAAA
,] "^
Ġe BAG
ĠG FFF
ĠG ged
Ġc zd
BG AF
ĠF ed
EB EBE
ĠE FBF
cA dc
Ġa ceg
BA a
AE EAA
AG g
GB FGB
fd dc
fd AFF
CF EC
cB ECG
ge GED
FE xE
Ġed cF
ĠC ECA
ĠC cc
DF xA
xC ECG
dc DD
ĠBd dG
EF c
eA CG
ĠBc ed
ĠBG ec
ga ec
bg cA
bg GG
fc BA
gB CA
fB x
ba eE
Ġga ed
ĠAd g
Bm ix
Dx CA
Ac g
ac FC
edc BG
ĠdBA g
fcA ECF
>^ ^
Ġab e
ĠAGE d
ĠdA e
afd DD
afd cAF
ĠBE GF
bd DG
xf FA
AGF ECA
be BF
Ġ!>! ^
ĠFF AF
]"^ /"
tr i
ĠDD ED
ABA GF
ĠEC EA
ĠGc BG
ĠcG ec
gBG FDB
Ġ||"^ \"
ĠADD C
ĠGd dB
ĠM f
Ace a
""_ ?"
Ġda ag
eeee ee
CEGE GF
xEE x
ĠegB e
DEFGAB cd
Ġtw ice
FEFDE FDE
ige r
gli ss
! {
A aa
A cdc
B cE
B dBE
E EDE
F cAF
F GEF
G ee
M B
a FDG
a cGECG
c EDC
c ond
d GFE
e xx
f BAE
g fdAFDA
l A
p er
w as
x dBG
x ac
x EDC
x GBd
,/ (
ĠA CEA
ĠA zB
DB d
DB xB
ĠB AFF
ĠB eBe
FD FG
Ġc ceg
CA CF
GE cGE
Ġf zd
Ġf ze
Ġg GGG
ĠF fed
ĠF EEE
ĠF AGA
Ġa cBc
dB ECB
dB FEDB
BA f
xx xc
fd fa
AA cd
GG xG
CF FFF
cB BAAG
ge EG
GF EDE
dA ECG
dA DE
cG CD
ĠAB cE
xE xFx
CE cCG
DF xB
eB FDG
DE GB
cC c
de cA
ĠcA AE
EF ECG
ecA GF
gd EB
CD EB
eG dG
,> .
bg GE
bg fdG
dd de
aA CC
fc EC
Ġce fd
ĠBcd cBA
ee eee
ĠT GF
ĠT ede
df bd
xc cB
xc cx
eBG CC
GEG BG
ecG ecG
Gx e
Ax AB
ĠeA ag
gc x
gc CA
Ac CGB
Ġ|"^ ->
Ġ|"^ ^"
ac k
gec BGC
fcA EA
Ġdd ec
ĠAA g
ĠAA df
Ġba ef
Ġba aa
fG FDB
Ġgb c
ĠDG FD
fa a
ab ga
be BB
ĠfA ef
,,,]| _
ĠFF FA
ĠFAA g
Ġfc fc
dcA FDA
Ġdfe a
bgd GDG
ĠAFF e
GxG AGC
ACG C
ged cG
24 4
19 9
Ġfede fd
DxD xDx
ĠgA ce
EGE GE
gecA GECA
ĠDGB D
afe B
Ġdgf edc
Ġbf fe
ve ly
ĠFAD f
Ġm o
ĠbB df
DDC CB
Ġp fig
ĠaB fB
ĠeEE g
ĠADA c
Ġeeg g
Ġcgc g
ebeae bega
ABBB BAA
xAcA ecAc
Ġpl ay
Re peat
Quadril le
CEcCG BCG
( {/
A cAG
B cAG
C FCB
S h
a DC
a FG
a GECG
c cde
c fx
c TB
c cdd
e af
e FDG
f ae
g DF
g bag
i st
r one
u dc
u efg
x GEC
x CFG
Ġ \"
Ġd FFF
ĠA ECA
Ġe aA
Ġe Bcd
Ġe bd
ĠG AFE
ĠG DAD
Ġc FFF
GE cG
BG e
ĠE gec
ĠE FCE
cA AF
ĠD DG
ĠD DGG
Ġa F
Ġa eA
Ġa ede
dB AFDG
BA DC
ec GED
GB F
EA GE
fd AFC
AA a
AA e
GEC GEG
ge cAD
ge BAE
GF d
EE EA
ar m
fe AGG
BB F
xA cd
af ef
af edA
ĠC DD
ĠC EEE
gf dBFD
BF dB
CE EC
CE FGF
DE Fx
de ge
de xg
dD CF
Ġdc f
ĠBd ag
EF EB
eA f
eA x
ce b
Ġcd fe
gG FCA
ĠGA e
bg FDB
fc c
ABc BA
Ġce AF
ĠAc dB
Bc BAG
Ġeg dG
Ġeg gb
ba eA
Ġgfe A
Ġga ec
fg ed
Ac a
ac FA
gec GD
gec EG
gec GA
ad b
Ġba bf
>"^ [
ĠGG BA
fG FD
ĠBB cA
Ġcc BG
afd cF
Ġgd ba
gdBG FD
ĠeB g
def f
." !
ĠDGG g
]"^ +"
ĠGEE f
afc CF
Ġad ab
ĠEB ed
ĠEE GG
Ġgc gb
ĠFd dF
ĠcAB e
ĠGd dG
eBA D
al t
Ġm ajor
efd e
aed D
ro ll
ĠdDD E
]> [^
xEE FG
fedB AFDD
xff x
DCDC DCDC
xDFD ECA
Min ore
Larg o
gega eg
ĠAfG e
# #
' !
< "
A ac
B ar
B ex
F cAc
G ef
M c
T FD
a de
a BFD
a AECF
b m
c t
c efg
d cGECG
f GCG
f BGA
f xdx
i er
x ECG
x GFG
x EEEE
~ ~"
,, )
'/ ^
,] )
Ġd zA
Ġd zG
Ġe Gc
se t
se hr
Ġg cd
Ġg dA
Ġg cde
ĠF dBG
ĠF dBF
DA DB
cA FDG
ĠD GEG
Ġa ABc
Ġa afa
dB a
dB cA
FDB F
ec FDA
AE AG
Ġ:| !
DG FE
GB df
EA ee
FA de
DD GE
Ġb G
Ġb z
FF GA
ĠAB dc
BF GF
GA AG
xD xF
dc FDG
dBG DCG
EF EDE
EF dEF
ĠBA a
ĠBG gf
ga ed
CD EE
Ġcd dG
Ġge tragen
gG c
gG FD
dd ec
ĠFD cA
Ġaf ce
Ġaf fc
Ġ|{ _
ĠAc DF
Bc cc
xxxx C
ae BAE
bB e
Ġedc f
ĠFE GE
gc g
gc GEB
Ac ecA
ĠBAB g
gec GB
ad ED
cBA GB
Ġba bd
eF EB
bf DF
Ad agio
xf gf
AGF ECB
be GE
ĠeB dc
gfe dB
Ġ!>! =
aec GC
Ġged d
GAB cde
ĠGFED EF
ĠEC CG
agf a
ĠBF FA
cAFD CF
Ġfc cB
ĠAcBA GF
ĠCD FA
cFC E
ĠcG cG
ĠaA g
gBG A
fcF CG
CDE FE
ĠAa aA
eAF ECA
bfdB A
ĠBD FB
Ġbe gf
ĠGBB g
ĠCC CE
eBF EB
DFB x
us ic
Ġs train
Ġagfg af
AAAA x
FECF ECFE
ĠCG G
FGE x
xCE x
xgx fe
he tto
ĠEee g
gdBF CG
gxg xg
ĠGBE e
xcxc xcxc
Sc otch
rAP hlich
ru h
! "^
" "^(
A edc
D o
D dd
F FEF
G gf
M g
a bf
a cAG
a dAFDD
b edG
d cAFE
e AECE
e AGECA
f xB
f FDC
g fdAD
r ed
u AG
x fc
x bf
x GGGG
ĠA AE
ĠA eAe
ĠB GEE
ĠG FB
Ġc cG
Ġc BF
Ġc bge
Ġc AEG
Ġc DAD
Ġf cdc
Ġg gec
AF EDCB
BG FCG
ĠF BAG
EB x
ĠE gE
ĠE EDE
ĠE FFF
cA g
ĠD dFd
Ġa S
Ġa agf
Ġa za
dB AGF
CG cB
BA g
BA xG
ec DD
AE GA
Ġ:| "_
AG d
GB cd
EA C
AA cc
AA AGA
AB dA
cB xA
cB fB
ge cAEC
FE c
ar d
DC CA
xA de
af b
af AFE
ĠC BA
ĠC oda
gf cGC
gf cAGG
CE GEG
cAF x
GA f
GA cd
Ġef ag
dc xB
xF FE
xF xFx
dBG Bd
dBG FED
gd CG
gd FG
ĠBAG ABc
Ġce EG
fB DF
df af
ĠGF AG
BAG c
ACA CGCGC
Bd fd
Ac eB
ad DB
ĠEG GD
cBA x
Ġded F
ĠAD AF
ĠBB ed
ĠDG dG
DEF EB
ĠBGE c
eBGE DG
AGE FCA
,,,, ,-|[
bc b
Ġv ariation
aecA ED
ĠFB fe
ĠAAA a
ĠBg dc
aeA CA
Ġaa ba
bgd GG
ĠGD ED
ĠcE AE
CEA x
li vely
Ġbd bd
ĠGd dc
FGF ED
Fc ecF
Ġgagf ed
ĠP fe
AxA xAx
DxD E
ĠDd dA
beB EF
ĠaAA d
BxB xBxB
aed AE
ue t
ĠCG P
CEGE cGE
GFGF GF
CDEFG ABc
Ġon ce
cxcxc xcx
und otted
DBFB DBFB
arm ony
' -|=
, !
B cAB
C FCE
E GEE
F dBF
a ED
a FDD
a xb
b CC
b fg
b FDG
c cGA
d gc
d ECF
e xG
e ad
f GECG
f GFG
f rAPhlich
g DCA
g GCE
l ef
r a
s chnell
x df
x be
x EGc
Ġ -"
,/ "
'/ ).
ĠA eg
ĠB DDE
GE GED
Ġf ABc
Ġg AB
ĠF GD
ĠE EBE
DA xDF
cA ec
cA xc
ĠD cd
ĠD ECE
ĠD dcA
dB CG
BA EDA
ec BB
ed AED
ed BGA
GB eBG
GB dx
ED EG
EA xB
fd cAFD
AA AF
AA cA
AB cdc
CF FF
cB EDA
cB GEA
ge CB
ge GECC
ge dBB
ge gx
GF GE
EE EC
ef edc
FE xA
fe BFB
CC DxDD
cG d
ĠC EGA
GA cA
GA BAG
xD xA
xC Dx
"^ _"
cE AE
cE Fc
ecA EDCA
ĠBG AA
gd edc
gd GEA
dF ECF
eG FA
Ġdef A
aA CE
fc x
fA dA
Ġce gece
Ġfa ae
ĠBcd efg
ĠFG d
ae EC
ĠT cAA
ĠdcB B
xc xcx
xc xExCx
ĠAd a
ĠAd FD
ĠAd gf
cc cA
Ġea cA
Ex AE
Bd dB
ac CF
edc GEC
Bcd cB
gec ECA
eg fd
ad cB
ĠAA dA
cBA D
cBA ECA
fcAF CG
geB EA
bd GDG
ĠdG AG
dcB FDB
ĠBAF d
bge g
xg b
dBA GDB
ĠFF FE
dFB F
ĠDEG c
ĠEC CF
fga c
ĠGc ed
ĠBF BA
DDD xB
ea ed
dcA FDC
Ġaa ef
ĠcF FE
Ġ:|"^ \"
CEA ECA
ged E
ĠM C
fBG FDB
ĠP D
afe D
DAD GD
Ġbf bf
ĠgG GB
Ġgba c
cGB c
bgf F
/"^ ="
xDD DxCC
GxA xB
xExE xExE
et was
xEC EDEB
Ġth ro
aint ively
EEEx CCCx
ow n
bbg gffe
ĠEBG e
ĠcaA c
tri plet
ruh ig
' -][_
2 75
A AFA
B eBG
E FDF
M ABc
T b
T ime
] )(
a EF
a AECE
a dBGDG
b CE
c fd
c fA
d AGEC
e xcx
f GEDB
f GFE
f BFDF
f BGFD
f AFDCD
g xx
g ce
g gc
g FCB
g AFB
g xfx
x EDE
x FEF
x DGB
x ggg
Ġ 5
Ġ one
'/ =
Ġd DF
Ġd bgd
Ġd zg
ĠA AFF
ĠA aea
ĠB aB
ĠB DFA
Ġe EEG
ĠG DDD
Ġc GB
GE FE
Ġf irst
BG CD
BG FED
BG FEG
ĠF fd
ĠE DGB
ĠE DGA
ĠE dEd
cA dB
ĠD dBG
dB AFF
CG CFC
ec dc
ec BGEB
ec GECB
ed cC
ed EDA
AG FEG
fd ECA
fd gf
ge GCG
DD FA
DD EFE
ef dB
Ġb ae
Ġb BdB
EG Ac
fe BA
fe BGEB
CC CA
cG ec
DC DB
FF GG
xG d
xG BG
FG e
af AE
af dBAF
xE c
ĠC EEF
dc cc
ĠdB eg
Ġgf fd
EF d
ecA GG
ecA CC
Ġ|: "_
ga A
dF dF
ĠcBA GF
ĠcBA GFG
Ġdf bg
cAE DB
bg EE
dd xd
ĠAF dc
aA ECG
aA CB
fc ECA
fc EA
fc ef
Ġag dB
gB EG
Ġce BA
ae AB
ĠT FEF
df ec
ĠdcB g
ĠAGF d
ĠAFD G
ĠGAB E
ĠFE AE
Bcd efg
fcA FDA
Ġagf ed
ĠFED D
Bx b
bf DG
"_ ?"
cx a
gA e
ĠAD d
ĠBE AE
Ġgd cd
GFD CD
Ġ!>! .
ĠDB BD
ĠDB Fd
cde a
Ġfef b
bge cA
Ġcdef ge
Ġfdd b
BGEC D
." "_
ĠfA BA
fx b
fx gg
Ġgg ed
aecA D
ABA E
Ġad ed
bag b
ĠEE FG
"{ /^
ecB EA
ecB ECB
edB C
>( =
ĠAf fd
gBG DD
bgd GB
Ġabag fe
GAG FC
CDE x
ĠeG cG
CEG ce
ĠBBB e
ĠBD d
DFB d
EGB GEGBG
EEEE G
fcB FCB
Ġda ad
ĠfdA a
fdcA FDC
ĠFEE d
ĠBdA g
DEA C
ĠeE EA
"^+" [
ExC xExCx
FDFD FDFD
dxAB dxAB
# ?"
A ee
B fc
E FDB
E ec
F BG
M F
P AR
S ign
T FEF
a GEA
a ver
b FA
b eBEB
d gfg
d GDCG
d xBx
d xex
e FDD
e GDE
e gdgadg
f GCA
f Te
g BGEE
n s
n edited
o p
t ed
u FG
x GEB
x cdeg
x FEx
x baa
z C
Ġ le
EC CC
Ġd DGB
ĠA DGF
DB c
ĠB DEF
ĠB GDE
Ġe S
Ġe gae
ĠG DA
ĠG de
ĠG eg
ĠG DDE
Ġc GEF
GE GECGEG
Ġg BGB
Ġg bf
AF EDE
ĠF df
ĠF ECD
ĠF ast
ĠE ABd
cA GEE
ĠD S
Ġa dfg
CG ECG
ec GDCG
AE FG
ed AFD
ed cAFE
DG FG
AG BA
AG AGA
GB cB
EA D
AB D
AB ce
ge BGEE
ge BGEC
ge AGECA
DD xD
FE GF
,,-] |_
fe ee
CC GE
BB BAB
cG ecGE
FF f
FF xF
xG C
xG GB
CE AG
eB ECG
Ġfd ga
xC FC
ĠdB a
ĠdB FA
BGE DF
dBG ECG
dBG edBGc
Ġdc ce
eA GD
ĠBc eB
gd FB
CD DB
Ġec eB
bg CA
bg af
ĠAF GB
ĠAF df
AEA c
fc DA
gB AFCA
Ġaf Ted
Ġfa ac
Ġfa dg
xxxx F
ae EB
ĠT dB
ĠT BAF
xc cBAA
GEG c
cc f
Gx GB
GED GD
gc GDC
ĠdcBA B
ad GD
ĠED EA
Ġba ss
xe bgx
ĠFED c
bf BE
ĠDF GF
BEB EBEBE
gA DD
Ġab d
cAG FCA
bd CA
ĠdG dG
ĠDB FD
aec GA
ĠGFG c
ĠEFG e
GDD GEGE
ĠdBd b
." "
ĠAce e
ĠfA a
ĠfA g
Ġae ab
ĠDED F
Ġgg gd
aecA B
ABA D
ĠdAF d
Ġad af
Ġdfed cB
ĠEB d
ĠGFGA BG
ĠBF cF
Ġcf fc
ĠCE EC
cAFD CB
DDD xD
edB AE
edB GEB
edB GED
ĠBAA a
dAG B
dGE DC
CDE GG
ĠAFF f
CEA cAEC
eAE G
it ion
cEB E
DFB B
ĠdGG e
ĠEDD e
dGDG dG
Ġgdd f
beB EA
ĠgG gG
ic ht
ĠBGA d
ĠFEE G
ĠFEE e
"^*" =
dxd xdxd
DGD x
bgf c
ĠFBB d
FEE FC
pl ay
dfd gdfd
ĠDFF G
EAE AEAEA
ĠeE dE
dBc edBGc
Brisk ly
CGC FB
ffe e
FEFG AGFA
)"_ >"
xFxF xFxF
fbf b
rest o
ver se
Larg hetto
xddBd dB
DDGE GEDG
GEGED GDG
PAR T
- .
A S
A ae
A xBx
B ceg
B TB
C BA
C cGEeGfG
D FGA
D dx
D GDE
E EDD
F cG
G AFG
H m
T h
a cAFCA
b ED
b ecC
c gx
d aA
e efg
e edd
f gef
g AB
g BAG
g BAEA
m o
s i
t uoso
u DEF
x gfg
Ġ N
Ġ st
,, ,,-|
'/ .
ĠA n
ĠB bB
ĠB EDE
Ġe eff
ĠG FFG
se d
Ġf BA
Ġf bg
Ġg dG
BG BGB
ĠF ECA
ĠF ecA
ĠF cBA
EB d
ĠE EA
DA DAD
cA GECC
ĠD ef
ĠD gf
Ġa t
dB CB
BA Bx
ec EDB
ec eg
FCA F
ed GB
AG FEB
GB f
ED d
fd DG
fd DC
fd BGFD
GG C
GG e
AB dc
CF GA
cB BB
ge DB
ge dBF
ge ADA
EE GE
EE DA
Ġb bag
EG cGE
dA BA
cG FCB
Ġed a
xA dfx
Ġ:: "^(
ĠAB ge
af ECA
af BA
Ġef fa
xD xB
xC xE
dc gc
DE AG
ag ae
de ed
Ġdc fe
cF dF
ĠAG d
ĠAG GD
ce dB
ĠGB DE
cAE c
ĠGA dA
Ġfg b
Ġfg dc
fc DF
gB EA
Ġaf cB
Ġce ba
ĠedB a
dAF CG
dAF EDCA
Ġ! >(!
ĠAGF ED
BGEB GEBG
cc ec
Ex DB
Ax AG
ĠeA g
Ac ef
xe xc
ĠGG g
ĠGG AF
bf BGE
ĠDF GB
FED x
fG FB
gA GD
Ġcc a
fa fdA
bd b
bd g
ĠGABc dB
be GEB
bG d
GDD GE
Ġ"^ *
dFD E
ĠgB df
ĠEC CC
bag c
ĠEB e
ĠEE FF
ĠFGAB cA
agf c
Ġfgf edc
edB DB
/)( {
ĠAE GF
bgd GD
ĠGGG d
24 5
eBA FD
ĠM BAF
Gd gd
ĠCA B
ĠCA G
Ġ|"_ =
bdB DG
DFB df
GCD GDB
fec FA
il e
ĠcGE c
""_ (
Ġbf ae
ĠgG BG
BBBB BB
ĠfAA e
FxF xFx
DGD GDDGE
gfc fg
ĠcEE c
ĠEGA d
FGAB cBAF
cAGF EC
FGB c
xgx gg
FxE Fx
cr s
ĠECA G
ĠBEB A
ĠBEB c
bfe BB
th er
ĠAz F
dBdB cBfB
ĠFAE c
Ġeec c
xABc ecBA
ĠI I
Ġse e
Play fully
FFAA cc
Gr acefully
GAGAG AGE
B dF
B geB
C H
E eB
E eE
F xBx
G ec
G dA
O R
R o
S E
V AR
a AFCF
a AFDD
c xdx
e bd
e GECE
e st
e ede
f FCE
g gB
g cBE
v de
x BAB
x BAE
Ġ 9
,, ,,,-]|[^
,, ,,,-]|
Ġd GE
Ġd Ec
Ġd aga
ĠA EB
ĠA CFA
ĠA DAB
DB GD
DB xGE
Ġe bb
ĠG ddd
Ġc fdf
Ġc FAd
Ġc FAB
Ġc ze
CA FC
GE xD
GE edB
Ġg fdA
Ġg gdg
Ġg BbB
Ġg eAc
AF AD
ĠF BG
ĠF def
ĠE FDA
ĠE edB
DA GDB
cA Ac
ĠD dA
Ġa ddd
Ġa Ae
dB CF
CG e
ec GDB
ed GDG
ed ee
GB D
ED EDG
fd cAG
AA D
cB EDC
ge AD
GF xG
GF ECC
DD c
ef B
EG dc
dA f
dA GED
cG AB
Ġed eA
Ġed ad
xA e
xA xB
ĠAB BG
ĠAB FE
af FDA
xB xBx
ĠC DA
ĠC ccB
gf dBB
eB FCA
DE c
DE GDE
ĠdB ef
dBG d
dBG ECA
de b
/) =
ĠcA cc
ĠBA fg
CD CC
Ġcd eB
Ġec bg
ĠFA DD
ĠFA dd
cAE cA
ĠdBG e
fc cc
gB CB
fA DG
Ġce agec
ĠAc GF
ĠAc ac
Ġeg ca
ae BF
ae BAEB
ĠT ge
bB EE
xc BG
Ġgfe e
ĠAGF EDC
ECC DE
ĠDE FGA
fdB AFDA
fdB afd
Ġea da
GDA D
xd ef
Cx EGFA
ac g
ac GDF
Ġagf c
eF dF
ĠBGB g
ĠBe ga
Ġgb ec
ĠBB eB
ĠfdB B
ĠdG c
/> )
ĠDB d
,,,- |[=
aec GECG
aec AFECF
gx ax
ABA GA
ĠEC EE
]/ [^
ĠFB de
Ġbge a
ĠDA AF
ĠDA AB
ĠdF cA
cCG c
geG CC
ĠAE AE
ĠAE GB
ded G
/{ ^
ĠeG e
ĠeG eG
CEG x
ĠAe ec
eBA DB
FGF F
ĠP cB
dGG F
bdB C
DFB f
geBG ECB
fef cfefc
ĠFDA c
gcA GF
ĠEe eB
Ġda ce
ĠdDD e
eBe bGd
Ġadd f
bgeB EA
"^/ @
ĠgBB c
ExD CB
BxA xG
!>! .
CCE EDC
GdB dG
ĠFdB g
ir d
xef bx
Ġaaf f
Ġaag g
gfdBG FDG
FxFxF xFx
Pi zz
.... ....
Fce FcecF
ist in
AceB dedB
Ġthro ugh
eBebGd bA
' -|^
A ef
A dAF
B eBe
D GEE
D EDD
E f
E cc
E GFG
E GGG
E EDCB
F GGF
G gGgG
] \
] {/
a BFB
b DE
b GDA
c af
c ecG
d xF
f t
f AFDC
f BFDD
g DE
g AGEC
g BAD
x DDE
Ġ 7
Ġ he
,, ,,,[
'/ )(
Ġd S
Ġd FE
Ġd FEF
Ġd bab
ĠA BGD
DB AG
ĠB GDF
ĠB zG
Ġe EED
ĠG BFD
ĠG bag
Ġc lef
CA x
Ġf AF
Ġf fA
Ġf cdA
Ġg GFG
,,] "^
ĠE AEA
ĠE eBe
DA EA
cA xA
cA GEF
ĠD DC
Ġa dB
Ġa ac
Ġa afd
dB CE
BA AB
BA ECF
xx b
FDB FDF
ec a
AE FA
ed xc
DG dGDGdG
GEB GEB
fd de
fd GFD
AA Ax
FA dA
Ġz u
AB dB
CF CG
CF AG
cB g
EE EB
EE FF
DD CA
Ġb fg
Ġb Bd
Ġb geB
Ġb fff
ar e
EG cd
EG cGEG
EG CEG
cG AF
DC DF
DC DCD
FF GAG
ĠAB g
FG BA
af AFDB
xE xD
ĠC cBd
gf dBF
DF AG
Ġef B
Ġef cf
xD d
xC xF
dc ec
dc GEG
xF xG
ĠdB bg
ag cG
Ġgf gA
ĠcA dF
ĠBd ba
eA GEB
Ġ. "
ĠAG AA
ĠAG ef
gd AB
CD EDC
Ġdf ca
eG FDB
bg FD
bg edc
bg dBGG
dd dB
fc EB
Ġag ga
fA GE
ĠFD dF
Ġaf ad
fB g
fB FCF
bB FCA
BAG AB
ba bg
Ġgfe b
Ġga fe
cc g
Gx DG
Dx d
Ġgfed ef
gc BA
Ac fc
EDA DE
Bcd G
Bcd d
Bcd ec
gec BECB
ĠdBA e
ĠDF FB
ĠDF dc
Ab m
FED Ex
Ad cd
afd cC
bd GG
ĠeB eB
aE g
def ed
ĠfA af
Ġae ag
fx a
gx b
]"^ \"
Ġad dc
ĠEC FD
ĠEB Bc
xb xb
Ġgc ed
Ġbge b
ĠDA d
ĠdF FE
edB GEE
Ġcdc e
/)( ^
cFD CG
cBG FDB
bb x
ĠBEE f
ĠcF d
ĠcF cA
ĠcF ed
CEA B
CEA CE
ĠBBB g
cGG FF
Ġcded cB
fBG ECB
fBG FDG
Fc dB
EBE AE
Ġaec d
Te mpo
ĠBde a
ĠAg gf
Ġced g
Ġm ark
ĠaAA e
BxB cB
dcAF G
ĠcBB d
ĠcBB e
ĠEEE G
ĠBdG g
Ġadd a
ĠFf fe
Ag AF
ĠcBG c
DFDB FDF
ĠS o
ĠS train
le m
bec BC
ĠcFF f
Ġdffe e
ABcA BF
ĠCc cd
Ġacc a
ĠGEB A
xFxF xF
CGE GCGEG
ECEC EF
nat ur
ĠBfd b
FFFFF FBB
ExExE xEx
ĠECG C
ECcd ECcd
edec fefc
TR IO
fAdf afdA
ct ave
! .
2 90
3 40
: \""
A ex
B ff
B cAGE
C DDC
D cG
E xCx
F AGFE
F inal
G dx
G gg
G gx
M S
M DEF
M aestoso
O nly
S ong
a xx
a CD
a GCA
a edc
a dAFDA
b GA
b dAF
b xbx
c EDF
d cAC
d uc
d Td
e FCB
e ll
f CD
f ece
f ro
g CD
g ECF
i f
r uf
w eg
x eB
x bg
x ae
Ġ V
Ġ tr
,, ,,=
'/ "
Ġd fF
ĠA efe
ĠB ED
ĠB eE
ĠB eG
ĠB fff
ĠB zd
Ġe GFE
Ġe EBE
Ġe Ee
Ġe zf
Ġe zg
ĠG cGc
Ġc FEF
Ġc Dc
Ġc cee
Ġf fgg
Ġg bB
BG GE
ĠF zF
ĠE ef
ĠE ccc
ĠE cAc
ĠD EEE
Ġa ad
Ġa cBA
dB fB
dB edc
dB FCB
dB AFE
dB AFG
ec CB
ec BEB
AE xE
ED FB
ED EEE
fd cBA
fd AED
fd AEDA
AB cdef
CF ED
cB DB
ge FA
ge af
ge cACA
EE xEE
FE xD
Ġb BBc
fe AG
fe AGE
dA CG
FF Fx
FF GAB
Ġed ee
Ġ:: {/
af CG
af FA
af ADD
ĠC f
ĠC ce
gf DB
gf ecGC
CE xC
CE cGecGE
xC CB
dc DA
dc BGF
xF xD
DE EB
ĠdB ga
ĠdB bf
dG eG
Ġdc F
AC EA
ĠcA cB
ĠcA ge
ecA DA
BD x
ce ec
Bb f
bg BA
dd df
aA GDG
fc FDA
gB DA
gB dg
ĠAc ag
Bc xE
xxxx E
fB df
xc BAG
Gx FE
xd ed
Ġefg c
gc EE
Bd cA
Bd ef
Ġ|"^ \
eg be
ad FA
ĠEG BA
ĠAA dB
Ġba ab
ĠAFA g
xe ed
bf ec
Ġded f
BEB EDADE
cx g
Ad a
Ġab eg
ĠcBAG AB
Ġcc gc
ĠBE AG
gg b
AEB A
AEB AE
bd ad
ex dc
GFD CF
be EE
dcB x
dcB GE
gfe e
ĠDB BG
aec FF
ĠEFG ABc
ĠGAG B
ĠFF d
aecA CA
ABA A
BAF ED
gb af
EDE EDEEE
ĠCE EA
BBB BA
ĠDA AA
ĠDA de
gdG FB
EEE ED
ĠBg de
ĠBg Ac
cEG c
DFA D
bfd C
ĠcE GB
ĠcE eE
GAG G
GAG FG
Ġ:|"^ *"
Ġfec a
ĠAa ef
aAF G
lo d
eBA GD
ĠM F
Ġcded ef
ĠdD dD
Ġaec f
age cAGE
DFB D
aAC D
ĠEDD c
ĠCF FG
fcB FF
al ly
an ce
an imated
DDDD DD
CFA cC
ĠfcA d
BGBG BGBG
ĠAag b
Ġo ut
GxB c
ĠGBE c
xExE xE
Ġgcc g
GDGD GDGD
un g
bega ec
ecec dcgc
xaxa xax
ternat ive
AAAAAA dd
Ġtw o
Ġschnell er
gem A
ument al
cBBAAG GF
Sh ake
alt z
' -]|[=
' -|[^
A rr
B ag
C xEx
D cF
D ECD
D olce
E dE
E cBA
E GDDGEGE
F xxE
F irst
G cE
G df
G xcx
M AG
P ol
T AGE
] }
a CB
a cAFF
a geG
b y
b cD
b bd
b dBGD
e GDC
e ve
f GDA
f GEA
g r
g dAFD
i fe
i an
o s
p rimo
s uggestion
t he
u BA
v ariant
x dG
x gfe
x AFG
x FAd
Ġ y
,, ,,-=
EC CE
Ġd FGA
Ġd EBc
ĠA DAG
ĠA fca
DB x
ĠB cAE
Ġc FG
GE GEB
AF e
AF GE
AF AB
BG g
ĠF fF
ĠF zA
ĠE FB
ĠE eE
DA C
cA DCB
ĠD DGA
Ġa cd
BA GEE
BA Bcd
BA GEDB
ec GAc
GB BG
ED DC
ED Cx
EA cd
AA AE
AB xB
CF GF
cB f
cB AFDB
ge dBD
GF FF
cd Ac
cd cBc
EE FC
DD FB
DD DF
ef D
fe BGF
FF d
Ġed da
xA xAx
af BD
BF d
BF ECG
CE GG
GA C
ĠdB TAG
'' -]|[
'' |(
dBG ECC
de ec
de gf
dG GB
cE EB
ĠBd b
EF xA
ecA ecA
eA ec
ga ily
ĠAG dB
gd d
dF AF
fF ECA
bg GD
bg BGEB
bg BGDG
bg bx
AEA CC
fc GEC
fc fa
AFA d
ĠAc g
ĠFG FA
ae BAED
bB EG
ĠdcB F
BAG FCA
xc fc
xc xex
ba bd
eBG FDB
ĠDE FF
ecG CB
cc a
xd xc
ĠeA dB
Ġedc g
gc EA
Ac fg
Ac cAG
ac CC
gec BA
gec BGE
ĠEG ed
cBA e
ĠFED d
bf BGD
ĠBGG a
"_ \\"
ĠBGB B
ECF EC
Ad fd
ĠAD DG
ĠdA GE
ff fx
fcAF ECF
afd CA
fa ge
ĠEA e
eBGE DE
AGF ECE
be r
ĠeB f
fed D
def x
bge EE
Ġv ed
Ġv dc
gfg b
dg bd
GAB cA
dBA ECG
ĠDD DB
AEE AE
AEE AEACC
ĠEB BG
ĠEB gB
agf cC
gb b
ĠCE AF
cAFD E
ĠdF GE
Ġcdc c
ĠDEFG AB
ĠDC DC
aeA CC
ĠcAc a
FFF FE
dGE F
bfd E
ĠcE cE
ĠAdf b
>. ^
ĠAa fe
eAF G
re ad
faf a
Ġecc b
age cAGEC
edA cB
DED Ex
Ġfb ec
ĠTd cde
Ġgee b
fdf ef
ĠdAA g
/( ^
Ġdb ba
cFB F
Ġt lich
ĠfAA B
Ġggg b
)} ^
Ġafaf af
ĠfG fG
EAE AEEAE
xEE G
ExD xC
GAF AEA
le ar
Ġbgd b
Ġ(!>! !
ul d
AFAF AFAF
ccd cc
Ġse cond
Ġfgd f
Ġddf f
xad ae
gcgc gc
xGD GDG
ĠR o
ĠbBb a
dAeAdA f
Bfc fA
CCGE GECG
GEDGD GDD
DGEE AEAE
' -|[=
3 9
> {/
A ll
A fdAfdA
B gg
D GDF
D dAGgAfA
F dBB
F ca
G i
G GEG
M dB
M ed
P resto
T o
T BAG
b AFDA
b afF
c ff
c eAe
c und
d fA
d EDCA
d cGA
d otted
e ADF
f gB
f EDA
f GFF
g BFD
g AFDA
u gf
x cGC
x bag
x ede
x gfge
Ġ Version
'/ >
-] /
Ġd GFE
ĠA ged
ĠA aAa
DB f
ĠB BE
Ġe n
Ġe EF
ĠG GFF
FD xC
Ġc afc
Ġc fff
Ġc zB
se cund
GE dBG
Ġf lat
Ġf fdd
Ġg Aa
AF FE
BG GG
ĠF CFA
ĠF dDd
ĠE b
ĠE fed
ĠE EDC
ĠD dF
ĠD DBD
dB CC
dB bx
BA EDG
BA feB
FC FB
ec FCF
AE AB
AE xFx
ed BGEC
AG FDCA
ED GE
fd cAFCF
FA DF
FA dc
AB df
cB cde
cB FDCB
ge DD
cd eG
DD CDCB
ef xB
ef ede
EG AB
fe AA
CC EC
BB f
xA AG
ĠAB D
ĠAB DE
af ADA
xE xG
xB E
xB eBd
ĠC ef
at o
DF AA
DF xDFB
eB ECA
eB CE
eB AFDB
eB AFB
xD dA
xC CA
DE FDE
Ġ|] "_
ag dA
ag cC
ag cE
Ġgf fg
"^ .."
dG dB
AC FD
ĠBA g
BD CG
BD CC
ĠcB BG
ĠBc ce
ĠAG ed
CD EDCG
gG FDD
ĠGA eA
bg EC
bg dBF
dd dx
aA aa
fc GB
Ġfa dc
xxxx A
fB EB
fB cdf
ae x
ae CC
ae ECF
ee xe
ĠT ue
ĠT AGAB
ĠT edef
bB fd
bB CC
ĠGF EE
dAF ECA
BAG FA
Ġga bf
ĠAd af
ĠDE cE
ecG efcAc
dE GBd
Ġea ba
Ex FG
ĠGAB cd
GCA CGCFC
BGDG BG
ĠeA BG
ĠeA af
Ġdcd ed
ĠFE EB
gc EB
gc ec
fdA EB
EDA DED
ac f
Bcd fBcdf
gec efcAc
BGB EGBG
FGA d
cBA EB
xe a
ĠFED f
ĠGG cG
eF ECA
eF ED
Bx ABBB
bf BFD
Ġab b
Ġgb fd
ĠDG cG
afd cDD
cAEA cAEA
gg ggg
Ġgd fc
ĠdG cB
xf xe
gfe B
ĠDB CA
aa gf
ĠEFG d
xg bd
Ġ"^ ="
Ġu nd
Ġefed cB
ĠEAA e
BAF EB
afc FA
fga bc
ĠGc ce
ĠEE FE
ĠFAA D
ĠFAA a
EFG dxG
Ġac g
Ġac ua
eGE F
ea s
ĠDA cA
ĠDA dA
ĠAAA f
ĠAAA g
dcA GF
dcA FDD
edB AGFEDB
dDA ca
BcB B
BcB d
cBG d
cBG CC
ĠcG eG
fAF ECA
bgd F
Ġaba c
Ġ||"^ **"
DFA df
Ġgbag fe
ĠeG fG
eGC D
Ġca po
ĠGe ed
Ġ|]: {
24 2
eBA FDA
faf b
FGF GA
ĠP AG
GdG gfed
ADG DADGD
ĠCC D
DFD FD
ĠCF FE
fef a
ĠFDA B
beB CG
adA C
ve uf
Ġeee a
ĠFEE c
ĠdDD d
/- )
bgf D
dddd dc
ĠFBB F
GFED EF
ĠCEG e
22 6
ĠBGD c
Dc cB
agec BGEB
Bbm in
ĠGce a
Ġegd b
xFA cAFx
CECA ECE
ĠECC c
bfc BAB
xEB e
bfe BE
fdcB FE
DAG AGA
Ġgcc a
ffe ed
cdcd cdcd
cAcA cB
gggg gggg
ĠDAF d
ecBF EC
ĠGz D
,,,,,- |=
cccB dGGF
cccB dGGB
So urce
Fcf cF
ĠH ornpipe
Min uet
AABA GFG
DEFB xB
ĠfBb g
DEEDE EDE
Cheer ful
EEEEB BBB
DEFEB FEF
natur al
cEEB EEAE
ecAecA eA
secund o
EDADED dD
BxABBB xB
) "^*"
- <
A dF
A eg
A xcx
B phr
B reak
C ECF
F xAx
H ornpipe
S S
T r
U S
a cc
a po
a Tg
b Bb
b dd
b FDC
b bag
b dBGDG
b dAFB
b afD
b eBGC
c z
d ECE
d gdBG
e aga
f EDG
f FCC
g ACA
g FCG
g cACA
u FE
u ded
w o
x AFE
x ab
x efe
x aaa
x cdf
x FFG
x eBx
| \
Ġ 0
,] -
EC GE
Ġd cEF
ĠA AEA
ĠA acA
ĠA ede
ĠA lleg
ĠA zG
ĠB ac
ĠB FAd
Ġe C
Ġe eA
Ġe dAd
ĠG df
Ġc EB
Ġc cAG
Ġc fdc
Ġc GGF
Ġc cBd
GE GG
Ġf eA
Ġf cAB
Ġg cB
Ġg gc
Ġg ccc
Ġg zf
,,, <_
BG cB
ĠF BGB
cA dA
cA GCG
ĠD ga
ĠD FCE
ĠD CCD
Ġa cB
Ġa aea
ECA E
dB BG
dB BB
dB ADA
BA xB
FC DG
ec cc
ed cAEA
DG xA
AG FDD
AG FEF
ED EC
FB xB
AB cAB
GEC EG
cB AFC
GF GFG
cd ede
EE eE
DD DEF
EG e
EG BA
CC xCx
BB xB
BB Bd
BB Bx
BB eeee
DC xA
FF FEF
Ġed S
xG xFx
af BB
xB de
xB cxB
ĠC g
ĠC GE
gf ag
gf ADA
Ġfd TcA
xD xC
dc FB
xF AA
Ġgf ff
AECA E
cE x
cE cE
ĠBA f
ĠcB cc
ĠBc f
ga bd
ĠGB ag
gd GEDB
Ġcd de
Ġcd fc
Bb a
Ġfed a
Ġfed efg
fF ECG
Ġdf cB
Ġdf bd
bg EG
bg BGG
aA c
fc g
fc CC
fc fcA
gB ECB
fA EB
Ġce GB
ĠAc ecAc
fB FA
ĠT dcd
df ef
ĠGF FD
Ġga be
eBG CG
cc cx
dE e
fdB FDF
fdB AFDB
ĠGE dB
Ex DC
ĠGAB cde
Ax cAx
ĠeA ae
ĠFE DG
Fx FFF
Bcd ed
Bcd cBA
gec BAEA
xxx f
ĠABA D
ad AG
ad cd
ĠED GE
fcA DF
ĠEG ef
cBA Bc
ĠdA eg
GFE FCD
Ġgd ge
AEB AEBAE
ĠEA dc
xf xB
GFD CE
be ECB
gdBG C
,,,- |[^
aec e
Ġv dB
Ġv AB
Ġv cd
cEA c
Ġae gf
ecGC E
Ġece e
ĠfB e
ĠBcB E
ĠBcB d
ĠDD FF
BAF ECA
Gc g
eGE DC
Ġcf AB
Ġfc ef
Ġfc ce
ĠDA GF
cf ef
cFD E
32 5
ĠdBcA BG
dBGE DA
ĠAGG e
FEF AF
ĠeG dc
ĠAe ge
dcd f
ĠBBB a
lo t
CCC CB
Ġfafd ec
cAGE DA
Gd bgA
ĠEGB g
ĠEc ce
CEC x
bfB ECA
fec f
xxxxxx d
ĠFGF EDC
AcA cA
ExE xEx
ĠEe ge
ĠgG eGcG
ĠAde a
dcBA c
aed AEDA
no t
cccc cB
ĠCEG ceg
fedc BA
Ġecd F
dfd fd
23 1
23 4
23 6
ĠgBB d
aeB C
ĠDFF d
CEGE cE
ĠBa ae
le s
ĠBEB e
gecB CC
bfe BF
Ġsig nat
vA uc
vA uB
Ġspirit o
cBcB cB
vd ue
as s
EFC xEFGF
BeB ef
Ġgge e
Aec eA
ver y
DADA DADA
DxDxD xDx
EGce EGce
Al t
BBAG xGA
PMTCOM D
xCEC EF
dddddd FF
CAEA CAEA
FAcx GBdx
Ġplay ed
dexg xe
ier lich
fcfcA dAd
GFEFCD EG
GdbgA ec
Ġsignat ure
/ -"
2 13
A cE
A AFE
A AFx
A gAe
B xD
D FEG
E AED
G dd
L O
P f
T fef
U nedited
a BEB
a AFDC
a dAFB
b AB
b AECA
b AEA
b xf
b ecGC
b fcD
c fB
c bag
c ecB
c eAc
c tly
d cAECA
d fdc
d ot
e l
e z
e eB
e AFDD
e GECB
e gab
f EF
f AEE
f ecC
g AFCF
g cAB
g afa
h i
h er
l er
p po
s n
u def
x GDG
x BGF
x cBB
x GEx
x cAx
Ġ j
,, ,,][_
EC xB
Ġd ab
Ġd dAd
Ġd DAD
Ġd bbb
ĠA EEG
ĠA zc
ĠB gG
ĠB AEA
ĠB aga
Ġe be
Ġe bab
ĠG ag
ĠG BGF
ĠG dAG
ĠG gBg
FD DD
Ġc AFC
Ġf GG
Ġf FAF
Ġg GA
Ġg Bcd
Ġg AAB
AF AA
AF xA
AF dFE
BG cA
BG GB
BG ABA
ĠF BD
ĠF FAc
ĠE cde
ĠE cEc
ĠE zE
DA ED
cA GFE
ĠD DA
ĠD AFB
Ġa AGA
dB dc
dB AFDF
dB cAx
FDA G
BA EDB
ed FDA
ed AGA
ed ede
AG GE
ED EFGF
fd CC
fd AEA
fd df
AA GE
FA C
GG AA
CF xB
CF GAGFC
cB dc
ge b
ge ECB
ge fg
ge cAEA
GF FD
EE GB
EE xG
DD d
Ġb fgf
EG xC
fe ed
CC EE
BB eB
dA ECD
FF FDEF
Ġed fg
FG FC
af cAFA
xE GE
xE ED
xB dg
ĠC EFG
BF EDCB
CE ED
eB CA
eB CC
dc EC
dc FDA
xF EB
DE xA
DE xD
ĠdB D
Ġgf B
dG BGB
cF EE
ĠBd Fd
EF AF
EF AEF
ecA CF
ĠBA de
ĠcB dG
Ġ|: "^(
eA ECG
ĠBc cd
ĠBc fe
ĠBG dg
gd CA
CD ECD
cGE c
dF EA
Bb g
dd ed
ĠAF e
Ġdef gab
aA gAfA
Ġfg gd
fc DD
fc BGC
fc GDCG
Bc xc
Ġfa B
Ġfa AB
xxxx xB
fB DA
ĠBcd D
ae AFD
ee ge
ĠT BE
ĠT BAG
ĠT une
bB ECA
xc g
ĠAGF F
ĠAd ag
Gx GG
ĠGE dE
Ex EEF
xd fd
xd cd
ĠFE GF
gc ECA
Bd fB
Ac BAG
ĠBAB f
ac EB
gec CA
ad GDG
ĠED c
Ġdd gg
). [
cBA d
cBA eA
or d
ADA DADAD
bf GB
ĠDFA f
Ad g
dx cB
ĠAD cB
ĠAD EG
gdB FD
AEB AEA
ĠEA CE
aB EA
ĠBGE g
AGF AGF
be dBB
dcB cA
fed d
Ġ!>! _
ĠdcA e
Ġfga A
ĠfA cA
xxxxxxxx xxxxxxxx
ĠfB g
Ġgag c
ĠAGAB cd
Ġad ba
ĠEE EB
Ġgc fc
gdG FDC
edB GEG
ĠAf af
aeA GEA
cBG FC
cBG ECC
ĠAGG f
ĠaA AG
GAG c
fgf c
CEG cGEC
ĠAa ac
cEB Ec
ged D
low er
ĠGg de
ĠCA A
]) )[
CEC EF
ĠCC E
DxD xDxD
ĠgA fa
dBGB dB
EGB dEGBd
fec c
ĠDd dF
gcA GCA
gdc C
gdc BGDB
Ġdb fg
gfd BGF
ĠgG ce
ĠAcd A
BxB c
aed AG
aed AEDB
ĠdDD c
ĠBgf a
ĠcBB f
CFA cAFC
ĠfcA f
bgf BG
adB ADB
ĠEFD e
CDF GB
ĠdE cd
ĠCG EC
ch et
AAG GAB
)! >)!
DFDB FB
Ġ"_ -
ABcd efg
CFCA FCA
BAEB AEBA
AAx AA
EEG GE
AxG xF
.. .."
xEA B
ced f
Ġo ctave
ĠECC g
PMTuCOM e
eAFD CB
ĠeF cF
EFF GG
EAB ex
sp res
ĠcAE c
ĠĠ Ġ
ĠAcF e
ĠFGB F
Intro duc
ĠAec a
Vo ice
vG uA
GBdB gdBG
BAGG AAAG
fxd af
dxdxd xdx
AGGG AAB
oo d
ĠAae g
az i
DDFD DFGF
Cheer fully
FBcd xfxB
dFcF cFBF
GEcGE GCE
xgxgg xgx
istin ctly
FcdB cAGE
ExEEF xFx
Introduc tion
' -]|[^
, "^(
. _
2 14
4 20
D dc
D FDCA
D EDCA
D xFx
G AFA
G AFE
T C
T AGA
T aga
a BC
a FCB
b ADB
b dBGDB
b edA
c aa
c eBe
c TBA
d gfe
d GCD
f aA
f Bc
f ACD
l f
n c
n g
o u
u EFG
v i
x dBA
x AAB
x AGx
x eff
~ ~
Ġ NB
Ġ Variation
,, ,,,-]|[_
Ġd EFG
Ġd EGB
Ġd eBc
ĠA fc
ĠA ecB
ĠA DGB
ĠB faf
ĠB age
ĠG GEE
ĠG GED
ĠG GDD
ĠG dcd
Ġc BE
Ġc gB
Ġc afa
Ġc EAB
se lf
Ġf bab
Ġf aAa
AF FF
AF BFcFcF
ĠF GED
ĠF ddd
ĠF GGG
ĠE FDG
ĠE dFd
ĠD cAF
ĠD cE
ĠD GED
ĠD EEF
Ġa zg
Ġa dfb
ECG ECE
FDB DFD
ec dB
ec FEC
ec BGF
AE GE
AE dcBA
ed de
ed cAG
AG FCD
AG GFEB
ED EE
ED xCxB
FB DF
Ġz S
GG GD
ge GCE
ge dBGE
ef xed
Ġb dc
Ġb fb
Ġb AaA
fe cAE
CC ECG
dA GEDA
cG dB
cG cd
FF ECCDE
Ġed b
Ġed dF
xG ed
FG FA
GC c
GC DG
af ge
af ADB
xE xB
xB cG
gf b
gf BD
DF EC
DF AGF
DF AFG
DF AFCE
eB g
eB CB
xD dD
xD GDxB
dc CA
dc ECG
dc cd
DE GD
ag gf
ag ecG
Ġgf fa
cC EGc
de ga
cF GB
ĠBd fdBd
eE GBe
EF EE
ĠBA df
ĠBG de
ĠBG gd
gd GA
CD CF
cGE DE
Ġge gc
eG FB
ĠFA BG
bg CG
bg dc
bg cC
dd ff
ĠAF f
ĠAF EE
aA GDB
Ġfa bg
Ġfa bc
ae BB
ĠT he
ĠT gfga
bB EC
Ġga df
fdB AE
ĠEF cF
ĠGE d
Ġea ad
Ex CA
xd edeg
Ġdcd b
gc GB
Fx DB
Ac BG
Ac ed
ac CG
ac BA
edc GG
gec BC
ad DF
ad AFA
fcA FDCA
ĠAA f
Bx DF
gA g
dx de
Ġgfg g
ĠFGA e
ĠBe fd
ĠBB ef
ĠBB fe
afd BGDB
ĠBE d
Ġgec a
Ġgec c
gg ga
bd GD
ex a
Ġage e
ĠdG f
ĠdG g
GFD CC
ĠABcd e
aec GE
aec AFE
GFC E
ĠGAG FED
"^( #)"
ĠFF GF
ĠFF EE
ĠFF cF
aecA GECA
ĠDD DG
ĠDD FG
ABA x
ABA BA
ĠEE FA
ĠFGAB cd
EFG c
gb bg
Ae aef
dcA B
dcA DC
cf cB
edB AD
fAF CG
ĠAGG d
ĠaA ec
ĠaA ga
Ġ||"^ [
dAG FD
dAG CG
dAG FDB
bfd f
Ġedcd ec
eAF ED
aAF ECA
ĠGe eG
ĠGd gd
ĠGg fd
fBG FG
Fc FBF
CxC xD
ĠP efxed
Ġ|"_ \\"
EFE G
EGB eEGBe
us k
CCCC CB
GFF EE
adA GD
Ġm inor
an c
aed EB
ĠdDD g
)"^ ="
ĠdFF d
ĠAEA e
BcA BF
ĠCG AB
ĠcEE d
gedB GEB
ug le
pi a
EED DCCB
23 9
ĠfdAd fd
EAE x
ĠBa ag
ĠaB aB
ĠFC CF
ĠS t
ecBA C
qu aver
xBA x
Bdc e
xCG F
ĠeF dF
Editorial suggestion
FFA BcABF
PMTCO MA
FGG FG
AFAF AF
cAcA cA
min im
CFB FcFBF
EBEB EB
EBEB EBE
Pl aintively
FBcB eB
afcG FA
vo ll
bbbb bbbb
ĠTag ae
AxABcd xB
xEFE FEG
FFEC CDEA
cFAF cF
our self
CH OR
Ġhe re
aAgAfA eA
DFAFCE GE
CHOR US
! (
- !
/ "^/
3 10
A T
A z
A af
A ff
A ccc
A cAB
B gdg
C ecC
C oro
D ECB
E AGG
E TB
F GED
F AAA
F GDF
F xDx
F xDxD
G eg
J o
L en
O nce
S A
S e
T BG
a BFDB
a FDC
a FED
a cAFCF
b xx
b FE
b GEG
b eg
b dAD
b dBFF
b xax
c xD
c ece
c ede
c ri
d ECC
d GCE
e gfed
e Td
f lot
g BAB
g fdf
m it
o un
o uld
s ter
v ef
x cBx
x fex
z b
Ġ /
Ġ 72
Ġ Quadrille
,/ =
Ġd afe
Ġd otted
Ġd rone
ĠA FCA
ĠA CE
ĠA EDE
ĠA ea
DB ED
ĠB bg
ĠB ze
ĠB aBa
ĠG cEC
FD EA
Ġc eE
Ġc ecG
CA dA
GE Dx
Ġf bge
Ġf bea
Ġg D
Ġg gB
Ġg gdB
Ġg GdG
Ġg iger
Ġ( [=
BG eBGB
ĠF ce
ĠF fc
ĠF EBE
ĠF CDF
EB eg
ĠE x
DA dD
DA dg
cA EDE
ĠD zF
Ġa geB
dB EF
CG dg
CG ECEC
FC EF
ec DC
ec BAG
ec GDC
DG xD
DG BGDF
AG AA
AG Cx
AG FEDCB
EA cc
fd b
AA f
FB cdc
FB dDA
FB cAB
FB DFB
GG GB
AB BA
cB CA
cB dB
cB Bc
cB FEB
ge FD
GF dF
cd dcB
EE EFG
DD GD
DD EG
EG ECG
fe ge
fe FF
fe xd
fe AGA
fe ierlich
CC ED
cG FDC
cG dBeB
FF FED
Ġed ga
xA ECA
af BDB
xB fB
xB cFGB
ĠC ed
ĠC DCA
gf gd
GA ce
Ġef cB
eB eB
eB FEG
eB fAcA
xD EB
xC DA
xC xDx
dc cA
BE GBd
ĠdB fg
Ġgf c
Ġgf ac
"^ ''"
AFC FD
de n
de nt
ĠBd a
ĠBd GG
ecA CE
ĠBA cc
Ġ|: !
eA fA
BGD CF
ce bc
ĠGB dA
Ġde gg
gd DD
Ġcd dB
Ġcd AB
Ġge eB
gG CF
Ġec ed
>|: "^(
eG cF
eG cFB
ĠFA eA
ĠGA AF
bg dBA
ĠAF a
gB DD
fA a
fA GEA
fA cAFA
ĠFD c
Ġaf ac
Ġce ab
Bc FG
Ġfa db
xxxx xC
fB gf
ĠBcd edc
,< (
ĠFG AE
ae AEF
ae ADE
ae fde
ĠT fd
bB FDA
bB DE
dAF EB
AFCF E
Ġga bd
fg gg
eBG FEB
GEG x
ĠDE GF
cc ed
cc fccc
Gx GF
fdB GEB
ĠEF AG
ĠGE ec
Ġea cd
Ġea bg
Ex DD
Ex EEE
xd cA
Ax BA
ĠeA TcA
FCG D
Ġdcd d
GED CF
Fx f
Ac ecAE
EDA ED
EDA EEDA
ac fa
Bcd x
gec EE
FDC d
ĠdcBA BG
ĠED EE
fcA DA
fcA ECA
ĠEG AF
ĠAA dc
>"^ #"
"_ |"
cx BA
Ad AG
Ad ef
gA f
ĠAD GD
gdB AGDG
ĠcAF d
ff fff
afd FA
afd fdB
cAEA A
geB FE
fa df
ĠAGA f
ĠGED D
ĠBGE e
gfe BG
fed cA
aec ECG
cde fd
ĠdcA DFA
Ġfef f
Ġfga a
AAA BA
AAA AG
bge BF
bge BD
Ġ"^ ~"
Ġ"^ **"
." [
Ġdefd ef
aC apo
ĠfA fe
ĠfA gf
Ġae gB
GAB exA
ĠDGG GAB
ĠfB ef
ĠAdd a
cAD CF
ĠgB f
Ġgag g
bag xg
ĠGc GG
ĠEB ef
xb xbxbx
EFG d
Ġgfga bg
BEE E
ĠdF c
Ġefd g
/. =
edB FDB
edB EDB
Ġcdc BA
ĠBg cA
ĠaA cB
bgd C
ĠcF BA
ĠcF AG
bfd FDB
CDE FGA
ĠAe ae
li g
Ġca ef
GxG xAx
Ġbd b
eee ec
eBA GEDA
fBG FE
ĠdD c
fdc ff
Fc dBc
ĠP GF
ĠP FE
ĠP gf
age BB
GdG dG
Ġ|"_ (
er r
FAc FBDFB
ĠCC CD
bdB DD
>"_ *"
gcG CC
ĠGBdg bd
fec BEC
ĠDd dD
xCx CB
AcA d
Ġin str
ĠEe ec
Ġcg gf
BAGF EB
fcB FC
baf E
ĠfAA d
GGGG FE
BECB ECE
ĠFDB D
ĠCG BG
ĠcEE G
Ġaed b
Ġtime s
eeee ed
CEGE BGEC
ĠaB df
DFDA FDF
EEG GBB
FFE ED
gcB ECB
xAA cdd
am p
ccB BG
ffff ffff
PMTuCOM G
!! >(!
ĠcFF d
xFF FFF
adc D
GABG xG
gdfd gefd
ĠcaB e
CCG F
Ġ(( [^
ĠGEB d
Ġcag ed
cdcd adcd
dGBG BEGB
so urce
DAd gG
dBdB dB
EBEB EBEB
ĠdAeA fA
Gxc xCx
CFx AFx
ĠdEE e
]|: "^
FEED FE
EFGB EFGB
ĠaAc a
eGBG cEdF
eGBG cGdB
FcA cF
Ġggd d
EGBd FBd
AecA ecA
AEBE cAE
AEBE cAEA
DAdA dedA
Ġend ing
GEAE GEDE
cEdF eGcF
xCECG CAC
ecGecG ec
gxgxg xgx
BgeB geB
fdBafd d
FFGAG FED
AfdAfdA f
Gi ga
CCxCx CCx
BBeeee AA
azi oso
flot tes
CAdA dedA
CGECEC EG
DGBGDF AF
BEGBd FBd
eGcFB EGB
fAcAFA cF
# #"
' -]|
' -|[_
* )"
- -"
. "^
2 11
3 75
A eB
A xxx
A cBc
A Te
A xEx
A ir
B eA
B fg
B AFEC
B ugle
C cCC
C EEE
C EEF
D v
D edc
D CCC
E ce
E xxx
F l
F z
F fe
F FDx
F cGe
G ecG
G BAB
G TF
O ut
P e
S ec
a i
a DE
a AGEC
b fcA
b EDG
c aec
d bd
d ab
e FDCA
e efe
e FEF
e Tf
f GDC
f FDCB
f re
g FCF
g GDE
g cGEE
g GECD
l ar
m A
s f
s l
u ag
v C
v Bc
x FDA
x cE
x GGF
x cdx
Ġ #
Ġ 71
Ġ $"
,, ,,-]|[=
EC CB
EC xG
EC xD
EC cC
Ġd gef
Ġd zf
ĠA cC
ĠA ga
ĠA ac
ĠA fdc
ĠA eBe
ĠB ar
ĠB FDE
ĠB fec
ĠB fef
ĠB aaa
ĠB DAf
Ġe geB
Ġe afa
Ġe Bdg
ĠG ECG
ĠG BAE
ĠG eBe
ĠG FBF
Ġc dG
Ġc bg
GE AB
GE EF
Ġf AG
Ġf bdB
Ġf zA
Ġg za
AF GF
AF EDF
ĠF FB
ĠF CB
ĠF ECF
ĠF agf
ĠE gfg
ĠE EDD
cA GDD
ĠD df
ĠD edc
ĠD efg
Ġa BbB
Ġa bfa
Ġa rr
dB xA
dB AFDD
ECG x
BA ECG
ec BAB
ed cGE
ed dccB
DG CG
DG BGDGBG
AG GGG
GEB E
GB dBGBdB
EA Bc
fd DCA
fd FDC
FA cB
FA xF
FA xCEAxC
Ġz A
AB GE
AB AFA
CF AFCF
cB ED
cB ECC
cB FDF
ge AFD
ge AEA
ge dBA
ef gd
ef ff
FE Fx
Ġb cd
CC EG
CC xE
arp egg
dA dc
dA CD
cG ce
cG FCD
DC DG
DC DCF
Ġed fa
xG e
FG xA
FG AGF
af gefd
xE e
xE DB
xE xF
xE Fx
xB ce
ĠC d
ĠC h
ĠC EDB
ĠC DDD
CE cEC
GA GD
xD EA
cC cC
de l
Ġdc b
ĠBA ef
ĠcB cE
ce ac
ce gec
gd CC
gd cAD
gd AGA
gd edG
CD FF
Ġcd ac
Ġfed cde
fF cF
fF fF
Ġec GB
bg BGC
bg dBE
dd xe
fc GFE
Bc ed
fB DD
ĠT FD
ĠT rio
bB FF
xc ccc
ba fe
ba dF
ba fdD
fdB EC
fdB DG
ĠEF AA
Dx CB
Ex ED
xd xB
xd ad
Cx CCC
Ġdcd F
Bd AB
Ac cA
ad FDB
ad cAF
fcA ED
Ġdd AA
ĠAA de
xe ec
or n
ĠGG FD
ĠDF dB
Ġab gf
ĠcBAG FA
ĠBe BA
ff fd
ĠBE cB
fa xaa
Ġefge fd
GFE FG
Ġgd gf
bd EE
ex ef
ĠAGA e
ĠdG ed
xf b
ĠeB fe
fed dc
fed efef
fed efed
aa xa
ĠdBGB dB
,,,, ,-^
,,,, ,-_
cEC D
Ġ"^ [
Ġae ba
Ġae ac
GAB dB
fx fffx
Ġgg b
Ġgag B
Ġgag ede
xa gf
afc FCF
Ġad b
ĠEC CA
Ġac ce
Ġgc gc
ĠCE GF
ĠCE cd
Ġafge fd
Ġfc cA
ĠdF dF
EEE xE
edB GEDB
ĠAf AA
ĠAf ge
Ġaa ae
ĠCD EA
ĠcG dG
>) =
CEG cG
it ed
Ġafe A
ĠFd DF
gag fe
ĠBD EG
Ġbd ag
ĠcAB B
ĠGEG e
ĠM uc
ĠM inor
bBG CA
Ġ|"_ >
'''' ^
eBF CG
ĠGFEF GE
ĠdGG c
ĠDFB f
ĠBde e
AcA cG
afe E
ExE F
Ġced G
Ġdb bd
BAGF EDCB
gfd cAFC
ĠGEA B
ve ud
al ternate
Ġ|:"^ \"
Ġbb bg
ĠeBB f
BxB xBx
DDDD C
DDDD E
ig inal
ĠEEE c
DGD GD
cxc xd
ĠBdA f
EED Ex
23 7
gaf g
ĠEd dc
AAG x
CEGE cGEC
Ġfbb b
xDG ABe
ris ch
gcF CG
DEB D
bgdBG DD
xcxc xc
ĠcGG f
so lo
ĠGdB g
ĠBz E
ĠcFA f
Gcd ABcAB
fdec dB
Ged Gc
Ġr hythm
xAFD xAFD
gxgg gxff
Ġn icht
CECEC ECE
FEGE cA
BFcFcF cF
gxff xffx
ib le
Bold ly
fxgg gxgg
GEBGEB GE
ĠSo lo
ĠEx pres
arpegg io
faxaa xgg
! _
A dfa
A cdf
A gfef
B fx
B xGx
C r
C FDC
D FEDA
D AFG
E R
E ed
E FFFF
E FAc
E xDx
F b
F FDB
F GBd
F FAc
F TED
G gE
G cde
G xDx
P g
T AF
T Be
W altz
a aA
a FDF
a xbx
b GECG
b GEDB
b dBGE
b afA
b BGEG
c cAc
c geg
c Td
d bB
d GECE
d FEDB
d eBe
d Tf
e FDF
e AAA
e GDD
e AECF
e gfa
f xF
f bg
f ecGC
f bx
g xG
g AFCA
g GECB
g Tfe
i d
m e
m i
r igh
x dex
Ġ tenderly
Ġd AD
Ġd dG
Ġd FAc
Ġd ADE
ĠA l
ĠA GDE
ĠA GBc
ĠA Ma
ĠB BF
ĠB FED
ĠB EAc
ĠB DAB
ĠG S
FD d
FD ECD
Ġc cE
Ġc acA
Ġc cAB
Ġc FBF
Ġc hor
Ġc eGe
]| :"
CA GA
se tting
Ġf bB
Ġf cBc
Ġf Ff
Ġg cA
Ġg Ae
Ġg bfb
ĠF cd
ĠF ag
ĠF cF
ĠF dAG
ĠF GGA
ĠE GCG
ĠE EGA
ĠE nd
ĠE ADE
DA GAFAEA
cA Bcdefg
ĠD fg
ĠD fD
Ġa Bg
CG FED
BA GC
BA AFA
xx CD
FC DA
ec g
ec fc
ec AFB
FCA C
ed fe
ed xe
ed cde
AG FCC
GB dBG
fd BGDG
fd GFDB
FB f
FA dAF
GG FD
GG BAG
GG FGx
AB cF
CF AA
CF AFCA
ge GECA
cd eA
cd Acd
EE FB
DD FF
DD EDA
DD xDx
ef ece
Ġb fab
EG cE
fe cAA
BB a
BB g
dA cA
dA Dx
dA DCA
cG eG
FF AF
xG dB
xG ec
xG Ad
xG ECGECE
xA f
xA AF
xA cf
AFD FA
FG FB
AD AFA
af FDB
af EA
af ae
af ad
af AGF
af ecAF
xE GG
xE GEGE
xB dB
ĠC CG
gf BB
gf cAG
BF ECD
GA xA
GA AEEAA
DF GE
DF GD
DF BA
Ġef cA
eB f
dc CG
dc EF
dc GED
DE GED
ĠdB dd
ag ba
BGE cAF
dG g
Ġdc fc
ĠcA fg
EF cEF
ecA ECC
ĠBA ag
ga gfg
ce gb
Ġde ag
CD xB
cGE DD
dF GF
gG dG
fF EE
Ġdf AF
eG ce
eG eG
ĠFA DC
ĠFA fA
ĠFA zA
ĠGA fg
bg BGF
bg fdBG
dd def
ĠAF GD
ĠAF de
ĠdBG DGA
fc DCA
fc BGF
ABc c
BFDB FDBF
in d
Ġce AE
ĠAc FE
Ġeg A
dBF dBF
fB e
ae BG
ĠecA ceg
ĠT BG
ĠT dBB
ĠT BABc
bB ED
df xe
df ab
dAF EC
BAG FDB
xc cd
ecG DA
cc BAG
cc xc
cc cBA
cc cBAc
ĠEF FA
ĠGE DA
Dx CCC
Ex CB
eC eC
Ax f
fdA f
ĠBAB a
Ġ|"^ -"
Ġ|"^ ''"
BFB FB
gec BGECG
eg ag
ĠABA GFG
ad y
ĠEG d
ĠAFA D
ĠcAA D
Ġagf b
ĠGG cc
eF EA
Bx f
Bx FDC
bf FD
bf EB
bf cE
)" "^
)" "^(
fG FDG
dx b
dx bafd
eD CB
ĠdA dF
Ġgb bb
fcAF B
afd ef
ĠBE eE
geB ECB
bd FD
ex b
ex t
xf xfx
Ġefe a
eBGE DA
eBGE GBeg
/> (
/> .
be GC
dcB AF
dcB FB
gdBG FDB
gdBG DCG
gfe E
ĠDB DB
aec aec
AGE DCA
Ġged G
,,,, -_
BGF ECE
ĠBABc BA
Ġu de
GAB e
ĠfB af
'] /[
aecA CC
ĠEC FE
fga a
bag ed
agf ef
gb gf
BBB BABc
DDD xDxDD
ĠDA CA
gdG FDB
cf af
edB dB
ĠBcA e
ĠEFA d
ĠecAc ec
cGD CD
ĠDC DB
ded BG
dBGE DG
Ġ(. ^
ĠcF FA
fgf f
ĠTf efg
ĠBAGA BG
CEA xECE
BED F
ĠGBA D
Ġca af
gGE DG
ĠcAB E
24 9
eBA GE
ĠM arch
ĠEc dB
ecF ECF
FFFF GA
age AG
Ġ|"_ *"
EFE x
EAc ec
fdBG FB
Ġfb fe
') "^
EEEE x
EGE DA
fef xax
CCCC CCC
ĠBf fd
ĠdAA c
Ace aE
xDx DB
gfd GG
EGA BGABA
fcB FDB
ĠgG BA
ĠBdf bd
fdcA DF
ĠFAD g
an o
GBG BGBGB
ĠFc ac
AGFE AGFE
GGF FE
BGBG cGB
cccc cBAc
ĠCG B
pl e
ĠFEFA GE
aeAE DD
xDB Gx
ĠcAFD FA
xEG cx
dADF AFdA
dcc cA
ecBA ECB
FDx AGF
defg x
dfe g
GGx GFF
Ġua ve
eae bg
ĠAed F
FFA AEEAA
ĠEBE g
ecGF cfa
vB uc
ĠGFA ed
vc uB
GDx BAG
Ġ4 2
xDFB dBFD
xEGB eBGE
xBBBB BBc
xBABB BAB
ĠGgG g
]/) [
Ġrepeat ed
Ġpl aintive
ebg bf
xFGF dFGF
DFBx FDC
xgxfe ef
CEAx ECB
CFFF FGA
Th is
GgGgG gGg
ĠAlleg ro
sn ap
xcAx cAxc
DFAFG ADF
Len to
FBcAB cGA
GdGdG dGd
DDEDA EDE
A fdA
A fed
B ec
B ri
C FDA
C ECC
C EDCB
D FEF
E FDC
F GEC
F dA
F AFCA
F dcBF
G GEB
G ecA
G gd
G cBc
G da
M f
P B
S B
W alzertempo
] >)
a Bd
a ad
a AEE
a Tgf
b AFDB
b dBGG
b ecGE
b Ta
c eE
c bc
c on
d ece
d GECD
d TcA
e FDC
e GBd
e re
e GECD
f in
f xgx
g GDC
g gfg
u p
u fd
u GA
u ae
u be
u ch
x cAA
x cBc
x fdc
x afa
Ġ Y
Ġ tro
,/ {
EC ECG
EC xC
Ġd ecG
ĠA BGG
ĠA ADF
ĠA afa
ĠB BD
ĠB afd
Ġe baf
Ġe bbb
Ġe spres
ĠG r
ĠG ece
ĠG ded
ĠG dgb
Ġc fga
Ġc EFG
Ġc ada
GE EG
GE GDG
GE GEG
Ġf FAc
Ġg dfg
AF GEFD
BG GA
BG FCF
ĠF af
ĠF Bcd
ĠF FDF
ĠF aF
ĠF cAG
ĠF FBF
ĠE ge
ĠE eB
ĠE ECE
ĠE zB
cA de
ĠD cAc
ĠD zG
Ġa G
Ġa ab
Ġa BBB
dB b
dB cx
dB AEB
dB AGB
FC DB
AE cA
FCA FCA
ed eG
DG GF
AG FEDC
GB ce
ED FE
ED DCA
EA dex
fd cFD
AA AGAB
GG FED
GEC ECD
cB AFF
ge gb
ge cAGE
ge BGEG
ge geg
GF GG
cd D
cd AG
cd gd
cd edc
cd efe
EE e
ef af
ef gfef
FE GEc
Ġb ba
Ġb dcB
Ġb fga
Ġb baa
EG FD
CC EEGG
BB cc
dA GEB
xG xB
xA xc
ĠAB eB
FG AE
FG Ax
AD d
AD CC
af BF
af BGE
af BFD
af cBF
xB F
xB dd
cAF ECC
cAF EDA
DF FD
DF xE
Ġfd gb
xC FB
dc FG
dc DCD
BE c
ag ecC
ag dGC
"^ #?"
BGE BG
dG FDA
dG FDG
cE FE
Ġdc cE
AC x
ĠBd Ed
EF FA
ecA EDA
BD dEe
ĠcB f
ĠcB cF
ĠcB cde
eA d
ĠBc ea
ĠAG e
ce ax
ĠGB FE
Ġde ba
CD FB
dF ECG
Ġcd dA
ĠcBA Bcd
eG FD
ĠGA dc
bg cB
bg BDB
bg ecC
bg cBG
Ġdef edc
Ġfg gg
fc FCC
Ġag gb
gB EC
fA DC
ABc dB
xxxx xD
xxxx xF
fB AFB
ĠBcd a
ĠFG BG
ĠFG ABc
ae FDA
ae AFC
ĠT edB
ĠGF BA
ĠGF GG
dAF EDB
BAG CA
xc ef
fg xg
fg agfe
eBG CE
ecG dBGBd
cc FFF
dE c
GEE AEE
Ġea aA
Ex d
xd de
Ġefg edc
Ax GFG
Ax cAxcAx
ĠeA ea
Ġdcd ede
gc DB
Ac fcA
fdA GD
edc g
gec EB
ad cAD
ad AGB
Ġdd a
Ġdd AB
Ġdd fe
ĠEG dc
ĠAA cB
ĠAA fe
>"^ \"
xe xf
or oso
eF EC
bf x
bf ed
dx BG
ĠcAG g
eD dB
aF ECA
ĠgdB e
ĠBE FD
bd GF
ĠAGA a
ab ge
ĠdG cA
Ġefe g
aB AF
]" "
be DB
be DG
ĠeB ed
fed cAFD
aec AFCF
Ġfef gfg
Ġfef agf
ĠABcA GF
Ġbag c
Ġbag abg
Ġv ue
Ġu p
ĠdBB F
BDG BAC
ĠfB a
ĠfB cB
ĠBcde dB
gx gf
GFG xF
tr y
ĠGEE e
Ġad ga
]/ -
ĠEE c
EFG ABc
ĠFB DF
Ġgc ce
Ġgc bc
ĠCE c
ĠdF eF
EEE EC
cGD CA
ĠBg bg
/)( .
aeA EB
ded cB
ded cBE
Ġdfe gfa
cBG CG
fAF G
BEG A
dBGE DE
bb bbb
dAG FDA
DFA x
ĠEDB c
25 2
Ġegf ed
Ġfec c
acA CF
ĠeG df
CEG cCEGc
dAA B
Ġca cc
eBA GEB
ĠEc ec
FGF GE
ĠdD DG
Ġgagf ef
ĠP b
ĠP BA
ĠP ed
gdA GDG
gcG CB
DED x
DED ED
Ġfb ef
Ġfb eg
bBE DG
geA GEA
DFD x
AcA cAcAc
ĠAg fd
>)( =
Ace e
gdc GEC
""_ *"
""_ **"
fcB DB
Ġda af
an gem
baf dB
ĠfAA g
GBG BFBFB
ege e
dcAF B
bgf E
DEG x
ĠdE cB
22 7
ĠCG AG
eAG CA
ch eer
ĠgBB a
DDC DCD
ĠEd EE
ĠCEA C
Ġ"_ >"
CCx CC
AxG xGx
Ġcef b
xDxD xDx
cgc g
xdxd xdxd
axa xAc
eed cd
xdd cd
GcG cAcAc
ot h
xFFF AAcc
xDDD FFAA
xDFB dB
CGCG CGCG
agag ag
Play ful
BxBxB xBx
Ġdgc g
xgd gB
and ard
Ġn on
BAfe BAfe
Ġsh own
xFFFF FFF
lu te
AcecA cec
si vo
"^/@ >.
ird o
lod y
Pol ka
FBdDA ef
fre ud
Ġarr angem
AcAcG BGB
GgE eDdB
Ġarrangem ent
' ){
4 60
A v
A cAE
A ddd
A TA
B z
B xC
B eG
B BGF
C ECD
C DDE
C rot
D dB
D ed
D FDD
D xGx
D GDCD
D EEF
D cGEeGfG
E TE
E cGEeGfG
F cd
F cc
F FCC
F EEF
F GGA
F cBcA
G z
G cdc
G AAAA
G phr
L A
M ge
N e
S to
] >.
a BGE
a geB
a EDG
a dAd
a dfa
a AFDG
b FG
b AFC
b cGEC
b FCB
b GEA
b ecEC
b edE
c ga
c efe
c gb
c dBd
c edAcB
d bfd
d cGCG
e FCG
e bf
e AGG
e Te
e xBx
f gG
f EDB
f GED
f risch
g FDF
g BGEC
g AGDA
h old
k y
o us
r ec
s ch
u ga
u ca
x cG
x FDF
x dcBA
x GFED
x fcf
x agx
x gax
z ec
{ !
Ġ )"
Ġ it
Ġ po
,,/ )
,] <
EC DC
EC ECE
Ġd i
Ġd o
Ġd cE
Ġd ac
Ġd ADA
Ġd gab
Ġd deg
Ġd afg
ĠA bc
ĠA AGB
ĠA DAd
DB FDB
ĠB S
ĠB ga
ĠB cAA
Ġe FF
Ġe dBF
Ġe ecB
ĠG AD
ĠG CE
ĠG BGD
ĠG aec
ĠG bge
ĠG eee
ĠG dEd
ĠG maj
Ġc S
Ġc FGA
Ġc AFF
Ġc gfg
Ġc GFG
Ġc cAd
Ġc uded
GE d
GE eBGE
Ġf GB
Ġf fdB
Ġf cAG
Ġg dAF
Ġg GAB
Ġg ig
AF FD
,,] >
BG FCB
ĠF de
ĠF dD
ĠF BFB
ĠF zG
EB eBGEG
ĠE ce
ĠE eBG
ĠE BGA
ĠE zG
ĠE DGF
cA a
cA GFED
ĠD FDB
ĠD ed
ĠD DCD
ĠD CCC
ĠD DAD
Ġa ae
dB cG
CG ce
CG cGCG
BA GEA
BA GEF
ec BD
ec GFEC
ec dBc
ec EDCD
ed AFDA
ed cGC
ed GFD
DG BA
DG FB
DG ADG
AG xE
EA ECA
EA xG
EA xCEA
fd cAA
AA g
FB dx
FA cF
GG BA
GG GFD
AB cE
AB xc
CF xC
cB xG
cB edc
ge FDB
ge AECA
ge BGD
ge ACA
ge gc
GF GD
GF FG
cd xd
EE AG
ef afx
FE GFE
Ġb bc
EG BGBe
fe gdc
dA GEE
dA dBeB
cG Ax
cG ecGc
FF AG
FF xFF
AFD AF
FG g
AD GDFD
GC GE
af DF
af ecAFEF
xE DA
xE Fc
ĠC ec
ĠC BAG
ĠC oro
gf BGB
gf fa
gf BAE
gf cGF
CE DB
CE xF
cAF ABAF
GA ef
GA cG
GA AEE
Ġef AB
eB FCF
Ġfd ee
Ġfd TcB
xC DD
dc BAGF
xF FA
xF xDx
ag dBA
'' '=
"^ ?
dBG ce
dBG FEB
dBG DCB
cC cCc
de ae
de xe
/) "_
/) "^(
dD GD
dG CC
dG FCB
ĠcA df
ĠBd FG
ecA fdA
ĠBA cf
ĠcB ec
ĠcB dA
ĠcB fB
eA DD
eA GED
ĠBG dA
ĠBG gG
ga ef
ga gef
ĠAG FC
ĠAG dG
ce ee
ĠGB ga
gd ad
CD EGA
cGE DA
cGE cGE
cGE DCG
dF EC
eG x
Ġfe F
ĠGA cE
bg ecG
bg agab
ĠAF FC
ĠAF AE
ĠAF cB
aA DC
ĠFD f
ĠFD EB
ABc BAG
ĠAc ae
Bc g
Ġeg gc
dBF ED
ĠFG AGFE
ae GE
ee gfe
ĠT FED
ĠT gfed
bB EA
bB FA
bB ECB
bB eb
df ae
ĠGF EDC
dAF d
dAF EA
BAG FC
BAG BAG
xc ed
FDD FDD
fg bg
ecG cec
fdB EB
fdB FC
fdB ADB
fdB AFB
Ġea cf
Dx DB
Ax AA
Cx DD
gc FF
gc xg
Bd gf
Bd cGBG
Ġdg GB
Ġdg af
Ġdg gB
Ac fe
Ġ|"^ ~~"
ac GD
BGB dBG
ad AEDA
fcA CC
ĠEG AA
ĠAA aA
ĠAA TcA
cBA CE
cBA GEA
cBA GFE
cBA GFGA
gE DG
ĠGG FA
bf f
FED EF
cx dc
gA DB
gA ECG
gA CF
ĠcAG e
gdB GEB
gdB GEE
gdB dg
ĠBe AB
Ġgb bf
ADB A
ĠBB f
ĠBB de
Ġcc ac
afd cB
ĠfdB a
geB EG
DEF GF
bd EB
ĠEA cE
xf gd
AGF EA
fed cd
ĠDB EB
,,,- |[_
,,,, ,-[=
Ġ{ /^
Ġfef A
BGF ECG
bge EDB
bge dBGED
Ġcdef ga
." (
aG CC
GAB cG
ĠfB gf
Ġafdf af
aecA EB
xa xf
ĠDD EE
ĠEC EB
bag d
ĠEB AE
xb xa
AGD CE
agf A
Ġac f
ĠFB e
ĠFB fB
Ġgc bg
dAE DCA
ĠDA df
gdG FD
ĠdF FA
ecB AFE
dcA FDCA
Be ab
edB ADA
Ġfefg af
Ġcdc F
ĠDEFG AF
cGD CC
>( {
ĠBg BG
/)( =
DCD ED
Ġegfe fd
ĠGD g
Af fe
Ġ||"^ *"
ĠcF cF
GAG AGA
im m
acA CB
li es
>. =
ĠFd FF
DGB dedB
eBA fe
ĠGg dc
FFFF ED
fcG CA
ĠP l
age g
BEA EB
dBd gdGB
gdA GD
Ġfb bg
EGB cBG
bBE DB
ĠEDD d
fec AFC
EEEE F
EGE AE
ĠecB g
us s
ĠAg ge
ĠdAA f
Ġccc f
CDC x
gfed BG
gfed cG
gfed cGECG
DAD GDFD
fcB E
ĠgG dB
ath et
50 0
xcx ce
baf a
ege g
ĠAcd g
ro und
Ġgaba gf
)"^ +"
GGGG x
EFA D
ĠECE d
AFED CF
AGAG AGFG
DEG xG
cxc xcx
ĠCG C
Ġaed a
23 8
DxE xE
/"^ #"
Ġp age
adF ED
FGB FG
AxAxA xA
Ġeae g
agfe g
ĠAFAF AF
xEE EEE
dcc cGAx
ecBA ECA
ĠgGG g
xDG FG
cgc gcgc
xGG Gc
DEB c
bfe dBGEB
fGF EDCB
Ġeed f
Ġeed g
EDED ED
bgec BGEC
FxA FD
DEDG FED
xGxG xGxG
xdd dx
)"_ /"
)"_ *"
GdB dA
Ġdz a
ĠdBF d
ĠGz E
DEFD GA
xexe xexe
bga df
Ġfz fe
IN TR
aab bc
Acec aecA
xddd dcBA
Gr aceful
bgbg bg
ĠfBb f
FBdf gfd
DDEE xDD
ĠgeA g
AGFGA BAB
DxCC CxCC
ii ii
fdAfdA fA
eAeA eAeA
CBEB CBEB
xFAF fFcF
dBcB ded
CBc xD
CEAECE AE
lu p
eGdG cG
EEEA AABB
schnell er
ĠGDA DBD
GEedB cGE
lem n
fro hlich
Ġy ourself
xcGC de
dcAGF GAc
EFAEF AEA
cEBEc EBE
acfa xcfc
eeeec ccc
Axxx de
righ tly
DxCCC xB
Ġtro ppo
fegdc f
ADGDFD GD
dBGce GBd
ecAfdA ce
cGEcGE Ac
BdcGBG AF
INTR O
! >)
' ]|[_
* ""
+ /
3 30
4 50
4 40
< >"
A ge
A fa
A xFx
A nd
B ac
B TAG
C cB
C GED
C cx
C xGx
E cGE
E gE
E TF
F GEB
F GDG
F BAG
F AGB
F Tc
G eBG
G cGc
G dFd
L an
M arch
O MD
P a
P BA
S d
T af
T dcA
U su
a ECE
a FDCA
a geE
a cGEA
a ue
a xfx
a BAEB
b cd
b ef
b cBA
b GECB
b afc
b cBC
c bg
c EDCG
c oro
d r
d dG
d ae
d fdA
d EDC
d rone
e ecAE
f BGEE
f AED
f cBc
f FCD
g BFDG
g AGFCF
h af
i a
n n
o y
r ather
t y
u dB
u ea
v AB
x FCA
x FCF
x DCD
x ABcd
{ .
} "_>"
Ġ segno
,,/ >
EC CA
Ġd dD
Ġd GAc
ĠA GC
DB FA
DB GG
ĠB DA
ĠB cE
ĠB FBF
Ġe EFG
ĠG FDA
ĠG FDD
ĠG AEF
ĠG geg
Ġc ga
Ġc GED
Ġc CCE
Ġc FBc
Ġc fBf
Ġf GAB
Ġf AGA
Ġg gab
AF GD
AF EDCG
BG cGc
ĠF FDD
ĠF fec
ĠF ife
ĠE cG
ĠE DAB
ĠE aef
DA GE
DA xA
DA BcB
cA ed
cA GFG
ĠD ea
Ġa D
Ġa dg
Ġa ccc
Ġa zf
dB AED
dB FCC
dB cdB
FDA x
GD cA
GD DD
GD xD
BA xA
ec ee
ec FCB
AE BG
AE GF
AE DCD
ed GA
DG FED
AG xG
GB geB
ED xG
EA AA
EA dc
EA xDGABe
fd ge
fd cf
fd BGA
FA cd
FA xA
FA dF
FA cdf
GG f
GG BG
AB dg
CF xE
cB BG
cB DA
ge dBC
GF cF
GF ECF
EE c
DD DA
ef gB
ef cf
Ġb cde
Ġb ece
Ġb ea
Ġb ceg
Ġb dfb
CC DCB
cG cGc
cG xDdA
DC ED
xG xD
ĠAB f
ĠAB ef
ĠAB EG
ĠAB FG
FG AGA
FG AGFG
af BG
af ac
af dBE
af edAD
xE d
xE FB
xB BAB
gf EC
gf xf
gf GFG
gf dBE
CE FF
CE FFEC
GA AGA
GA BAGF
Ġef cd
Ġef edc
eB dB
eB FA
Ġfd fA
xD DG
xD CF
xD cGxDdA
xF xA
xF EDE
BE AE
ĠdB dc
ĠdB cF
ag dBG
Ġgf bf
"^ '"
dBG FC
dBG FEA
cC EG
de ef
dD CB
Ġdc edcB
EF AE
ecA FDD
ĠcB ge
ĠcB eB
eA cd
ĠBG BA
ĠBG AE
ĠBG cd
ĠAG cE
ĠAG ABc
ce gd
ce eee
ĠGB gd
CD EDE
fF x
Ġdf Bb
Ġec gd
Ġec TBA
ĠFA ef
ĠFA CE
ĠFA cc
ĠGA cB
ĠGA GEDE
bg cG
bg ag
bg dBGE
ĠdBG a
fc DB
fc ECG
fc GDB
fc ac
gB eB
gB AFEA
fA e
fA CG
ĠAc af
ĠAc BAG
ĠAc TBA
Bc a
Bc BAB
Ġfa ca
Ġeg gB
ĠFG c
ae fd
ae fdecdB
ee ede
df gb
ĠGF ec
ĠGF FA
xc FF
ba DB
Ġga bb
ĠAGF GAB
fg bd
eBG CB
eBG FEG
ĠAd AB
Gx ED
fdB AFDF
ĠEF EB
ĠEF EE
GEE GF
ĠGE ce
Ġea Ta
Dx DC
Dx DDD
cD c
cD FA
xd xe
Ax cA
ĠeA fB
ĠeA fg
Ġdcd efe
ĠFE AF
gc CE
gc BGG
BFB F
edc x
ĠdBA GFE
xxx b
xxx e
efg g
ĠABA d
ĠABA f
ad EB
ad cAED
ĠED CC
Ġbg ba
Ġdd dG
cBA EE
cBA GFED
>"^ ?"
xe ef
xe ac
ĠedcB cA
Ġagf f
eF ECF
Bx g
Ġded G
Ġded g
)" [
Ad dc
Ġgfg bag
eD d
ĠdA cB
ĠdA ce
ĠBe eA
Ġcc fc
afd AE
ĠBE e
gg ge
gg gf
cAG AA
cAG FCF
bd CG
bd gb
ab ile
aB g
AGF GE
AGF ECG
be ab
Ġee eB
ĠDB BB
ĠdcA D
def ge
ĠGFG AGA
bge x
." =
Ġv ef
cEA Bce
Ġu ae
Ġae b
Ġae dB
dg dA
GAB E
GAB cdef
Ġagfe fd
ĠBcB B
aecA ECG
aecA GC
GBd gd
ĠgB dG
ABA BABAB
afc f
afc CC
ĠEC DA
bag ab
ĠEB cd
xb xax
Ġac eA
Ġcf gf
Ae aeA
ĠDA BA
ĠAAA AAA
Ġfgf ed
edB c
edB AF
ĠAf fc
ded ed
Ġaa ge
cBG CF
cBG DC
cBG FCC
fAF CB
GDCG DCx
ĠaA ab
ĠEDB E
ecAF EA
GAG B
bx bc
CDE FC
CDE FGAB
CEG cc
CEA C
CEA EB
dcd cd
cEB EG
cEB EGA
ĠFd dA
ĠGGG GAB
bfdB E
ĠGd de
Ġbe weg
cAGE DC
ĠAcec ec
FGF EF
FFFF FE
CxC xCx
AxA xGxGx
ĠFEFG AB
ĠCC DD
EAc ecAE
ĠEGG d
>"_ #"
DFB FD
fec GFEB
EGE cE
Ġfgag fe
BdB c
BdB AG
ĠAg AA
CCCC D
Ġs implified
gdc F
beB ECB
Ġfdfa gf
aba d
""_ ^"
ĠGDG d
Ġgaf aea
al to
cDA B
Ġm a
BBBB e
dcBA x
baf DD
ĠfAA a
ege x
DDDD x
dfa xd
dfa xAdfx
)"^ ~"
dGF EC
GGGG F
ĠBdG c
Ġ(! ^!
GFED x
dBAG FD
ĠbB BA
ĠFDB F
FBF BGcGc
DxC D
ĠDc cB
)! <)!
ĠeE cE
ĠCEA e
ĠBb bf
ĠFe ed
DGDB D
uc k
ĠBBA d
exe xex
cAGA BAGA
FFE FEB
Ġw ell
CECA A
pe t
ĠDdd f
ffff ff
Ġbee a
Gce G
PMTuCOM c
xGG x
CxD FD
CxD FDEC
axa xA
adc DB
xed x
ExC xA
xAxA xA
ĠDdc e
acB GEB
EGG FE
ĠdeB g
GcG cGc
cBcB cBAB
PMTCO Md
CEE FE
ĠBFF d
ccA d
ĠADF d
th irdo
vB ud
vB uA
crot chet
Ġez a
gedc GEC
ub le
vf ug
EAEC xB
Ġdbd b
Ġagd f
DEDC xC
vF uE
CDEA xD
CDEA GED
ada dd
dfB d
Axd xf
afaf aea
End ing
ĠSpirit o
FAcx GBdc
ans po
dAeAdA fg
Ġverse s
per s
xdBG ecAG
EFdEF dEF
play fully
Ġmark ed
gr acefully
Ġj ig
xAECA ECE
Sec ond
AxGFG xGx
freud ig
xdddx BAG
cEBEGA CB
! /!
' ](
' "_>
+ )"
2 17
3 80
A cAA
A BGF
A fx
A cBx
C o
C DAD
D xc
D EEEE
E AGF
E dcx
E dBx
F de
F dE
F xxx
F AFE
F AFB
F fx
G eC
G dcB
G BAA
G BAc
H armony
M GE
M aj
M iss
P d
S p
T BAF
V ER
] >)(
a cd
a geBE
a dBGA
a xAdfx
b df
b eBGE
c cAF
c cE
c fcA
c fG
c dBA
c FEDB
c oda
d xGx
d gac
d olce
e eA
e EDE
e AFCC
e ACD
f AGEC
f AEDA
f AECF
f GECF
f Tf
f fgg
g Ac
g bge
g BAE
g fdD
g cAGE
g BGEDB
l a
l in
l ude
m or
r w
s q
s ong
t i
t ace
u ge
u EF
v cd
v Bd
v ea
x ECB
x gab
Ġ 18
Ġ natural
,/ .
,/ _
,/ )(
,, ,,]|[^
EC ED
Ġd DB
Ġd age
Ġd DBD
ĠA DG
ĠA CC
ĠA ba
ĠA cAA
ĠA cBF
ĠA gdg
DB AGF
ĠB ad
ĠB dAD
ĠB fga
Ġe t
Ġe bc
Ġe aAa
Ġe ved
ĠG eB
ĠG GDG
ĠG eBG
ĠG dg
ĠG GAc
ĠG Ma
FD cA
FD xB
Ġc bc
Ġc ue
CA Fx
se s
se nd
GE FA
GE xG
GE EEEEG
Ġf GBd
Ġf feg
AF f
AF xF
AF GAdFGA
BG xG
ĠF afd
ĠF cde
ĠF dBA
ĠF dBd
ĠF dAc
ĠE EC
ĠE FCF
ĠE fg
ĠE dE
ĠE FDC
ĠE eBA
ĠE FFG
DA GDG
DA Bc
DA FDE
cA DE
cA fcA
cA GCE
ĠD cA
ĠD GDG
ĠD ff
ĠD def
ĠD FCD
ĠD cdc
Ġa ze
dB AEC
dB AEA
CG cd
CG FGE
BA BAG
BA GDE
BA FDE
BA xGx
BA AGG
xx Gx
ec BFD
ec ce
ec Bx
ec BGEDB
AE EEEEE
ed efg
ed BGB
ed BGF
ed cAD
ed cBE
ed cAGEDA
DG FA
DG xC
DG BGD
DG dDG
AG FEDA
GB dBFG
ED FD
EA AB
EA ECD
fd dd
fd AEE
fd FDE
AA dA
FB Fd
FA GE
FA AEE
AB ed
AB xA
cB ECA
cB EDB
cB cx
cB FEDB
ge FCA
ge cAC
ge dBFG
GF GCG
GF EDF
cd b
cd DE
cd cBd
EE FCA
EE Gx
EE xEx
DD DG
DD GDxB
ef Ade
FE EDD
Ġb A
Ġb dfa
Ġb ow
ar ds
EG eGEG
fe AB
CC DB
CC CE
CC Ex
BB BG
BB xA
BB dcB
BB xAB
BB dBc
dA BG
dA fd
cG GB
cG AGE
FF FB
Ġed gb
Ġed ited
xG BA
xG ce
xG ABc
xG xc
xG Af
AFD x
ĠAB fB
FG AC
af EC
af dBFB
af dBFDB
af edf
xB cA
xB df
xB eg
xB xAx
ĠC BAc
CE DG
CE xA
GA xB
GA GEG
DF FB
DF cF
DF EDE
eB DE
eB AFE
Ġfd Tc
xD EFE
xD xCxB
xD FDBDFD
xC EB
dc EG
dc BGDCB
xF xB
ĠdB cG
ag ECA
ag ecGEC
ag edA
'' [_
Ġgf b
Ġgf cA
Ġgf bg
Ġgf Ted
EF FEF
ĠBA fe
eA fx
ĠBc cG
BFD CD
ga bx
ce ab
CD xG
dF xF
Ġcd fA
ĠcBA D
Ġdf fB
Ġec GF
eG d
ĠFA cF
cAE dA
cAE cAEcA
bg cE
dd FA
dd edc
dd le
ĠAF TED
fc b
fc cA
ĠFD Ec
Ġeg Ac
ĠBcd E
ĠedB D
ĠFG GE
ae b
ae FD
ae AEDA
ae dBC
ĠT de
ĠdcB f
BAG FDA
xc xA
xc xd
ba GE
fg dB
fg ba
eBG x
ĠAd dG
ĠAd gd
ĠAd dF
ĠDE FC
dE GE
Gx GE
Gx DC
fdB FDA
fdB FDG
ĠGE a
Ex EB
Ex EG
xd a
xd efg
xd xcx
ĠGAB F
Ġefg A
Ax a
Ax dc
ĠeA fd
Ġgfed ec
ĠFE c
Fx gx
Bd de
Bd ede
Ac fa
fdA gd
ĠBAB cd
ĠBAB dcB
Ġ|"^ :
Ġ|"^ |"
ac FD
ac ECG
Bcd A
Bcd xc
gec GEB
gec DD
efg fe
ad g
ĠED AF
Ġdd GB
Ġdd gf
ĠEG dB
ĠEG eg
cBA BG
Ġagf gab
ĠGG eG
Bx cB
Bx BB
bf FF
bf cBF
ĠDF c
Ab c
FED CF
cx cd
Ad fe
fG cG
gA GEA
dx a
dx fx
Ġgfg aga
gdB EE
Ġcc cG
afd DB
afd FDB
geB e
fa fe
gg gx
bd EC
bd DD
ĠAGA cBA
ĠAGA BAB
ĠEA dA
Ġdefg fe
Ġage b
ĠdG e
dcB cd
dcB cBAGA
Ġee BA
Ġee AB
ĠeB dG
gfe a
gfe cAGC
fed edc
Db m
aec EB
AGE x
ĠBAF c
ĠEFG C
BGF ECB
xg xc
ĠAFE c
EDC DE
Ġv ec
Ġv cB
Ġv de
Ġv Bc
Ġv Bd
Ġu ea
"^( /
Ġedef gf
dg fd
ĠfB eg
20 9
]"^ ..
ĠEAA d
ĠABd a
ĠABd b
ĠGc GF
ĠEE AG
ĠEE EA
xb bb
Ġac cB
ĠBF AE
EDE FD
Ġbge e
FCD FG
dcA GE
Ġdfd AFA
Ġfgf a
Be ge
cf be
edB AG
cdc BGB
cGD FAF
BAE cAEdA
GECE GE
AGA BG
cBG g
ĠcG GE
BEG AE
ĠaA de
gBG ECG
Ġ(. !
bgd GC
ĠGD FA
cGF ECG
DFA FD
DFA FDA
ĠcF e
ĠcF ce
eBB eBB
ecAF G
ecAF ECF
ĠcE BG
ĠcE ED
acA CC
ĠAFF g
CEG ECG
dcd G
dcd d
dcd efg
li ck
Ġca ae
GxG xF
lo co
Ġafe e
ĠFd de
DGB dB
BGA xG
eee ed
ged cC
ged BGDB
ged cGC
Dd xD
24 1
eBA EC
ĠM ajor
Ġbe ec
te p
ĠEc cG
ĠBdg BAc
fdc fx
st imm
Bf b
edA fdAgd
gdA DB
gdA EB
gdA DD
'''' =
EFE FEDC
CEC GE
ĠCC DC
ĠEGG e
eBF ED
Ġbc b
DxD xC
fec dA
ĠFAdA dA
fef ef
ĠFDA d
ĠdcAF Ae
CDC DF
CDC DCD
beB D
beB CC
""_ #"
aAD CA
Ġcg gc
Ġced F
Ġced d
fff fe
MT a
fcB D
fcB FD
fcB AF
adA DCA
adA FDF
adA GEDA
Ġbf fg
ĠfdA e
an g
an ge
ĠAcd d
FAF x
Ee xE
GGGG A
ABG xG
adB AG
Ġadd g
GFA D
AGAG AB
AGAG AGA
eb haf
ĠdE dE
xDB G
)! >(!
CEGE dEGE
xEG d
ĠBdgf dB
gbg g
CFCA CFC
afdB AFDB
Ġfad afa
ecBA GEA
gcB C
An ruf
xDD x
AdA dBeBe
Ba ss
abg af
qu ir
xCG D
Ġega c
xAB B
xED x
bec BE
xFB B
ĠedA c
eed dG
ĠGGA d
ĠeEE e
bged BGD
ol to
xGxG xGx
xFG AG
Ġgde a
ExF xE
BAAG GFFE
Bxc xdx
ĠAfA f
AAF FAAEE
afec AFEC
ĠgAA g
ĠFdB f
Ġre st
vf ue
Gdg dG
xcA xcx
fcfc fcf
xgg x
imat ion
xEGB eB
PMTCOM G
Ġli ke
instr umental
GeG eG
DDDDD xF
andan tino
Mo urn
add ed
BABAB cAG
axaxa xax
CGcG fGcG
aebega ec
DCDx DCD
---- ----
xEAc ecAE
Aea efe
GcC cGc
________ ________
ĠTGF GD
Ġmo to
cefg fe
AGAGA BG
xcBG BcBG
EGcGEG cG
ler tempo
vi vace
xdcA cdcA
FcAcF cAc
EGEDA DE
AfdA eAfx
lies send
BEAEB EAA
VER SE
axAdfx df
tace t
CGFGE GDG
GBdBFG dG
EGeGEG eG
# +"
- "_
. )"
A cD
A AGB
B eE
B agf
B deg
C ec
C xc
E n
E z
E cC
F dD
F dAF
F cx
F GDC
G gG
G cBA
G gdG
M C
M GA
M ore
P c
P o
S t
S LO
T GE
T cBA
T cBcd
U p
] >^
a BGEB
a AED
a dBFD
a dBFDB
a eBEB
a dAFF
a BAGD
a ir
b DC
b xe
b cGC
b gfed
c agf
c xGx
c EDD
c Tc
d xE
d gG
d cAEC
d FEF
d GFCG
d EDD
d GFEB
d GEDCG
e aA
e DCG
e ece
e agf
e AECB
f AFEC
f AFCC
f ecGEC
f BFEB
f xcx
g z
g ECE
g AFEC
g cBF
g AGC
g Tf
k t
n er
r al
r pt
s y
s on
s ive
t le
u fe
u ba
u Bd
u FGA
u fga
v dA
v dc
v ABc
w ay
x fB
x BGB
x dAd
x geg
x AAx
x CCD
x dfg
Ġ ten
Ġ pi
,, ,,<
,, ,,(
,, ,,,][^
EC EDB
Ġd bc
Ġd Tc
ĠA dBF
ĠA AFG
ĠA edA
ĠA CGC
DB FD
ĠB AED
ĠB zc
Ġe GA
Ġe FAc
Ġe GBe
ĠG cE
ĠG efg
ĠG BGG
ĠG ff
ĠG dBA
ĠG bF
ĠG ede
FD FCF
Ġc FB
Ġc DE
Ġc BGD
Ġc EDE
Ġc CCB
Ġf S
Ġf cG
Ġf in
Ġf Bcd
Ġf ABd
Ġf za
Ġg BAG
Ġg Ac
Ġg gef
Ġg zd
AF cA
AF GAG
AF dFA
BG BFGF
ĠF S
ĠF BGF
ĠF cf
ĠF cBF
ĠF fef
ĠF fff
ĠF zD
EB cdB
EB xEB
ĠE ag
ĠE eg
ĠE gg
DA N
DA xB
DA dc
DA DBD
cA cc
cA EDD
ĠD m
ĠD GDB
ĠD fdB
Ġa cAc
Ġa ll
CG FD
FDA FDA
GD FAD
BA ECE
FC DC
ec cd
ec FG
ec FEA
ec ded
Ġ:| "^(
ed GC
ed EF
ed Ad
ed ex
ed EDE
ed dcc
DG GDB
AG AE
AG xAx
AG GFF
AG FGx
GEB c
GB xc
EA dA
EA EBE
fd EA
fd ce
fd AGF
fd cAFF
FB e
GG xGG
AB EE
CF CGC
cB CF
cB CC
cB xF
cB cdc
cB cAB
ge GDB
ge FB
ge ae
ge GCA
GF GC
GF Gx
GF GAB
GF EDD
cd cde
cd cdx
EE g
ef ce
ef gfed
FE EDED
Ġb cc
Ġb BBB
Ġb fde
Ġb zg
Ġb BBd
ar y
EG cB
fe EB
fe AEA
CC FA
BB BAA
dA CC
cG dG
cG Ac
cG FDCA
DC DD
FF GE
xA ea
ĠAB FD
FG BG
af ACF
af cAFD
xE AE
xE FEG
AEC EA
xB xG
xB xc
xB gg
ĠC ae
ĠC edc
gf cA
gf GG
BF cF
at e
GA ed
Ġef b
Ġef fA
Ġef Bd
Ġef ac
eB cB
eB DD
eB ef
Ġfd ea
Ġfd Td
xD DB
xD AF
xD Ex
xD xDx
xC DB
xC BA
xC ECGCEC
dc a
dc b
dc BGD
dc GEDC
xF cF
xF EDCB
xF cFB
DE xG
DE xCx
ĠdB EB
ĠdB FE
ag AG
ag edc
Ġgf efg
dBG FA
dBG CB
Ġdc fd
AC EC
cF cfcB
ĠcA fa
ĠBd AA
ĠBd bg
EF GD
EF EDCB
EF GFEB
ĠBA z
eA CB
ĠBc BAG
ĠBG dd
Ġde eg
gd DC
gd CE
CD xE
CD FDCF
Ġcd gf
Bb Bb
Ġge bf
gG fG
Ġdf BA
ĠBAG g
ĠFA DG
ĠFA CF
ĠFA ag
cAE AE
ĠGA dB
ĠGA cf
bg DA
bg xg
dd xdd
Ġfg bg
AFDA FDAF
fc EG
fc FDD
Ġag de
gB x
Ġaf aa
Ġaf fb
Bc xd
Ġfa eA
ĠFG GB
ĠFG ef
ae FA
ee ex
ee xee
ĠT ee
ĠT FDF
ĠT EDE
ĠT cAc
ĠT cBcA
bB CF
df ba
dAF EF
ba ag
ba dD
fg bc
eBG FD
eBG ECG
ĠAd FG
ĠDE BG
cc xA
Gx f
Gx FD
Gx dc
Gx GGG
Gx GGx
fdB DD
fdB fdB
ĠEF FD
ĠGE FB
ĠGE eg
xd dc
xd gd
ĠGAB a
Ax GG
Cx CG
Ġdcd a
Ġdcd fec
Ġgfed c
ĠFE EC
gc FC
BFB d
ac EE
ac FCF
ac ac
gec CE
gec GEA
gec BGECB
ĠABA g
fcA EC
GCG B
Ġbg de
cBA EC
Ġcde G
Ġagf ga
bf DA
bf ef
bf bab
ĠDF BG
Ġded cB
dx dd
ĠAD c
Ġab fd
ĠdA a
ĠdA af
gdB FF
ADB D
ff eded
ĠBB fd
ĠBE c
fa ster
cAA g
ĠGFE g
DEF dcEF
bd gd
Ġdefg af
ĠdG ce
ĠdG dg
xf xc
Ġefe e
AED CF
be CG
ĠeB dF
fed x
fed ec
fed cAD
ĠDB GD
ĠDB Ac
aec FB
Ġfef ga
ĠABcA BG
dBFB B
dBFB dB
bge CC
xg xgx
Ġ"^ '
ĠGAG e
Ġv FE
Ġv ee
dg ag
Ġff ge
Ġff ga
Ġgg gB
Ġgg gc
]"^ [
cAEC D
aecA GE
ĠgB ce
xa xgx
afc a
ĠEC FC
ddd dc
EFG AG
Ġgc ef
Ġgc fe
Ġgc ga
Ġgc fa
ĠBF GF
BAB cA
GGG dG
Ae gc
Ġfc ed
dcA DF
EEE EA
Ġfgf ede
ĠAf ag
ĠBg GB
ĠBg ba
ĠAE d
ĠAE GD
ĠDC DG
BcB fB
cBG c
FFF GG
ĠaA ef
gBG FDG
ĠBEE g
Ġ(. =
Ġ(. _
bgd GDD
fcF EC
ĠGD FG
dAG FED
fgf ed
fgf ef
ĠTf edc
''' -|[^
ccc cB
ccc cd
ĠAe ag
BED CB
cAB f
it e
Ġca Bc
GxG xFxFx
ĠGGG c
gag ede
ĠBD FD
ged cGECG
CCC CG
ĠADD g
ĠM in
Gd GG
EBE cx
""^ )"
ĠP ag
ĠP os
age AA
AxA C
afdA GD
DxD xE
EGB eg
fec FCF
ĠDd ec
EGE x
fef f
gcA GC
ĠBf fg
afe AF
BAGF EF
Ġbf ag
Ġeee eee
al s
BFA B
ĠFAc ecA
dcAF DB
no ther
edBG FB
bgf GF
ime s
ĠbB eg
BcA Bc
GABc dB
EED FE
ch l
/"^ ?"
/"^ $"
EAE c
EAE cE
xDB B
ĠCEA d
FGB FGBFG
ur a
ĠGC BA
xEE EG
dan ce
dGED CB
-) )
qu ick
aAFD CB
Ġegc b
xAB ce
xGG GGG
bfe dBFB
EEB B
GxF FDB
ĠAEE c
Ġsig n
ĠfF FA
cfc c
ĠeEE d
ĠaAgA fA
xBB x
ĠecG e
xGF GEGDG
ĠAfd a
xCxC xC
aca po
ĠAz AG
efef ef
et imes
aag g
Ġez dB
en de
exc xB
DFAF FAcA
Acc cBA
cdcA cdcA
Verse s
xABc cB
BdA xAG
bxb xbx
Ġfbf b
BcBG BcBG
Ġgz gf
dAdA dAdA
igh t
EcA EBEcx
ĠGBF d
ĠaBB a
afdf afdf
CGF GEG
ĠbBb f
FAE AD
FEFDE FA
ĠedF edF
fdAfdA fd
fba bfbab
ument s
GBFGB F
GBFGB FGB
Do uble
dgc gB
AAFA x
est ic
GdBdG dBd
eas ure
xDEA GED
baged gA
cheer fully
FcBcA cGc
Ne ill
lup fig
!>) !!>(!
anspo sed
mor dent
SLO W
Ġten der
AFdFA FDF
GGxGG xGx
ĠPos ition
' -]^
' }"
, !>!
- "^*"
/ #
/ ![
2 66
; "
< ).
? )"
A N
A fg
A DDD
A xDE
A usk
B edc
B TA
B eFdF
C cGE
C cc
C GEA
C EDF
C res
C sus
C lyd
D EEE
D aCapo
E ECC
E ECE
E ECF
E GGF
E dAGgAfA
F dx
F cFC
F AEF
F lyd
G GEF
G AAB
G GEx
G dAGgAfA
M fe
M gf
M BAF
O ne
S w
T une
T wo
V ari
] ).[
a eBGEB
a BAE
a AECB
a dcF
b BAE
b dBGF
b fcFF
b fgb
b ceb
c gg
c EDE
c bb
d bb
d zd
e bge
e AFDC
e FCD
e AGB
e AFDCD
e edcB
f l
f xA
f GEG
f BFDC
f feA
g bf
g GFE
g AED
g AGF
g AGECA
g ceg
g Td
g gff
i ddle
l ack
m arch
p age
q ue
u df
u cBA
u cde
u dcd
v efg
v fgf
w ards
x BAGF
x agfe
x GGGGGG
z ug
Ġ 25
Ġ reel
,/ "^
,, ,,]_
,- "
Ġ| ({/
EC BB
EC xA
Ġd C
Ġd AE
Ġd eAc
ĠA gd
ĠA AFE
ĠA bb
ĠA zf
ĠB eBG
ĠB fa
ĠB be
ĠB BGA
ĠB AEG
ĠB edA
ĠB zA
ĠB TG
Ġe GE
Ġe AF
Ġe EG
Ġe BGF
Ġe EEE
Ġe EAc
Ġe EGE
ĠG GEC
ĠG dF
ĠG bg
ĠG gB
ĠG eF
ĠG bG
ĠG agf
ĠG cAc
ĠG FAc
ĠG EAc
ĠG zg
ĠG eGe
ĠG ood
FD GF
FD FE
FD xD
Ġc DEG
Ġc zG
Ġc GAd
CA EC
CA DA
GE GC
Ġf C
Ġf DD
Ġf lats
Ġf dAD
Ġg S
Ġg eE
Ġg zG
Ġg gfa
AF eF
AF FFFFFF
BG GF
BG AD
BG gG
ĠF ec
ĠF dfa
ĠF FAB
EB ec
EB egfe
ĠE GEB
ĠE fe
ĠE FDD
ĠE bag
cA cF
cA fc
cA cx
cA BcB
cA cAxcAx
cA BGEcAF
ĠD AFG
ĠD DCE
ĠD zA
ĠD TG
ĠD dEd
ĠD ance
Ġa O
Ġa Bc
Ġa Gce
dB BA
dB ed
dB AECA
dB df
dB AGA
CG GG
CG CB
CG dG
CG cGDA
CG cGe
GD c
GD GA
BA dB
xx xd
FDB FFB
FC xA
FC DF
ec DF
AE FDA
AE cBA
AE EBE
AE FAAF
AE cAEAE
ed cGED
DG g
DG GG
DG dGCG
AG cB
AG ABcB
AG BGdG
GEB FDF
GB DG
GB cG
GB BcB
GB cdcB
ED xE
ED xB
ED xFED
ED DGFG
fd CB
fd GA
fd gd
fd cAE
fd FCB
fd cAC
fd GFB
fd AFDCA
fd FDCG
AA BAGF
AA BEx
FB cdf
FB cdcB
FB dBFBdB
FA AG
AB EG
CF xFx
CF xExE
cB AFCA
cB FEF
ge n
ge AEC
ge GDG
ge GFE
ge AGE
ge dBFEB
GF FA
GF cd
cd a
cd fe
cd DF
cd xc
EE DG
EE ddd
DD Cx
ef cA
ef fe
ef ee
ef ac
FE FC
FE FB
FE xC
CB B
CB x
Ġb efa
Ġb bab
Ġb Gce
EG g
EG AGE
EG AxA
EG CDG
EG cEDG
fe gfe
fe BFEB
CC xB
BB cx
cG FDA
cG BA
DC DCA
DC DCB
DC DCE
FF EA
Ġed GA
Ġed TcB
xG xEx
xG dGe
ĠAB dd
FG FDB
FG xG
FG cGecGc
GC EC
GC EF
af xf
af ecE
af BEC
af AGFEC
xE BG
xE FGAB
xE cEBE
AEC xEA
xB ef
xB gf
xB egx
xB dgx
ĠC de
ĠC FAd
gf cAF
BF e
BF EDC
BF GBFGBF
GA dA
GA cx
xD CA
dc ed
dc CF
dc GEA
dc fed
xF ECD
ag EC
ag af
ag dfa
ag edG
'' -]
'' -[^
'' |_
Ġgf gG
"^ $
"^ ~~"
BGE DCB
dBG e
dBG CG
dBG AG
dBG ECB
dBG FEDA
de F
dD dd
cE GB
cE dEB
Ġdc ba
AC ECA
AC FB
ĠBd EG
EF xD
EF ECE
ecA FDA
ecA GCA
ĠBA gf
ĠcB gB
ĠBc gc
ĠBc ac
ĠBG eB
ĠBG eG
ga B
ga dd
Ġde ec
Ġde ae
gd ECG
gd FE
CD DGG
CD EDCD
Ġcd a
Ġcd df
Ġge TdB
ĠcBA cBA
fF AGBGdG
Ġec eA
eG eB
,> )(
Ġfe eA
ĠGA fd
ĠGA dF
ĠGA ca
bg dBDB
bg edG
dd E
ĠAF ce
Ġdef F
Ġfg bf
fc FDCA
Ġag gB
gB AF
fA CE
ĠFD Fd
ĠFD GDAD
Ġce eB
Bc cB
Ġfa Bd
xxxx D
fB ED
fB DE
fB AFDB
ee n
ee gde
ĠT dcdA
bB AF
bB FE
bB AFB
Ġ! "
Ġ! <(!
BAG FDC
xc EC
xc gf
xc gcec
ba C
AFCA FCAF
Ġga d
ĠAGF GA
fg gf
fg bgf
ecG ex
ecG dcG
ĠAFD g
Gx DD
Gx ex
ĠEF d
GEE AEEBE
Ex e
Ex CE
Ex EEEE
Ex GBde
xd AB
eC DE
Ax DD
Ax FG
Ax fxe
Ax CFxAFx
Cx ECFEC
Cx CFxExE
BGDG G
Ġdcd ef
Ġdcd edc
GED EGA
Ġgfed ce
ĠFE FF
gc CF
Fx AA
Bd bf
Ġdg BA
Ġdg de
fdA CC
ĠBAB E
ĠBAB cBc
ĠBAB dcA
ac CB
ac gc
gec af
gec BAGECA
FDC FDCG
ECE xE
fD fD
ad GB
ad agio
fcA CG
fcA FDC
fcA GFF
GCG CG
Ġdd dD
). _
FGA BG
ĠEG gf
ĠAA fd
ĠAA ef
ĠAA gA
cBA g
cBA FDA
xe ge
or t
or rec
ĠGG cB
ĠDFA e
FED Cx
Ad aA
fG CC
ĠcAG C
ĠdA gf
ĠdA dc
gdB CG
gdB GEDG
ĠBe aac
ff fc
ff fed
ff xffx
ĠBB dc
Ġcc dB
Ġcc ge
Ġcc cE
ĠgdB dgb
ĠDG d
afd cAFCA
fa ba
gg xggx
ĠGFE e
cAG FA
dAFD GDcA
dAD CB
Ġgd a
bd GC
ex cB
ex eg
ex FGe
ĠEA ec
ab xfx
ab egf
ĠdG de
xf ec
aB e
be AB
be GED
dcB g
ĠBdB AGA
fed BGDB
aec BAGDB
aa ag
AGE AGF
FEC x
def edc
ĠEFG AB
AAA eA
bge dBB
bge BGEF
bge BFEA
Ġcdef ed
ĠAFE d
bc gc
ĠGAG G
Ġv o
Ġv fe
cEA cec
Ġu be
ĠfA dc
ĠdBB b
Ġedef ed
GAB dde
ĠDEF e
dFD CF
ĠFF dF
Ġgg af
ĠfB cA
ĠfB fd
ĠfB ag
ĠBcB cde
ĠBcde fd
FEA dfe
Ġaga bag
aecA ECE
ĠgB de
ĠgB fg
Ġege a
Ġege f
afc gecaf
DCF cC
bag ag
Ġcdec dB
agf G
Gc eA
Ġac bg
ĠFB dF
Ġgfga gf
Ġgc cB
ĠBF FD
GGG GE
GGG cG
Ae ac
DDD EC
Ec BG
ea su
ĠcAFA cf
ĠDA DE
ĠAAA D
'> )(
ĠdF cB
Ġfgf A
ĠBee a
edB ED
ĠEFA e
ĠEFA f
Ġfefg ag
ĠBg af
ĠBg ag
ĠDC ED
ĠDC CB
BcB cBA
aeA ECG
Ġdfe B
cBG ECA
FFF FC
ĠaA af
gBG ECA
bgd EG
ĠGD DB
Af ec
Af ac
cGF EA
dGD CD
afA CG
Ġgece ge
bfd BGDB
bfd bf
bfd bfdbf
ĠcE EB
ĠTe mpo
Ġegf gac
CDE FEG
acA CE
ĠeG de
CEG AEGF
CEA ce
ĠAe af
dcd af
ĠGBA g
FEDA D
,,,-| _
ĠGGG GGG
eEA cf
bfdB C
gab ae
ĠBD DA
ĠcAB g
ged GED
CCC CA
Dd dc
24 7
ĠM GF
ĠM dcd
Ġbe gd
Ġcded cd
Gd dc
ĠEGB B
fBG FB
ĠCA EA
ecBG CC
FFFF GF
ĠfBB b
CxC xCxC
ĠGBB D
age AGB
bBG ECB
CEC EAECE
ĠCC DE
fdBG FG
gcd gcd
DFB DCFcC
DxD EF
DxD ExD
bfB DD
xEx EB
ĠgA fe
ĠgA eg
DED EDB
DED EDE
Ġfb bc
ĠGBdg bg
EGB x
fec D
fec GFF
xxxxxx xD
EEEE GE
EEEE EEx
EGE BA
EGE FE
Ġefgf ge
fdf EG
CCCC xC
gcA GA
>)( (
Ace b
Ace agdfa
ExE c
ExE xC
BAGF AG
gfd cA
PMT C
adA DB
adA GE
Ġgef A
ĠgG eG
cec d
cec ec
FEG FA
Ġm e
Ġm an
Ġm usic
Ġedeg fe
aAG CA
baf C
ege eg
ĠeBB a
aed F
aed G
ro w
dfa dfa
ig ure
ĠgecA ce
GGGG GGG
FxF FE
CFA C
CFA CDG
ĠBAFB AF
ĠBdG f
dddd x
dddd edcd
adB AD
adB AGG
ĠEFD c
ĠEFD g
bgdB GEB
cxc c
nd o
ĠbB gd
bre it
ĠBdA e
ĠdE eE
ĠBGEG BG
ĠGABA Bc
ĠCG A
ĠCG GC
ĠBDAD GD
ĠDGA d
Ġecd g
fecA FDCA
DEA A
dfd g
GxGxG AG
DxE xFx
/"^ \
)! >!
fBA DD
agfe BFE
ur tes
afcAF fdB
deB c
ĠGFGE FDEF
xgx ga
FxE FED
ĠS et
ĠcD cD
gBGE DE
Adf g
CCD FF
xDG AG
xAA AB
xAA cd
xAA AAA
AxG A
am n
DEFG xCDE
ccB BA
gcfc ecfc
gcfc bcgc
le n
cded ce
PMTuCOM E
PMTuCOM f
Ġegce ge
xdxd xdx
xGG GF
xGG FF
axa xgxga
bfe C
xed eegde
FxG A
GFGF GFGF
dde A
ĠGAA d
ĠfF eF
ExB E
ĠcGG g
ol low
xAG AA
fedB AFD
ĠegB c
AEAE cB
ut lich
ke n
DEDB GFGF
vd uf
as ter
xff ecGAc
Bxc xd
ĠAz D
CGE fdfEG
efef cd
exd xc
Ġgae aga
FAx FDx
edBA GD
gxf xe
DFAF dADG
fxe xf
dEF dEF
un edited
xGE EE
ace afdBA
agx gf
agx ga
bxb b
xcA xd
co urtes
xBBB BA
BxF xx
Ġse hr
cgec egfe
FFFE GFEC
xDDD EDED
CCCCC xC
xgg fee
cac ac
AxGx FFG
EcA dcAc
EGcG ecGc
ĠgGB g
Al ternative
FcA fcA
ĠfAd g
Ġaz ag
Ġ!/ /![
GeG dG
DDED AFEF
xBe bBfbA
fdad bdad
CDFG CD
eAcA dcBG
gGBA cAeA
DEEDE ECB
ACFA xGAf
DEED EE
DDFD ECA
xDEG xE
ck ing
Ġbec aue
Ġued S
CGEG x
FGGG GEE
xeA xcAxd
EAEB EA
xEEF GFE
xdddd xed
Con t
CEFC xEF
GFEDE FGA
AAe AAAeA
xGGGG GGG
ĠcBF cBF
xEDE GEDE
Ġle ng
DEGDE GE
ĠdcF dcF
Ġ|"^\ >"
CFAcC FAc
ecGAc fdB
gcgcgc bc
FcfcF cfc
AxcAx cAD
AeceA ece
xBdg xAce
CDECD EC
eege egee
AGFAGF AG
AxGxF xGx
gbbg gb
EAGG xD
xEGcx EGc
GGxGFF xF
Bri dge
Ġespres s
GEEAEE GE
Sto mp
ĠfeF feF
bgadf gcd
Maj estic
rw in
efAde AaA
stimm t
ĠGbF aEg
Ġfin ish
ffeded cG
BGgG gGd
EBegfe BA
DGdGCG cG
GBcdcB FA
EEddd EE
EGcEDG BD
xBdgx cea
xcgcec gc
ecGdcG e
ExGBde gx
easu res
DxDExD Ex
CFACDG BG
courtes y
* **"
/ ({
4 80
A dD
A gec
A gx
B gb
B ea
B gBG
B dfa
B BAc
B cea
C cG
C cE
C ho
C lar
D cA
D cD
D GED
D cx
D GDC
D FDE
D ol
D ance
E ECA
E eA
E cAA
E xxE
E EDF
E xDE
E GGA
E sus
F dG
F fF
F AFG
F BAA
F FAB
G gGG
G ig
G axg
H um
I G
L AS
N G
N O
P ed
R pt
T FA
a GECC
a GED
a GECB
a aga
a dBGEDE
b Bc
b GECA
b cAEA
b BGF
b BGC
b dBGB
b BFDC
c cF
c GGG
c aea
c Tg
c lear
d z
d dBB
d GFF
d gfed
e GFE
e aec
e EDC
e GDCG
e GFCG
e ABd
f fF
f ECE
f AAA
f BGDD
g o
g FECA
g cAFC
g fdF
g AEF
g Tg
g gaa
l ebhaf
m an
n a
p re
q us
s ing
t a
u cA
u FA
u DE
u eg
u dg
v cB
x GDB
x cF
x FDD
x gfed
x deg
x cBcd
x fgx
Ġ 57
Ġ if
,, ,,,-[^
nl e
,] /-
EC AFGEFD
Ġd DA
Ġd DG
Ġd EEE
Ġd cGA
Ġd dfa
Ġd GAd
ĠA ECB
ĠA aB
ĠA CDE
DB FDF
ĠB AEC
ĠB geB
ĠB ADF
ĠB feB
ĠB BAc
ĠB eAc
Ġe O
Ġe GAB
Ġe BGA
Ġe cGA
Ġe bgf
ĠG FC
ĠG eA
ĠG ba
ĠG AED
ĠG CDE
ĠG FAB
ĠG GBc
ĠG DAG
FD FF
FD xE
FD GA
FD DDD
Ġc h
Ġc BGG
Ġc Dd
Ġc edA
Ġc cGc
Ġc Cc
Ġc horus
Ġc EBc
Ġc bcb
se cond
GE cE
GE EEE
Ġf T
Ġf DFA
Ġf FBd
Ġf zg
Ġg F
Ġg r
Ġg GD
Ġg Gc
Ġg cdc
Ġg Gd
Ġg ve
AF cF
AF dADF
ĠF CC
ĠF eF
ĠF gfe
ĠF ca
ĠF dGd
ĠF EBA
ĠF cFc
ĠF INE
ĠF aEg
ĠE de
ĠE ECC
ĠE eee
ĠE ged
ĠE EAA
ĠE zF
ĠE DAE
DA BAG
DA dAG
cA BB
cA ag
cA GECE
ĠD FDA
ĠD GAc
Ġa fA
Ġa Bcd
Ġa Ad
Ġa re
Ġa ud
Ġa cdg
Ġa fAd
dB dd
dB FCD
dB bagf
GD DG
BA cA
BA Bcde
FDB FD
ec BGDB
ec BFB
ec BGB
ec FDCA
AE FC
AE EE
AE FDCB
ed DB
ed ECA
ed EA
ed DD
ed cAF
ed BGDB
ed cGA
DG FD
DG AD
DG Bc
DG BAc
AG BB
AG xB
AG xF
AG GEE
GB C
GB dG
GB xd
ED DEF
ED CDCB
EA cx
EA Bce
fd EE
fd fg
fd cAFC
AA Ac
AA cBA
FB AF
GG AF
GG CC
GG Fx
AB cC
AB BBB
AB GEx
AB BEEE
CF f
cB AFE
ge s
ge FE
ge AFDA
ge BGDG
ge GEDB
ge BGA
GF GABA
cd cG
cd eB
cd fa
EE d
DD EDx
ef gc
ef efc
FE e
FE FED
Ġb def
Ġb dg
Ġb Be
EG CB
EG ADE
fe FDA
fe AC
fe FEB
fe dBd
fe Ace
CC c
BB BAG
BB Bcd
dA dB
dA cFAFcF
cG xG
FF FC
FF FGA
xG AE
xG Ax
xG cde
xG cg
xG AGx
xG ced
xA ec
xA ae
ĠAB a
ĠAB EF
FG f
FG FDG
AD f
GC EGC
af gf
af BGD
af afa
xE ee
xE xGx
xB D
xB BG
xB xF
xB xcx
xB dfec
ĠC FB
ĠC ee
ĠC DCD
gf BE
gf CD
gf fc
gf BDB
gf GFB
BF dFB
BF EDF
CE Fx
cAF c
GA cdc
DF cD
eB dA
eB FEDA
xD xG
xD xEx
xD EDF
xC DG
dc EA
dc GFE
dc BGECC
xF EC
DE FC
DE AE
DE GG
DE xF
DE FEDC
ĠdB dG
ag AA
'' ][=
'' |[=
Ġgf fA
Ġgf ad
"^ -
dBG x
dG FA
dG cG
dG xG
Ġdc S
Ġdc ecAF
Ġdc TBA
ĠcA ee
eE eee
EF AA
EF EDCD
ecA GB
ecA GECG
ecA ECB
ecA GEG
ĠBA ed
ĠcB FG
Ġ|: {^
ĠBc g
BFD CG
ga be
ga dg
ce ece
Ġde AA
gd b
gd AGF
gd GDCG
gd dcd
CD xC
CD xDD
dF x
Ġcd ag
Ġcd efg
Bb fB
Ġfed b
Ġfed fed
gG x
ĠcBA GA
Ġdf aa
Ġec fa
ĠBAG C
ĠBAG BAG
cAE FA
ĠGA ag
ĠGA df
ĠGA BAGF
bg EA
bg GDG
bg ECB
bg edE
Ġdef ga
aA DG
aA ce
fc ec
fc DC
fc FDC
gB CG
fA dB
fA cf
ĠFD g
ĠAc EG
ĠAc cE
Bc BAc
fB CC
fB fBgf
ĠedB b
ĠFG GD
ĠFG BA
ae FE
ae aba
ĠT dcB
ĠT aga
df ff
ĠGF d
dAF e
xc cA
ĠDE AE
ecG FCF
cc ff
cc cBc
cc ecd
Gx BG
Gx dx
fdB AFD
ĠEF c
ĠGE GD
ĠGE zG
Ġea dB
Ġea ef
Ġea cg
Ex GB
Ex FE
GDA G
GDA BG
xd xfx
Ax GE
ĠeA AE
Ġdcd fed
Ġgfed cA
ĠFE GB
ĠFE cB
gc FE
gc GECB
Bd dc
fdA dA
Ġ|"^ '"
ac FDB
Bcd BG
efg x
fD CG
ĠABA GF
ad ac
fcA DD
fcA CD
Ġbg bd
Ġdd GG
Ġdd gb
ĠAA fg
Ġba ec
xe ae
ĠedcB cd
Ġagf B
Bx AA
bf CB
ĠDF de
Ġded cBc
)" =
Ab dim
cx cdc
Ġ_ _
gA a
ĠAD dB
ĠAD dc
ĠdA ef
gdB AE
Ġgb df
Ġgb ea
ff ga
ĠBB gf
ĠBB ce
ĠBB df
fcAF ECA
ĠDG AF
afd GF
afd faf
GFE FGA
Ġgd gB
DEF GG
bd GE
bd bd
ex ed
gC gC
Ġage A
be EC
be weg
gdBG DA
gfe A
gfe BE
ĠDB GE
aec GEA
aa af
ĠBcdB cd
Ġged b
def B
ĠEFG f
Ġbag g
ĠAce gfe
ĠGAG c
ĠGAG FD
Ġv cA
Ġv fg
Ġu ee
Ġu ad
"^( *)"
BDG AB
on dea
xxxxxxxx x
ĠDGG d
ĠFF FC
Ġgg fd
ĠfB dc
'] /
aecA GECG
ĠgB a
ĠgB cB
Ġgag fe
ĠDD DA
ĠDD EG
ABA eABA
Ġad ec
]/ {
ĠEB DE
xb af
EFG dc
Gc gG
Gc gcG
Ġac bc
Ġgc ag
ĠBF AG
BEC D
dAE DG
Ġcf AF
Ġcf cB
Ae BA
Ae ae
ĠCE GG
Ġfc cd
cCC c
ea x
ĠcABG AF
ĠDA DA
fFF fFF
'> (
gdG ECG
Be dB
cdc BAG
>( (
ĠBg BB
ĠAE AG
dBFD CF
ĠDC EC
GECE GECE
BcB AF
Ġaa ed
Ġaa fe
Ġaa bg
Ġaa ac
cBG CE
ĠcG AE
ĠaA AF
gBG FB
ĠGD d
ĠGD EC
ĠBcBA GA
dGE DE
25 6
25 8
fgf efede
''' -[^
da dd
Ġgfef ga
CEG CEG
ĠAdfd fd
CEA e
Ġ::"^ \"
ĠBBB F
fFD CG
Ġca ve
gGE DE
eAF EF
cEB ExE
ĠAcA e
ĠFd ec
eEA cfefc
ged GE
ged AD
ged BGFB
CCC CF
ĠADD e
24 8
ĠGg gG
Ġbe low
te il
BGEG BGBe
xGx GG
ĠCA GF
FFFF Fx
FFFF FFF
ĠdD ED
ĠdD FB
fdc DA
dBd AB
er h
.! !
Ġfag B
DCC D
BDD c
cg BA
Slow er
DFB c
DFB FDB
afdA DB
Aa Bb
ĠFAdf ec
Ġfb gf
EGB GE
EGB EG
ĠEDD f
fec x
fec FF
fec BF
fec AFF
fec AFE
xxxxxx B
xxxxxx G
ĠDd fe
ĠDFB FDF
ĠCF cF
ĠDGB g
ĠecB a
fef x
fef efe
Ġccc a
beB ED
ĠEe eE
Ġdb gf
Ġdb Bb
ĠGDG e
adA EC
Ġbf gd
ĠfdA g
cec c
Ġt orn
ĠAdB c
CO DA
ĠBGA g
BBBB d
ĠCDE FGA
baf FF
Ġbb ba
Ġbb bf
ĠDDD C
GBG d
GBG eG
GBG BGB
ĠABcB cA
BxB cBxB
aed AA
dxd cB
DDDD DDD
cdef ga
)"^ ^"
ig s
AAAA AAA
CFA x
eb ee
ĠCEG C
ĠdE d
Ġfdfd fd
22 9
pl aintive
Ġecd a
ĠBgB c
DxC xCDF
aeB D
eeee eeed
ĠEAB e
ĠCEA f
ĠBa BB
ĠBb bB
Ġ"_ (
Ġ"_ #"
Ġ"_ \\"
BBA GA
ĠaB a
AGx FG
CCx CCxCC
uA vA
Ġw ay
xDG x
abg b
ĠBge b
ffff eccc
Ġbgdg bg
dgd gd
xED CD
bec BB
GxA f
ddc cA
FxG xF
fdcB FDCB
ExC DE
DxF xB
EAB cC
xCC CCC
ĠCc cG
dxc xdx
ut ter
GcG e
FFA x
xFG c
edcd edc
)"_ >
efga bc
FGG C
gba c
vd uB
ter lude
lan g
cAcA cAcA
xff bd
bar red
xCEG xCEG
gggg gg
CGE GC
ĠJ o
ĠGz F
vc ue
vc ud
Ġex ac
ĠfaA d
fgd f
DFAF dADF
FFB Bc
un s
un clear
BdA BG
eBAG exeg
fab xgbd
abd gadd
FxC xF
ĠTcA ec
edBF EB
Ġrepeat s
Min or
Ġline s
Ca dd
Instr umental
AAGA xG
Ġr uns
II I
ĠcAD c
and o
FFFFFF xF
For m
eab aeaba
ĠK err
hythm us
ĠNo tes
xDDDD DDD
xAAAA AAB
GBFGB FG
ecGecG e
EGEGE GEG
Ġst andard
ccec dcBB
Ro cking
DAEA DAEA
AAxAA xAx
oun try
dBdBdB dA
Ġchor ds
xGGGc BGF
Usu ally
cEBEG AEG
Sp rightly
VERSE S
dgag cg
Ġleng th
LAS T
AFdADF AF
EABce AG
fBfBgf Bf
ccecd cAA
ondea u
cEBExE cE
" [^
) \
) :"
, "^/"
. ]"
/ /
2 64
3 64
4 30
? ""
A gg
A dcBA
A dce
B dBF
B gfe
B AFCD
B eee
B eBEB
B xxE
B efga
C FAd
D ECA
D FFG
D cBAB
D DAG
D lyd
E N
E de
E FCB
E FCD
E xAx
E xxxxG
F eE
F GEA
F ff
F FDE
F xCx
F dcBA
F fFf
G gB
G GEE
G fG
G def
G BGA
G TG
G GDGD
K ar
M usic
P A
P P
R I
T ee
V io
Z ho
a GDA
a BGDB
a cAFD
a dBGDB
a AECC
a gef
a AFDF
a eBEE
a dBAF
a ug
a BFDE
a aff
b de
b bf
b eee
b reak
c S
c cGE
c cAG
c aB
c FEDA
c zd
c cee
d cAFCA
d bgd
d gBd
d dBAG
d gfx
e aa
e GDF
e xxa
f GEE
f BGEC
f ecGE
f bb
f BGED
f aea
g xA
g DCG
g cAFF
g AECE
g xex
i re
k k
l d
n der
o d
o lyd
r ee
s cri
u ec
u st
v BA
v FE
v DF
v ag
v eg
v amp
w or
w ice
x GEF
x FBF
x GGA
x CCx
x abx
x gad
x dAc
x DCDAF
x cGAB
y le
z dB
Ġ k
Ġ ECF
Ġ Lively
Ġ roll
,,/ -
'/ "^
EC DF
EC DDx
EC CEx
Ġd EF
Ġd dAF
Ġd FAB
Ġd bgb
Ġd DAB
ĠA fdF
ĠA AEF
ĠA gab
ĠA ecd
ĠB ae
ĠB DDD
ĠB fgf
ĠB DGF
ĠB bgb
Ġe D
Ġe cF
Ġe GFG
Ġe cBF
Ġe eAe
ĠG m
ĠG fd
ĠG ecG
ĠG DCD
ĠG ggg
ĠG edG
ĠG DDC
ĠG aag
FD EB
FD xG
Ġc DB
Ġc ED
Ġc dF
Ġc ad
Ġc GFE
Ġc GBd
Ġc gef
Ġc gcd
Ġc aAe
CA CA
CA GE
CA GF
se r
se mi
GE AG
GE xB
Ġf eG
Ġf FGA
Ġf eAc
Ġf ADf
Ġg o
Ġg AG
Ġg EGB
Ġg eBd
Ġg gaa
Ġg EEg
AF BG
,,] <
BG dD
BG FDCA
BG Bdg
ĠF BFD
ĠF GDF
ĠF dcF
ĠF dce
ĠF CAF
EB DA
ĠE FC
ĠE efe
ĠE cdc
ĠE fgf
DA fd
DA GF
DA FDAFDA
cA fcF
cA GFCG
cA GFEB
ĠD b
ĠD fd
ĠD ag
ĠD cBc
ĠD EAc
ĠD cBd
ĠD maj
Ġa FF
Ġa aAa
Ġa va
ECA DEB
dB fc
dB EDA
dB DCB
dB dBd
CG FDA
FDA CA
GD DA
GD GG
GD EG
GD DDD
BA BF
BA BE
BA GFF
xx DE
FDB FEC
FDB FEDA
FDB DFB
FDB FxD
ec ed
ec ge
ec ae
ec EDA
ec BFDD
AE AD
ed ECG
ed fd
ed GF
ed cE
DG DAD
DG xDB
AG BG
GB ege
ED f
ED DB
ED CCx
EA DA
EA xE
EA xDFA
fd ECB
fd AFDC
fd bfd
AA ce
FB FDB
FA dB
FA ed
FA AFx
GG GEG
GG AGE
GG GAB
AB cAF
CF EFC
cB AFB
cB cBc
cB FEG
cB cdef
ge BFD
ge AGEC
ge BFEE
cd AF
cd dc
cd de
cd Ad
cd fed
EE xC
EE EDD
DD e
DD Cc
DD FFAA
ef C
ef E
ef ag
ef xg
ef edcB
FE FF
CB C
Ġb Bc
Ġb be
Ġb da
Ġb dcd
Ġb za
EG Acee
fe EE
fe cAG
BB dB
BB dd
BB Bcc
dA cG
dA GDE
dA degf
cG exc
DC DBA
FF e
FF FEC
Ġed af
Ġed efg
xG GE
xG FDB
xG cG
xA xF
xA eA
xA ddd
AFD CE
Ġ:: {^
ĠAB dG
FG CD
FG AGFE
af fd
af FE
af dBFD
af cAB
xE DG
xB cde
xB GEGEB
ĠC cA
ĠC aa
ĠC ea
ĠC maj
ĠC zC
gf BGD
gf cAC
gf BGA
gf GFF
BF FB
BF ECF
BF EDCA
at ura
CE e
cAF cA
GA xc
GA cf
GA cded
Ġef bf
eB DA
eB FEDB
Ġfd fc
Ġfd cc
Ġfd Dd
Ġfd zB
xD c
xD dd
xD FAB
xD AFAD
xC xx
xC xExE
xC xExC
dc cBB
dc cdx
xF AGx
DE d
DE xEF
BE d
BE cE
ĠdB FG
ĠdB cE
ag cF
ag dAD
'' [^
'' '|
Ġgf Ac
Ġgf agfe
"^ &
BGE x
de E
de gec
de gb
de gega
dG dG
Ġdc g
cF f
cF xF
ĠBd DG
ĠBd gG
EF EA
EF GFG
EF cf
ecA ECG
ecA DD
ecA GDG
ĠBA ec
ĠBA AE
ĠcB gf
eA g
ĠBc af
ĠBG df
Am b
Am oroso
ce F
ce AB
ce gac
ĠGB EA
Ġde G
gd a
gd EC
gd cd
gd fc
gd bd
gd GDD
CD DA
CD xD
cGE DCB
Ġfed cBc
Ġge eA
gG FDA
Ġdf aA
Ġdf zd
ĠBAG AB
ĠFA fa
Ġfe AB
ĠGA f
bg BGFD
dd cA
Ġdef ed
Ġdef ede
aA GEDB
Ġfg gc
gB FC
gB CE
gB AFC
ĠFD FE
ĠFD de
ABc x
in ver
Ġce FA
Ġce ze
ĠAc gc
ĠAc cg
Bc ef
Bc xB
xxxx xG
xxxx xA
Ġeg BG
Ġeg cd
fB EG
ĠFG cG
ae CG
ae ECG
ee ec
ĠT dBd
ĠT EDEF
bB FCB
bB ECF
df ce
df aA
df bf
ĠdcB a
dAF AFD
xc ec
xc cxB
xc gba
FDD FF
ba l
ba dBB
Ġga ue
ĠAGF c
fg fdg
eBG Be
eBG eBGB
ECC x
BGEB GEG
cc cG
cc cdc
ĠAFD FAc
Gx FF
Gx DGx
fdB c
fdB ADA
ĠGE ge
Ġea df
cD cFc
Ex EA
Ex FB
Ax EE
ĠeA MA
Ġdcd cdc
gc a
Fx DA
Fx FG
Fx AFx
Bd b
Bd ge
Bd eB
Ac ce
Ac cAAG
EDA G
ĠBAB cdc
ĠBAB dGB
BFB ExEc
ac BG
ac DA
ac ECB
edc BAEA
Bcd AF
gec BE
gec GEE
eg gg
BGB EBEBEBE
ad EC
Ġdd AG
Ġdd GA
Ġdd ab
ĠAA af
cBA BA
Ġba ed
ĠAFA e
gE e
xe fd
xe xdx
xe xex
ĠGG cA
ĠGG cd
ĠGG ce
ĠDF df
Ġded cBd
BEB c
FED EFED
cx GE
gA DG
gA ce
dx ef
Ġab ed
Ġab ef
Ġab gd
ĠAGE a
ĠAGE e
ĠdA ed
ĠdA TBA
gdB c
gdB AD
gdB GEDB
gdB AGD
ĠBe eG
ĠBe bg
Ġgb ae
Ġgb bd
ff b
ff ef
ff gf
Ġcc g
Ġcc ed
Ġcc ef
ĠgdB gdB
afd ge
afd AFDB
afd afd
afd cAFDC
ĠBE ef
fa ec
AEB EGA
bd abd
ex ec
ex geB
ĠAGA cFA
ĠEA BG
ĠdG FA
xf fe
xf ga
ĠcBc g
ĠGED c
fE g
/> )(
be GD
be dBE
be stimmt
dcB D
dcB FD
Ġee eA
ĠeB df
ĠeB fa
gfe fd
fed ed
aec CG
aa ba
ĠdcA dcA
def A
def ede
ĠGFG AG
ĠGFG AB
Ġfga bag
bge GA
xg fd
xg xa
xg eded
xg bxb
Ġ"^ #"
Ġfaf f
Ġfaf g
gF f
Ġv ariant
aC EGAcee
ĠfA ea
"^( ""
on igs
dg bg
GAB F
GAB x
fx AA
ĠDGG BAG
ĠFF GE
ĠfB fg
ĠfB fb
Ġaga in
Ġefed cd
'] >[
aecA EE
aecA ECF
GFG ddc
ĠgB cA
ĠgB fd
ĠgB fe
ĠgB ga
xa xc
ABA d
BAF EE
ĠAGAB cA
afc af
Ġad gf
ddd cd
ĠEE d
ĠEE AE
ĠEE dc
agf ga
gb gd
ĠFB FF
Ġfc g
Ġfc fe
Ġfc ba
DDD DA
ea xg
ĠcAFA cA
ax aa
ĠdF dFdF
dcA GD
dcA GECG
Ġdfd e
EEE FE
Be BB
edB de
ĠBAA D
BFDF xBxF
cdc gc
Ġcdc b
ĠAf fg
ĠBg zd
dDA D
DCD xA
ĠCD GD
cBG FD
cBG FCB
BEG AB
ĠaA f
ĠEDE g
GCC C
ĠGD GDGB
ĠBcBA GF
DFA DFA
ĠEDB d
ĠdAFA df
bfd GB
bfd DF
ĠDFAF AF
Ġefga bc
fgf xfg
dFA d
ĠTf efa
acA ECE
FDE FD
ĠBABd GA
ĠAe AA
ĠAe gf
dcd cB
ĠGBA GF
ĠGBA cBd
ECD EDCA
ĠAGFG AF
ĠBBB dcB
ĠBBB BBB
it y
Ġca AB
Ġca fe
Ġca ce
Ġca bg
GxG AG
fdBF EB
gecG CA
ĠGe ge
ĠFd ad
ĠGGG BAG
gab ga
DGB dA
ĠBD c
Ġbd bb
ged cA
ged BGG
Ġfdc fdc
Ġdec c
24 6
eBA EF
ĠM b
,) }
te ady
ĠEc cA
fAD E
ĠdD de
fdc DD
fcG CC
age cAC
AxA xG
er isch
Ġfag c
Ġfag d
ĠCC EC
ĠCC CB
ĠEGG f
ĠEGG g
({ ^
Ġbc gc
DxD xDA
DED GD
EGB EGBEG
EGB exgeB
fec GF
xxxxxx C
EGE Dx
ĠCF FA
AcA e
fef gab
gcA GD
gcA GEC
gcA GEA
cdB cA
CDC CB
Ġs p
gdc GG
aAD E
Ġced a
adA FDCA
Ġda nc
Ġgef B
ve uc
ĠfdA dfa
Ġ|:"^ *"
ĠAdB e
ic h
ĠaAA cBA
baf EE
baf CC
ĠFEE f
BxB xAxGx
FAF cD
ĠdDD C
gdGD CB
)"^ /
ig u
AAAA BB
GGGG AA
ABG dBdAB
EFA AF
CFA B
ĠBdG BAc
bgf BD
adB AB
CDF x
CDF EDCB
EEF GFE
cxc xcxc
nd lertempo
CFC FC
FEE Fx
ĠGAF d
ĠCG F
ĠCG FE
ĠCG eG
pl erisch
DEA x
eAG ECG
/"^ +"
AAG FG
ĠAdF dAd
xDE FFFF
EAE e
FGE FF
xCE FA
ĠeE AG
ĠAFAF dc
ĠaB gd
gbg b
DGDB G
ĠGce G
ĠS ee
DxB xB
GAF GE
Ġw or
xAA AF
AxG xG
Ġuc S
xDxD xD
DEFG ABc
fcAE FCA
gBA GDB
Ġo ther
Ġaefd ec
ĠECC f
xDF x
xCG FG
xGG GxGGG
Ġpart s
cdcB cd
ĠEGF EDC
DEB EDB
adc E
!>! [
xed ef
fdcB C
fdcB FF
eae bega
xDC DCB
Ġsig s
dde e
gBfBgBfB x
xExE xCxE
DEFE FG
ĠGEGB dB
gdBA GEDB
Ġddc cBB
xGxG xDxD
xdd E
xdd dgx
xBB BBB
ĠGBDG Bd
CEE FEF
ĠBFF e
vd uc
ĠW h
eded eded
bad gad
ĠFGB g
Ġdz dB
CGE GB
Ġbfd b
-"^ ->
aag gf
Bdd de
EBEB DBDB
afec AFCC
]"_ -
GEGE AEAE
ĠGz BG
xCEA BECB
ĠFAE d
ECEC EC
FDFA ECEG
BGBGBG BGBEBEBEBE
ĠdEE c
ĠdEE g
xFD FB
DAF ADAFA
Ġre quir
ĠADA DAc
ĠBgA g
agA GDC
bxb xb
Ġcfed cB
ĠeGG d
BxF xB
BxF AFA
vo ice
vF uA
FcF cFcF
agfg fdf
Ġth us
ĠGgga ge
Ġgz eg
dAdA dAdB
adBA GD
"_( "
Afe fdfef
bga ec
Ġfz af
EcA ecAE
400 6
PMTCOM E
DdD dD
Sc ord
xAGF GFEF
bxa xg
"^\ =
Gr azioso
ddcB xd
DBDB DADA
DBDB DBDB
CEGEC EG
xedc GBc
Ġbbg g
GExE GEx
FAGF AGFA
CGcG eGcG
gem utlich
om e
BAe fdfef
ap s
Ġsh e
Ġsh ould
ĠDFdF dF
"^* **"
EDEA GDGB
Ġso lo
EDEx EEE
DExE GExG
]>( [
fxfxf xfx
xBGD xBGD
xccx ddE
xEEEE EEE
EFdEF d
xGGGG GGA
BddB ddde
fxgg fd
ted turn
ĠAn ruf
DEGDE GED
Ecc xddE
CFAcC FA
DcF cD
DEFDE FDE
cfef afef
AAFE xF
~~ ~~
ĠSt amn
mit ted
Ġinstr uments
xeec gfec
xDBGx DBG
xcAA xcFF
Ded eD
FFAG xFED
athet ic
CGED FDFB
lin gen
EExEx EEx
xFcFB FBE
chl uss
Ausk lang
CcGE cGEG
ACFB FCAC
GCGCG CGc
Clar ine
xcBcd cBA
afafa efc
xBBG cGx
afdfaf ac
BdABG dBd
BeBEB eBE
Zho k
ccGE GABB
olyd ian
scri bal
EBDA CGB
ĠaFF a
FDBFEC EA
EAxDFA xD
cGexc xcx
xCxExE xG
xFAGx FEx
inver tedturn
xccxB BA
Ġdanc ing
Ġrequir ed
Scord atura
$ :"
' ]|^
' {/
( ([
) )(
+ ""
+ +"
. \
0 4
2 76
2 33
3 90
A cBd
A bgA
A cFc
B DDD
B BAGF
B fcf
B dAC
B eAe
C dC
C phr
D fe
D GEG
D xxx
D im
D xAx
D dcBA
D istinctly
D acapo
E BGB
E GFF
F dd
F AEA
F cBA
F dcB
F xxxxx
F IN
F rom
G dD
G ex
G AFED
G ADE
G gGd
J e
M y
M FE
M fed
M ix
M dcd
M ay
R E
S F
S G
S a
S chluss
T cd
T CB
T AFA
T GED
T re
] -"
a h
a v
a EDA
a efe
a AFEC
a GDE
a AFCC
a cAFA
a efge
b CD
b DCA
b ADA
b GFDB
b bE
b dADA
b ecGEC
b BGA
b AGC
b BGEDB
b fcAB
c fF
c gC
c cGc
c cdef
c efc
c agc
d bf
d AAA
d gdg
e aF
e geB
e FCC
e fdc
e GFF
e GEDCG
e xBc
e ky
f fB
f cGECG
f afc
f AECC
f AFDF
f cGEA
f AGB
f Ted
g xD
g FDCA
g AFDB
g cde
g cAEC
g cAFCA
g gab
g GFF
g GECF
g cBB
g ue
g fdADA
g BAEB
h l
i cal
j o
l ong
m odal
m ple
n icht
r st
r um
s ka
t s
t ain
t wo
u GF
u Ac
u Ad
u GFG
w ung
x cAF
x dD
x ECD
x bab
x DCx
x BBc
x cdcd
x AFAF
x dBx
x gfgf
Ġ 16
Ġ 40
Ġ Var
Ġ lower
,, ,,|[
EC FD
EC FB
Ġd own
ĠA GDG
ĠA aeA
ĠA cAB
ĠA FBd
ĠA EBA
ĠA Mdc
ĠA fBg
DB b
DB EB
DB DG
ĠB y
ĠB bA
ĠB FAc
ĠB baf
ĠB ADE
ĠB DBA
Ġe EGc
Ġe eBe
Ġe Ed
ĠG dA
ĠG ecE
ĠG cdc
ĠG dGB
ĠG CEA
ĠG gBd
ĠG dfa
ĠG deg
FD FC
FD DC
Ġc DA
Ġc fB
Ġc ve
Ġc oda
Ġc zF
Ġc bac
Ġc ou
Ġc orrec
GE EC
GE AF
GE GEx
Ġf FA
Ġf FG
Ġf fAf
Ġf our
Ġf liessend
Ġg cBA
AF AG
AF xG
AF AFx
BG BAB
ĠF fdB
ĠF fcA
ĠF eel
ĠF zE
ĠF cAf
ĠF fFf
EB eF
EB EAEB
ĠE S
ĠE AC
ĠE EDB
ĠE ACA
ĠE efg
ĠE edA
ĠE dce
DA dDA
cA fe
cA DCG
cA GECD
cA GECF
ĠD CG
ĠD cde
ĠD CEF
ĠD zc
ĠD aag
ĠD DBA
Ġa m
Ġa cdc
Ġa Bf
Ġa deg
Ġa vd
dB AFC
dB Bd
dB AGFE
CG cGC
GD dB
GD GC
GD EF
GD GCGEG
BA BB
BA Ax
BA ABA
BA FDCB
BA AGB
BA cAcA
FC EG
ec dx
ec eeef
AE ce
GDB GD
FCA CFA
ed EDB
ed cAA
ed cGECG
DG GGG
DG FEF
DG AGDB
AG AD
AG ABc
AG ABA
GB BA
GB Bc
GB eBGB
GB DFAd
EA BEA
fd EC
fd GEB
fd CE
fd cE
fd GED
fd eg
fd cGC
fd BGC
AA C
AA CD
AA ccc
AA xex
AA xFxFxF
FB BB
FB cF
FB Fx
FA DE
FA BE
Ġz ug
GG xF
GG Ac
GG FAx
AB EB
AB BAG
AB dx
CF ECF
GEC EA
cB BAG
cB xc
cB EDE
cB xAx
ge FDA
ge AB
ge ag
GF FDx
GF xDxE
cd dG
cd ce
cd cc
cd cAA
cd fdcd
EE EFED
DD FDA
DD EDE
DD CxC
ef efe
FE ECEC
Ġb Ad
Ġb ddd
Ġb fdc
Ġb ede
Ġb Bdg
Ġb fgb
EG CG
EG CD
fe b
fe dBA
BB ed
BB BGG
BB BAAG
dA GEDB
dA ECF
DC EC
DC xx
DC FC
DC xD
FF GB
FF GF
FF xE
FF FAc
Ġed dG
Ġed bg
Ġed Tc
xA g
xA edcBA
FG cB
FG FAx
FG xDFG
AD GE
af GE
af ecB
af AFDCA
af dBAG
af ecAFE
xE ce
xE GGG
xB AF
ĠC DG
ĠC FDC
ĠC cBc
ĠC al
gf GB
gf af
gf ad
gf xe
gf ede
gf cBC
at ter
CE DA
CE xG
CE xB
CE FGA
CE FAF
DF BG
DF EB
Ġef gG
Ġef Bc
Ġfd AA
Ġfd ff
xD CG
xD GDB
xD FGA
xD xCx
xD FAd
xC DCG
xC EGx
xC FCACFC
dc r
dc BGDG
dc DCG
dc GDD
xF cA
xF EE
xF GFG
xF FEEC
DE AF
DE GF
ĠdB ee
ĠdB zG
ag GDB
ag GG
ag ga
ag dGDG
'' ]|[
'' <=
Ġgf A
Ġgf gc
"^ ."
de xf
/) "^*"
/) "^>"
dD CC
cE e
Ġdc a
ĠcA cG
EF efe
EF cEFc
ecA x
ecA ce
BD GD
ĠcB a
ĠcB TAG
eA cf
ĠBc S
ĠBc GE
ĠBG f
ĠBG dF
ĠBG BGBG
ga n
ĠAG ge
ĠAG cd
ce fd
ce EE
ce ga
ĠGB f
ĠGB eBGB
Ġde BG
gd EG
CD EGc
cGE DCA
dF EDCA
Ġcd gd
Ġfed cB
Ġfed cdf
Ġge ac
gG BG
gG fF
Ġdf Be
Ġec b
Ġec ga
Ġec fg
ĠBAG e
eG ec
ĠFA dG
ĠFA cAFA
Ġfe gb
ĠGA gf
bg FCA
bg GF
bg cD
bg ecBG
bg BGDCG
)( !
ĠAF fd
ĠAF ag
aA ea
Ġfg c
Ġfg ba
fc GDG
FCF c
gB CC
gB eg
ĠFD EA
in n
Ġ|{ [
AFA dc
ĠAc FG
ĠAc gf
ĠAc ca
ĠAc fb
Bc edc
Ġeg cB
Ġeg bc
fB EC
ĠFG dc
ae FC
ae EG
ee eB
ĠT BGG
ĠT fdf
bB dg
ĠdcB D
ĠdcB cde
dAF EDC
BAG BA
xc GB
xc xF
xc fcB
xc ccx
ba CG
ba eG
ba dAFB
Ġga de
fg edc
eBG FDE
ĠAd FB
ĠAd FE
ĠAd ad
ĠDE DA
cc cde
Gx GD
Gx AGx
fdB FA
fdB EG
fdB FDD
GEE FF
ĠGE cB
ĠGE FF
ĠGE ecAc
Ġea gfed
ĠGAB C
Cx EG
Cx cC
ĠeA dg
Ġdcd faf
GED EG
ĠFE FC
gc f
gc FD
gc FCA
gc bc
Ġafd b
Fx g
Fx EE
Fx FF
Bd ga
Bd dBAG
Ac cd
BFB FDBFD
ac GB
gec ECB
eg ce
eg bg
eg ible
efg ed
fcA EB
fcA EF
Ġdd DD
Ġdd ba
). .."
ĠEG af
ĠAA ed
ĠAA eB
cBA ED
Ġba B
BDB GB
xe xfx
Ġagf geg
ĠFED CD
ĠGG e
ĠGG dB
Bx BG
ADA GDABG
bf ge
bf FCB
ĠDF GG
ĠDF eg
ĠBGG b
ĠGBd b
ĠDFA edc
FED xC
gA aB
Ġab ca
Ġgfg edc
ĠAGE f
gdB EDG
ĠBe gB
ADB DADBD
ff ec
ff ab
ĠBB ee
ĠBB zG
ĠDG ef
afd cAD
afd AFDC
ĠfdB fed
ĠBE AF
ĠBE ec
geB ED
Ġgec b
gg bd
GFE FD
dAFD CG
dAD CF
Ġgd TcB
DEF GFGA
bd FA
bd cB
bd CB
ex gx
ĠEA df
Ġdefg ag
ĠdG AF
xf xg
Ġfedc dB
fE e
be ECA
be ae
be FCG
dcB dx
Ġee af
gdBG A
gdBG DD
ĠeB AF
gfe BFE
fed cAFA
Ġ!>! !
aD CF
aec BAEA
aa BB
AGE DD
ĠdcA f
ĠABcA Bc
BGF ECA
bge DB
bge BA
bge BGEG
bge afdge
xg be
Ġ"^ \
Ġ"^ ?"
#" (
#" {
EDC xCx
Ġv BG
Ġv ge
Ġv FG
Ġu ef
ĠfA fa
dg edg
ĠBcB cBc
cAD FA
aecA c
GBd GB
efe dB
ĠgB ec
ĠgB gf
ĠgB ag
tr io
ĠDD c
ĠDD FE
BAF CC
ĠdAF f
cBc xB
Ġege e
ĠEC c
ĠEC DG
ĠEC ce
fga d
ecE c
bag g
ĠGc cA
ĠEB cB
agf gf
agf cF
agf cBAECA
Gc fc
Gc ecG
Gc gx
Ġac b
Ġac fg
Ġgc cd
GGG AA
Ae aAe
ĠCE cE
BBB BAA
Ec a
Ec g
ĠDA EA
ĠDA Bd
ĠDA Ac
ĠAAA cBA
gdG ECA
gdG CC
ĠdF e
dcA DB
dcA CA
eEB E
Be b
edB DG
Ġcdc f
>( _
ĠAcBA GE
ĠDC CA
BcB x
BcB cB
ĠceA cBd
ded ef
ĠBdd b
FFF GFEB
ĠcG cA
ĠcG ed
Ġcec c
ĠaA fe
ĠaA fa
ĠEDE c
ĠEDE f
cFA cG
fcF ECA
Ġaba a
ĠGD EA
dGB D
dAG FB
dAG FA
dAG FG
dAG FCG
cGF EB
dGD CA
bfd DD
GAG x
ca ge
Ġefga bg
ĠEFGE AG
bx eg
ĠdGBG BG
ĠTf ece
CDE FD
acA ED
ĠeG cd
CEG e
CEG cDA
CEG Cc
CEG cFAcG
BED CA
fdBF ED
gecG FC
ĠGe ef
Ġddd dcc
ĠFd fe
ĠFd bd
ĠGGG e
gag c
ĠecdB cA
ged cB
ged GC
CCC DC
cGA BG
ĠADD f
re at
re land
ĠGd fd
ĠGd ge
ĠGd dA
ĠGd ga
eBA GEE
ĠM GFG
ĠM oderato
,) [
Ġbe r
Ġbe t
Ġbe ag
Ġfafd e
cAGE FE
ĠEGB GEG
ĠCA GE
FGF EFEDE
ĠdD dc
Ġabaf ef
ĠP ED
ĠP rimo
age cAG
GdG cG
Ġ|"_ ="
Ġ|"_ ?"
Ġ|"_ ?""
'''' -[
ĠCC EE
ĠCC EG
bdB FA
eBEB eB
Ġbc ba
GCD GDD
DxD FD
xEx DC
gcG DA
gcG CE
geA CC
xAx AA
ĠDFB b
ĠCF FF
ĠdgB a
Ġceg edc
AcA DAfd
us ly
BdB e
fef dB
gcA ECE
xFx ED
afe AFEDA
CDC xDC
Ġs ing
gdc BGDG
ĠEe eG
BAGF x
gfd BGD
adA DF
ĠgG ga
ĠeAfA gA
ĠFAc edc
fdcA DD
Ġm ore
Ġm easures
xcx ef
bBF EC
ĠCDE d
dcBA Bc
ĠFGE c
ĠFEE g
FDCG D
GBG BG
ĠBABG AB
aed AF
ĠcdcA GF
cEF cE
cEF cEFc
cEF cEFcE
dxd xcxcx
FAd fdA
)"^ -"
ĠgecA GE
ĠfdBd fd
AAAA xAx
ri p
ĠBdG dBd
BGBG xGEx
ĠFFF d
ĠFFF FFF
dddd g
dddd dg
cBAG AA
cccc x
cccc ccBA
]- ([
gfc fgc
22 3
gedB GEE
gedB GED
pl aintively
fecA EB
ĠAGGF FEED
ĠgAfA eA
ĠBGD GBd
dfd e
GxGxG xG
DDC CA
AAG GF
Ġp p
cAGF EF
)! <(!
fBA FDD
xCE FGF
ĠEGD g
Ġeae e
Bbm ix
EGEB E
ĠGC CG
ĠABB F
CFCA F
FxE F
ĠS tep
ecBA EC
ĠcD dD
exe xexe
pirit oso
gcB EA
gcB EE
ĠgGG f
xDD EDCB
Ġw e
am e
am es
am ent
he n
xEA A
xEA BBBAB
Ġo mitted
ĠGBdf ed
cded cd
fxf b
PMTuCOM g
CECG C
bec GEG
GxA xc
GxA xBx
GxB xdx
xFF x
bfe G
ĠeF ce
ĠAAG c
uggest ed
acAF ECA
fdcB D
cBcd cBAB
Ġafc a
ĠGgg b
cfc fc
vA uG
bgec CC
EAG AFAA
Da dd
ĠeAc b
Ġ- -
Ġ- ""
Ġefef ef
fGG e
ĠAFBF dF
Ġgcc b
FFA ca
AxF xA
gcD CA
FGFE EC
Ġcff a
ĠBFF f
efga gf
efga bg
ne ss
ĠddB e
ĠW in
slow ly
bar n
so ft
FAcA fcAF
eFA e
xCEG xFcA
xCxC xCxC
ĠcAdA eA
ĠGBde cA
xCF GAGFC
dBdB dBdB
bae bae
ĠBddc cB
Bdd dcB
Ġez ed
en i
xEFA cx
FEFE FEFG
ĠTBA Bd
fi ges
fecAF ECA
xCEA xCEA
GDGD x
BGBGcGBG GDGDx
CAFA C
DAF cAFD
ĠBag B
ĠBag b
ega de
Ġexpres sivo
Ġ4 3
FGD EF
vg uf
ĠI rish
ĠI II
ĠI reland
ĠBgd f
xBBB BAx
cAeA EB
ĠeGG e
BGd xGA
CFAF cACE
cxe xf
ceA eB
ffg x
Ġgz ga
xCDC DCD
ĠTED DB
igh er
egc g
xEGB xEGB
ĠH o
um ber
Pi ano
fxg xg
ĠfAd a
xExC xG
time s
bbg gb
tt uoso
dddc cAGA
ĠGGBB dd
cdefg b
xfxf bg
BGdB CEGE
Ca pers
ĠL e
Ġcae g
Ġbff b
Gr ave
xgf gfedB
bgbg bgbg
ant abile
ĠAb de
ĠAeeA ce
ĠTcBc a
Ġh armony
Ġh igher
GGd GGGdG
om etimes
ill egible
xCCCC CB
cGcG cGcd
Ġso lemn
xcxB xGxA
IO N
ccde xc
Bar red
bBe bBe
CEAG AA
daA da
mo oth
EGcGE x
ĠDEFGA BGA
........ ........
ĠffA e
DcG xDdA
lower s
quaver s
AT FF
CecC dBFC
ĠQuadrille s
Ġacce ed
ĠdAD c
cdAcd A
FFAF Fx
xGdB CEG
EFcEF cEF
Affe tuoso
ĠPl aintive
DAGE GGGE
Ġbeweg t
Ġet c
GdgdG dgd
FdD gGfF
BFcF dBB
agedc BAGFEDCB
fdBfdB fB
ĠgeE g
AGABcB dc
ACECA CEC
dEFdEF dE
xBBBBA xBx
GgGG fGGe
gffc efe
CDxDD Cx
fcec dAcA
utter wor
EFcf EBeF
eky ll
jo del
xgfgf ece
ĠBbA a
GEGEx EB
ĠFeel ing
EBEAEB EGA
DAdDA dDd
BAcAcA fA
xFFEEC CB
xcfcB AFC
xcccx AGF
gAaB dBeB
utterwor th
! ""
" !>!
' t
( !>!
( !>!.
, {^
, .^
- "_-
2 21
3 32
< )(
A L
A bg
A BGB
A fG
A dddd
A Tc
B R
B ga
B ae
B BGB
B cAA
B dBB
B xDE
B is
C z
C cA
C eee
C xFx
C antabile
D de
D dG
D cc
D DADGDFD
E cBc
E AEE
E AGA
E FDCB
E FFG
F eF
F ex
F edcB
F TF
F lute
F igure
G AEA
G fA
G dE
G BGDG
G edc
G AED
G gF
G ddd
G dcd
G dAd
G BAGF
G cBB
G TB
G zA
G cded
G dcBc
H old
I ME
K ere
L o
M O
M Bc
P F
P t
S L
S tr
S ol
S et
S eni
T AB
T DE
T ae
T fed
T ea
T ue
a GEG
a BGG
a BGF
a AGA
a cGCG
a cAFB
a aAa
b AC
b ce
b GCA
b GFD
b ecAE
b gfg
b dAFDA
b BFDF
b cBF
b fcAA
b ecBA
b le
b cAFB
b dcD
b Tg
c DEF
c cAFE
c FEG
c efa
c cdec
c cdx
c lick
d gdB
d ax
d DCD
d bfdB
d ggg
d Tg
d ol
d min
e S
e xEx
e gae
e ABcdefg
e ecGdcGe
f GFCG
f AFCD
f FAc
f BEF
f bab
f Tg
g S
g h
g EDA
g AEE
g GEF
g BAFD
g cAFA
g AGG
i li
k no
l s
l ue
l arg
r s
t on
u GE
u AF
u BG
u fa
u BAF
v ge
v gf
v fg
v Ac
v ari
x ecA
x ece
x dBd
x abc
x cBE
x FGx
x gfa
x gagf
x fab
x EEEEEE
x DADGDFD
x GDCGDCx
y et
z ef
z gfg
z ded
} _
~ #"
Ġ 17
Ġ 110
Ġ lo
Ġ 22
Ġ ho
Ġ triplet
Ġ teil
,, "
'/ "_
,] /)
,] /^
,] )([
EC c
EC BG
EC FA
Ġd CA
Ġd EB
Ġd BE
Ġd aA
Ġd dBc
Ġd EBB
ĠA GDB
ĠA CD
ĠA bg
ĠA gBG
ĠA geA
ĠA gae
ĠA CFG
ĠA ir
ĠA fBf
ĠB T
ĠB fA
ĠB BFB
ĠB BEB
ĠB fb
ĠB afe
ĠB ow
Ġe AGF
Ġe GGF
Ġe eBd
Ġe rr
ĠG fg
ĠG be
ĠG CCC
ĠG zc
ĠG DDF
ĠG dDd
ĠG gFf
FD c
FD DF
FD Fx
FD EFG
FD GGFD
Ġc EGA
Ġc rot
Ġc abe
Ġc oro
GE FF
GE xDFBdB
Ġf O
Ġf fF
Ġf ADA
Ġf Fd
Ġf FAd
Ġf eBe
Ġf cdg
Ġf ABe
Ġf fcc
Ġf ollow
Ġg Bb
Ġg GGF
Ġg ue
Ġg eAe
Ġg reat
AF BA
AF AFA
AF FDAF
AF FDAx
BG BA
BG DCD
ĠF FC
ĠF GDC
ĠF FEC
ĠF cBc
ĠF BAE
ĠF FDE
ĠF CCD
ĠF edF
EB AE
EB GEG
EB eBEBeB
ĠE dBG
ĠE GDA
ĠE def
ĠE ddd
ĠE ecB
ĠE ede
ĠE EAB
ĠE cGe
DA a
DA e
DA ce
DA GDD
DA FDAF
cA Bd
ĠD u
ĠD FCA
ĠD eg
ĠD AFE
ĠD dFA
ĠD dAd
ĠD DGB
ĠD EEG
ĠD DAG
ĠD DAB
Ġa E
Ġa dA
Ġa Bd
Ġa ABA
Ġa gdg
Ġa cAB
Ġa Acf
Ġa usk
ECA CE
dB dA
dB dBG
dB AC
dB Ad
dB dBA
dB ADF
dB AEDB
dB cded
dB dGdB
CG CEG
CG ceG
FDA EF
ECG EC
GD xG
GD GBd
GD DEx
GD FDFA
BA AE
BA EDE
BA AAAAAA
BA AGAGAB
xx Fx
xx BAF
xx CxC
xx AxA
xx AGFE
FC cA
FC xDxE
FC FGC
FC FDFCF
ec dd
ec Bd
ec AFDB
ec FECA
ec GDE
ec dcd
ec BAGF
ec eeee
AE xEGBeB
GDB g
GDB CA
Ġ:| {^
ed FA
ed ad
ed GEDB
ed AFF
ed Gc
ed fded
ed FEc
DG GB
DG dD
DG dG
DG BDG
DG AGDG
DG xGxG
DG BABG
DG xCDF
AG xA
AG xc
AG CDE
AG FDCG
GEB eE
GEB GEG
GB EB
GB GEB
GB EG
GB BGB
GB eF
GB dcB
GB eCG
GB dxf
GB cdcBGB
ED xF
ED DE
ED Dx
ED EDC
ED EDE
ED xCxC
EA K
EA AG
EA eB
EA Bdede
EA cEAcec
fd CF
fd AFCA
AA xG
AA xEx
AA BBc
FB EB
FB dBF
FB cBcA
FB cBD
FB dedB
FB dFBF
FA a
FA BB
FA cAF
FA dx
FA def
FA cFA
FA CFA
GG cG
GG GFE
GG cBAG
GG dGe
GG GFFEE
AB cG
AB eB
AB eA
AB EGB
CF GB
cB a
cB CG
cB EF
cB cc
cB FDG
cB dg
ge DC
ge FF
ge gB
ge AFDB
ge adc
ge BAEE
ge xdc
GF e
GF f
GF xF
GF FGA
GF GABG
GF AGFAGF
cd cx
cd FBA
EE FGA
EE FED
EE AGFE
EE GEx
DD DB
DD xG
DD CE
DD DCD
ef cd
ef bg
ef agfe
Ġb E
Ġb GB
Ġb eA
Ġb afA
ar li
EG xG
EG FDC
EG cx
EG cEG
EG BAGA
fe EC
fe ef
fe AFD
fe gf
fe cAD
fe BEC
fe AFEA
CC g
CC EF
CC DCD
BB cE
BB BEB
dA CE
dA ECC
cG AG
cG FDCB
cG FCE
cG ccx
cG dGe
cG dGeG
DC xCG
DC DAG
FF GFG
FF GGA
Ġed GB
Ġed dD
Ġed ba
Ġed cD
xG dG
xG eG
xG fb
xG eGcG
xA a
xA dx
xA ax
xA xFx
xA xBxB
ĠAB EB
ĠAB DA
ĠAB ed
FG CF
FG BGF
FG dGG
AD FD
GC FB
GC xC
af ECG
af GDB
af AECA
af ga
af FDC
af AGE
af ADF
af BAB
af AGDA
af edD
xE EB
xE AG
xE eg
xE EDC
xE xAx
xE FGE
xE xGA
xB GE
xB cx
ĠC CF
ĠC cd
ĠC FAB
gf BFB
gf BGG
gf GFDB
gf GFD
gf gfg
gf xdc
BF cFB
CE d
CE GFE
CE FEF
CE GEF
cAF ECD
cAF EDCA
GA a
GA BAB
GA da
GA DGADG
Ġef Be
Ġef ecGc
eB FDF
Ġfd FA
xD ddd
xD EFG
xD EDE
xD xFx
dc EB
dc ED
dc FE
dc BGB
dc xe
dc FDCF
xF FEF
xF cFAF
DE FDB
DE FEDB
DE EDx
DE FDEF
BE g
BE GE
BE ge
BE eEA
ĠdB af
ĠdB gg
ĠdB gb
ĠdB ca
ag dAB
ag abag
'' |=
'' >^
Ġgf Te
"^ !"
dBG dGBG
cC FC
cC EA
de C
de gd
de Ac
de cAc
de eeed
de BAGAB
/) "^/
dD dB
dG FCA
dG xGx
dG ABd
Ġdc eA
Ġdc gc
Ġdc ecAc
AC EB
AC FC
cF d
ĠBd E
ĠBd dF
ĠBd ad
ĠBd bd
ĠBd ze
eE c
eE dE
EF GFED
EF EDx
ecA Ex
ecA fecA
ĠBA zB
ĠcB cBcd
eA fcB
BGD CA
BGD EG
ĠBc GB
ĠBc EG
ĠBG ef
ga fe
ga de
ga agf
ĠAG AD
ĠAG ce
ce aa
ce ecBA
ĠGB fe
ĠGB af
ĠGB dBGB
Ġde AG
Ġde GA
Ġde eB
Ġde len
gd bg
gd GFF
gd GEDCG
gd zB
CD EDCA
CD EDCB
dF c
dF ECA
dF dDd
Ġcd ga
Ġcd dBc
Bb BbB
GECG EC
Ġfed G
Ġfed efa
Ġge gf
Ġge GA
Ġge gg
Ġge aea
gG eGdGcG
ĠcBA BAG
Ġec gB
>|: {^
eG f
eG cdeG
eG dBdGdB
,> "_=
ĠFA EB
ĠFA fc
ĠFA ca
ĠFA da
ĠFA cg
Ġfe BA
Ġfe eB
Ġfe aa
cAE cAE
bg AF
bg ECG
bg AA
bg CC
bg GC
bg be
bg BEC
bg fdc
bg dBGA
dd xA
ĠAF EB
ĠAF dD
ĠAF cf
ĠdBG ecA
Ġfg BG
fc fgc
Ġag cd
Ġag gc
Ġag Bd
Ġag bf
gB FE
gB FG
gB ca
gB dBGB
gB egf
fA xA
ABc f
BFDB F
BFDB FDF
Ġce F
Ġce gec
Bc GB
Bc GF
Bc fe
Ġfa cd
xxxx xf
xxxx xEx
Ġeg Ag
fB EA
fB fB
ĠedB E
ĠedB DGB
ae AED
ae AECF
ee gfef
ĠT cd
ĠT dA
ĠT ce
ĠT df
ĠT ba
ĠT BGB
ĠT AGE
ĠT GFG
ĠT dcA
ĠT cAGE
ĠT edcB
ĠT cBcd
ĠT fede
ĠT gfge
ĠT IME
df ede
dAF EE
dAF dAFA
AFCF AFCF
Eb min
xc fe
xc xe
xc xGx
ba ec
ba fdAFD
ba fdDB
ba fdDA
Ġga ab
fg aga
fg agec
eBG FB
eBG FG
ĠAd ec
ecG x
ecG xGx
cc edc
cc BAx
ĠAFD e
ĠAFD EFG
dE x
Gx g
Gx BA
Gx AEA
fdB AGG
fdB FEDB
ĠGE GG
Ġea Tag
Dx gxgf
Ex EC
Ex AB
xd xA
Ax axaxAc
Cx a
Cx DB
ĠeA ee
ĠeA fa
ACA EA
Ġedc b
Ġedc BAB
ĠFE AG
gc FG
gc FCF
gc ac
gc BGCB
Ġafd afd
Ġafd fa
Fx CFGA
Bd GB
Bd cBc
Ġdg Bb
fdA fAdA
ac ed
ac GEB
edc ECA
edc EDCG
Bcd edc
Bcd gdgd
gec FG
gec BGEB
gec bged
eg ga
eg bge
eg ede
ĠdBA a
ECE AE
ECE AG
xxx a
xxx g
BGB x
ad CA
ad GG
ad FF
ad bd
ĠED dB
ĠED CG
fcA GFC
fcA DCF
GCG CGCGC
Ġdd dcBA
BC c
ĠEG dG
ĠEG cc
ĠEG ca
ĠEG zG
ĠAA eg
Ġba ad
>"^ /"
xe xcxc
ĠcAA C
ĠcAA b
AFF EDEFD
ĠFED EFG
Bx AG
Bx AB
Bx GF
Bx ee
ADA d
ADA ADB
bf FDA
bf GDB
bf GEB
bf BFDD
ĠDF GD
ĠDF EDCB
ĠDFA dfa
BEB A
"_ *
ECF ECFEC
cx fx
Ad cA
Ad AB
Ad DF
Ad efg
fG f
fG g
Ġ_ "
gA aA
dx ec
dx cd
ĠAD TFA
AFE DG
Ġab fe
Ġab de
Ġab bf
Ġab bc
ĠdA DB
ĠdA dB
ĠdA fa
ĠdA fdAF
aF EA
gdB AB
gdB dG
ĠBe GE
ĠBe GA
Ġgb db
ADB AGD
ff fef
ĠBB af
Ġcc GG
Ġcc ff
ĠgdB b
afd fd
afd AFDG
ĠBE ed
ĠBE dc
geB CG
geB ECG
fa xf
GFE xE
cAG FDCC
dAFD x
dAFD CF
Ġgd ag
bd DA
bd fd
ĠAGA BAG
gD g
ab cD
>! >)!
ĠdG eg
xf edc
xf afb
ĠGED d
aB EE
AGF d
AGF ECC
be AEA
dcB xd
dcB FCB
Ġee gf
Ġee ae
Ġee ze
ĠBdB B
ĠBdB cAF
fed AF
fed GG
fed ADA
ĠDB dB
ĠDB cB
ĠDB Gd
,,,- ]|=
aec FE
aec CC
aec BF
aec ea
AGE DE
Ġfef gab
ĠGFG BAG
cEC cFDA
Ġfga B
Ġfga bc
Ġfga gfg
BGF ECF
bge gec
xg gf
xg ag
xg bf
xg xfx
xg xbxb
ĠAce G
ĠAce gec
ĠAce geg
EDC DB
EDC ED
Ġv AG
Ġv ce
Ġv Ac
Ġv ABA
cEA ce
cEA ABA
Ġu ecA
Ġu aed
Ġu eaed
Ġu nedited
ĠfA AG
bE a
Ġedef ef
BDG cGDB
on s
Ġae af
Ġae ad
GAB BA
dBA DD
dBA GEA
dFD dF
dFD dFDdF
Ġff fA
ĠDGG e
ĠFF FB
Ġgg dc
Ġgg de
ĠBcB e
Ġfgaf ed
,,,,, [^
]"^ ...
cAEC FDAG
ADF GDFAD
tr ansposed
xa gfed
xa gex
xa agg
ĠDD d
ABA BD
dFB d
ĠGFED CB
ĠABG c
Ġad ge
Ġad ac
ĠEC FA
ĠEC ECEC
]/ -[
]/ [=
fga e
fga gf
fga gfg
bag dBAG
ddd dB
ĠEB FB
ĠEB eg
ĠEE cB
ĠEE zB
agf f
Gc BG
Gc dB
Gc GB
Gc cd
Ġac fA
Ġac cdg
Ġac cdea
Ġgc eB
Ġgc fg
ĠBF c
BAB cBc
EDE FGA
GDE GED
GGG AG
GGG BAGFG
Ġcf ad
ĠDA GE
ĠDA DD
ĠAAA ABc
'> )
gdG d
dcA BcABc
Be ef
ĠBcA d
ĠBcA f
ĠBcA BG
ĠAf gd
ĠAE zc
BcB cBc
32 4
ded fd
ded cd
ded cAcAc
cBG cB
FFF AF
FFF ECG
FFF FB
FFF GFE
ĠcG GB
ĠaA ae
gBG CA
gBG ECC
bgd AE
bgd GEB
ĠGD EB
Af ef
dGB c
dAG FC
DFA BAF
ĠcF f
afA CC
ĠdcBc ec
bfd fd
bfd BGDG
bfd BGFDG
ĠcE e
GAG BG
){ =
ĠAdc BA
Ġegf b
CDE FEDC
ccc cdc
ĠeG dg
CEG cA
CEG cGE
CEA xC
ĠAe BA
ĠAe fd
ĠAe eB
Ġgfd a
ĠGBA A
bC b
li p
ĠGBG BGB
ĠBBB E
ĠBBB Bcd
it tle
Ġca Bd
fdBF ECB
ACG B
ACG CA
aAF CB
ĠBdc a
ĠBdc f
ĠFd dB
ĠGGG g
ĠGGG GFG
bfdB CB
bfdB AFDB
cGCG cGC
Ġdefe fd
eee ef
ged g
ged ed
ged GEB
21 9
Ġdec a
AGC CA
{/ _
eBA GEA
ĠM v
ĠM BAB
ĠM usic
cAGE DCD
Gd GF
fBG ECE
fdG FDG
ĠCA C
ĠCA F
ĠdD cd
fdc FF
Fc fF
""^ +"
fcG DA
fcG ECA
ĠP C
ĠP M
ĠP fedc
age x
age ga
dcG CC
'''' [=
ADG A
cg be
CEC EB
CEC DA
CEC DFAF
FAc FEG
bdB DF
>"_ -
DFB dfdB
cCF cF
Ġbc bc
bfB DB
ĠgA fd
ĠBdgd b
EGB GEB
EGB egb
fec BFB
fec fecf
DFD ED
EEEE FG
EEEE GGGG
gecA GECG
ĠCF FC
ĠBed G
ABd ABdA
ĠecB E
ĠBde G
ĠAcB g
BdB ed
CCCC DF
fb fe
ceg cBdg
GFF FE
cdB cd
afe cAEA
afe cAB
CDC DG
ĠcGE e
Ġs tr
Ace ac
gdc E
gdc BG
beB ECA
aba b
""_ [
aAD CF
fAA f
gfd cGC
gfd GFD
gfd BGC
fcB FE
fcB FCF
adA FDC
Ġue S
al k
al se
BFA x
cec geadc
Ġm ake
Ġm arch
Ġm easure
xcx cd
BBBB c
BBBB cd
cGc xGcde
baf AD
Ġbb bd
ĠGFD g
GBG BGBG
ege a
ege xe
aed AED
FAF c
FAF AFA
ro bab
ĠcBB a
ĠcBB g
ĠFc fa
FAd EA
ĠgecA Bc
AAAA eeee
GGGG FFFF
GGGG GGFE
ABG d
EFA BB
FxF c
FxF FB
ĠfcA e
GGF GDBCA
adB FDG
Ġ|! <)!
edcB cd
edcB EDCB
dec edAcB
bgdB DG
CDF c
AGAG FF
AGAG AFEF
DEG GE
DEG AGE
DEG BGDEG
cxc xf
dBAG FDB
ĠdAd fdA
CFC x
CFC FE
FEE x
FEE EC
]- ))
BcA x
BcA GF
GABc xBAG
gedB ed
Ġecd d
Ġecd ed
po ss
pi z
EED x
ĠBgB e
ĠdAB B
ĠfG f
eAG ECC
ĠFAG ABc
"^/ /"
ch er
DDC DD
eeee x
CEF GG
AAG FA
AAG FF
xDB BBBB
fAFD E
fBA EE
ĠeE eE
ĠEGD d
ĠEGD e
CCB B
ĠBb fe
ĠBb Bc
Ġ"_ *"
afcAF CC
ABcd eg
DFDA GFE
FxE xD
ecBA GE
exe ec
Tf efg
ĠgGG a
ĠgGG d
GxE cE
GxE xDx
GFx FE
xDD EDB
xDD Dx
ĠbgdB dB
AdA dBeB
xAA d
xAA BAGF
ccB x
xEA ABAG
'. =
GFEC GEcG
EEx EEF
ffff ffed
CDD DCD
xBxB e
hr ee
bgBG CA
fxf xfx
fxf xcxef
PMTuCOM F
ĠECA E
GBA GDDEx
adAF CA
dgd Fd
cxB xA
xED ED
xED xEC
bec BGE
dfe dB
No te
beA CC
ĠcFF e
ddc e
ddc cB
xGB cdcdx
xFF FG
Ġdffe ece
bfe dB
fdcB AFB
eed eB
xAxA xAx
dde gddcd
In st
CEx ECExE
CDA B
xcxc xG
xcxc xcx
vA uAvA
EDED EDED
CxE xC
bgec GEB
dee ef
GBB dd
FxA c
CCG CA
ĠGBeB gB
xBB BA
xBB cd
xBB BAGFD
GcG x
GcG cd
ĠAGB D
ĠGEB c
FGG FE
Ġccd A
ĠgeB b
ĠW m
ĠW alzer
cAcA e
eded eg
ccd cdc
FAcA CEGE
egf edc
th is
EGF AG
xCF E
xCF GBA
Ġdz F
Ġdz BG
Ġdz cA
Ġdz fd
ĠAz BA
Ġdced cA
ĠGDD d
ĠAagf ed
Tgf ga
EFGF EDC
ĠEdc E
ĠTfe fd
ecAc fcAc
FECE GF
ĠdBFD FD
xCEA D
xCEA cA
ĠFAE e
ECEC ECEC
efgf bd
exc xexd
xFD FG
DAF xDAF
Ġre p
ĠeBGB eB
aBA GDG
ega a
cxG xExFx
gsam t
vf ud
DEFA xc
cdG deG
Gdg CGdg
vg ua
AcBA ecBc
ĠI rwin
ĠecGE GE
fcfc x
AGEG xBBB
cgec g
DAdADA d
fecG FCA
fcBG FCG
ĠAceA ce
DxDD xD
cxe xd
cxe xcx
cxe xcxex
DxDxD xC
ceA ce
xce ggg
cAAG GABG
xGGG cBFE
gea efg
ĠAccB BA
agag agac
CFAc CEFA
ĠAffe tuoso
DDFG AGFD
Ġaeae ae
FFFG AA
ĠfeB f
PMTCOM B
Play ed
DGBd GBdg
DAE FDAEF
BABG xcGB
ĠGfed cB
EEED DD
EEED DDDD
EEED DDEE
ĠMe lod
EAce FAce
EAce DAce
BdG dA
ĠTAG BG
,"_ *"
FEEE EDD
DAdf abaf
DEFB e
"^\ >"
"^\ ."
"^\ ="
eFd ecF
bagfed cB
xAcA fcAc
AGAF xFFA
CcC cCcCc
FBFB FBFB
eBfB e
xGAG FEG
dga dd
dcdB dAd
GDFD FAd
Ġqu aver
DGAG BG
xAFD EG
)"^>" (
xAce xBdg
cBAGA ff
DEEDE ED
AecA eAce
Ġfacf af
CGx GFED
aAaA aAaA
ceB eA
DBGB DBGB
DEFED EF
cxcB xBc
ap yet
ril li
exdx edc
exdx cdxc
xFGA BA
ĠEEB D
Ġan imation
xBBA xA
Ġver y
ige s
efgb efgb
cGcG cd
cgf cg
GEDCD EDE
xexd xc
FEFD FCF
CCDC ECFE
aeae ae
xfa fe
xdddd dcB
xDxDD xDD
end ing
ĠdbB g
CEFC FE
GdBG dABG
FcAF cGAF
eeeee edc
EGEGE AEA
ade gcd
xEEEE FG
GxAxB xF
dccc cBcB
CGECG ECG
GBcB ec
feee eAcd
DDDxD xDx
cgx fgc
BABx AB
GEedB cGx
GBD dGBD
fdcAG FDCA
GdBdG dAd
ĠgbB d
BGGE EB
eAec eAec
cff ga
xcGC deB
Ġund otted
bdd bb
AeceA eBe
cecB e
xEED DCx
edde ecde
dccd dBcd
anc y
anc ing
ĠggB f
FCEF GFEF
xBfB dBfB
ECcC ECcC
CFAFCF AF
ĠExpres s
ĠExpres sion
ĠEnd ing
DDxDx EA
gGdG gGdG
dBFdBF dB
xdde eAA
GFGxF cB
bbbbb bc
ĠFdD g
CGcGCG BG
DGADG AD
EAxCEA xB
EAxCEA xD
GGGFD DG
GGGFD DGx
GFGD FDE
dDGD dD
GdBdA BGd
ecee eg
cBBG GFFE
GFGCG F
ddedc edc
GeGeG eGe
Po mpo
FEEDED xG
ddxdd x
AN DAN
xBAGF GC
ĠfDD f
EDxFED xE
FBcdcB cB
EGCDG DA
xBgf ffee
GEDEGA cd
gabae xba
FxEFED FE
xGGFF EEF
fxexf xex
cacac aca
Agx AA
Hum ah
lebhaf t
DFcD EGcE
beweg ter
Kar apyet
BGdD gGd
GDDA BDDc
FFFEC CFE
degega EG
Mix olydian
EABEA B
CFECF ECF
ecEc ecE
BR EAK
GdE dFdDd
Kere ns
dbfdB fdb
dggg gdB
Ġerr or
Ġausk lingen
dBdBG BAF
GDFDFA dc
DGxCDF xC
GBeCG ce
ĠbafA df
BBBEB EBE
cGccx cde
xGeGcG eG
xAxBxB xF
FGdGG dGd
BFcFB FDF
GADGADG A
xDddd cdc
xFcFAF cA
dBGdGBG d
deeeed dd
gBca cB
BDGcGDB D
FAcFEG cE
robab ly
ĠMelod ic
Humah us
! \
. :
4 70
? "^
A BGD
A fdB
A fcA
A dBA
A xCx
A xdx
A cBB
A zB
A nother
B y
B cAF
B efg
B BGG
B on
B DCD
B cAc
B dcBA
B DCE
B dcF
B egb
B sus
C edc
C FCC
C EDE
C xxG
D ECG
D gf
D cBA
D ddd
D FCE
D zA
D orian
E dB
E AFE
E GEF
E AEG
E GEDE
E GGGG
E xCD
F fd
F fc
F AFF
F FDF
F AGA
F AFCB
F FBF
F TE
F dFd
F fFfF
F iddle
G dF
G xxx
G gab
G cGA
G dBd
G xDE
G cdec
G Td
G zG
G eAe
G ecGecGe
H op
J IG
M AF
M ag
N umber
O S
O r
P AG
P ause
S teady
S piritoso
S uggested
T O
T ef
T DC
T ab
T EDE
\ #"
a w
a xA
a FCG
a GCG
a GEDB
a BDB
a GDC
a BAB
a cBF
a cGA
a xAx
a cBE
a dcC
a Tge
b xE
b cGE
b in
b AEB
b FECA
b cAFF
b AEE
b gab
b cGCG
b ecD
b xgx
b aeC
b old
c gd
c Dx
c afd
c dBB
c cAB
c ceg
c eBc
c fAc
d u
d aa
d DGB
d dBd
d FEG
e xC
e xF
e eG
e GFG
e AFCD
e AFDG
f BGEG
f ecBG
f aga
f Tc
f fgfe
f afdf
g y
g FDD
g FDC
g FEB
g FEC
g dAFDA
g BGEG
g gfed
g cGED
g bfb
h n
i gg
i dent
k i
l ine
l ey
l plerisch
m issing
m aestoso
n ext
p tion
r ing
r man
s so
t ation
u DF
u GAB
u efe
u ri
w n
x cC
x dBF
x fcA
x ecB
x AGC
x edA
x EDD
x aga
x FDx
x dcx
x afx
z ud
z uf
z vd
z uF
{ \
Ġ 21
Ġ ly
Ġ 74
Ġ Qu
Ġ 111
Ġ 56
Ġ Verse
Ġ polka
,/ [
,, .
,, ,,^
,- )
Ġ| \
-] /[
EC FC
EC EE
EC CD
Ġd acA
Ġd aaa
Ġd uc
Ġd olce
Ġd ie
ĠA T
ĠA CA
ĠA eG
ĠA cAE
ĠA fB
ĠA AEE
ĠA gag
ĠA CEC
ĠA GDF
ĠA EGC
ĠB BGE
ĠB AC
ĠB cF
ĠB fc
ĠB GDD
ĠB cAD
ĠB AEE
ĠB CDE
ĠB cGA
ĠB fdc
ĠB fcf
ĠB TB
ĠB FFG
ĠB gcg
ĠB bdb
Ġe u
Ġe GF
Ġe cE
Ġe AFA
Ġe FGA
Ġe GGG
Ġe Ec
Ġe ue
Ġe GAe
ĠG dAF
ĠG fdB
ĠG bd
ĠG aa
ĠG gb
ĠG cEF
ĠG GBe
ĠG dBc
ĠG dce
ĠG FBc
ĠG eEc
FD GG
FD EE
FD xDFBdB
Ġc o
Ġc DF
Ġc CD
Ġc gb
Ġc ged
Ġc CEC
Ġc DFG
Ġc FBd
Ġc ude
Ġc dGc
CA ECA
CA FCA
se n
GE FEC
Ġf be
Ġf ro
Ġf ue
Ġf zB
Ġf beb
Ġg AEA
Ġg ABA
AF AE
AF Ex
BG eBG
BG FCC
BG AGA
BG dedcBE
ĠF O
ĠF GDB
ĠF AC
ĠF ae
ĠF fg
ĠF ad
ĠF cdc
ĠF AGC
ĠF cdB
ĠF FBB
ĠF lute
EB EE
ĠE AEC
ĠE cAE
ĠE dBA
DA AD
cA xe
cA GFDB
ĠD FC
ĠD ECB
ĠD fdA
ĠD aa
ĠD dBA
ĠD agf
ĠD fef
ĠD afa
ĠD zd
Ġa BAB
Ġa dBd
Ġa abc
Ġa ug
Ġa zd
Ġa ada
Ġa aeg
dB ec
dB ba
dB EDE
dB fex
dB AGEDC
CG r
CG AF
CG Be
CG GFED
GD d
GD ED
GD FA
GD cG
GD GDG
GD Fx
GD CEGECE
BA GECG
BA FDCA
BA GEDA
FC CC
ec fd
ec fe
ec xA
ec BGD
ec BGDG
ec FEB
ec ECD
ec EDCG
ec geaf
AE AF
FCA CBA
ed FD
ed xB
ed xF
ed AECA
ed cAE
ed AFA
ed cD
ed fD
ed GEA
ed xf
ed GBd
ed cdc
ed xcx
DG EC
DG dA
DG BD
DG ABc
DG GEG
DG FEDC
AG ec
AG cG
AG AGE
GB ge
GB cBG
GB cFAFcF
ED ECB
ED EDB
ED EFG
ED dedcBE
EA eA
fd ED
fd GEC
fd ag
fd AECA
fd ba
fd ACA
fd EDA
fd afd
fd GDD
fd cBG
fd AGDA
AA BG
AA AD
AA ABc
FB DA
FB dF
FA DA
FA dcF
GG cc
GG ABB
AB xF
AB dcBA
AB FEDC
AB deg
CF ECA
CF FA
CF AFA
cB AFA
cB BBB
cB GEF
ge DG
ge BAG
ge BDB
ge FEB
ge GECE
ge GDCG
ge cAB
cd ag
cd ex
cd edcB
EE ECC
EE EDC
EE EDCC
DD EEF
ef F
FE g
FE xB
FE FAc
FE xDx
CB d
Ġb GG
Ġb BcB
Ġb fef
Ġb aea
Ġb bgb
EG CE
EG Ax
EG ceg
fe gd
fe FEA
fe cAFD
CC ECB
CC DDDD
CC EEG
BB E
BB AF
BB dc
BB BE
BB cBA
BB fBB
dA AG
dA xA
dA cdAc
cG g
cG dc
DC c
FF g
FF GFE
Ġed bd
xG BGB
xG FDF
xA cB
xA ex
xA defg
xA cAeA
AFD c
FG xGx
FG cFG
GC xCE
af GEB
af GB
af ba
af AFDD
af cEA
af AECG
af gef
xE GF
xE BGx
ĠC z
ĠC cGE
ĠC gfe
ĠC cec
ĠC DDE
ĠC DDC
ĠC GEc
ĠC amp
gf ce
gf BFDB
gf efg
gf cCC
gf fddc
gf fdgf
BF f
BF GB
BF FA
BF cFdF
at ed
CE cA
CE FECA
cAF dB
cAF ECE
GA AF
GA dc
DF EDC
DF xGx
DF GDF
eB de
eB AFF
eB EDG
Ġfd ca
xD GD
xD xx
xC c
xC FCA
dc GB
dc xA
dc EDB
dc FDD
dc BGDB
xF cg
DE FEF
DE xEx
DE FDx
BE xE
ĠdB fA
ĠdB edcB
ĠdB vAuB
ag DB
ag cD
ag xf
ag AGF
ag ecGC
ag AGC
ag ecF
'' ]|
'' |[^
'' |[_
'' '[
Ġgf ae
"^ #
"^ '
"^ ...."
BGE c
BGE DCG
de gx
/) "^+"
dD c
dD dD
dG b
dG FCF
cE FG
cE dE
Ġdc ag
Ġdc cf
Ġdc cg
Ġdc aed
cF cA
ĠcA eB
ĠcA ba
ĠBd fA
ĠBd gg
ĠBd dcB
ĠBd zd
eE d
eE AE
EF GEF
ecA DB
ecA GECB
ecA EDCB
ĠBA S
ĠBA cAGF
ĠcB de
eA ef
eA DC
eA de
eA dG
GDG DAD
ĠBc ca
ĠBG ga
ĠBG TG
ga xb
ga ea
ĠAG dc
ce AG
ce gf
ce xcx
ĠGB DF
Ġde s
Ġde ad
gd ec
gd AEA
gd gc
CD c
CD FDC
CD FDCB
cGE x
dF ed
dF EE
dF cFB
Ġcd AA
Ġcd ad
Ġfed cAG
gG cg
ĠcBA GED
Ġdf AB
Ġdf Gf
Ġec gG
Ġec ze
Ġec zc
ĠBAG f
ĠBAG GAB
ĠFA AE
Ġfe GB
Ġfe ga
ĠGA g
ĠGA DD
ĠGA bG
bg FB
bg FG
bg CE
bg bd
bg BGFDB
bg feE
bg xgxg
dd gc
dd efg
dd dcB
dd efe
ĠAF GG
ĠAF fe
Ġdef ec
Ġdef gdB
aA aAa
aA aBa
AEA DA
fc xF
fc GECC
Ġag gd
Ġag fdcA
gB f
gB DE
fA ECG
fA eA
ĠFD fe
ĠFD dA
BFDB FD
Ġaf ae
Ġaf Te
Ġaf ter
Ġce b
Ġce ad
AFA df
ĠAc cccc
Bc ccB
Ġfa dB
Ġfa bd
Ġfa Be
Ġfa Ba
Ġeg cedf
dBF ECG
ĠBcd ef
ĠBcd ecA
ĠBcd dcB
ĠedB edB
ae DB
ae GA
ae ac
ae bgaec
ee t
ee eG
ee efe
ee xBc
ĠecA GFD
ĠT dBG
ĠT ga
ĠT ab
ĠT bc
ĠT fga
ĠT GFED
ĠT cAce
bB CE
df ge
df cd
df fe
df ac
df fa
ĠdcB cd
ĠGF e
ĠGF zA
BAG ABc
Eb d
xc xG
xc cde
xc cccccc
ba BA
ba aa
Ġgfe gfe
AFCA FC
ĠAGF e
fg fdf
eBG FEC
ĠDE EB
ĠDE FDF
ecG FCA
cc CC
cc xd
cc BAc
Gx FEF
fdB e
ĠEF BA
ĠEF EA
ĠGE TE
Ġea AB
Ġea dg
Dx EC
Dx EG
Dx DF
Dx BGD
cD CC
Ex EBE
xd dB
xd ab
xd eded
Ġefg cde
Ax GF
Ax ex
ĠeA cG
ĠeA cg
FCG CA
Ġdcd E
Ġdcd G
GED EB
ĠFE dB
Fx CA
Fx BA
Fx AG
Bd gB
Bd gx
Ġdg cd
Ac xc
fdA dAF
ac h
ac DG
ac CE
ac DF
ac ua
edc cB
edc EG
Bcd g
Bcd FFF
gec EA
gec ge
gec BGEC
eg C
eg de
eg bf
eg bd
eg bc
eg bgeB
eg ato
efg fd
ĠABA GE
ad EE
ad DC
ad AEA
ad GDCG
ĠED cD
fcA FDCD
Ġbg be
Ġdd ge
Ġdd FF
Ġdd af
Ġdd zd
Ġdd dBAB
FGA AGF
ĠEG ge
ĠEG cg
ĠAA DA
ĠAA DD
ĠAA ac
cBA GD
cBA GEDG
cBA Bf
Ġba ac
>"^ ->
xe aebe
Ġcde E
or iginal
Ġagf gec
Ġagf efg
Ġagf edf
ĠFED CB
ĠGG f
ĠGG AE
ĠGG ed
eF c
eF EDCA
Bx eB
bf CG
bf GD
bf ecF
Ġded cAc
Ġded cAB
FED EDC
cx dA
cx cBcBA
Ad cB
fG CB
DCG C
dx ddd
ĠAD FF
ĠAD gf
Ġab ea
ĠcAG d
Ġgfg ag
ĠFGA a
ĠBe be
ĠBe zec
ĠcAF f
Ġgb fe
ff fA
ff fB
ff edc
ĠBB EE
ĠgdB f
fcAF CB
fcAF EF
ĠDG cB
afd CC
afd AC
geB FC
geB CC
geB FF
fa B
fa af
fa ce
fa aa
GFE c
GFE GF
cAG FDA
Ġgd fe
AEB EG
DEF d
DEF FE
ex ee
ex ax
gC g
ab aga
ĠdG fe
ĠdG dc
ĠcBc edc
Ġefe E
ĠGED f
AED xE
AGF ECF
AGF ECD
GFD Cx
ĠABcd cA
ĠABcd cB
be CA
be GB
be ge
be EG
be GEDB
be dBGEDG
dcB cdB
Ġee BB
Ġee ab
Ġee be
Ġee aa
ĠeB FE
gfe x
ĠBdB g
ĠBdB dBd
fed C
fed efe
fed cBc
aec BA
Ġfef cAF
def ecAc
ĠGFG f
ĠEFG AGF
Ġbag B
bge GDB
bge EG
xg bg
xg xe
Ġ"^ ^"
." {^
bc BG
Ġv AF
Ġv AA
Ġv gf
Ġv ga
Ġv ua
Ġu ec
Ġu AB
Ġu fa
Ġu su
ĠfA cd
ĠfA dd
Ġedef ga
GAB cF
dFD CB
Ġff b
Ġff fc
ĠFF f
ĠFF cc
,,,,, =
FEA B
Ġaga a
aecA CE
GFG ABc
GFG FDF
ADF AF
ĠgB ab
Ġgag b
xa xg
ĠEAA D
ĠEAA a
ĠDD EC
BAF EF
ĠDEG g
afc CG
ĠEC ED
ĠEC DF
DCF E
]/ "^
fga A
fga bg
ĠGc gc
ĠEB de
ĠEE eB
ĠFDD a
EFG ed
Ġcdec AF
AGD x
agf D
agf ede
agf gfed
agf cAGFF
Gc ed
Ġac ef
ĠFB f
ĠFB ed
ĠFB cB
Ġgc f
ĠBF BG
ĠBF ed
eGE DE
ĠFEF GFG
Ġcf ge
ĠCE EB
ĠEFE G
BBB a
Ġfc ge
DDD CC
DDD DGGGG
ea ge
ea ag
ea ue
ĠcAFA ce
"{ _
ĠDA DF
ĠDA dc
ax ad
ĠdF AG
dcA d
dcA EB
dcA cA
dcA dc
Ġefd d
EEE FF
Ġbagf ge
Be ed
Be gf
cf ge
cf ac
cf xf
edB x
edB FD
edB EE
ĠBAA ABc
cCG C
ĠAE EC
GECE GEC
BcB cccBc
AGA BAG
aeA GE
aeA CG
Ġaa aA
ĠCD EB
ĠCD FC
cBG FB
cBG BGF
ĠBdd a
FFF EEDA
FFF FDDDD
ĠcG df
ĠaA ed
gBG DC
gBG ECB
Ġgefd ec
bgd EB
dAG ECG
dAG FEB
cGF ED
DFA ded
ĠcF eF
BGFD CG
eBB e
ĠcE d
GAG AGE
fgf fx
bx ba
Ġegf A
Ġegf B
''' -[=
da ndo
ĠAdf ac
ccc dB
ccc cFx
acA EB
ĠeG cB
CEG AGEC
CEA xE
CEA xD
CEA Bce
BED CG
dcd cx
bC bG
ĠBBB D
fFD CF
ĠfedB AF
ĠAa AB
eAF EDB
lo p
ĠGe EG
ĠBdc E
Ġddd edc
bfdB AF
bfdB DD
gag b
DGB dBGD
ĠBD cB
ged GD
ged BGD
ged GEA
ĠAGED EG
re pet
ĠM fe
ĠM cG
ĠM ae
ĠGg gB
ĠEc cd
ĠEc gc
ĠAcec dB
FGF ECB
FGF GFG
FFFF GG
ĠdD DA
Fc gag
CxC xB
ĠGBB f
fcG FA
fcG FCF
ĠP ge
ĠP ee
GdG c
GdG eG
dcG FC
dcG FDC
ĠgdBG AF
EFE FG
EFE FEF
DCC DC
]) [^
CEC ED
CEC FCEC
EAc xE
ĠBdBG AF
afdA fdAF
bfB EB
bfB FG
ĠFAdf af
ĠgA ec
ggg gd
ĠBdgd bg
ĠdGG f
fec d
fec GB
fec FE
fec Bx
fec AFB
xxxxxx F
xxxxxx xE
xxxxxx xB
xxxxxx xC
DFD cD
oderat e
xCx CCDC
ĠAcB B
ĠcAce ge
fef ge
fef agf
gcA CG
fb df
ĠBf ge
ĠBf ag
ceg gf
ceg cBd
ĠdAA e
Ġgdd a
afe a
afe EA
/( =
Ġccc ccc
CDC xC
Ġs ame
Ġdge a
aba gf
gBE DB
Ġdgf gfg
xDx DF
Ġcg cc
BAA AG
gfd E
gfd d
gfd e
gfd cB
gfd cd
gfd BGG
Ġda ed
Ġbf fd
ve n
al low
al ternative
cec BA
fdcA FDD
Ġm ay
ĠBGA f
an e
an te
ĠDDD DDD
ĠAcd F
ĠAcd G
ĠAcd b
efd d
Cc cBF
aed C
aed DA
aed cA
ĠBgf B
dxd xc
DDDD EF
DDDD EFE
DDDD FFFA
ĠFADF AF
FAd fd
cGB F
AAAA B
GGGG c
GGGG FF
ri cal
FxF xE
afa df
CFA e
DGD xE
fge gf
]> [=
edcB B
ĠAEA A
AFED CD
Ġfefd cB
AGAG AG
AGAG AGAG
ĠAFG ABc
cxc xB
dBAG FDG
ĠbB ed
Ġcege ge
ĠFf fF
Ġfff b
Ġfff fff
Ġggg ggg
fedc BAGF
EED DB
ĠBGD d
ĠcBG e
ĠdAB g
DFG FD
Ġeddc cB
GxGxG A
ĠFAG CB
eeee g
DxE xC
/"^ [
/"^ ."
EAE AEA
EAE cEAc
FGE FD
xfx ec
ĠeE EB
Ġve ud
afcAF ECA
afcAF CD
AAB BAA
ĠaB ge
ĠaB ce
DGDB DF
BFCG CFCA
Ġcb ba
/"_ >"
/"_ *"
Bdf g
FxE xGx
FxE xDx
Acd d
Acd GBGeG
Ġeb ed
Ġeb be
ĠS c
ĠS h
ĠS tr
ĠS ca
ecBA EE
Gb m
dan te
ĠAgf A
ĠcD dc
ĠFAcA BG
ExD xB
exe xfxfx
ĠgGG c
GxE F
xDD xD
BxA xF
BxA xBx
xEA AAA
xEA AAB
ĠAC GE
ced fe
gBA GEA
le nt
Ġbgd f
cr an
PMTuCOM a
xCG C
xAB xA
xAB eBA
"^>" (
ĠBEB B
GBA GB
ĠeBG e
bec BEC
xFB c
xFB cd
dfe x
CxD xCxCx
Ġug ge
xGB BB
xGB cdx
GxB dx
ĠGDGB dB
DDF FDA
FxG xA
EEB e
eae b
GxF xE
dde x
ĠfF FB
ĠfF fg
vA uF
fag b
ĠAFB c
'). ^
dxc c
va ug
EGC GEG
Ġal ternate
AEAE FGBA
eAc eAc
eef x
eef xd
ĠecG f
ĠddB g
cdcd cd
cdcd cdc
as ses
xFxF xExG
BAAG GF
BAAG GFGA
aaaa aa
eded ed
FAcA GBdB
FAcA fcAc
Ġdfba fd
xGF GB
DCDC DE
Ġdz de
Ġdz dd
GxD xG
moderate ly
SEG NO
ĠGFA cB
"_>" (
Ġthe n
EAEA EBEB
Ġez de
BxG xE
ĠTBA BG
Ġkey s
GEGE GEGE
DDG FE
FCEC FCEC
gfx fe
ĠFAE f
Ġada de
ĠEFF d
FAFC x
ĠBz GB
ega d
Ġexpres sive
vG uF
ĠdBFB dB
pp er
co mple
Ġdzd zd
ver t
DADA EAEA
xGAB xEFG
ecec ecA
ecec ecec
bbbb bb
DxDxD xEx
Bxd xB
Ġth an
xGGG AA
ĠddA c
gea efge
ĠPa dd
ĠBfB f
xaxa xa
ĠTag aa
xeee edcB
ĠH armony
ĠceB g
GBcFA cBD
GBcFA cdG
xBBBB BAB
ĠcCC e
EGcG ec
PMTCOM g
fxg xa
xExC xExC
Ġor iginal
und s
"^: $:"
FGABc BAG
Ġaz ab
vE uF
xaa xa
Acec ae
GDGB dBGD
ffc c
"^\ #"
ĠL asses
agfd xdxd
Ġfor ce
fffg cccd
ĠFCF AFA
Ġr ather
xba x
Ġnot ation
ĠfBb a
GBde GdcB
BcF xF
GAGAG AGA
AGFGA BA
Me lody
DEFED x
ĠFdA f
egega eg
FGFGF GFG
/"^*" =
xABA dABA
Ġso urce
gBc gB
ĠNo te
ĠdbB d
CDEB ED
xFFE FEC
xEGc ecGE
ABcdc dB
fdgf fdgf
Th ird
si one
ĠN O
Ġst yle
EeE eE
GgGgG g
lem nly
fro her
ĠV alse
Ġtr ans
FFGAB F
dfA dc
DEFDE FD
EEeE ee
AxcAx cA
ass ig
ĠFBD g
ĠTune s
nc lear
xDdD xDdD
lig o
CcCC cCCc
ai re
Cr on
Ġchor d
eCeC eC
]>. [
"^? "^
ĠPl ay
GdBdA dFd
dfdA df
]>)( [
ECED AFA
eBBeBB eB
Mourn ful
edAd DAdA
que nce
Ġvo ice
DGAD GD
BFdFB FDF
GcgcG cgc
EN D
ccAG AG
ĠecF e
Ġava abe
FDBFxD FD
"^\= >
Tre ble
ical ly
Ġcorrec t
GDGC FDF
FBcF fBcB
)..." "^
Ġbet ter
ĠWin der
GFGABG AF
Ġstr ing
bold ly
Ġly rical
BBfBB fBf
xAcAeA cd
GCxCE FG
GDGDAD dD
BcccB cBc
xdeded fd
egbgeB eg
cxcBcBA x
ĠBezec ug
comple te
# ][
' -]_
' )"
) "^/"
) }"
* *
- {/
- !>!
- .[
. "_
. ?"
3 18
4 10
4 32
4 98
: >"
A I
A gB
A dE
A fcAF
A gfe
A ecB
A cGc
A TB
A zA
A dcx
A aAa
A dBGx
B af
B gc
B aB
B aa
B ede
B dddd
B ur
B BGx
B fgb
B gfeB
C v
C GEB
C ar
C xxxx
C gg
C EEEE
C BGECG
D eD
D dDD
D ded
D DGG
D ancing
E dA
E cAE
E FDD
E GEDB
E cCA
E dAE
E edB
E cAc
E dcd
E FEDA
E xGxG
E eEe
E ecDA
F gf
F eG
F FCF
F df
F fg
F fdB
F BGDG
F FDC
F GDE
F BAFD
F GEDC
F xdx
F xcx
F zA
F edx
F dFBF
F aster
F ddddB
G fd
G AEC
G xxxx
G AGEC
G ece
G ecE
G cBF
G edBdB
H art
J ames
M cA
M ED
M cd
M FEF
M en
N C
N CE
O L
O u
P C
P G
P M
P gf
P cBc
P rimo
Q R
S D
S ic
T GEC
T GA
T ga
T dF
T ABc
T ba
T BGB
T EDC
T ABA
T GAG
T rAP
T rip
V ariant
W m
] /^
a se
a DCG
a AGF
a GFD
a AFDE
a BAECA
a zf
a ka
b z
b AFA
b ACA
b FCG
b GCG
b AFB
b ex
b fdAD
b efe
b AGD
b eBGB
b cGEE
b BADB
b eBGG
b dAC
b risk
c dBF
c afc
c EEE
c zc
c xdxd
c aAa
c edcBA
c adac
d dF
d ABc
d ac
d gC
d dBA
d ecB
d xBc
d dGd
d bagfe
d dcBAc
e xD
e eE
e DGB
e GFEB
e eBc
e Tg
e gac
e gBg
e bBeb
f S
f r
f GECC
f GECB
f AGECA
f gecA
f xFx
f AFDCA
f GFEB
f zd
f BFDE
f agd
f rom
f gBc
g gG
g AFE
g EDC
g GBd
g cAECA
g FCD
g Te
g bab
g AGECC
h ey
h tly
h and
j ig
k ka
l voll
o nly
s a
s m
s im
s ign
s ang
t ing
u ED
u BAG
u gfe
u AcA
u ll
v ec
v GF
v GA
v EF
v ga
v ce
v efe
v BcB
w ing
x eE
x dF
x fF
x aA
x afd
x cAc
x EDCA
x EBE
x cAFE
x ceg
x DAD
x geBGE
x DCE
x DDC
x GFx
x cea
x ecd
x fdd
x AAAAAA
x AEc
z afd
z ue
z uc
z uA
z uB
z ua
} "^*"
} ([
} !>(!
Ġ i
Ġ lat
Ġ 75
Ġ *"
Ġ 66
Ġ In
Ġ Last
'/ (
-] "
,] >.
,] /<
EC cA
EC DEF
EC AFx
EC FDEC
Ġd ae
Ġd bdB
Ġd TF
Ġd dce
Ġd DAG
Ġd dGd
Ġd ada
Ġd EBd
ĠA GDC
ĠA bge
ĠA CEG
ĠA cEF
ĠA Acf
ĠA fde
ĠA eBc
DB cdc
DB DAG
ĠB CD
ĠB fF
ĠB geG
ĠB BAD
ĠB gBd
ĠB fde
ĠB DAd
ĠB FGc
ĠB DGd
ĠB gDg
Ġe v
Ġe BF
Ġe AEA
Ġe BAc
Ġe zA
Ġe Td
Ġe zG
Ġe eBc
Ġe Ta
Ġe vde
ĠG CA
ĠG CD
ĠG GEA
ĠG ADF
ĠG age
ĠG fef
ĠG cdef
ĠG FAd
ĠG feG
ĠG PF
FD ECA
FD FDF
FD FBc
FD FFFD
Ġc fF
Ġc cD
Ġc ggg
Ġc CFA
CA DAB
CA DFAA
GE xA
GE eB
Ġf E
Ġf o
Ġf fc
Ġf AFA
Ġf geB
Ġf AGF
Ġf bc
Ġf FFF
Ġf fdc
Ġf fcf
Ġf eBd
Ġf fde
Ġf inal
Ġg dfa
Ġg cBd
Ġg Tg
Ġg Bbg
Ġg BEg
AF cG
AF BF
AF dF
AF AGF
AF cf
AF cAc
AF BGECB
BG f
BG ec
BG cG
BG ecA
BG dBDG
ĠF GC
ĠF gf
ĠF CE
ĠF ee
ĠF dFD
ĠF afc
ĠF ded
ĠF cAB
ĠF fdc
ĠF CDC
ĠF cGc
ĠF zd
ĠF FBd
ĠF CCB
ĠF inal
ĠF eEd
EB C
EB cd
EB efg
EB fdx
EB eged
EB GEBGEB
ĠE dF
ĠE AED
ĠE GDD
ĠE AEE
ĠE dAd
ĠE DAc
ĠE ner
DA AGF
DA DAd
DA DAB
cA fd
cA xB
cA GECB
cA GDCB
cA BcBB
ĠD ee
ĠD DCB
ĠD ded
ĠD cBG
ĠD faf
ĠD ege
ĠD dfa
ĠD CFE
ĠD DBG
Ġa BG
Ġa AFD
Ġa fF
Ġa AFA
Ġa cde
Ġa ABd
Ġa cBd
Ġa egb
Ġa aca
Ġa fAa
Ġa nother
dB dG
CG P
CG eG
CG eGdGcG
ECG F
GD GF
BA DE
BA DCA
BA GECB
BA DCF
BA GCE
BA AGA
BA EDCA
BA GEDE
BA xcx
BA BAc
BA Bcx
xx BA
xx AG
xx CC
xx edg
FDB FDB
FDB FB
FC c
ec ef
ec ag
ec CD
ec DCA
ec gg
ec BBB
ec eAec
AE FDE
AE DCE
AE xEG
AE xEA
AE GGAG
GDB B
GDB GE
Ġ:| {/
FCA Ed
ed DA
ed dB
ed CC
ed DC
ed edc
ed GECB
ed dcd
ed GEDG
ed edG
ed GEDD
DG dB
DG FF
DG AGD
DG Bg
DG xGF
AG xC
AG AFA
AG Ax
AG GFG
AG FDCB
AG GGGGG
GEB x
GEB cdBcd
GB ec
GB FBdB
ED c
ED GD
ED GDE
ED DDC
EA g
EA cAEA
EA dg
EA CEA
EA CEC
EA ceg
EA eADA
fd DE
fd GDA
fd xd
fd GFC
fd cFCA
fd cBF
fd GFEDA
AA b
AA DD
AA dd
AA AGx
AA ddc
AA ABcA
FB FF
FB xE
FB cde
FB BBA
FA g
FA EC
FA xG
FA dBG
FA GEG
FA FDF
FA CFC
FA BAGA
GG FA
GG xB
GG AGEC
GG AGA
GG AGFE
AB dF
AB dBA
AB Be
CF GDB
CF FB
cB cEA
cB xcx
cB Cc
cB xex
ge t
ge fA
ge ECC
ge dBFB
ge GFCG
ge edd
ge fgfe
ge BAGFEB
ge egeeg
GF FC
GF xD
GF GDG
GF AAA
GF FEF
GF xGx
cd AB
cd ge
cd GAB
cd cBF
cd cAd
cd gcdgcd
EE ECA
EE EDB
EE GGGG
EE xExEx
DD xA
DD xF
DD EDB
DD ccB
DD FDDFDD
ef cB
ef aA
ef ae
ef ex
ef ecB
ef gfa
FE EA
FE FEC
FE Gc
FE FEx
Ġb o
Ġb BG
Ġb GF
Ġb dBG
Ġb bd
Ġb gfB
Ġb cca
ar a
EG dD
EG BGDG
EG ACE
EG cg
EG CDC
EG cGc
EG AGx
fe GDB
fe GEB
fe xB
fe GECG
fe GDA
fe BGEG
fe FEDB
fe ADE
CC e
CC DG
CC DEx
BB cA
BB xc
BB BGF
BB FFA
dA b
dA cd
dA ECB
dA fA
dA ECE
dA cBAB
dA eceAec
cG FDD
cG cBc
cG FDCD
cG FDE
cG BAGA
DC FD
DC FDC
DC DEF
DC EDC
DC cGG
DC xCx
FF xG
FF xB
FF FDF
FF xAx
FF GFF
Ġed E
xG g
xG xx
xG xe
xG xAx
xG xDx
xG xGA
xG BABA
xG AGc
xA fe
xA xd
xA FDC
xA da
xA xBx
Ġ:: ({
ĠAB dD
ĠAB ee
FG a
FG ADF
FG AFEF
FG dGEG
AD FG
AD FDFA
GC cGA
GC EEG
GC cDE
af GG
af GF
af CE
af BE
af GDG
af BFDB
af AFCF
af FDCA
af ecBAFE
xE EC
xE cA
xE EA
xE FGA
xE GEA
xE AEAE
AEC x
AEC CD
xB GEB
xB dx
xB ex
xB xdx
xB cdcB
ĠC o
ĠC dc
ĠC FCF
ĠC efg
ĠC cde
ĠC EDE
ĠC ege
ĠC ott
ĠC ountry
ĠC TGAG
gf GD
gf FB
gf AC
gf xd
gf dBA
gf BEE
gf ecB
gf edA
gf cACF
gf GFDD
BF fBdf
CE EDC
CE xEx
cAF d
cAF fdB
cAF BGEC
cAF cAFcA
GA g
GA fe
GA xG
GA GEE
GA GED
GA cAc
GA AEG
GA eGA
GA xBx
GA GEc
DF GG
DF xD
DF dc
DF AFA
DF xDB
DF dFDF
Ġef BA
eB ge
eB DC
eB ECE
eB GEDCB
Ġfd F
Ġfd dF
Ġfd ae
Ġfd gc
Ġfd ab
Ġfd Df
Ġfd bfdf
xD EDCB
xD EDED
xD xExE
xD xFxE
xC DFA
xC xEx
xC xFx
xC DxE
xC DAx
dc DG
dc GEB
dc cAF
dc ag
dc fc
dc GECC
dc FCG
dc FDC
dc cBA
dc FDF
dc GECB
dc cAG
dc cde
dc cBG
dc BAA
dc FECF
dc cBd
dc cAAG
dc cAcd
xF xx
xF EA
xF cB
xF dd
DE g
DE EC
DE FDA
DE xExEx
ĠdB gdBG
ĠdB TB
ĠdB TA
ĠdB zB
ĠdB gecg
ag EA
ag ge
ag bg
ag dE
ag GCG
ag cGC
ag cAA
ag cAFC
ag ece
ag ecGE
ag ax
ag fdD
ag fdc
ag dBAG
Ġgf cB
Ġgf aA
Ġgf fc
Ġgf gfed
"^ ,
"^ )>"
BGE GB
BGE DCA
dBG ABc
dBG eBG
dBG BEGA
AECA EC
de BA
de BB
de xc
de gA
de ea
de dBc
/) {^
dG cdd
cE EA
cE cB
Ġdc GG
Ġdc FG
Ġdc ae
Ġdc ca
AC cA
AC ED
AC EGAc
cF ECE
ĠcA cF
ĠcA gd
ĠBd FE
ĠBd fecA
EF BA
EF FE
EF xE
EF xAx
EF GFEF
EF cADFA
ecA GDB
ecA ECF
ecA GEF
ĠBA fd
ĠBA ge
ĠBA eB
ĠBA dd
ĠBA fA
ĠBA BAG
ĠBA fa
ĠBA AGG
BD FDBDFD
ĠcB DE
ĠcB ag
ĠcB BGBd
eA GEE
eA deB
eA eAe
GDG CF
ĠBc a
ĠBc ee
ĠBG dD
ĠBG ce
ĠBG cAFD
ĠBG cGBG
ĠBG TFE
ga ab
ce ed
ce AGF
ce gfe
ce aec
ce dBc
ce eeed
ĠGB CE
ĠGB dF
ĠGB bg
ĠGB gb
Ġde AB
Ġde BB
Ġde eA
Ġde gG
Ġde gc
gd FDA
gd cAF
gd ac
gd cAA
gd GECB
gd dg
gd gb
gd bgd
gd cAEB
gd cADD
gd cBx
CD xCx
CD xEG
CD EGx
CD FBFD
CD FEGE
cGE DCC
dF cGc
Ġcd fb
Bb b
Bb eB
Bb Bc
Bb fb
Ġfed ef
Ġfed efe
Ġge S
Ġge AB
fF d
fF ECB
Ġdf G
Ġdf fA
Ġdf gb
Ġdf fb
Ġec fA
ĠBAG FG
ĠBAG FEF
eG GB
eG cd
ĠFA fd
ĠFA dD
ĠFA ccBA
ĠGA gG
bg GEC
bg DD
bg FF
bg AC
bg ga
bg bf
bg BDG
bg ecGC
bg ecGE
bg fdF
bg cEG
bg dBC
bg fdcB
dd a
dd AA
dd dA
dd fA
dd cdc
dd cBd
dd deff
dd gxgf
)( (
)( .!
ĠAF ed
ĠAF cd
ĠAF TE
Ġdef gef
Ġdef dBd
aA d
aA GEB
aA cea
AEA EBE
AEA cBAE
Ġfg gb
Ġfg Be
Ġfg cg
fc fg
fc ccc
fc FEG
Ġag Bc
gB FDA
gB ED
gB DC
gB fga
gB eBBeBB
gB eBBe
fA x
fA dg
fA GEDC
]( ([
ĠFD GB
ĠFD zB
ABc D
BFDB cGEC
in k
in m
Ġaf cd
Ġaf gB
Ġaf Tge
Ġce aA
Ġce gA
Ġce gg
Ġce agfe
AFA x
AFA cBcd
ĠAc D
ĠAc GG
ĠAc CE
Bc cA
Bc GG
Bc xG
Bc eB
Bc cBA
Bc xdx
Bc BAGE
Ġfa cA
Ġfa dd
Ġfa aA
Ġfa Df
Ġfa Dg
xxxx c
Ġeg bgec
Ġeg Tfe
fB FDA
fB DC
fB AFC
fB fg
fB FCB
fB AFE
ĠBcd BG
,< )
ĠedB DGD
ae GDB
ae GC
ae ECB
ae FECA
ae dBE
ae bec
ee gB
ee eg
ee gg
ee gx
ee edd
ĠecA b
ĠT GE
ĠT AF
ĠT ec
ĠT FB
ĠT FG
ĠT dG
ĠT EF
ĠT ea
ĠT BAGA
ĠT fedB
ĠT FDAD
ĠT GFEG
ĠT GFGB
ĠT fdfa
bB DC
df BA
df fd
df gf
df xF
df ag
df bc
df xFF
ĠdcB de
ĠGF dc
ĠGF dF
BAG e
BAG xG
BAG FCB
xc fg
xc BGA
xc ccBA
ba s
ba fdA
ba gfg
ba dDB
ba dBA
ba GDE
ba bx
Ġgfe fdf
Ġga cB
Ġga eA
Ġga ae
ĠAGF GB
fg cd
fg bf
fg bag
fg afa
fg xed
eBG CA
eBG FF
eBG eBGBe
GEG cBGE
ĠAd E
ĠAd GE
ĠAd DF
ecG FC
ecG GB
ecG cG
ecG DAdf
ecG AFcAc
cc gf
cc cC
cc dBA
cc BAA
cc EAe
dE AE
dE xF
Gx AG
fdB AA
fdB FDC
fdB GEA
ĠEF ed
ĠEF dF
ĠEF GFED
Ġea cB
Ġea de
Ġea aB
Ġea be
Dx EB
Dx CF
cD EG
Ex GD
Ex EDE
Ex ECEF
GDA DBDAG
xd cBB
xd adc
ĠGAB f
eC FCFB
Ax g
Ax AF
Ax AE
Ax axa
Cx e
Cx FE
Cx CE
BGDG B
ĠeA GE
ACA E
GED ED
Ġgfed BG
Ġgfed cBAG
ĠFE BG
ĠFE FGA
gc DG
gc DD
gc ECB
gc ECF
gc GECE
Ġafd AFD
Fx CG
Fx FA
Fx FEFG
Fx AFxA
Bd fe
Ġdg dBAG
Ac gc
Ac ff
Ac fx
Ac dBcdB
ĠBAB C
ĠBAB D
ĠBAB def
Ġ|"^ .."
Ġ|"^ ++"
BFB c
BFB cBxex
ac FB
ac DD
ac eA
ac FDC
edc CA
edc xcx
Bcd gd
Bcd Ac
Bcd eg
Bcd efedB
gec eg
gec GCE
gec GDCG
eg EC
eg EE
eg bgec
FDC FDC
cGEC x
ECE FG
fD d
ĠdcBA GB
ĠdcBA GA
ĠABA GEDEG
ad x
ad GEC
ad cG
ĠED CF
ĠED cE
fcA g
fcA GG
fcA ECE
fcA FDF
GCG CEG
GCG CGG
ĠEG CB
ĠEG de
ĠEG cf
ĠAA GD
cBA C
cBA f
cBA GDG
cBA BAG
cBA FDCA
cBA cBAGE
Ġba be
ĠAFA dAF
gE dE
>"^ -
>"^ ~"
xe xB
xe xg
xe xGx
xe xcx
Ġagf gfe
ĠGG gd
ĠGG gG
eF cF
eF EDF
FDF c
Bx cA
Bx DG
Bx df
Bx eg
Bx fx
Bx EBxEB
ADA DA
bf CA
bf FC
bf CD
bf FDF
bf gef
bf cAFEA
bf Bbf
ĠDF zA
Ġded BGB
ĠGBd gdB
ĠDFA DFA
"_ ^"
"_ ...."
FED EB
FED DD
FED CE
FED CDx
ĠBGB a
cx cA
cx cGe
cx BAGc
Ad AA
Ad dA
Ad fdA
Ad cAFC
fG c
gA GDB
gA feA
dx dB
dx ff
dx gx
dx cBc
dx dEc
ĠAD cA
BGG GB
ĠAGE g
ĠAGE FD
ĠdA g
ĠdA aA
gdB g
gdB AF
gdB GED
ĠBe BAGF
ĠBB z
ĠBB ec
ĠBB dG
ĠBB BAG
Ġcc fd
Ġcc EE
Ġcc FF
Ġcc cF
Ġcc fa
ĠgdB gba
afd x
afd DG
afd AG
afd cG
afd AFE
afd cAFD
afd AGA
geB g
geB CB
geB DE
fa ef
Ġgec ecA
gg xgxgx
cAA e
GFE xG
GFE xA
dAFD CC
DEF GB
bd ECA
bd AE
bd AA
bd AB
bd FF
bd gdga
bd gdgadg
ex fa
ex bx
ex gxg
ĠAGA BA
ĠEA ed
ĠEA fA
ĠEA eg
ab ec
ab be
ab en
ĠGABc BA
>! >!
fC g
Ġage age
ĠdG GD
ĠdG cd
ĠdG gf
ĠdG gB
ĠdG fG
xf ad
xf xgx
xf xax
xf gagf
ĠcBc b
aB CG
aB FDA
aB DD
AED CC
AGF GF
AGF ff
ĠABcd c
be DA
be GG
be FE
be CC
be nd
be sch
dcB DB
dcB FF
dcB GEE
dcB cde
dcB xcxF
Ġee ag
Ġee ga
Ġee ba
gdBG ECC
ĠeB fd
ĠeB fg
gfe b
gfe BGC
fed F
fed G
fed cAEA
fed cde
fed cdcBA
ĠDB E
ĠDB cA
ĠDB ed
ĠDB AD
ĠDB DE
aec CE
aec EDD
aa ge
aa xaa
ĠBcdB AF
ĠBcdB AG
cde gd
cde dBA
AGE DCE
Ġ{ [
def ef
def ff
def gab
Ġfga gfa
dBFB dBFB
AAA BG
AAA cA
Ġbag fe
BGF GFEx
bge a
bge dBD
bge dBGE
bge BGEDB
ĠdBd ed
Ġcdef gB
xg gc
xg xf
xg bgd
Ġ"^ -"
FECA x
Ġdefd ge
#" ({
#" {^
ĠGAG FE
ĠGAG FDC
EDC xC
Ġv BA
Ġv fd
Ġv GA
Ġv DF
Ġv eA
Ġv dd
Ġv fB
Ġv fa
Ġv EFE
Ġv cAce
cEA ccEAe
Ġu n
Ġu GB
Ġu cd
Ġu ga
Ġu ba
Ġu nclear
ĠfA BG
ĠfA ge
ĠfA eB
ĠfA fg
bE aE
BDG A
xxxxxxxx C
dg ba
GAB cB
GAB cdc
fx gf
fx efx
dBA BA
dBA BAG
dBA GEE
Ġfdec dB
ĠDGG GFA
ĠFF dB
ĠFF dc
ĠfB dA
dBGD GDdB
ĠeAA D
ACF G
ACF GAc
ĠAdd ffa
gx fgbgf
Ġaga bc
Ġaga bab
]"^ -"
]"^ *"
cAEC ECcA
aecA EF
GFG edx
Ġfdf ad
xa xgxg
ĠEAA g
ĠcBcd cB
cAECA EdA
Ġdcde ga
AFEC c
AFEC eec
dFB b
BAF x
ĠDEG e
ĠABG d
Ġad bg
ĠEC AF
ĠEC cB
BGC EA
]/ (
]/ -)
]/ .[
fga x
fga gfed
Ġdfed ce
ddd xc
ĠEB AB
ĠEB BF
ĠEB EF
ĠEB Ee
ĠEE e
ĠFGAB GE
ĠFGAB cB
ĠFAA cBA
xb xc
xb xd
EFG Ac
Ġcdec BA
agf ec
agf ge
agf ecGC
agf AGFA
agf edxd
Gc BAG
Gc ecGcec
Ġac ed
Ġac gf
Ġac bed
ĠFB EA
ĠFB eB
Ġgfga ba
Ġgc b
Ġgc dB
ĠBF df
EDE AG
EDE GG
ĠFEF c
Ġcf ce
Ae abc
ĠCE ED
ĠCE cB
cAFD CC
cAFD AFcG
ĠEFE EDD
Ġfc eB
DDD DB
DDD FB
Ec ED
Ec xc
Ec cBcd
cCC C
ea n
ea eA
ea Bc
ea bab
ĠDA NCE
ax ga
ĠdF FD
ecB FE
ecB EG
ecB CC
ecB ECC
dcA GDB
Ġdfd FGE
Be beB
Be BBeB
Be bBebBe
cf gfcfg
edB ed
edB FE
edB AFDD
ĠEFA D
cCG B
cdc cA
>( [
ĠAf GA
ĠAf Te
ĠBg BA
ĠBg gc
DCD GDCB
dBGDB GdB
BcB cx
aeA CF
ĠcAc ecA
Ġaa gee
ĠCD FD
cBG x
cBG AB
cBG BcdcB
cBG FECx
FFF EEEFF
ĠcG a
ĠcG d
ĠdedB AG
dBGE DC
ĠGBdB cA
ĠaA cd
ĠaA dA
ĠEDE d
ĠEDE FGA
bb af
AEF ECB
cGEG cGEG
bgd g
bgd FA
fcF EA
ĠGD c
ĠGD FE
ĠBcBA Bc
BGDD E
dAG CA
cGF GE
cGF EG
DFA cB
DFA dfd
DFA DGBAc
FEF GE
ĠcF ec
ĠcF fF
Fd cd
afA DC
Ġgfge ag
Bg Ax
eEC D
bfd BGF
ecAF CG
ĠcE AGFD
GAG C
>) [
fgf ec
im a
im er
CDE Fx
CDE GEDC
CDE FEDCx
''' -][=
ĠAdf afd
ccc cdcBA
ccc cdcBc
acA ECB
ĠeG ef
cAc ec
CEG CEC
CEA cxB
ion s
Ġgfd gfd
dcd F
dcd x
dcd ef
dcd FE
Ġeag d
eAE DB
cAB fdbfd
ĠBBB f
it ch
cGG GG
Ġca AF
Ġca nt
GxG xdxcx
gecG FCA
ĠAa cd
ĠAa Bb
eAF CG
ĠFAd AGF
ĠGe ec
ĠFDFA cA
ĠFDFA dA
Ġafe B
Ġafe F
dAd fA
dAd ad
dAd adad
cEB EA
Ġddd dcB
Ġddd ddd
ĠFd AB
ĠGGG AG
ĠGGG GG
bfdB FE
bfdB FF
bfdB AD
gag ag
ĠBD ED
ĠBD dD
BDF GBd
AFG ABcdB
CCC DD
re p
ĠGd gB
eBA EDB
ĠM o
ĠM r
ĠM z
ĠM cBA
ĠM ve
ĠM aed
ĠM en
ĠGg ba
Ġbe ga
faf gdBdG
Gd gdgd
Gd DGxGxG
dEB E
ĠEGB a
fBG CG
fBG FC
fBG FCG
ĠCA AC
fFB f
FGF x
FGF GG
FGF FF
FFFF x
ĠdD FG
ĠdD df
ĠdD eD
Fc cAc
Ġgagf ge
EBE eE
/). ^
st andard
CxC xA
cAFA xcx
Ġaec c
""^ >"
fcG FCA
ĠP cA
ĠP ec
ĠP gd
age GB
age AGA
BEA BA
BAD FB
AxA xBx
GdG d
GdG cAcc
cEE FE
dcG FDF
Ġ|"_ *
EFE DB
EFE xG
EFE FEG
ĠFEFG AF
CEC ECE
CEC ECEC
ĠCC CG
ĠCC CF
bdB DA
bgB CB
bgB ECB
fdBG FF
fdBG ABcd
cDB D
cDB CA
aAE DCA
Ġbc af
bfB AF
bfB FA
bfB CB
ĠdAG c
xEx CExC
ĠgA cA
ĠgA ef
ĠgA fg
ggg ga
ĠBdgd ad
Ġfb Bc
EGB B
ĠcBcA GF
Ġfdad fd
fec CC
fec AFA
ĠBGF F
xxxxxx A
DFD AFB
xAx AG
gecA ec
ĠDGB B
ĠBed E
ĠBed g
ĠdgB e
FCE AE
ĠFAdA fd
ĠFAdA eA
AcA ecAEE
AcA eGBG
us dr
geBG FB
BdB dBdBd
fef cBABf
gcA DB
gcA GCG
fb gf
il lo
ceg fd
cdB dAd
afe cAE
afe cAGFD
ĠfAeA dA
CDC DCDC
Ġs trathspey
Ġs ome
Ace aAcea
gdc GE
beB FB
aba bc
""_ =
xdx dBB
Ġcg ga
Ġced AFE
Ġced cBc
afcA CF
afcA DC
BAGF GA
gfd AG
gfd GB
gfd GF
gfd AGDA
gfd cAFCD
gfd fdcd
dBAF EB
ĠGDG BAG
ĠGDG BGB
ĠGDB c
adA f
ĠgG b
ĠgG eg
ve ug
al f
ĠcecA GE
FEG xx
Ġgba a
Ġgba gfg
ĠFAD a
Ġm aj
Ġm uch
Ġm olto
Ġm oderate
xcx EB
xcx cBBc
ĠaAA b
BBBB x
BBBB BAx
baf ed
geBGE DG
ĠfdcB cd
GBG FDF
GBG Bcdx
ege xexe
ege egeeg
BxB f
eGEC F
Cc CB
aed AGD
FAF ED
FAF CE
FAF EDD
dcAF ECF
ĠBgf edc
ten ed
xxB xAx
ĠFc cA
ĠFc cB
ĠFc cF
DDDD DC
DDDD DDEE
ĠcAec ge
ĠEEE EEE
AAAA FD
AAAA AcBA
GGGG GFx
ABG AB
FxF xD
FxF ECB
FxF xCxA
CFA Bc
CFA ECEAE
DGD FAd
afB AFB
Ġdgbg bg
ĠFFF c
bgf A
bgf GEB
bgf bgf
bgeB CA
edcB x
bgdB AG
ĠAEA f
dEA a
dEA cEB
EEF EEEFE
ĠAFG b
DEG AGA
ĠbB fe
FEE ECA
]- "^/"
ĠBdA b
xex ef
xex ce
ĠFf fc
Ġfff age
GABc BA
ĠCG fe
ĠCG FG
ĠdBdB ge
bBA ECA
ecAG cefd
dfd cd
33 6
ĠcBG d
ĠcBG g
FAB df
dGA d
ch o
DDC DA
DxE xFxE
/"^ ''"
FGAB cB
FGAB cd
AAG AB
ĠBGDG BG
BGFE DG
Ġp ast
Ġp figes
Ġp robably
xDE FF
EAE cEAE
ĠDc cd
xDB c
xDB AG
CxB FDB
CEGE cG
CEGE DFGE
xEG BAGA
xfx AA
xCE GF
ĠCEA ECE
FGB E
FGB FEF
Ġve be
agec df
ĠBb ec
DGG BAG
Ġ"_ =
fAG FC
ur re
afcAF CB
BBA GE
BBA BB
deB de
ĠaB fa
xEE FGABG
xEE EDDEF
ABcd cAGG
ĠABB g
DFDA D
xgx fgbgf
GEx EAcec
/"_ (
CFCA FCF
Bdf dB
Bdf bfdB
FxE xE
Acd cc
Ġeb ga
ĠS pirited
ĠS ong
ĠS ometimes
ĠBBA GA
ĠcD dA
ExD xE
ExD xD
EEG dBGAG
EEG ecGcG
FFE FF
ĠBef B
gcB EG
ĠgGG BAG
GFx AB
GFx FF
EFD EF
GAF GFGA
Ġw h
Ġw as
Ġw alk
AdA eA
AdA GDG
ĠAff fff
cBAF ECB
CCD FE
xDG F
am s
ĠdgdB dB
xFA FDA
xFA cf
CECA CEC
Ġuc ue
ĠdGB cdG
BxA xx
BxA xE
ccB dccBd
xEA ECA
ĠAC eC
ĠAcfc ac
ĠBGcA dB
CDD x
CDD EE
CDD CB
Gce gc
xBxB F
xBxB xB
CDEF EC
CDEF GB
DDB AG
cded ed
fxf ae
fxf bc
ĠdBeB dB
defg af
defg edc
Ġcfe G
ĠAaf g
ĠAfe g
PMTuCOM ABA
xAB df
BCE GBd
xdxd xB
GBA x
GBA BGBAB
adAF G
adAF DB
dgd xg
cxB xAx
xGG e
>"^( "
ĠeBG eBG
xFB BB
GAA AG
ECx GFG
bfc CF
dcAG c
ĠEGF d
/! >)!
xEB x
xEB GEB
xEB xB
xEB EBEBE
GxA xGx
ddc BAB
xGB deGdc
DEB A
xFF xFxF
Ġdffe gf
DDF FDDFF
AxB E
DDx DDDxD
BcdB cdx
ĠedA e
ĠedA edA
GFGF GA
GFGF FEFE
ExC xB
GxF EE
Ġsig ns
dde G
dde eef
Bde x
Bde dB
ĠGAA c
ĠGAA e
AeA eAeAe
In terlude
gfdB DE
Ġcfaf af
GGB B
xcxc xF
xcxc xcc
bgb ga
EDED EDE
fBFD CA
CxE EDC
acB D
acB EB
EGG GGG
bgec BGE
FFx FFF
DxG xBxdx
EAG FED
EAG FEB
bged BGB
ĠCc ce
ĠcaB f
CCG G
CCG GF
ĠdccB ce
Ġspirit ed
Ġspirit oso
ol in
ol an
xGxG xG
Ġacc g
xAG cAGCG
xdd a
xdd gd
xdd dcccA
xBB cB
GcG cGcGc
FFA BcBA
FFA BcBAF
AxF xBxA
xFG BGB
xee x
edcd cd
)"_ \\"
ĠAcFA cA
fbc dB
ExG xF
gba ge
ĠGBBB ce
ĠFAdF ED
cBGD CB
Ġeaaa AB
ter pre
ABAG xFEx
GdB gdBdg
so me
ccd cBc
ĠGGGB BB
min ore
FAcA eGBG
egf x
ĠGdd g
Bxc xA
Bxc xBx
Bxc xExAx
ĠAfA fAf
gggg ggg
\"" [
ddB dx
CDED EF
CDED EFG
Ġdz ed
ĠAz a
ĠAz FA
Ġbfd g
CCA AG
DFF FG
aag x
ĠGdB e
bdBG FDB
exd cBd
dBDF AFdA
Bdd dxddd
FxD xB
ss ig
Ġez fe
Ġez dG
ĠdAfd af
!>)! {
44 4
afec FF
Gxc xC
ĠgAA f
FAx AF
DDA AG
]"_ (
edBA DC
BeB eBeB
fi rst
ĠGz GA
vc ua
DDG dBGAG
xCEA xB
ĠADE FGA
gdcA DCA
gxf xf
ĠfaA e
ĠfaA f
ĠfaA g
ĠGEBG GF
exc xexce
DGBG dBCE
Ġbaag gf
Ġfbag fe
xef bE
Ġre turn
FFD FD
DFAF GBdB
FAA AG
za za
Ġaag b
FFB B
FFB dfb
Ġ4 1
bage EE
Aec aecea
dxG xF
xFFF FE
Ġeec a
gdAG FDCA
CDEC DB
Ġgeec cA
DEDC xG
Ġgce b
FEED Dx
GBdB Bd
ace s
Ġdbb dc
cAce aefd
aecB exfa
Ġl A
Ġl egato
dea dea
fcfc fcfc
beBG FEB
ĠBfd fcf
GEGA GE
vF uG
vF uF
FAcf FAcf
dgf dBF
dgf edc
Ġddf faa
ecec BB
EFGB ef
xexe xex
EGEC xCEG
ceA cA
ĠBDF GBd
xxxC xxx
Ġth at
GcF cEEFE
Ġgz fg
ĠbBB a
ĠBdF dBd
ccBA d
Ġcz AF
xaxa xb
xaxa xaxa
So lemnly
BBBA Ac
ĠTag af
ĠTag ab
xeee efgc
Ġdbg bdb
DDDE FF
ĠDBAG GFED
xDxE xD
cfe cAc
gAfA efaA
xBBBB BB
GBdg GBdg
!>(! (
PMTCOM e
IN OR
BfB d
BfB g
gage ABde
dddddd cB
BBBc BAGE
dddc xc
ĠEGC c
dgB f
vE uG
FFEE EFG
xaa gf
xaa xaaxa
ADFA dcB
ĠADB c
ĠADB d
cFc fA
ddddd dea
AcG cF
Ca po
bba bc
gcc g
ĠL o
GcdBcd ABx
ĠBggB dg
AaA aAaAa
FdB dFcGc
EcG AA
ĠR hythmus
ddA e
AGAF BA
BEGB EGBE
gxa xbb
MG MG
GcdBcdAB xB
Ġr ondeau
ĠAb cd
xFxE xFx
xFxE xDxC
fAc ff
GDFD DG
Ġ|"^* ""
ĠfBb d
ĠTcBc f
cBAGA ddd
Ġh er
Ġh lvoll
FBdf dBF
Ġ..." "_-
ggd d
ĠEz C
ĠEz ED
BABAB f
EFDE FDEF
aae ea
fdcd BG
CGcG dGeG
AGFGA BAG
DAFA DBGB
aege aege
GcGE xEGc
cxex ec
ffd ddd
Ġfcgc ac
Ecx AF
Ġend s
xGxA xB
"^* "^
ĠAffA gf
xdA ddd
ĠBeA d
ĠSpirit oso
---- -"
for d
xEAc ef
xeeee eee
xeeee eddd
EDEA DAED
cdfd fa
DFED Cx
ark ed
GFxE cB
EExE FFxF
GFEDG FED
EEAE GAG
CEGC cGEG
cABA BF
ĠĠĠĠ Ġ
xbb be
GdBG dBGd
xAAAA BAG
FExE xD
xCECG ECG
Aaa aAa
xExFx EDE
Ġmo sso
xAcd Ac
cefg g
xECG ECGE
Ġbz ag
gGc gGc
Ġbdbd bd
bfg xd
cAec aceA
xcxcx AGF
GxAxB xc
Ġbae b
ĠFdf D
CGECG ECE
ition al
FcG cFcfA
daA d
ĠN ancy
xBxBx BA
"^/@ <
istin ct
ĠbBd b
FEDEx ED
EExEE FxF
EExEE xEE
FExD Ex
BABcd cd
cca sion
Ġtlich es
GAFAEA DA
Ġflat tened
dGdB dG
GEGG dcGG
ĠfeA feA
eccc xAcd
cEcE dA
cEcE cE
EAED GDB
LO NG
AGGE xEE
EFFGG AAB
FGFA AGF
Aff ec
CecC dBFB
EBeg edAD
cBdB xG
lig ht
lig htly
vC uE
ĠGFBF GE
FGxA xC
ĠCh ange
BdAB FGBE
xeec gf
DDxDx DDx
xGec xGec
xEGEGE GE
xEGEGE xE
BGEcAF BG
dBFdBF d
aecaec x
gfdGG ABg
gfdGG ABf
xDBGx DB
GGxGFF xE
GecA BGEc
Gda EBfdx
ĠTedB g
DEDED EDE
DFDD CCDC
DGDCD FD
FEEF FE
DGFB CEFG
FDDFDD FE
athet ically
cgcgcgc g
GeBG eBdB
xGxD xAxA
gggf ffff
beab agfe
bagab aga
Ġbeweg ter
Ġeza zaza
FdE cDBCA
dAfd afaf
dAfd adAf
cGDFAF dA
fefef gfg
Mourn fully
sy m
AFGAG cBc
EBxEB xEB
GFGx dG
DCDD CG
GxGGx FEx
xaxgx fgx
ĠMin ore
EGBeg BGE
xEEEG GBB
dgcgB gcd
dgcgB gcg
BeFdF c
BeFdF cFB
FcFC DEFx
Sw allow
zug iger
AdaA daAd
Ġme lody
Bxcxd xg
FcAfcA cf
Ġch ange
GEEEE ECB
ccff aa
dadd adbd
erh aben
xffbd cBc
caB aAaBa
EADA EDEA
xDAFAD xD
gdfc dBcG
afdafd af
axaa xaxa
Ġsp are
Ġwor k
FcFcFcF c
FcBA BAF
hl jodel
xcdcd cdA
Ġcou plet
Ġzug ig
ĠCal vert
atter son
CEGcDA de
ceAeB eAe
Ġsolemn ity
AL L
Lo ca
fFAc fecA
Ġcrot chet
cCFC ECF
cEAce EAc
GcdB cdBc
CEGcA cea
BdGdA dGd
rilli ant
adegcd fa
xddeeAA B
Kerens ki
Ġfro h
ecfd adc
edxcx cdc
DFGDF GD
GxFEF xG
cBGBGF GD
DFAded AF
Fcgag cga
fgegf gdg
ĠSca les
Acecae gd
AI R
AfcAF cAf
CBGECG FB
EecDA fd
GecE eGE
cadac aBg
xgeBGE eB
,]/< [
ĠAbge sang
ĠGcdef a
BGdBDG BG
EBefg feB
EBeged Ad
ĠafF a
AExEG cec
AEGGAG AD
EAeADA dA
AAAGx FF
EGBGDG AG
BBBGF ff
BBFFA AEE
xGBABA GG
FGdGEG dG
xEAEAE AE
ĠCott age
GAeGA e
DFdFDF dF
dGcdd GBd
ceeeed dF
gBfga dga
xcccBA Bx
ExECEF xD
xdcBB BGB
eCFCFB e
gAfeA deA
dxcBc xBx
GABcdc dB
xaxgxg fd
BebeB e
imer ick
Ġcant abile
usdr uck
ddeeef ee
terpre tation
! ({
' ]|_
' )(^
( [_
, ){
- ""
/ [^
0 0
2 72
2 95
2 65
2 67
5 11
< !>!
A eE
A eG
A gA
A aec
A cAEC
A ax
A eee
A cGA
A re
A aga
A Ta
B cC
B dD
B dBFB
B gfg
B efe
B BGA
B re
B xEx
B fdf
B cGc
B BGBG
B xex
B xGA
B xcxc
B dGd
B TAF
B dBFBB
B rilliant
C FDB
C cd
C xd
C eC
C ex
C ccc
C DDDD
C DGG
C EEx
C EDx
C xccc
D M
D fd
D cAE
D gD
D aD
D GDD
D FDCB
D TF
D GDDGEGE
E S
E cD
E GDC
E fE
E dcB
E cEc
E cBAA
E cFx
F AFCF
F GEG
F GEE
F BGEC
F AAAA
F AAB
F zc
F GGx
F sus
F lowers
G AFC
G dC
G fed
G GBd
G ccc
G dBGB
G xCx
G Tc
G GBc
G AAx
G TA
G xDxD
G cAGC
G dddc
H e
H ugh
J H
J ack
J igg
L e
M b
M FD
M cB
M FG
M EFG
M is
O D
O ver
P ED
P FE
P add
R O
R CH
R AT
R hythmus
S qu
S mooth
T FG
T bg
T age
T urn
U C
W alzer
] >=
] !>![
a k
a xG
a bB
a BGDG
a GFDB
a eBGE
a AGG
a Te
a abc
a BAA
a cEF
a xex
a efa
a za
a aAaa
b xA
b cc
b be
b cEC
b cAEC
b DCF
b ecAEA
b BAFD
b cBE
b ur
b aeF
b gae
b feA
b BbB
b BFDCB
b AFECB
b baga
c ar
c fcAF
c EDCA
c EDCB
c ggg
c zA
c xBxB
c aca
d dBG
d dD
d bag
d bx
d bdB
d EDF
d TB
d ze
d uce
d bdg
e v
e ABc
e gfg
e BBB
e FDCB
e abc
e GDCA
e edge
e FEDB
e AGFE
e AFECD
f m
f xE
f FGA
f AGA
f bgd
f bfd
f FEDA
f BAA
f ri
f bbb
f fdx
f liessend
g m
g xC
g ABc
g in
g AFDC
g GECE
g GDCG
g xdx
g ACD
g gBd
g fdBGFDB
g afcf
g ueg
h a
h am
h aps
i v
l ed
m a
m on
m ain
n b
n y
o k
p ed
r y
r ag
s w
s te
s tenuto
s fz
t te
t une
u af
u Bcd
u ab
u dcB
u AAA
u it
u mp
v DB
v AG
v fd
v EG
v eA
v ab
v DDD
v Ec
v ol
w e
x gG
x AEA
x ecG
x FDC
x GFF
x GFEB
x FBd
x afdB
x ffff
x AGFG
x fgc
x fedB
x agc
x fee
x gabc
y m
y er
z EA
{ /=
} "^>"
} "_#"
Ġ low
Ġ 19
Ġ 73
Ġ 67
Ġ ?"
Ġ ~"
Ġ 184
Ġ round
,, ,,,][=
,, ,,,|
,, ,,,][_
EC CG
EC DGFB
Ġd GDG
Ġd dF
Ġd GEG
Ġd aB
Ġd be
Ġd aec
Ġd abc
Ġd cGc
Ġd EEF
Ġd dfg
Ġd DFd
Ġd DBd
Ġd FEc
Ġd ube
ĠA EDB
ĠA EDC
ĠA AGC
ĠA abc
ĠA CDB
ĠA ug
ĠA GBe
ĠA TF
ĠA eAc
ĠA zg
ĠA edcBA
ĠA cGe
DB GDB
ĠB m
ĠB CA
ĠB BGD
ĠB EDB
ĠB BGF
ĠB BAE
ĠB BAGF
ĠB eBc
ĠB aca
ĠB DAc
Ġe FG
Ġe BE
Ġe xc
Ġe GEG
Ġe FEF
Ġe efa
Ġe GBc
Ġe zB
Ġe ecd
Ġe GFd
ĠG GC
ĠG fa
ĠG AEE
ĠG GEF
ĠG fgf
ĠG dFA
ĠG gdg
ĠG cAB
ĠG cFc
ĠG gAe
ĠG gAa
FD DG
FD GDE
FD FEG
FD FAd
FD CCx
Ġc FE
Ġc cGE
Ġc FDF
Ġc GEA
Ġc FED
Ġc EDC
Ġc dBE
Ġc cdf
Ġc Tc
Ġc gfa
Ġc EBA
Ġc gfA
Ġc EBD
Ġc lear
CA D
CA EE
CA CE
CA ce
CA GAD
se y
GE g
GE FC
GE cAF
GE cGEG
GE cGG
GE EEG
Ġf u
Ġf GA
Ġf ecG
Ġf cBF
Ġf GdG
Ġf Te
Ġf ceg
Ġf ud
Ġf cee
Ġf BAe
Ġg afc
Ġg fdF
Ġg DGB
Ġg GBe
Ġg zB
Ġg dGd
AF GG
AF cec
AF AGx
AF FFG
Ġ( {/
BG BB
BG FEDA
BG zB
BG ecAc
ĠF cE
ĠF ECC
ĠF FCC
ĠF dDA
ĠF ccc
ĠF CCC
ĠF EAc
ĠF EGA
ĠF FEG
ĠF AGFE
ĠF EAB
ĠF FBc
ĠF irst
ĠF dGe
ĠF fGg
EB ED
EB BGG
ĠE ece
ĠE FCD
ĠE ded
ĠE cFA
ĠE age
ĠE AGG
ĠE zA
ĠE eGe
ĠE zD
ĠE eEe
ĠE FBE
DA GD
DA GB
DA AA
DA GA
DA xF
DA cf
DA DCD
DA DGF
cA ef
cA cG
cA eB
cA fA
cA Bcd
cA Be
cA cdc
cA DCD
cA GDF
cA cdx
ĠD O
ĠD ECA
ĠD af
ĠD ecA
ĠD cD
ĠD fa
ĠD GDC
ĠD fE
ĠD FDE
ĠD dBd
ĠD eae
ĠD ol
ĠD ffe
ĠD dDd
ĠD EBA
ĠD DAA
ĠD istinctly
Ġa cF
Ġa dcB
Ġa aec
Ġa aAA
Ġa DFD
Ġa ss
Ġa fAc
Ġa abb
Ġa round
ECA DEC
dB Bc
dB cde
dB FEF
dB cBd
dB cGCE
CG GB
CG FE
CG cg
CG xGxGG
FDA C
ECG C
ECG FECE
ECG CECGC
GD EA
GD cec
GD xDE
BA CF
BA dA
BA CE
BA xF
BA GDC
BA dcB
BA GEDCB
BA xcxA
xx DB
xx EB
xx EEE
FC CE
ec cB
ec df
ec fa
ec cBB
ec ecd
ec tion
AE EA
AE FCG
AE xe
AE EEE
AE cAec
AE GEGc
ed CG
ed FE
ed xG
ed dG
ed FCF
ed GED
ed Ae
ed ADD
ed GEDCG
ed feg
ed dBdBdB
DG BB
DG BGE
DG BBB
DG Be
DG ABG
DG ABe
AG cA
AG FDF
AG GEA
AG Ae
AG FDE
AG FAB
AG ADE
AG BAGE
AG ABcA
GB DB
GB FB
GB xG
GB Bd
GB dBd
GB Dc
ED AF
ED DF
ED DCCB
ED DCDxA
EA ECB
EA Bcd
EA cf
EA xCE
fd GCA
fd FEC
fd dg
fd ece
fd fdc
fd fdf
fd cBB
fd Tc
fd cDCA
AA xx
AA cB
AA BAG
AA Ad
AA xFx
AA AFED
FB FE
FB FG
FB Fc
FA CA
FA cC
FA AFF
FA dg
FA Bcc
FA DFAF
GG EC
GG FC
GG dG
GG BGB
GG xGx
GG xEE
GG FFEE
AB dG
AB FED
AB BEE
CF FED
CF GAB
CF xFxF
GEC x
cB FA
cB DC
cB xd
cB Bx
cB dcB
cB xg
cB AFEC
cB BFG
cB BAA
ge FC
ge CF
ge bg
ge EDB
ge AFE
ge be
ge xg
ge cAECA
GF cc
GF AGFD
GF FEED
GF ddcB
cd z
cd fg
cd xf
cd ccc
EE FA
EE GA
EE xD
EE EDCB
EE xEF
EE AEAE
EE GBcB
DD EC
DD EDC
DD CDx
ef fd
ef ecA
ef xc
ef be
FE BG
FE GB
FE xd
FE xCx
CB AFC
Ġb GE
Ġb de
Ġb ce
Ġb afc
Ġb Gc
Ġb baf
Ġb ro
Ġb efc
Ġb aca
Ġb dBg
Ġb bfb
ar c
EG GE
EG ECA
EG AD
EG BGB
EG eBGE
EG ecGG
fe GE
fe AFF
fe cAEA
fe ex
fe dBE
fe gfed
fe FECG
CC f
CC BA
CC cB
CC DDD
CC DEFE
BB ce
BB edG
sharp ed
dA g
dA ef
dA ce
dA cGAF
dA cEcEcE
cG dcG
DC EB
FF fFFfFF
Ġed FG
Ġed eG
Ġed Gd
Ġed fdBd
Ġ|| {/
Ġ|| ({
xG FDA
xG FA
xG xC
xG ABA
xG Ae
xG cf
xG AGC
xG xex
xG cdx
xG cdG
xA D
xA BAB
xA cBcBcB
AFD xA
ĠAB S
ĠAB ec
ĠAB gB
FG ed
FG cd
FG CC
FG cF
FG xAx
FG BGFE
AD DA
AD EA
AD dA
GC d
GC e
af EG
af fe
af bg
af FCF
af ecG
af AEB
af GDD
af FEA
af ax
af dBGE
af cGA
af dBC
af cBAF
af cBC
af ter
xE FC
xE FF
xE ECE
xE cEB
xE FEDCB
xE GEAE
xB g
xB xAxA
xB BAEE
xB cBxB
xB FDxB
ĠC S
ĠC l
ĠC CA
ĠC FC
ĠC cAF
ĠC BAB
ĠC zE
gf AD
gf GC
gf BGEB
gf cAFF
gf dBAG
gf cAGF
BF AG
at t
at er
CE xx
CE cE
CE ce
cAF AB
cAF EDB
cAF Ax
GA cE
GA cc
GA xGx
DF AE
DF xFx
Ġef ba
Ġef cc
Ġef Ac
Ġef Ad
Ġef aa
Ġef agfe
eB eBG
eB AFECA
Ġfd D
Ġfd G
Ġfd dD
Ġfd dG
Ġfd Gd
Ġfd zd
xD DA
xD EGA
xC ED
xC EE
xC DEF
xC DCE
xC DEFG
xC xDxE
dc EE
dc CC
dc xF
dc DCA
dc eg
dc FDCA
dc BGG
dc GDC
dc BGC
dc ecAF
dc age
dc BGx
dc cAAc
xF BA
xF ca
xF xGx
xF xAx
DE e
DE BG
DE xB
DE FFF
DE xFx
DE DGA
DE xFxD
DE RAT
BE e
BE cA
ĠdB ae
ĠdB bB
ĠdB gc
ĠdB TAF
ag CE
ag gg
ag cCA
ag dcG
ag dEC
ag ggf
'' -][_
Ġgf AB
Ġgf fB
Ġgf Bf
Ġgf fb
Ġgf afdB
Ġgf gece
"^ =
AFC FA
BGE GEB
dBG FDD
dBG FCG
dBG dBGB
cC x
cC EC
de ag
/) [
/) _
/) "^="
dD x
dG dBG
cE ec
cE FB
Ġdc GB
Ġdc ge
Ġdc be
Ġdc ea
AC FCA
AC EG
AC DC
cF ECD
ĠcA EB
ĠcA gf
ĠcA ga
ĠcA dE
ĠBd GF
ĠBd gc
ĠBd gA
ĠBd gdBG
ĠBd gfed
eE x
EF dB
EF xG
EF xFx
ecA GCG
ecA GEDA
ĠBA db
ĠBA zA
BD d
BD EB
BD dB
BD EBE
ĠcB FB
ĠcB fe
ĠcB df
ĠcB gfed
ĠcB dcBA
Ġ|: {/
eA aA
eA GEG
BGD CC
GDG FDx
ĠBc b
ĠBc FA
ĠBc FF
ĠBc fg
Ġ. [^
ĠBG TF
ga ag
ga ecA
ga eg
ga ad
ga bag
ga geg
ga gfef
ĠAG g
ce af
ce ea
ce acA
ĠGB DC
ĠGB zB
gd ECA
gd dB
gd FC
gd FCA
gd cAC
gd fdf
gd ddc
gd AGFDA
CD ECA
CD FC
CD EDED
cGE Gc
dF ECB
Ġcd E
Ġcd ge
Ġcd dddd
Ġfed cd
Ġfed fdf
Ġfed cBd
Ġge ab
Ġge bgec
gG e
gG GB
gG FA
gG cG
gG FDF
ĠcBA cB
ĠcBA ABc
ĠcBA edc
fF dB
fF ED
Ġdf AG
Ġdf GB
Ġdf AA
Ġdf fc
Ġdf edc
Ġdf afdf
Ġec aA
Ġec gA
Ġec Tc
ĠBAG AGF
eG FC
eG ed
eG eg
eG ced
ĠFA gf
ĠFA cAGF
cAE DG
ĠGA dd
ĠGA BAG
ĠGA cg
bg CF
bg CB
bg GA
bg BFDB
bg FDC
bg GEDB
bg dAFD
bg ecGEC
bg edD
bg fdBGFDB
dd b
dd GG
dd ga
dd GBd
dd xdx
dd dBc
)( {/
ĠAF g
ĠAF fc
ĠAF eF
ĠAF dcBA
ĠdBG AGE
aA cA
aA fd
aA xA
Ġfg de
Ġfg gB
Ġfg bc
Ġfg Bg
fc dB
fc FDB
fc EE
fc xB
fc FCB
fc GFF
fc FDCF
fc BAFDA
Ġag Tfe
Ġag bgeg
gB ECA
gB ECG
gB CF
gB DF
fA gA
ĠFD fd
ĠFD ef
ĠFD af
ABc BAc
in st
Ġce gB
Ġce Tfe
ĠAc ED
ĠAc cG
ĠAc fB
Bc D
Bc FA
Bc xA
Bc gf
Bc GFE
xxxx e
xxxx xa
Ġeg cA
Ġeg GB
Ġeg agfe
dBF EC
fB FCA
fB fdf
ĠBcd cde
ĠedB DBD
ĠFG FB
ĠFG cB
ĠFG cd
ae CB
ae CE
ae AFECA
ee b
ee fd
ee ece
ee xexe
ĠT h
ĠT o
ĠT FA
ĠT AB
ĠT fa
ĠT uc
ĠT BAAG
ĠT wice
bB AFCF
bB AFDB
bB FEDG
df edc
df afd
ĠdcB b
ĠdcB Bcd
ĠGF FB
ĠGF ef
dAF c
BAG d
BAG cBA
xc fga
xc BAE
xc cccc
xc efgg
ba cB
ba GF
ba BB
ba dA
ba BF
ba bf
ba ab
ba geA
ba fdcB
Ġgfe G
Ġgfe dB
Ġga ce
Ġga aa
Ġga Tge
ĠAGF a
ĠAGF f
ĠAGF g
fg A
fg gc
fg gx
fg xa
eBG ECA
eBG CF
ECC EE
ĠDE AG
ecG e
ecG FDB
ecG FB
ecG CF
ecG cd
cc b
cc xB
cc ce
cc xa
cc BAB
cc cf
Bm i
dE xE
Gx AF
Gx AB
Gx EG
Gx GEG
fdB f
ĠEF de
ĠEF GFE
ĠGE EC
ĠGE GF
ĠGE gf
ĠGE cC
ĠGE cAGA
Ġea ve
Ġea ch
Ex DG
Ex GFE
Ex EDC
xd cdc
Ġefg feg
GCA C
,( {
BGDB GD
Ax AGF
Ax AGA
Ax cAc
Cx ED
Cx GF
Cx CCx
ĠeA cc
ĠeA ab
ĠeA TBA
Ġdcd D
GED DA
GED FB
Ġgfed cd
gc DA
gc GECC
gc ECE
gc GFE
gc BGEC
gc efgagf
Fx FD
Fx CE
Fx DF
Fx FGA
Bd a
Bd FB
Bd gdB
Bd gdBG
Bd GBd
Ġdg BB
Ac xG
Ac ecGcec
Ġ|"^ '
ac GDB
edc GD
Bcd F
Bcd AB
gec a
gec d
gec x
gec FD
gec BF
gec EF
gec AFCF
gec GED
eg A
eg F
eg gf
efg be
BGB dGdBG
ĠdcBA BA
ĠABA BG
ĠABA Bc
ad GE
ad FC
ad de
ad EF
ad cAGDA
ĠED f
fcA GECA
fcA GFCA
GCG CGCG
Ġdd b
FGA BA
ĠEG FB
ĠEG ga
ĠEG BGBG
ĠAA ge
ĠAA gf
ĠAA ae
ĠAA ee
ĠAA AGA
ĠAA zB
cBA GED
cBA GFEDC
Ġba de
Ġba bgec
>"^ $
>"^ =
>"^ +"
xe ag
xe ab
or a
ĠedcB c
Ġagf A
ĠFED e
ĠGG ec
ĠGG ga
ĠGG gB
eF f
eF dc
FDF AG
Bx dBG
Bx AGF
Bx gx
Bx ede
Bx BGx
ADA A
ADA DAD
bf AE
bf EA
bf FA
bf AB
bf cGE
bf BGDG
bf bf
bf cGC
bf cBC
ĠDF dA
ĠDF FDFA
ĠGBd GBd
)" {^
ĠDFA dcB
BEB d
BEB EB
"_ <"
FED FA
FED EDA
ĠBGB dgb
cx cex
cx dcxc
fG CF
fG cfe
gA GDF
ĠAD GE
ĠAD EA
ĠAD dA
Ġab bg
Ġab bb
Ġab er
Ġab ve
Ġgfg bdB
ĠAGE GEG
eD CF
ĠdA ec
ĠdA cF
ĠdA dd
ĠFGA BAG
gdB CA
gdB AGEB
ĠBe a
ĠBe b
ĠcAF dc
Ġgb dB
Ġgb ee
ff af
ff xd
ff fa
ff fec
ĠBB ge
ĠBB dA
ĠBB gd
ĠBB eg
Ġcc af
Ġcc eB
Ġcc ga
ĠDG dB
ĠDG dc
afd FE
afd FDD
afd cAG
ĠfdB b
ĠBE BG
ĠBE FB
geB AF
fa ab
fa xa
fa gfed
fa beab
cAG FB
cAG FCB
DEF GDBGE
bd EA
ĠAGA cBG
FEB F
ĠEA DG
ĠEA eE
ĠEA zEA
ab cA
ab ae
ab xb
ĠGABc ec
fC e
ĠdG GE
xf GE
xf xA
xf af
ĠGED e
ĠGED g
aB AFDB
ĠBGE f
]" "^
ĠABcd eA
ĠABcd eg
ĠABcd efde
be ECG
be CE
be ll
dcB e
dcB gB
dcB Bc
dcB AFDB
dcB cBG
dcB dcBc
gfe C
gfe BGE
ĠBdB ABA
fed a
fed g
fed fd
fed ge
fed ef
fed fe
fed GDA
aD a
ĠDB GF
ĠDB dg
aec BG
aec BGE
aec BAA
aa n
aa aaa
Ġged SB
,,,, [_
Ġfef gf
def b
ĠBAF b
ĠBAF e
ĠBAF g
ĠGFG d
cEC c
Ġbag A
bge CG
bge ED
bge ECB
bge BGB
bge bge
ĠdBd edc
xg ge
xg xG
xg fdc
xg xbx
xg bgb
Ġfaf ef
Ġfaf afd
." .
gF a
Ġdefd cA
Ġdefd ec
Ġdefd cB
Ġdefd gf
bc CA
bc EB
EDC DG
EDC DC
Ġv FA
Ġv dBG
Ġv fA
Ġv bf
Ġv Ad
Ġv afd
Ġv fed
Ġv gfg
Ġv gag
Ġv dBd
Ġv GBB
aC g
Ġu AFD
Ġu gg
Ġu efe
Ġu Da
gfg ag
BDG BdGBd
aG b
aG g
aG CB
Ġae bg
Ġae aa
dg gf
dg xd
GAB AF
GAB xc
GAB cBcd
GAB dcBAG
fx ee
fx ff
fx fex
ĠDEF f
Ġff bf
ĠDGG AAB
ĠFF c
ĠFF BA
ĠFF AG
ĠFF EA
ĠfB fe
ĠBcB a
,,,,, |[
gx fe
gx ga
gx fg
gx bx
Ġefed ce
]"^ "
aecA FD
aecA ECC
GBd GBdGB
ADF d
ĠABAG FA
ĠgB ef
ĠgB dc
xa ba
xa aga
ĠDD GD
ABA Bd
ABA BcB
dFB c
ĠdAF c
ĠdAF AFA
ĠGEE a
Ġege cAc
ĠAGAB dB
ĠAGAB cB
]/ ([
fga ec
bag x
bag cB
bag af
bag afd
ĠGc FA
ĠGc ac
ĠEB ce
ĠEB Bd
ĠEB ea
ĠEE EC
ĠEE eE
ĠEE dE
ĠGFGA BA
ecGE F
EFG BG
EFG GB
EFG FA
AGD CC
agf edcBA
gb ba
gb fgc
Gc xC
Gc GFGCGF
Ġac gB
Ġac ba
ĠFB fd
ĠBF AA
ĠBF cB
eGE FE
EDE FE
GGG d
GGG e
GGG AGF
Ġcf bg
BBB e
BBB BAx
Ġfc ae
DDD d
Ec ec
ea l
ĠTB cB
ĠDA dB
ĠDA cd
ĠDA fe
ĠDA GA
fFF fffff
ĠAAA AGA
gdG FDG
gdG dgd
ĠdF GB
ĠdF cf
ecB CB
dcA EE
dcA FDF
ĠBGAF GE
Ġefd F
Ġefd cBA
Ġdfd ecA
Ġbagf ec
Ġfgf b
Ġfgf gfg
Ġfgf efe
Be xA
Be ag
cf ec
cf ce
edB AEE
cCG BEG
ĠAf AF
BFE DG
ĠBg AB
ĠBg ce
cFD CC
ĠAE EB
ĠAE dE
DCD FDC
DCD EDC
dBFD CB
BcB E
BcB CG
BcB cdcBc
BcB EFABB
AGA f
ded cA
ded ee
ded cBc
ded edede
Ġdfe e
Ġdfe dBA
ĠCD CC
cBG DA
cBG FE
cBG FDG
cBG ECF
cBG FEF
gef ge
Ġgedc BA
cEG A
FFF d
FFF e
ĠcG cB
ĠcG cE
ĠGBdB AG
ĠGBdB gd
ĠaA ge
ĠaA dG
ĠaA eg
ĠEDE FG
cFA B
cFA ced
bb ba
gBG CG
bgd DD
/{ =
Ġegfe dB
ĠGD EE
Ġ||"^ >"
dAG ECA
dAG FDD
ĠcF fd
ĠdAFA dA
one y
bfd AA
bfd cB
bfd cF
ĠcE ec
ĠcE dc
ĠTe nder
GAG d
25 4
ca ed
ca nt
Ġfgfe dB
Ġfgfe fd
fgf edc
fgf gfg
ĠEFGE FG
bx aaxaa
ĠAdc E
gdg dcc
CDE GD
CDE GF
CDE FF
da y
ccc cA
acA EE
acA DCA
ĠeG g
ĠeG eg
ĠAFF a
FDE FDEFD
Ġgfef gG
CEG d
CEG ceg
ĠAe ac
BED CF
fdAF EDB
fdAF EDA
Ġeag g
dAA d
ECD EE
cAB de
it on
cGG c
Ġca ba
Ġca ad
Ġca aB
GxG xdxdx
>. [
ĠAa eB
ĠAa df
ĠAa aB
ĠFAF d
ĠFAF AFA
eAF EE
aAF ED
ĠGe GG
ĠGe eB
ĠBdc cA
cEB A
ĠAcA cAc
Ġddd b
Ġddd cd
ĠFd Tf
ĠGGG AB
ĠGGG BGB
ĠGGG GFE
eEA B
gab dfbd
gag d
ĠBD EB
BGA BG
ged GG
ged cGE
Ġfdc BAG
Ġdec dBc
ĠGd gf
'( ^
eBA ECA
eGB c
ĠM ul
ĠM oun
ĠM INOR
Ġbe af
Ġ|"^( /
Gd xdx
ĠEGB ege
ĠCB C
ĠBdg bd
Ġafed cB
ĠCA GA
ĠCA Acce
ĠcdcB cA
FGF EE
FGF EDC
Fc fg
Fc agC
Bf ef
Bf lat
Bf efefef
CxC xx
CxC xF
CxC DE
CxC ECD
CxC xCG
fcG c
ĠP ony
ĠP ia
ĠP atterson
ĠP JH
age a
age AE
age cAEB
edA GDB
AxA xB
GdG dg
cEE d
dcG CF
Ge ed
gdA GDB
'''' -^
AGG FA
DCC E
CEC ECG
FAc xG
FAc fcAFA
ĠCC CCCC
bdB FCA
bgB CA
ede fd
>"_ =
eBF e
DFB dfb
gGC D
cDB A
cDB GB
({ _
Aa dA
Ġbc ab
DxD xDF
bfB EA
bfB DF
ĠdAG FED
ĠgA cd
Ġfb ed
ĠGEC c
EGB c
eAA AA
xxxxxx D
xxxxxx e
DFD g
DFD AF
DFD CG
DFD CF
DFD xD
EEEE EEE
xAx AGA
EGE c
EGE GEG
gecA DCG
gecA GECE
ĠCF ED
ĠCF GA
ĠDGB dBG
oder n
ĠBed cB
ĠdgB f
ĠecB B
ĠBde A
AcA xc
ĠAcB e
BdB x
Ġgede ga
ĠFDA f
ĠBGdB gd
CCCC DDDD
gcA EB
fb fc
il li
il les
ĠAGFD GFEC
afe AA
afe BE
afe cAA
CDC DB
CDC Dx
ĠcGE cGE
Ġs on
Ace x
gdc x
gdc GEB
ExE xD
gBE F
xDx CA
fAA B
Ġcg fd
Ġced D
Ġced cB
afcA ECG
afcA GF
afcA DCA
afcA FDCA
gfed ef
BAGF GFEF
gfd gf
gfd AGF
ĠGDG G
adA FDG
Ġda de
Ġda df
Ġda ab
Ġbf ce
Ġue O
ĠcBce ge
ĠgG gb
fdAFD E
aaa ag
Ġeee ee
Ġgdc e
Ġgdc g
ĠfdA fdA
Ġ|:"^ -
Ġ|:"^ **"
Ġt ig
Ġt hree
Ġgba gf
cFE DG
fdcA FDA
fdcA DCA
ĠFAD FAc
Ġm m
xcx cB
ege ge
ĠAcd cBA
efd a
aed cE
ro p
ro ss
ten ds
geGE DD
)"^ ->
no te
ĠEEE d
ĠEEE e
dGF EDG
/- <
AAAA c
AAAA Ac
GGGG FEEC
ABG c
ABG BFB
EFA df
fBB fBB
FxF xEx
FxF xExFx
db de
GGF AG
ĠFFF AGF
bgf BB
bgf dBB
ĠECE c
adB DF
Ġadd b
ĠFBB g
GFED Cx
bgeB EE
ĠEFD f
bgdB FDG
Ġgbeg ce
CDF AG
GFA GE
cccc ccx
xxxxxxx f
fFE DG
dBAG DA
ĠbB fa
ĠbB gb
edG df
ĠGAF e
ĠFDB G
afAF EA
'} "^
Ġfdge af
Ġaed f
FBF dF
gedB EE
DDE FD
DDE EA
fedc x
fedc GF
fedc BAG
Ġecd G
ĠAdcd fd
ĠBdGB dB
po co
po ken
ĠFAB B
ĠFAB D
ĠFAB e
Ġafaf bg
EED EE
ĠFEFA D
DEA D
eAG DA
eAG FCF
DFG AF
GxGxG xAx
ch e
ch t
ch lich
ĠgBB e
ĠcAcA cA
eeee ef
ĠEd dB
DxE xA
DxE xB
/"^ >"
Ġ"^( /
FGAB cA
ĠAcf ac
lleg ible
Ġdddd fd
xCE c
DEE x
FGB eBG
DFDB DFD
Alleg re
AGFD FD
ĠBb fg
ĠBb bd
Ġ"_ >
Ġvd ue
ur ch
deB dB
ĠaB de
Ġ::{ !
xEE ED
xEE GF
ABcd ed
dED CE
xgx ge
Ġcb dc
Ġcb bc
/"_ =
BAEB A
ĠGce Gce
FxE xFxE
hor n
hor t
ĠS lide
ĠS trathspey
ĠS ligo
Ġegd d
ĠdBde BA
CDG F
EEG GEE
TA dd
CEB c
CEB EB
gcB FDB
gcB AFECF
EFD x
EFD ECD
GAF AFAFAF
AdA eAf
xDG g
xDG Bc
xDG Bd
xDG GGA
ze zd
ze zc
xAA c
Ġ|({ =
Ġuc ae
ĠdGB a
ĠdGB f
xDxD xA
ĠBAcA AGGF
ccB Bc
xEA Bc
ced x
gBA GECB
Gce AFcec
)({ !
Ġo ccasion
Ġegc eAc
ĠCa p
ĠCa sey
PMTuCOM ge
PMTuCOM dc
Ġegb egb
xDF d
Ġdde a
"^>" [
ĠeAB B
CxG A
dgd d
fde bge
xGG AB
xGG FFEE
xGG GBBdd
xED ExEDE
ĠeBG g
ĠBDD F
ĠBDD d
ĠBdgb af
urn ful
urn fully
/! >(!
/! <)!
axa xax
xEB A
xEB ExEBE
GxA xA
GxA xE
BAGE GA
BAGE DF
BAGE DCA
xGB dg
is ing
GxB d
Ġ(!>! [
xFF FB
xFF FFFFE
adc FD
ĠvB zuB
AxB F
ĠeF de
FxG xE
fdcB FB
ĠcfA g
ĠGEFG cB
BcdB cF
GFGF GFD
DFE FE
Ġeggf fe
bagf x
bagf FCB
Ġaef B
Ġaef b
gxg xfx
BcBA e
BcBA BAFG
AeA dcBAB
In complete
Ġand ra
CDA GD
GGB Bdd
vA ud
ĠFBd b
ĠBddd cB
fBFD CB
ĠcGG e
EFF GEFF
xCC DEF
xCC DEFE
ĠFAcf GE
EGG GA
EGG Ax
ĠeEE c
FGAF GA
FxA xc
FxA xex
CCG CxC
fgaf g
fgaf ed
va ub
DEC DB
ĠeddB cA
ĠFdd f
EGC GEGG
Ġal ter
Ġal so
Ġacc uae
Ġacc ident
xdd de
AEAE GEBE
Ġcdcd cA
xBB F
xBB BE
CED CE
ut ti
GcG d
edef ga
xFG BGF
Ġfcc a
Ġgde G
ĠGEB D
AFAF BFBF
cAcA cAc
ĠcC CA
ĠcC cC
CGc eB
\"" "
DCDC CB
ĠFGB D
Ġbgf b
EFC FE
ĠccB e
CDED CF
Ġdz ag
Ġdz ga
ĠAz C
ĠAz E
ĠAz AA
dBdB x
dBdB de
EFED CDx
EFED EFED
CCA A
ĠeAaA gAfA
Ġbga a
ĠBBc BAG
xAc eA
ecBF ECB
EAEA CCGE
ss i
Ġez ag
ĠGGB D
ebe gaec
GEGE GC
GEGE xFAF
all ey
Ġgge a
ĠGz GB
ĠGz ga
ĠGz Bd
ĠccA e
vc uE
GDGD GD
gfx fg
ĠeccA AF
Ġex ce
ĠFAE a
FDFA xG
edcA GDA
ĠvF uA
DAF cG
ExEx EC
ĠGBD c
bfdF c
ĠBz BA
GDx GD
BABA BA
fcAGF ECF
BBG GBB
ĠDe l
EDEF AAAA
Ġeec f
un t
-- -
DEFA Bd
langsam er
fbf ge
ĠI V
ĠI s
xAAA AGx
GFEDA GFE
ĠBff a
ĠEEF EDC
xBBB BAxB
ĠcEGE d
MA RCH
cBEB d
DADA DAD
Ten der
axg xf
fecG CB
DxDD xDxD
DEFD AFEF
Ġbar line
ĠfFF g
xce xg
ĠBbb bbb
ĠceG cec
Ġabf b
Bfd bfdFc
fecB FC
fecB ECF
xDFB xDFB
Ġgz ag
ĠTED EG
xCCC EEGG
xFED EDB
agag agag
Ġon wards
Ġfz gf
Ġfz ag
xEGB cB
xDFG AGFC
ĠO r
ĠO ne
ĠO ver
ĠO nly
ĠH ighland
ĠceB a
Ġbeg g
xDxE xB
xDxE xC
ExEE FG
ĠAffe ed
ĠTcA TcA
Substit u
ĠcGAB cd
ĠCDB c
ĠcccB dB
dfB a
dfB e
AGGG c
ĠBDB c
BAFA x
Fin is
iss imo
AxE GG
xExC xA
cfg FcagC
bgedB CC
Ġli fe
Ġaz ge
xDFD GDAD
xDFD GDFx
dddc cccc
dgB c
DBFB D
BBBBB cA
dBeB fB
xfxf xf
BdG dBGBd
xddd dB
gax fg
Ġcae e
ĠEDA BcA
bagfed BGFB
AaA f
EcG cF
GFEx CEF
vD uA
vD uF
BDCA DE
CcC c
xBAG AB
Ġgdbd gd
xedc x
xGAG xE
Ġr ec
BDGBc FA
FEAE GEBE
ĠcaA g
fcd fx
ĠBaa aaa
ĠGec a
EFDE FD
Ġfbd b
Ġfbd g
gfedc BAG
ACFA CFAC
Re p
Ġeze ze
DAdA fdAf
aAaA aA
Ġbgc b
Ġn ext
DBGB Dc
Ġffa a
GGAG xG
xfff fgg
axf gaxfg
Ġan ima
Bfe fdfef
ie l
GGGE ED
Fce GDcec
GEAE FEAE
pol ska
Axe xGxex
Ġso unds
gli sh
agfedc BAGFEDCB
dafd b
dafd d
AAAB dddB
per haps
EGEGE xF
ist a
ĠeaA c
GECGEG CC
ĠbG ba
Ġbz af
EEEC CB
dFdF dF
ĠTdB dA
GEDGD GA
ĠN e
ĠAn imation
AxAG xGxF
BgeB e
AFAD GEGc
"^/@ <.
xbxb xa
Final e
if fer
Ġtr y
ĠdfF d
gBDA fd
Ġ|"^\ #"
DcF cDBGB
eve n
ĠRo bin
Ġen r
BGGG xcc
cdcdcdcd dcdcdcdc
bBb Bb
ĠAlleg retto
CEGEcE e
ĠBgG gBg
EDEFGF GE
BdfB dfBd
Ġazg zf
Jo del
Se quence
cri bed
ĠceE d
ĠTfd Tfd
AdAG Ad
Air ily
xExF xGxA
cCcC cCcC
id ing
ĠAl ternative
ĠegA gfA
ĠY ourself
ĠGr azioso
AFGEFD EC
ĠTedB e
Crot s
Ġpo s
Ġdo ch
dDGD DA
Affe ttuoso
ĠAFAFAF dFdFdF
FBAG AGFE
Lan gs
Lan gsamt
cBBG Bcx
AxcA xd
crotchet s
FEEDD CC
xBdf ecx
FEDCF EDC
Ġvec gc
GxGxF xEx
FdAF dAFd
DAN CE
EAEBE cE
cdcdx ABc
cGdG eGdG
gGfG edBG
eexee x
ĠMin uet
quick er
AEFDA EFD
CFxFx FG
xEFGAB cd
xcEC xcEC
cecec ece
GFGABA BG
xBdfec xc
Ġuad ge
fFFfFF f
erh aps
ĠKerr y
Ġlength s
RI T
Ġcad ece
dBfc bfc
"^& "
Amb igu
DFADFA DF
ĠWh is
aefge bag
AeaAe aAe
Ġber mA
Ġsing le
FGDEF GDx
xBBBBAxBx BBBBAx
AfG eE
EAEE AEAE
MO DERAT
kno wn
Ġtriplet s
Ġuaed S
ĠPM x
FAdEA cEG
Ġquaver s
ANDAN TE
Bon um
Hop sa
ption al
GAGAGE FG
CEABce ab
GdGeG fG
EGCGEG CG
Ġdzdzd zd
Cron an
eCeCeC gf
sim ile
Ġfo is
dAfA aAfd
dccAAG GF
FxFEFG BG
bfgef cdf
bfBbf Bbf
Ġeeba ce
Affec tuoso
ALL EG
BdBFB EBe
GdBGB dGd
Padd y
fri end
xafdB cBA
GEcGG FBF
ĠacF a
Ġass ai
CGGB eBGG
DGBGE AcA
EExEF GGx
EEAEAE EA
EGecGG ec
dAcGAF GD
xEGEAE GE
xBFDxB FD
ceacA eae
xgfdc GGG
ĠuDa ve
bxaaxaa x
ĠMoun tain
Ġaccident als
Ambigu ous
MODERAT O
! /
! "_>"
" (^
# /"
$ ,"
' m
' ]|=
' ]"^
' re
( ?)"
) :""
, "^>"
- )!
- ([
. $"
/ /"
/ <=
/ <^
0 1
2 96
2 86
2 78
2 91
3 70
3 72
A ga
A BGG
A dBB
A efe
A aAA
A dAd
A dBDB
A cAGE
A edA
A edG
A GEDCG
A agfe
A edd
A Td
A TG
A edcBA
A TGF
A dBFdBF
B o
B fdB
B ad
B eF
B fC
B FFF
B cGA
B edge
B xDx
B gedB
B Tc
B TBA
B Td
B zc
B xdxd
B efgf
B ggfe
B ack
B gAf
B lack
B lue
B edcBB
C ce
C cAE
C ecG
C gec
C FDF
C aE
C FCD
C EDCG
C xcx
C xxC
C DGA
C hor
C EEG
C gdGB
C ecGB
C edGE
C zE
C cGEeG
C cGd
C fgac
C gcGB
D O
D eB
D AFC
D cE
D df
D ECC
D ad
D AFB
D dg
D gb
D FCD
D dcd
D DGB
D EDCG
D EAc
D FEDB
D cxc
D DGA
D DGF
D dDd
D eBx
D om
D dcdBdAd
E t
E BGD
E dF
E FCF
E FDG
E cEA
E ede
E GEDC
E dAB
E cGc
E AGDA
E aEC
E GFx
E GFGF
E EAB
E GFEF
E cAEcA
E eEAB
F L
F P
F S
F ec
F fA
F ac
F edc
F AFDB
F dAD
F fE
F BGF
F dFD
F dFB
F cBc
F dcA
F fdBF
F dAd
F AGG
F EEEE
F TB
F GBe
F xDE
F AAx
F zG
F AGFG
F bFD
F eed
F fcfc
F dddc
F cdF
F fFc
F dcdBdAd
G S
G v
G fg
G cGC
G ff
G AFB
G ab
G be
G gfg
G BGC
G eGE
G BAE
G gBG
G AEF
G BGFD
G fcG
G ede
G gfd
G ze
G am
G ddx
G cdcA
G cdG
G eGe
G deA
G gGg
H or
H unt
I AT
I rwin
K it
K az
K aza
L EF
L and
L ord
L ittle
M FA
M DE
M EF
M ad
M def
M ine
M uc
M agg
M ajor
N at
O M
O U
O n
O ld
O ptional
P O
P b
P cB
P BAG
P BAB
P ast
P op
P hi
P athetic
P lent
P ara
Q ue
R all
S T
S f
S EE
S ul
S implified
S chottische
S ib
S hort
T ce
T gB
T Bc
T fg
T Bd
T Ad
T dcB
T cAc
T ve
T al
T ro
T edcB
T IN
V ors
W e
\ ."
\ #?"
] />
a ar
a BAG
a BGB
a BGEE
a AEF
a li
a ine
a AFCD
a AGC
a AEG
a BAD
a AGECA
a GDF
a xdx
a AECD
a zg
a Ta
b o
b xB
b FDD
b GEE
b EDA
b edc
b AFF
b FDF
b FDCA
b ECF
b bge
b cAD
b cBc
b BGFD
b FDE
b EDCA
b BFDD
b FDCG
b ecGG
b AEDB
b bab
b edC
b cBD
b cBFDB
b ow
b cca
b dxb
c m
c y
