{"<s>":0,"<pad>":1,"</s>":2,"<unk>":3,"<mask>":4,"!":5,"\"":6,"#":7,"$":8,"%":9,"&":10,"'":11,"(":12,")":13,"*":14,"+":15,",":16,"-":17,".":18,"/":19,"0":20,"1":21,"2":22,"3":23,"4":24,"5":25,"6":26,"7":27,"8":28,"9":29,":":30,";":31,"<":32,"=":33,">":34,"?":35,"@":36,"A":37,"B":38,"C":39,"D":40,"E":41,"F":42,"G":43,"H":44,"I":45,"J":46,"K":47,"L":48,"M":49,"N":50,"O":51,"P":52,"Q":53,"R":54,"S":55,"T":56,"U":57,"V":58,"W":59,"X":60,"Y":61,"Z":62,"[":63,"\\":64,"]":65,"^":66,"_":67,"`":68,"a":69,"b":70,"c":71,"d":72,"e":73,"f":74,"g":75,"h":76,"i":77,"j":78,"k":79,"l":80,"m":81,"n":82,"o":83,"p":84,"q":85,"r":86,"s":87,"t":88,"u":89,"v":90,"w":91,"x":92,"y":93,"z":94,"{":95,"|":96,"}":97,"~":98,"¡":99,"¢":100,"£":101,"¤":102,"¥":103,"¦":104,"§":105,"¨":106,"©":107,"ª":108,"«":109,"¬":110,"®":111,"¯":112,"°":113,"±":114,"²":115,"³":116,"´":117,"µ":118,"¶":119,"·":120,"¸":121,"¹":122,"º":123,"»":124,"¼":125,"½":126,"¾":127,"¿":128,"À":129,"Á":130,"Â":131,"Ã":132,"Ä":133,"Å":134,"Æ":135,"Ç":136,"È":137,"É":138,"Ê":139,"Ë":140,"Ì":141,"Í":142,"Î":143,"Ï":144,"Ð":145,"Ñ":146,"Ò":147,"Ó":148,"Ô":149,"Õ":150,"Ö":151,"×":152,"Ø":153,"Ù":154,"Ú":155,"Û":156,"Ü":157,"Ý":158,"Þ":159,"ß":160,"à":161,"á":162,"â":163,"ã":164,"ä":165,"å":166,"æ":167,"ç":168,"è":169,"é":170,"ê":171,"ë":172,"ì":173,"í":174,"î":175,"ï":176,"ð":177,"ñ":178,"ò":179,"ó":180,"ô":181,"õ":182,"ö":183,"÷":184,"ø":185,"ù":186,"ú":187,"û":188,"ü":189,"ý":190,"þ":191,"ÿ":192,"Ā":193,"ā":194,"Ă":195,"ă":196,"Ą":197,"ą":198,"Ć":199,"ć":200,"Ĉ":201,"ĉ":202,"Ċ":203,"ċ":204,"Č":205,"č":206,"Ď":207,"ď":208,"Đ":209,"đ":210,"Ē":211,"ē":212,"Ĕ":213,"ĕ":214,"Ė":215,"ė":216,"Ę":217,"ę":218,"Ě":219,"ě":220,"Ĝ":221,"ĝ":222,"Ğ":223,"ğ":224,"Ġ":225,"ġ":226,"Ģ":227,"ģ":228,"Ĥ":229,"ĥ":230,"Ħ":231,"ħ":232,"Ĩ":233,"ĩ":234,"Ī":235,"ī":236,"Ĭ":237,"ĭ":238,"Į":239,"į":240,"İ":241,"ı":242,"Ĳ":243,"ĳ":244,"Ĵ":245,"ĵ":246,"Ķ":247,"ķ":248,"ĸ":249,"Ĺ":250,"ĺ":251,"Ļ":252,"ļ":253,"Ľ":254,"ľ":255,"Ŀ":256,"ŀ":257,"Ł":258,"ł":259,"Ń":260,",/":261,"][":262,"-][":263,",,/":264,",,":265,"|[":266,",-":267,"]|[":268,"Ġ|":269,",][":270,",-][":271,"-[":272,",,-][":273,"nl":274,"'/":275,"-=":276,"-]":277,",,][":278,"-^":279,"-]|[":280,",,,/":281,",]":282,"EC":283,"Ġd":284,"ĠA":285,"DB":286,"-_":287,"ĠB":288,"Ġe":289,"ĠG":290,"FD":291,"Ġc":292,"]|":293,"CA":294,"se":295,"sep":296,"GE":297,"][=":298,"-][=":299,"Ġf":300,",]|[":301,"Ġg":302,"AF":303,"-][^":304,",,,":305,"[=":306,",,-":307,"][^":308,",,]":309,"Ġ(":310,"BG":311,"ĠF":312,",-[":313,"EB":314,",,]|[":315,"-|":316,"ĠE":317,"DA":318,"Ġ|\"":319,"[^":320,"cA":321,"ĠD":322,",-]|[":323,"čĊ":324,"Ġa":325,"ECA":326,",,-[":327,"dB":328,"CG":329,"Ġ:":330,",,,-][":331,"FDA":332,"-][_":333,",=":334,"-|[":335,"ECG":336,"][_":337,",,,][":338,",^":339,"GD":340,",[":341,"BA":342,"xx":343,"FDB":344,"[_":345,",,-]|[":346,"''/":347,"FC":348,"ec":349,"'-":350,"AE":351,"GDB":352,"Ġ:|":353,"><":354,"FCA":355,"ed":356,"DG":357,"AG":358,"GEB":359,"GB":360,",-=":361,"ED":362,"]=":363,",,[":364,"EA":365,",]|":366,":<":367,"fd":368,"AA":369,"FB":370,"FA":371,",-^":372,"Ġz":373,"GG":374,"AB":375,"CF":376,"GEC":377,"]^":378,"cB":379,"|[=":380,"ge":381,"GF":382,",-]":383,"cd":384,"EE":385,",|":386,"]|[=":387,"DD":388,"ef":389,"FE":390,"CB":391,"Ġb":392,",_":393,",][=":394,",,-]":395,"ar":396,"EG":397,"fe":398,"CC":399,"BB":400,"sh":401,"arp":402,"sharp":403,"sharps":404,"dA":405,"cG":406,"DC":407,"-[=":408,"FF":409,",-][=":410,"Ġed":411,"Ġ||":412,",][^":413,"xG":414,"Ġ[":415,"xA":416,"AFD":417,"Ġ::":418,"ĠAB":419,"FG":420,"|[^":421,"AD":422,"Ġ\"":423,"GC":424,"-[^":425,"af":426,",-][^":427,"xE":428,"]|[^":429,",,-][=":430,",,][=":431,"AEC":432,"xB":433,"ĠC":434,"gf":435,"BF":436,">|":437,"at":438,"CE":439,",,-][^":440,"cAF":441,"GA":442,",-_":443,"DF":444,"Ġef":445,"eB":446,"]_":447,"Ġfd":448,"xD":449,",,][^":450,"xC":451,"dc":452,",,]|":453,"xF":454,"DE":455,"|=":456,"BE":457,"Ġ|]":458,"ĠdB":459,"ag":460,"''":461,"Ġgf":462,",,|":463,"\"^":464,"-]=":465,"AFC":466,"BGE":467,"dBG":468,"cC":469,"12":470,"lat":471,"AECA":472,"lats":473,"flats":474,",|[":475,"de":476,"/)":477,"Ġ^":478,"-]|[=":479,"dD":480,"dG":481,"cE":482,"|[_":483,"Ġdc":484,"AC":485,"-]^":486,"cF":487,"ĠcA":488,"ĠBd":489,"eE":490,"EF":491,",,,]":492,"ecA":493,"ĠBA":494,"-]|[^":495,"]|[_":496,"BD":497,"ĠcB":498,"Ġ|:":499,"eA":500,"-[_":501,"BGD":502,"10":503,",][_":504,"GDG":505,"ĠBc":506,"BFD":507,"Ġ.":508,"ĠBG":509,",,,]|[":510,"ga":511,"ĠAG":512,"Am":513,"ce":514,"ĠGB":515,"Em":516,"-]|":517,"Ġde":518,",-][_":519,"gd":520,"CD":521,",,=":522,"cGE":523,"dF":524,">[":525,"'d":526,"16":527,"Ġcd":528,"Bb":529,"GECG":530,"Ġ=":531,"Ġfed":532,"Ġge":533,"gG":534,"|^":535,"ĠcBA":536,"ECB":537,"fF":538,"Ġdf":539,",-|":540,"Ġec":541,"ĠBAG":542,">|:":543,"eG":544,",>":545,"ĠFA":546,"Ġfe":547,"cAE":548,"ĠGA":549,",,-][_":550,"bg":551,"120":552,"dd":553,")(":554,"ĠAF":555,"ĠdBG":556,"Ġdef":557,",,][_":558,"aA":559,"AEA":560,"-]_":561,"Ġfg":562,"AFDA":563,"fc":564,"Ġag":565,"FCF":566,"gB":567,"fA":568,"](":569,"ĠFD":570,"ABc":571,",,|[":572,"BFDB":573,"in":574,"Ġaf":575,"Ġce":576,"Ġ|{":577,",,^":578,"AFA":579,"EDB":580,"ĠAc":581,"Bc":582,",,,-[":583,"Ġfa":584,"xxxx":585,"Ġeg":586,"dBF":587,">|[":588,"fB":589,"ĠBcd":590,"Dm":591,"|(":592,",]|[=":593,",,,,,/":594,"17":595,",<":596,"ĠedB":597,"ĠFG":598,"ae":599,"-]|[_":600,"ee":601,"ĠecA":602,"ĠT":603,",,,-]|[":604,"bB":605,"df":606,"ĠdcB":607,"ĠGF":608,"|_":609,"dAF":610,"Ġ!":611,"AFCF":612,"BAG":613,"Eb":614,"xc":615,"FDD":616,"ba":617,"Ġgfe":618,"AFCA":619,",-|[":620,"13":621,"Ġga":622,"ĠAGF":623,"fg":624,"eBG":625,"GEG":626,"ĠAd":627,"ECC":628,"ĠDE":629,"BGEB":630,"ecG":631,"cc":632,"'=":633,",,,,/":634,"ĠAFD":635,"GECC":636,"Bm":637,"dE":638,"Gx":639,"fdB":640,"]|=":641,"ĠABc":642,"ĠEF":643,"GEE":644,"ĠGE":645,"Ġea":646,"Dx":647,"cD":648,",]=":649,"Ex":650,"GDA":651,"xd":652,"ĠGAB":653,"Ġefg":654,"DCA":655,"GCA":656,"eC":657,",,]|[=":658,",(":659,"BGDB":660,"Ax":661,",,,[":662,"Cx":663,"BGDG":664,"ĠeA":665,",]|[^":666,"ACA":667,"Gm":668,"Ġedc":669,"FCG":670,",-[=":671,"Ġdcd":672,"GED":673,"Ġgfed":674,"ĠFE":675,"'''/":676,"'^":677,"gc":678,"Ġafd":679,"Fx":680,"GECA":681,"Bd":682,"Ġdg":683,"Ac":684,",,>":685,"fdA":686,"EDA":687,"ĠBAB":688,"Ġ|\"^":689,"BFB":690,"ac":691,",]^":692,"edc":693,"Bcd":694,",,_":695,"gec":696,"eg":697,"FDC":698,"ĠdBA":699,"cGEC":700,"ECE":701,"xxx":702,"efg":703,"BGB":704,"fD":705,"ĠdcBA":706,"14":707,"ĠABA":708,",,-|":709,"ad":710,"ĠED":711,"fcA":712,"GCG":713,"Ġbg":714,"100":715,">^":716,"Ġdd":717,").":718,"FGA":719,"BC":720,"ĠEG":721,",,]|[^":722,",,-=":723,"GEDB":724,"ĠAA":725,"cBA":726,"Ġba":727,"ĠAFA":728,"gE":729,">\"^":730,"FDG":731,"BDB":732,"xe":733,"ĠcAA":734,"Ġcde":735,"AFF":736,"or":737,"mat":738,",-[^":739,"fer":740,"fermat":741,"fermata":742,"ĠedcB":743,"Ġagf":744,"ĠFED":745,"80":746,"ĠGG":747,"eF":748,"FDF":749,"AFDD":750,"Bx":751,"ADA":752,"bf":753,"FDCA":754,"ĠDF":755,"ĠBGG":756,"Ġded":757,"ĠGBd":758,")\"":759,"FCB":760,"ĠDFA":761,"BEB":762,"AFDB":763,"Ab":764,"GEA":765,"\"_":766,"FED":767,",-]|[=":768,"ĠBGB":769,",,,][=":770,"ECF":771,"cx":772,"15":773,"Ad":774,"fG":775,"Ġ_":776,",,-[=":777,"gA":778,",,<":779,"DCG":780,",,,-]":781,"dx":782,"ĠAD":783,"]|^":784,"-|[=":785,"AFE":786,"-|=":787,"Ġab":788,"ĠcAG":789,"'_":790,"ĠcBAG":791,"BGG":792,"dC":793,"Ġgfg":794,"ĠAGE":795,"eD":796,"ĠdA":797,"aF":798,"ĠFGA":799,"cGC":800,"GFDB":801,"gdB":802,"ĠBe":803,"ĠcAF":804,"'-=":805,"Ġgb":806,"ADB":807,"ff":808,",,-[^":809,"ĠBB":810,",,,-][=":811,"Ġcc":812,"ĠgdB":813,"fcAF":814,",-]|[^":815,">=":816,",,(":817,"ĠDG":818,"afd":819,"ĠfdB":820,",[=":821,"cAEA":822,"''-":823,"ĠBE":824,"AFB":825,"Ġ|[":826,"geB":827,"fa":828,"Ġ|:\"":829,"Ġgec":830,",,]=":831,"Ġefge":832,"gg":833,",,-^":834,"EDG":835,">\"":836,"cAA":837,"ĠGFE":838,"GFE":839,"GECB":840,"cAG":841,"dAFD":842,"-|^":843,"dAD":844,",,,-][^":845,"Ġgd":846,",]|[_":847,"AEB":848,"DEF":849,"/\"":850,",,,|":851,"bd":852,"ex":853,"ĠAGA":854,"gD":855,"FEB":856,"ĠEA":857,"Ġdefg":858,"gC":859,"ab":860,",,-|[":861,"ĠGABc":862,"ĠgedB":863,"BGEE":864,">!":865,",,[=":866,"GDC":867,"fC":868,"/^":869,"Ġage":870,"11":871,"ĠdG":872,"xf":873,"-|[^":874,"ĠcBc":875,"Ġefe":876,"ĠGED":877,"'-^":878,"Ġfedc":879,",,,][^":880,"aB":881,"ĠBGE":882,"]\"":883,"eBGE":884,"AED":885,"AGF":886,",[^":887,"GFD":888,",]_":889,"ĠABcd":890,"fE":891,"/>":892,"be":893,"dcB":894,"Ġee":895,"gdBG":896,"ĠeB":897,"gfe":898,"ĠBdB":899,"fed":900,"90":901,"Ġ!>!":902,"aD":903,"Db":904,"ĠDB":905,"'-[":906,",,,-":907,"aec":908,"aa":909,"bG":910,"ĠBcdB":911,"aE":912,"ĠdBGB":913,",,[^":914,"<=":915,"cde":916,"AGE":917,"FEC":918,"Ġged":919,"]|_":920,",,-]|[^":921,",,,,":922,",,]^":923,"ĠdcA":924,"Ġ{":925,"Ġfef":926,"def":927,"ĠBAF":928,"ĠGFG":929,"cEC":930,"'[":931,"ĠEFG":932,"Ġfga":933,"ĠABcA":934,"dBFB":935,"AAA":936,"Ġbag":937,"BGF":938,"GDD":939,"bge":940,"ĠdBd":941,"ĠdBAF":942,"DCB":943,"Ġcdef":944,"GFC":945,"xg":946,"Ġ\"^":947,"dBB":948,"Ġfdd":949,"FECA":950,"ĠAFE":951,"Ġfaf":952,"Emin":953,"BGEC":954,",-[_":955,".\"":956,"gF":957,"eBE":958,",,-]|[=":959,"Ġede":960,"ĠBAGF":961,"Ġdefd":962,"#\"":963,"cAFC":964,"ĠAce":965,"bc":966,"ix":967,"ĠGAG":968,"EDC":969,"Amin":970,"ecAE":971,"dor":972,"ĠBABc":973,"Ġv":974,"cAFF":975,"aC":976,",,]|[_":977,"cEA":978,"Ġu":979,"ĠfA":980,"ĠdBB":981,"bE":982,"gfg":983,"\"^(":984,",-]|":985,"Ġedef":986,"140":987,"BDG":988,"on":989,"aG":990,"dDB":991,"-|_":992,"Ġ::\"":993,"Ġae":994,"xxxxxxxx":995,"AECE":996,"fdAD":997,"dg":998,"GAB":999,"cCA":1000,"Cm":1001,"fx":1002,"ĠDED":1003,"cAC":1004,"dBA":1005,"Ġagfe":1006,"\"\"":1007,"Ġfdec":1008,"110":1009,"ecGC":1010,"dBGG":1011,"ĠDEF":1012,"dFD":1013,"Ġff":1014,"ĠDGG":1015,",,,]|":1016,"ĠFF":1017,"Ġece":1018,"Ġgg":1019,"ĠfB":1020,"dBGD":1021,"ĠBcB":1022,"Ġfgaf":1023,"<^":1024,"ĠeAA":1025,"ACF":1026,"GFB":1027,"20":1028,"180":1029,",|=":1030,"ĠdBAG":1031,"Ġafdf":1032,"ĠAdd":1033,"ĠBcde":1034,",,,,,":1035,",,-_":1036,"FCC":1037,"FEA":1038,"gx":1039,"ĠAGFE":1040,"Ġaga":1041,"Ġefed":1042,"]\"^":1043,"']":1044,"cAEC":1045,"cAD":1046,"AFDC":1047,"aecA":1048,"GBd":1049,"GFG":1050,"ADF":1051,"cGECG":1052,"efe":1053,"ĠABAG":1054,"ĠgB":1055,"Ġgag":1056,"AGEC":1057,"tr":1058,"dBD":1059,"Ġfdf":1060,"xa":1061,"ĠEAA":1062,"'|":1063,"ĠGABG":1064,"ĠcBcd":1065,",,,][_":1066,"ĠDD":1067,"ece":1068,"cAECA":1069,"Ġdcde":1070,"160":1071,"ABA":1072,"AFEC":1073,"'-_":1074,"ĠABd":1075,",-]|[_":1076,"Ġ||[":1077,"Ador":1078,"gGG":1079,"dFB":1080,"BAF":1081,"ĠdAF":1082,"cBc":1083,"aAA":1084,"ĠDEG":1085,"bF":1086,"ĠGEE":1087,"ĠGFED":1088,"Ġege":1089,"AEE":1090,"ĠABG":1091,"AEDA":1092,"ĠBAFA":1093,"ĠAGAB":1094,"afc":1095,"ecC":1096,"Ġad":1097,"ĠEC":1098,"BGC":1099,",]|=":1100,"DCF":1101,"]/":1102,"fga":1103,"ĠABde":1104,"ecE":1105,"Ġdfed":1106,"bag":1107,"ddd":1108,"ĠGc":1109,"ĠEB":1110,"ĠEE":1111,"ĠFGAB":1112,"130":1113,"ĠGFGA":1114,"ĠFDD":1115,"dBE":1116,"ecGE":1117,"bD":1118,"ĠFAA":1119,"xb":1120,",,-[_":1121,"EFG":1122,"Ġcdec":1123,"AGD":1124,"agf":1125,"ĠedBd":1126,">_":1127,"gb":1128,",,,-][_":1129,">|:\"":1130,"Gc":1131,"Ġac":1132,"ĠFB":1133,"Ġgfga":1134,"Ġgc":1135,"ĠBF":1136,"ĠfdcA":1137,"BEC":1138,"-|[_":1139,"eBGEB":1140,"BAB":1141,"eGE":1142,"EDE":1143,"Ġbge":1144,"Ġ||\"":1145,"cECG":1146,"GDE":1147,"GGG":1148,"ĠEFGA":1149,"dAE":1150,"ĠFEF":1151,"ĠBAGB":1152,"FCD":1153,"Ġcf":1154,"ĠedBA":1155,"Ae":1156,"18":1157,"ĠCE":1158,"'][":1159,"Ġafge":1160,"eEE":1161,"cAFD":1162,"dAFDA":1163,"ĠEFE":1164,"Ġeaag":1165,"BBB":1166,"Ġfc":1167,"DDD":1168,"Dmin":1169,"ĠGABd":1170,"Ec":1171,"cCC":1172,"ĠAFDF":1173,",-]=":1174,"ĠBGBd":1175,"#%":1176,"60":1177,"GCE":1178,"ea":1179,"ĠcABG":1180,"ĠcAFA":1181,"ĠTB":1182,"BEE":1183,"\"{":1184,"ĠDA":1185,"fFF":1186,"ax":1187,"ĠAAA":1188,"'>":1189,"gdG":1190,"ecAA":1191,",[_":1192,"ĠdF":1193,"ecB":1194,"]|(":1195,"AECF":1196,"dcA":1197,"Gmin":1198,"ĠBGAF":1199,"Ġefd":1200,"Ġdfd":1201,"EEE":1202,"Ġbagf":1203,"Ġfgf":1204,",|(":1205,"bA":1206,"eEB":1207,"Be":1208,"cf":1209,"ĠBee":1210,"/.":1211,"150":1212,"edB":1213,"ĠBcA":1214,"ĠBAA":1215,"ĠEFA":1216,"ĠcAGE":1217,",,-]|":1218,"bBB":1219,"ĠecAc":1220,"Ġfefg":1221,"cCG":1222,"BFDF":1223,"cdc":1224,"Ġdfa":1225,"Ġcdc":1226,",,,>":1227,"ĠDEFG":1228,"cGD":1229,"Ġ::[":1230,">(":1231,"ĠAcBA":1232,"ĠAf":1233,"BFE":1234,"geG":1235,"ĠBg":1236,"/)(":1237,"dDA":1238,"GCB":1239,"cFD":1240,"BAE":1241,"ĠdBAB":1242,",-]^":1243,"ĠAE":1244,"DCD":1245,"dBFD":1246,"ĠDC":1247,"dBGDB":1248,"fdF":1249,",,]_":1250,"GECE":1251,"dDD":1252,"BcB":1253,"32":1254,"Edor":1255,",|^":1256,"AGA":1257,"128":1258,"ĠcABc":1259,"ĠceA":1260,"aeA":1261,"ĠcAc":1262,"ded":1263,"AECC":1264,"Ġdfe":1265,"Ġaa":1266,"ĠCD":1267,"AECG":1268,"''''/":1269,"cBG":1270,"gef":1271,"cFC":1272,"ĠAGEG":1273,"Ġgedc":1274,"ADD":1275,"ĠBdd":1276,"cEG":1277,"FFF":1278,"ĠdBcA":1279,"ĠcG":1280,"AFCC":1281,"Ġdfaf":1282,"ecAEA":1283,"fAF":1284,"ĠdedB":1285,"BEG":1286,"Ġcec":1287,"ĠGBAG":1288,"Ġdedc":1289,"dBGE":1290,"ĠAGG":1291,"ĠGBdB":1292,"BFDG":1293,"Ġ([":1294,"GDCG":1295,"cAFCA":1296,"Ġfedf":1297,"ĠaA":1298,",,[_":1299,"ĠEDE":1300,"cFA":1301,"bb":1302,"fdD":1303,"gBG":1304,"ĠBEE":1305,"AEF":1306,"Ġ(.":1307,"GCC":1308,"Ġgefd":1309,"cGEG":1310,"ĠFGAF":1311,"bgd":1312,"/{":1313,"fcF":1314,"Ġaba":1315,",,,,][":1316,"Ġegfe":1317,"ĠTc":1318,"cECA":1319,"ĠGD":1320,"125":1321,"Af":1322,"ĠBcBA":1323,"BGDD":1324,"70":1325,"dGB":1326,"Ġ||\"^":1327,"dAG":1328,"cGF":1329,"DFA":1330,"<_":1331,"FEF":1332,"FDCD":1333,",,,=":1334,"Ġgbag":1335,"dGD":1336,",,,|[":1337,"ĠcF":1338,"dGE":1339,"geE":1340,"Ġbgaf":1341,"Ġgab":1342,"geC":1343,"Ġ(^":1344,"/=":1345,"ĠEDB":1346,"Fd":1347,"afA":1348,"ĠdcBc":1349,"Ġgfge":1350,"ĠADFA":1351,"cFCA":1352,",]|^":1353,"ĠdAFA":1354,"ĠABAF":1355,"Ġgece":1356,"Amix":1357,",,-]^":1358,"Bg":1359,"Ġabag":1360,"96":1361,"BGFD":1362,"BGED":1363,"eEC":1364,"one":1365,"Ġaged":1366,"88":1367,"bfd":1368,"BFDA":1369,"GEF":1370,"eBB":1371,"ĠcdB":1372,"ecAF":1373,",,|=":1374,"ĠcE":1375,"ĠTe":1376,"ĠDGBG":1377,"GAG":1378,">)":1379,"25":1380,"Ġeaa":1381,"ca":1382,"cBF":1383,"Ġfgfe":1384,"115":1385,"dBFDB":1386,"none":1387,"ĠDFAF":1388,"112":1389,"Ġefga":1390,"fgf":1391,"Bmin":1392,"Ġgage":1393,"dFA":1394,"ĠEFGE":1395,"){":1396,"bx":1397,"ĠdGBG":1398,"ĠBdef":1399,"ĠTf":1400,"200":1401,"im":1402,"BFG":1403,"ĠAdc":1404,"Ġegf":1405,"BFF":1406,",|[=":1407,"gdg":1408,"BFC":1409,"GFCG":1410,"CDE":1411,"AFDF":1412,"'''":1413,"da":1414,"ĠAdf":1415,"Ġ:|\"^":1416,"ccc":1417,"Ġfec":1418,"acA":1419,"ĠeG":1420,"cAc":1421,"ĠAFF":1422,"FDE":1423,"dADA":1424,"ĠBAGA":1425,",,-]=":1426,"Ġgfef":1427,"ĠBABd":1428,"dBFF":1429,"CEG":1430,"ĠAdfd":1431,"CEA":1432,"Ġedcd":1433,"ĠAe":1434,",,,,,-][":1435,"ion":1436,"BED":1437,"ĠBeed":1438,"afF":1439,"Ġgfd":1440,"fdAF":1441,"ĠcBAB":1442,"eGC":1443,"dcd":1444,"Ġeag":1445,"ĠFDF":1446,"ĠAFEF":1447,"ACE":1448,"Dmix":1449,"Ġgbg":1450,"dAA":1451,"FDCB":1452,"ĠGBA":1453,"]/[":1454,"ECD":1455,"bC":1456,",,-]|[_":1457,"ĠEDC":1458,"cACA":1459,"75":1460,"li":1461,"ĠAGFG":1462,"ĠAddc":1463,"FEDA":1464,"eAE":1465,",,]|=":1466,"ĠGBG":1467,"Ġ::\"^":1468,"cAB":1469,"ĠBBB":1470,"SO":1471,"Ġgfeg":1472,"it":1473,",,,]|[=":1474,",,,-|":1475,"Ġfded":1476,"fFD":1477,"cGG":1478,"ĠfedB":1479,"Ġca":1480,"104":1481,"GxG":1482,"ĠBGGB":1483,"ĠgdBd":1484,"dGDB":1485,"ĠEDEF":1486,"ĠDEFA":1487,">.":1488,"fdBF":1489,"gecG":1490,"ĠDEGA":1491,"gGE":1492,"ĠAa":1493,"-\"":1494,"ĠFAF":1495,"eAF":1496,"'''-":1497,"Ġdfec":1498,"ĠeAcA":1499,"ACG":1500,",,|[=":1501,"aAF":1502,"ĠFAd":1503,"lo":1504,"Ġ|:[":1505,"Ġfagf":1506,"ĠGe":1507,"ecGEC":1508,"ĠFDFA":1509,"ĠBdc":1510,"108":1511,"Ġafa":1512,"Ġcee":1513,"Ġafe":1514,"EDCA":1515,"dFDA":1516,"Ġagef":1517,"dAd":1518,"cEB":1519,"ĠAcA":1520,"Ġddd":1521,"ĠFd":1522,"ĠGGG":1523,"ine":1524,"eEA":1525,"bfdB":1526,"gab":1527,"Gdc":1528,"gag":1529,"'-|":1530,">|:\"^":1531,"ĠDEFD":1532,"DGB":1533,"ĠBD":1534,"Ġbd":1535,"cGCG":1536,"Ġ|]:":1537,"ĠecdB":1538,"BDF":1539,"ĠdcAG":1540,"AFG":1541,"Ġdefe":1542,"AFCD":1543,"cAFCF":1544,"ĠcAB":1545,"cAEE":1546,"BGA":1547,"eee":1548,"132":1549,"ged":1550,",|[^":1551,"21":1552,",,,,-][":1553,"CCC":1554,"Dd":1555,"Ġfdc":1556,"dBDB":1557,"*\"":1558,"ĠAGED":1559,"BFDD":1560,"Ġdec":1561,"AGC":1562,"cGA":1563,"Ġ:|[":1564,"{/":1565,"105":1566,"ĠADD":1567,"85":1568,"re":1569,"ĠGd":1570,"'(":1571,"ĠGEG":1572,"24":1573,"eBA":1574,"eGB":1575,"ĠM":1576,"ĠcBAc":1577,"Ġefec":1578,"low":1579,"ĠecBA":1580,",)":1581,"Ġgeg":1582,"ĠGg":1583,"19":1584,"Ġbe":1585,"ĠGEDE":1586,"dAFA":1587,"cGECC":1588,"Ġfafd":1589,"AECB":1590,"Ġ:|\"":1591,"BECG":1592,"116":1593,"te":1594,"faf":1595,"Ġ|\"^(":1596,"eBGB":1597,"BAFD":1598,"Ġfdef":1599,"gGB":1600,"Ġcded":1601,"ĠTA":1602,"dFDB":1603,"Ġecc":1604,"cAGE":1605,"Gd":1606,"dEB":1607,"ĠEGB":1608,"GEDG":1609,"ĠEc":1610,"ĠCB":1611,"ĠAcec":1612,"fAD":1613,"72":1614,"126":1615,"ecF":1616,"'|[":1617,"ĠBdg":1618,",,|(":1619,"Ġafed":1620,"ecAECA":1621,"AEG":1622,"Ġgabg":1623,"fBG":1624,"ĠAGEF":1625,"cGEA":1626,"BGEG":1627,",,|^":1628,"fdG":1629,"Ġcedc":1630,"Ġedd":1631,"'-][":1632,"geBE":1633,",|_":1634,"xGx":1635,"eCA":1636,"\"^/\"":1637,"ĠCA":1638,"ecBG":1639,"fFB":1640,"ĠcdcB":1641,"FGF":1642,"afcF":1643,"ĠeAce":1644,"FFFF":1645,"95":1646,"135":1647,"ĠfBB":1648,"ĠegdB":1649,"ĠBdcB":1650,"ĠdD":1651,"fdc":1652,"Fc":1653,"Ġgagf":1654,"ĠedcA":1655,"EBE":1656,"lide":1657,"ĠDAFA":1658,"/).":1659,"slide":1660,"ĠcAeA":1661,"ADC":1662,"EDCB":1663,"st":1664,"BGDE":1665,"cFF":1666,"dDG":1667,"Bf":1668,"CxC":1669,",-]_":1670,"ecGECG":1671,"cAFA":1672,"BDA":1673,"Ġaec":1674,"eECA":1675,"ĠGBB":1676,"\"\"^":1677,"fcG":1678,"Ġabaf":1679,"ĠP":1680,"age":1681,"Ġfede":1682,"BEA":1683,"EDCG":1684,"BAD":1685,"gecC":1686,"ĠDFAd":1687,"ĠGBAF":1688,"Fm":1689,"cFDA":1690,"edA":1691,"GCF":1692,"AxA":1693,"GdG":1694,"cEE":1695,"dcG":1696,"bBG":1697,"Ġ|\"_":1698,"ĠgdBG":1699,"Ge":1700,"dBd":1701,",,,^":1702,"Ġfaa":1703,"124":1704,"122":1705,"er":1706,"BECA":1707,"gdA":1708,"''''":1709,"eAEA":1710,"AGG":1711,"EDD":1712,"EFE":1713,"ADG":1714,"dGG":1715,".!":1716,"Ġfag":1717,"AGECA":1718,"ĠFEFG":1719,"DCC":1720,"BDD":1721,"der":1722,"cg":1723,"ĠedBc":1724,"gDB":1725,"])":1726,"xxxxx":1727,"CEC":1728,"FAc":1729,"ĠCC":1730,"EAc":1731,"bdB":1732,"ĠBdBG":1733,"bgB":1734,"Ġ(=":1735,"ede":1736,"ĠBdAF":1737,"cAFE":1738,"GEDE":1739,"ĠEGG":1740,"dFF":1741,">\"_":1742,"fdBG":1743,"232":1744,"Ġegfa":1745,"eBF":1746,"Slow":1747,"gcd":1748,"DFB":1749,"gGC":1750,"GFCA":1751,"dAEA":1752,"fDB":1753,"cDB":1754,"cCF":1755,"({":1756,"Te":1757,"aAE":1758,"Ġbaf":1759,"afdA":1760,"eBEB":1761,"Aa":1762,"Ġbc":1763,"GCD":1764,"DxD":1765,"bfB":1766,"118":1767,"ĠdAG":1768,"ĠFAdf":1769,",,,_":1770,"xEx":1771,"ĠgA":1772,"ĠGFEF":1773,"gcG":1774,"DED":1775,"Ġfaaf":1776,"eGEB":1777,"GEDC":1778,"ggg":1779,"ĠBdgd":1780,"ĠAGFA":1781,"ĠAFED":1782,"ĠdGG":1783,"Ġfb":1784,"dBGB":1785,",,,]|[^":1786,"Ġbgag":1787,"cGEE":1788,"abc":1789,"ĠGBdg":1790,"NB":1791,"ĠcAAB":1792,"ĠGEC":1793,"EGB":1794,"Ġfddf":1795,"bBE":1796,"ĠTd":1797,"aAC":1798,"GDF":1799,"ĠcBcA":1800,"Ġcdeg":1801,"Ġdega":1802,"cFCF":1803,"geA":1804,"Ġfdad":1805,",,|[^":1806,"ĠEDD":1807,"Ġgee":1808,"92":1809,"eAA":1810,"GDCA":1811,"fec":1812,"eGG":1813,"ĠBGF":1814,"dBGDG":1815,"')":1816,"xxxxxx":1817,"DFD":1818,"fdBB":1819,"EEEE":1820,"ĠedBG":1821,"edge":1822,"ĠdBBA":1823,"xAx":1824,"ĠDd":1825,"ĠDFB":1826,"EGE":1827,"ĠdcdB":1828,"ĠTg":1829,"Ġageg":1830,"wedge":1831,"aCA":1832,"gecA":1833,"Ġefgf":1834,"ĠCF":1835,"ĠDGB":1836,"FEDB":1837,"GFCF":1838,"ĠecAF":1839,"Ġaece":1840,",]|_":1841,"oder":1842,"ĠABce":1843,"eECG":1844,"oderat":1845,"ĠBed":1846,"ABd":1847,"ĠdgB":1848,"Ġdcdf":1849,"eBEE":1850,"ĠecB":1851,"AFECA":1852,"ĠFDEF":1853,"ĠecBc":1854,"FCE":1855,"cGEB":1856,"fdf":1857,"ĠFAdA":1858,"Ġdeg":1859,"ĠcAGF":1860,"AGDB":1861,"ĠceAe":1862,"ĠBde":1863,"ĠFGF":1864,"fCA":1865,"ĠBGAG":1866,"gGD":1867,"ĠBAGE":1868,"to":1869,"ĠdBGA":1870,"Ġfgag":1871,"xCx":1872,"114":1873,"cBGE":1874,"Ġceg":1875,"fFA":1876,",,,<":1877,"Ġafec":1878,"Ġedce":1879,"AcA":1880,"ĠAcB":1881,"84":1882,"ĠcAce":1883,"eEG":1884,"Ddor":1885,"us":1886,"ĠBGdG":1887,"Ġfge":1888,"Ġegdg":1889,"geBG":1890,"ĠADFD":1891,"BdB":1892,"BFEB":1893,"ĠAdde":1894,"fef":1895,"Ġgede":1896,"dGDG":1897,"ĠFDA":1898,"ĠdBAc":1899,"123":1900,"Ġfde":1901,"ĠEAAB":1902,"ĠAg":1903,"ĠBGdB":1904,"ĠdGBd":1905,"AGB":1906,"Ġfee":1907,"dAFDD":1908,"CCCC":1909,"gcA":1910,"fb":1911,"fFC":1912,"ĠBFAF":1913,"bDB":1914,">)(":1915,"xFx":1916,"98":1917,"ĠBf":1918,"Ġfece":1919,"il":1920,"102":1921,"ceg":1922,"GFF":1923,"Ġin":1924,"ĠAGFD":1925,",,]|^":1926,"fdAFDA":1927,"ĠdcAF":1928,"ĠdAA":1929,"Ġadfd":1930,"cdB":1931,"cCE":1932,"Ġgdd":1933,"fBF":1934,"afe":1935,"ĠfAeA":1936,"/(":1937,"Ġccc":1938,"ĠFGAc":1939,"CDC":1940,"Ġdggf":1941,"86":1942,"ĠcAAc":1943,"ĠcGE":1944,"127":1945,"Ġs":1946,"Ace":1947,"Ġfdde":1948,"bgG":1949,"gdc":1950,"Ġdge":1951,"Ġ.!":1952,"ExE":1953,"beB":1954,"Ġfdfa":1955,"eCG":1956,"aba":1957,"76":1958,"82":1959,"dAFB":1960,"\"\"_":1961,",,-]_":1962,"aAD":1963,"145":1964,"ĠEAAG":1965,"ari":1966,"Ġegec":1967,"xdx":1968,"AFECF":1969,"ĠTE":1970,"AFDCA":1971,",>^":1972,"ACC":1973,"fcAC":1974,"gBE":1975,"Ġdgf":1976,"xDx":1977,"''=":1978,"fAA":1979,"ĠEe":1980,"![":1981,"dAB":1982,"Ġafef":1983,"ĠDGGF":1984,"fFCA":1985,"ĠGFGB":1986,"ĠfdAF":1987,"94":1988,"Ġcg":1989,"ĠdBgB":1990,"ACD":1991,"Ġced":1992,"138":1993,"ly":1994,"Ġgfec":1995,"dBGF":1996,"'<":1997,"afcA":1998,"ĠTF":1999,"Ġdb":2000,"Ġ|]\"":2001,"Ġgedg":2002,"gfed":2003,"ation":2004,"fff":2005,"MT":2006,"ĠDGBd":2007,"Ġdefa":2008,"BCG":2009,"BAGF":2010,"cFB":2011,"BAA":2012,"gfd":2013,"EGA":2014,"ariation":2015,"dBAF":2016,"106":2017,"Ġdgg":2018,"ĠGDG":2019,"DAD":2020,"Ġgaf":2021,"fcB":2022,"136":2023,"Ġagab":2024,"ĠGDB":2025,"ĠGEA":2026,"ĠEGE":2027,"PMT":2028,"acF":2029,"fDA":2030,"Ġgfgd":2031,"SOO":2032,"SOSOO":2033,"78":2034,"adA":2035,"gEB":2036,"Ġda":2037,"afD":2038,"93":2039,"ĠefdB":2040,"Ġgef":2041,"Ġbf":2042,"GECD":2043,"GEDA":2044,"Ġue":2045,"ĠceAc":2046,"64":2047,"BFCF":2048,"Moderat":2049,"170":2050,"144":2051,"dGEB":2052,"ĠcBce":2053,"xxD":2054,",,,-[^":2055,"ĠgG":2056,"ve":2057,"AFCG":2058,"fdAFD":2059,"GFEB":2060,"aaa":2061,"ĠAde":2062,"ĠBEA":2063,"AFCB":2064,",>=":2065,"Ġeee":2066,"Ġgdc":2067,"ĠfdA":2068,"cBE":2069,"65":2070,",](":2071,"ĠeAfA":2072,"ecD":2073,",\"":2074,"al":2075,"aga":2076,"dAFF":2077,",<=":2078,"BFA":2079,"Ġ|:\"^":2080,"afdD":2081,"cDA":2082,"cec":2083,"Ġagfg":2084,",,,(":2085,"Ġfaec":2086,"fdBFB":2087,"xxE":2088,",|[_":2089,"ĠBdf":2090,"Ġecgc":2091,"ĠcecA":2092,"fine":2093,"fdAA":2094,"Ġt":2095,"aAB":2096,"ecEC":2097,"FEG":2098,"ĠFAc":2099,"Ġbgeg":2100,"gBd":2101,"dFG":2102,"ĠAdB":2103,"Ġgba":2104,"ath":2105,"ic":2106,"CO":2107,"113":2108,"50":2109,"BGFDB":2110,"Ġeaaf":2111,"cFE":2112,"fdcA":2113,"+\"":2114,"ĠFAD":2115,"ĠdcBd":2116,"Ġm":2117,"BCA":2118,"ĠBGA":2119,"xcx":2120,"Ġedeg":2121,"ĠaAA":2122,"ĠAceg":2123,"ĠBAFE":2124,"-]|=":2125,"BBBB":2126,"bBF":2127,"ĠdAFD":2128,"ĠcAd":2129,"dim":2130,"ĠBdcA":2131,"dBC":2132,"66":2133,"aAG":2134,"cGc":2135,"an":2136,"ĠCDE":2137,"dcBA":2138,"eDB":2139,"baf":2140,"ĠFGE":2141,"geBGE":2142,"ĠFEE":2143,"Ġbb":2144,"ĠfdcB":2145,"ĠDDD":2146,"Gdor":2147,"ĠGFD":2148,"fFDA":2149,"ĠdcdA":2150,"ĠfAA":2151,"EDF":2152,"FECB":2153,"gdD":2154,"xxA":2155,"FDCG":2156,"BDE":2157,"GBG":2158,"]>[":2159,"ege":2160,"ĠAcd":2161,"gecGC":2162,"efd":2163,"ĠABdf":2164,"\"^*\"":2165,"117":2166,"\"_>":2167,"ĠABcB":2168,"Ġagfa":2169,"aeE":2170,"68":2171,"ĠDCB":2172,"ĠaecA":2173,"107":2174,"ĠBGAB":2175,"ĠAFd":2176,"ĠeBB":2177,"ĠBABG":2178,"gdBGDG":2179,"BxB":2180,"eGEC":2181,"eBGEE":2182,"Ġegg":2183,"ĠEFAB":2184,"GFDA":2185,"Cc":2186,"aed":2187,"ĠcdcA":2188,"97":2189,"FAF":2190,"dcAF":2191,"ro":2192,"ĠdDD":2193,"cGDG":2194,"gdGDB":2195,"ĠBgf":2196,"ten":2197,"Ġgaba":2198,"30":2199,"ecGG":2200,"74":2201,"gdBD":2202,"EGc":2203,"ĠcBAF":2204,"cEF":2205,"ĠBcdc":2206,"dxd":2207,"eED":2208,"gBD":2209,"ĠBGGA":2210,"cED":2211,"dDF":2212,"BEDB":2213,"Ġfage":2214,"ariations":2215,"geGE":2216,"xxB":2217,"ĠcBB":2218,"cAEG":2219,"ĠFc":2220,"dAFC":2221,"Teil":2222,"AGFE":2223,"Ġfddc":2224,"dCA":2225,"DDDD":2226,"dfa":2227,"gdGD":2228,"Ġfdcd":2229,"ĠcAec":2230,"ĠBcdf":2231,"ĠFADF":2232,"121":2233,"bBD":2234,"Ġ|][":2235,"ĠGEF":2236,"cdef":2237,"Ġagbg":2238,"FAd":2239,"gBB":2240,"GDCD":2241,")\"^":2242,"109":2243,"89":2244,"no":2245,"edBG":2246,"GFDG":2247,"ig":2248,"rit":2249,"-]|^":2250,"dFC":2251,"ĠgecA":2252,"ĠBddB":2253,"Ġfefa":2254,"BGDC":2255,"fdBFDB":2256,"AGDG":2257,"ĠfdBd":2258,"Ee":2259,"ĠEEE":2260,"ĠcAAG":2261,"dGF":2262,"ĠAFGE":2263,"Ġcea":2264,"cGB":2265,"fcC":2266,"/-":2267,"ĠDFD":2268,"AAAA":2269,",,,]=":2270,"GGGG":2271,"ADCF":2272,",,]|_":2273,"Ġeged":2274,"Ġdfeg":2275,",,|_":2276,"PMTu":2277,"gBGDB":2278,"ri":2279,"ĠdcAB":2280,"ABG":2281,"EFA":2282,"fFDB":2283,"ĠBeef":2284,"fBB":2285,"Ġdgfg":2286,"ĠdBg":2287,"134":2288,"ĠeBdB":2289,"73":2290,"FxF":2291,"{^":2292,"103":2293,"ĠBdAd":2294,",,,-[=":2295,"BGDF":2296,"afa":2297,"Ġbgb":2298,"67":2299,"gGF":2300,"AFDCD":2301,"ĠdBc":2302,"eAC":2303,"ĠFAAB":2304,"ĠBdce":2305,"ĠdFF":2306,"CFA":2307,"DGD":2308,"ĠBAFB":2309,"afB":2310,"ĠEGAB":2311,"Ġabc":2312,"fAC":2313,"ACB":2314,"Ġdgfe":2315,"AFEF":2316,"dBFG":2317,"ĠBdG":2318,"db":2319,"ĠfcA":2320,"gdAD":2321,"Ġdgbg":2322,",,,,,-[":2323,"Ġ(!":2324,"cAEF":2325,"Ġeaab":2326,"becBG":2327,"GGF":2328,"133":2329,"fge":2330,"ĠEDCE":2331,"BGBG":2332,"ĠFFF":2333,"ĠGBc":2334,",,,]|[_":2335,"Ġaee":2336,"Ġdff":2337,"ĠFEDF":2338,"BADB":2339,",-|[=":2340,"geg":2341,",-|=":2342,"gdBGG":2343,"ĠAFAB":2344,"bgf":2345,"ĠECE":2346,"gdGDG":2347,"dddd":2348,"ĠEGFE":2349,"ĠBAAG":2350,"]>":2351,"FECF":2352,"ll":2353,"xxC":2354,"Ġ|{/":2355,"adB":2356,"Ġbfaf":2357,"eBe":2358,"eBGG":2359,"GDCB":2360,"DCE":2361,"69":2362,"Ġadd":2363,"cFDB":2364,"ĠFBB":2365,"GECF":2366,"eGA":2367,"ĠFDAD":2368,"GFED":2369,"xBx":2370,"Ġfgab":2371,"AEDB":2372,"bgeB":2373,"ĠdgBg":2374,"Ġ|!":2375,"edcB":2376,"ĠAdfa":2377,"dec":2378,"ĠfecA":2379,"ĠEFD":2380,"ĠGf":2381,"Ġacgc":2382,"bgdB":2383,"ĠDFAc":2384,"Ġx":2385,"Moderate":2386,"Ġecec":2387,"''^":2388,"PMTuCO":2389,"GAc":2390,"fcAFC":2391,"ĠAEA":2392,"Ġgbaf":2393,"ADCA":2394,"Ġ|]\"^":2395,"Ġgbeg":2396,"ĠcdBc":2397,"cBB":2398,"CDF":2399,"AFED":2400,"dEA":2401,",,,-]|[=":2402,"ĠEFGB":2403,"87":2404,"99":2405,"Ġagec":2406,"fcAFF":2407,"cdf":2408,"EEF":2409,"ue":2410,"BGDA":2411,"cBAG":2412,"GFA":2413,"fdFD":2414,"ĠFEDE":2415,"Fine":2416,"gGEB":2417,"Ġfefd":2418,"ĠeBe":2419,"cccc":2420,",-|^":2421,"FDCF":2422,"BEDG":2423,"AGAG":2424,"83":2425,"ĠAFG":2426,"xxxxxxx":2427,"DEG":2428,"gcC":2429,"dGC":2430,"AFDG":2431,"ĠFDDF":2432,"cxc":2433,"ĠBEED":2434,"gcE":2435,"nd":2436,"AECD":2437,"Gg":2438,"ecAC":2439,"ime":2440,"ĠdfBf":2441,"ĠGEED":2442,"aecAF":2443,"fFE":2444,"fdE":2445,"eb":2446,"CDB":2447,"ĠTG":2448,"dBAG":2449,"bgdG":2450,"sion":2451,"ĠdAd":2452,"ĠGECE":2453,"CFC":2454,",,,[=":2455,"ĠbB":2456,"bgE":2457,"fcf":2458,"Ġfaef":2459,"ĠFGFE":2460,"edG":2461,",<^":2462,"91":2463,"ĠGAGF":2464,"acC":2465,"gGDB":2466,"fBFB":2467,"ĠecAG":2468,"eBGC":2469,"FEE":2470,",,,]^":2471,"}\"":2472,"ĠFADA":2473,"]-":2474,"cECC":2475,"ĠGBAc":2476,"uto":2477,"ĠGAF":2478,"ĠBcAB":2479,"BECB":2480,"bre":2481,"''''[":2482,"ast":2483,"tenuto":2484,"ĠBGd":2485,"fBD":2486,"BGECB":2487,"ĠBdA":2488,"gBGD":2489,"ĠCEG":2490,"ĠdBBd":2491,"ĠFABc":2492,"ĠGEFD":2493,"ĠdE":2494,"Ġ.[":2495,"Ġcege":2496,"breath":2497,"BcA":2498,"Ġfdfd":2499,"Ġgebe":2500,"Ġgdg":2501,"cCB":2502,"xex":2503,"ĠBGEF":2504,"xxG":2505,"ĠFDE":2506,"240":2507,"GFDC":2508,"ĠdBAd":2509,"gdBGDB":2510,"ĠFDB":2511,"art":2512,"GEDCG":2513,"ĠFf":2514,"afAF":2515,"acE":2516,"ĠAFAc":2517,"gfc":2518,"ĠdcAc":2519,"Ġfff":2520,"fcAFCF":2521,"afdAD":2522,"ey":2523,"DGA":2524,"Ġagaf":2525,"77":2526,"ĠBGEG":2527,"dECA":2528,"eAD":2529,"129":2530,"ĠFEDC":2531,"ĠCDEF":2532,"ĠAFDE":2533,"'}":2534,"bdG":2535,"afC":2536,"ĠEDEG":2537,"22":2538,"cGFC":2539,"ĠGABA":2540,"Ġagae":2541,"GABc":2542,",,,-|[":2543,"ĠCG":2544,"ĠBGFG":2545,"Ġggg":2546,"''_":2547,"Ġefde":2548,"ĠABGA":2549,",,,[^":2550,"Ġfdge":2551,":\"":2552,"ĠcEE":2553,"gBfB":2554,"FECG":2555,"cAED":2556,"Ġaed":2557,"ĠdBdB":2558,"ĠBDAD":2559,"FBF":2560,"gedB":2561,"ĠAcBG":2562,"ĠEAc":2563,"DDE":2564,"Ġedgd":2565,"BGEDB":2566,"ĠBce":2567,",,,-]|[^":2568,"131":2569,"ĠEAG":2570,"eGD":2571,"Ġbage":2572,"pl":2573,"fedc":2574,"''|":2575,"FEDC":2576,"bBA":2577,"feB":2578,"Ġeaga":2579,"ĠFDAF":2580,"142":2581,"Ġaea":2582,"Ġfgfd":2583,"/_":2584,"eAFC":2585,"deg":2586,"250":2587,"cACF":2588,"ug":2589,"ĠDGA":2590,"ĠAFcF":2591,"Gmix":2592,"ecECA":2593,"101":2594,"BFCA":2595,"Ġecd":2596,"ĠGAGE":2597,"ĠAdcd":2598,"ĠGEcE":2599,"gEC":2600,"ĠAcc":2601,"Ġeceg":2602,"ĠBdGB":2603,"fdADA":2604,"aecAA":2605,")}":2606,"po":2607,"Ġbgec":2608,"TB":2609,"ĠFAB":2610,"dFE":2611,"fecA":2612,"Ag":2613,"gcGC":2614,"efc":2615,"Ġdfg":2616,"Ġeaf":2617,"'-|[":2618,"ĠAGGF":2619,"pi":2620,"ĠFGEF":2621,"Ġafaf":2622,"EED":2623,"Ġ[^":2624,"ecAG":2625,"ĠAFAd":2626,"ĠgAfA":2627,"gdE":2628,"ĠAFdF":2629,"Ġud":2630,"Ġaff":2631,"ĠFEFA":2632,"eDA":2633,"Ġecce":2634,"fdBFD":2635,"bgeE":2636,"ĠGAc":2637,"fcAA":2638,"Ġgcec":2639,"gECG":2640,"ĠdBe":2641,"148":2642,"ith":2643,"ĠBGD":2644,"119":2645,"DEA":2646,"GFCB":2647,"xxF":2648,"Ġfdaf":2649,"dfd":2650,"Ġegfd":2651,"gGA":2652,"Ġedfd":2653,"ĠBgB":2654,"Ġdgd":2655,"ĠcAGA":2656,"71":2657,",-|[^":2658,"29":2659,"33":2660,"ĠcBG":2661,"BAEA":2662,"fdC":2663,"cGED":2664,"ĠFAdc":2665,"ĠMS":2666,"geBGEB":2667,"gecE":2668,"Ed":2669,"dFDD":2670,"ĠdAB":2671,"FAB":2672,"BAFDB":2673,"ĠfG":2674,"ĠcAdc":2675,"ĠTa":2676,"ersion":2677,"eAG":2678,"AFCE":2679,"62":2680,"DFG":2681,"Ġeddc":2682,"ĠcAGc":2683,"GxGxG":2684,"DxC":2685,"dDC":2686,"ĠFAG":2687,"\"^/":2688,"ĠDGGA":2689,"dGA":2690,"ĠAFFA":2691,"ch":2692,"BEF":2693,"ĠcAdB":2694,"23":2695,",,|[_":2696,"ĠuA":2697,"ĠgBB":2698,"DDC":2699,"fcAFCA":2700,"BAFB":2701,"aeB":2702,"dCG":2703,"Ġfgef":2704,"BGFDG":2705,"137":2706,"Ġagfd":2707,"Ġtime":2708,"Qu":2709,"BGECC":2710,"dADD":2711,"Ġvar":2712,"eBGD":2713,"BECC":2714,"ADE":2715,"Ġbdad":2716,"bdD":2717,"fcGC":2718,"gCG":2719,"ĠcAcA":2720,"aDA":2721,"eeee":2722,"eCC":2723,"gaf":2724,",,](":2725,"ĠEd":2726,"cFEA":2727,"ĠBGGF":2728,"DxE":2729,"81":2730,">[=":2731,"aeAE":2732,"111":2733,"fFG":2734,"ĠEGA":2735,"ĠBded":2736,"ori":2737,"/\"^":2738,"cDG":2739,"GBe":2740,"ĠBEGB":2741,"Ġ\"^(":2742,"/<":2743,"ĠDFF":2744,"ĠBAFD":2745,"cAFDD":2746,"ĠBGBG":2747,"AGDA":2748,"(^":2749,"CEF":2750,"FGAB":2751,"dcF":2752,"AAG":2753,"ĠAdF":2754,"ĠBdde":2755,"-]|_":2756,"Ġafeg":2757,"190":2758,"ĠGAcd":2759,",,<=":2760,"fAB":2761,"ĠAdcA":2762,"ĠBGDG":2763,"BGFE":2764,"ick":2765,"ĠfdAd":2766,",]/":2767,"ĠGEDB":2768,"ĠFAde":2769,"Ġp":2770,"cAEB":2771,"aACA":2772,"xDE":2773,"EAE":2774,"FGE":2775,"cAGF":2776,"ĠDc":2777,"Ġfadf":2778,"ĠeAAB":2779,"adF":2780,">{":2781,"Ġ|{^":2782,"xDB":2783,"BFDC":2784,"ĠcedB":2785,"ĠAcAF":2786,"aecAEA":2787,"CxB":2788,"ĠcAFD":2789,"dBGEE":2790,"ĠEAB":2791,")!":2792,"dDE":2793,"gdBB":2794,"=\"":2795,"BDC":2796,"Ġgefg":2797,"Bdg":2798,"ĠEGce":2799,"ĠBedB":2800,"BGFG":2801,"Ġabg":2802,"ĠAcf":2803,"AGEA":2804,"zd":2805,"BAc":2806,"gdBGD":2807,"cGDB":2808,"''-=":2809,"BGECG":2810,"Ġefa":2811,"'[=":2812,"GGA":2813,"ecAEC":2814,"lleg":2815,"fAFD":2816,"CEGE":2817,"ĠfBBA":2818,"fBA":2819,"xEG":2820,"eBC":2821,"ĠFAAF":2822,"ĠBAAB":2823,"variations":2824,"AGDD":2825,"Ġdddd":2826,"Dc":2827,"xfx":2828,"AGEB":2829,"xCE":2830,"bBDB":2831,"ĠABGE":2832,"fcD":2833,"ĠvA":2834,"ĠeE":2835,"bfdBF":2836,"40":2837,"dBGEB":2838,"GFCC":2839,"eAEC":2840,"ĠCEA":2841,"ĠGBe":2842,"eel":2843,"DEE":2844,"ĠAGBG":2845,"ĠGFEG":2846,"79":2847,"FGB":2848,"ĠBa":2849,"FBd":2850,"gdC":2851,"fAE":2852,"ing":2853,"gcAE":2854,"Ġceae":2855,"Ġve":2856,"AxAxA":2857,"eFB":2858,"DFDB":2859,"ĠEGD":2860,"ĠBEEF":2861,",,,,]|[":2862,"Ġeae":2863,"ĠFDDE":2864,"Ġbgg":2865,"dFCA":2866,"AFEA":2867,"Alleg":2868,"CCB":2869,"Tc":2870,"AGFD":2871,"fAFC":2872,"AFEB":2873,"agec":2874,"'''-[":2875,"ĠBdgf":2876,"ĠBb":2877,"Ġfdgf":2878,"gCA":2879,"ecGA":2880,"DGG":2881,"ĠDEGB":2882,"Ġ\"_":2883,"''''-":2884,"bgD":2885,"Ġafbf":2886,"agfe":2887,"ĠAcef":2888,"ĠFAdB":2889,"cBd":2890,"Ġfaeg":2891,"afdAFD":2892,"fdAB":2893,"FEDCA":2894,"Ġvd":2895,"aecAE":2896,"ĠEAcA":2897,"ĠdEBE":2898,"ĠGBGB":2899,"ĠABBA":2900,"dBDG":2901,"220":2902,"fAG":2903,"ĠAAAA":2904,"cGCE":2905,"BCB":2906,"ĠAcde":2907,"ĠBdge":2908,"fcAD":2909,"ĠcAAA":2910,"#/":2911,"ĠdcBG":2912,"Ġbab":2913,"ur":2914,"afcAF":2915,"Ġbagb":2916,"BBA":2917,"eGF":2918,"Cmin":2919,"Quick":2920,"AGED":2921,"ĠFe":2922,"ĠEGDG":2923,"geF":2924,"ĠdABG":2925,"aecE":2926,"dADF":2927,"cGECA":2928,"aFCA":2929,"ĠFAFA":2930,"geD":2931,"aj":2932,"fEB":2933,"efa":2934,"Ġafde":2935,"plus":2936,"Ġgeaf":2937,">[^":2938,"adD":2939,"Bbm":2940,"Ġgea":2941,"143":2942,"155":2943,">|[=":2944,"ĠAFAF":2945,"Ġeagf":2946,"GdGe":2947,"eAECA":2948,"afcC":2949,"ĠBdAB":2950,"zA":2951,"ĠFAFD":2952,"deB":2953,",,<^":2954,"Ġdfdf":2955,"BCF":2956,"Ġcac":2957,"AAB":2958,"ĠBDGB":2959,"Ġgeeg":2960,"ĠBAFG":2961,")^":2962,"ĠaB":2963,"EGEB":2964,"ĠcABA":2965,"ĠdfdB":2966,"']|[":2967,"([":2968,"AGx":2969,"165":2970,"ĠfAdf":2971,"ĠeGdG":2972,"Ġceag":2973,"ud":2974,",,,-=":2975,"ĠGC":2976,"cAFDA":2977,"dAC":2978,"Ġ::{":2979,"TBA":2980,"dEC":2981,"xEE":2982,"Ġegde":2983,"ĠfBdB":2984,"dECG":2985,"ĠBGGG":2986,"dGEC":2987,"gbg":2988,"ĠGFGE":2989,"oda":2990,"DBD":2991,"cADD":2992,"ABcd":2993,"''-^":2994,"Ġgfdc":2995,",,,,]":2996,"ĠABB":2997,"Ġecac":2998,"ĠEGc":2999,"ĠEGBG":3000,"Ġecge":3001,"ĠFDEC":3002,"Ġdcc":3003,"<(":3004,"175":3005,"152":3006,"DFDA":3007,"cCD":3008,"63":3009,"gde":3010,"ĠFGAG":3011,"Acf":3012,"dED":3013,"ĠfcAc":3014,"Ġegfg":3015,"cGCC":3016,"xgx":3017,"DGDB":3018,"bfF":3019,"BFCG":3020,"aDB":3021,"GEx":3022,"AGECG":3023,"GBc":3024,"ĠdBge":3025,"Ġcb":3026,"ĠCEAc":3027,"/\"_":3028,"CFCA":3029,"afdB":3030,"Ġeage":3031,"Bdf":3032,"uc":3033,"ĠFC":3034,"cECE":3035,"eBAE":3036,"Ġedge":3037,"Ġfaea":3038,"fdBD":3039,",,>^":3040,"Ġagea":3041,"bEB":3042,"BAEB":3043,"Ġdecd":3044,"ĠGce":3045,"geBB":3046,"ĠGGGG":3047,"ĠGEBE":3048,"ĠFAGF":3049,"Ġfad":3050,"AEDD":3051,",,,-]|[_":3052,"ĠAGAc":3053,"ĠdFcF":3054,"FxE":3055,"hor":3056,"ĠAgfe":3057,"ĠFAEA":3058,"Acd":3059,"Ġeb":3060,"bab":3061,"AFDE":3062,"dcc":3063,"aECA":3064,"gGEC":3065,",<_":3066,"ĠS":3067,"ĠecAB":3068,"ecBA":3069,"CCx":3070,"AGCA":3071,"Gb":3072,"bdF":3073,"Ġegd":3074,"uA":3075,"ĠBBA":3076,"AFEDA":3077,"Ġgbge":3078,"Ġcccc":3079,"ĠAece":3080,"ĠBcdg":3081,"BGEA":3082,"dGFB":3083,"AAx":3084,"cAFEC":3085,"ĠdBde":3086,"dan":3087,"Ġegge":3088,"Ġ|]:\"":3089,"ĠDFBd":3090,"CDG":3091,"DxB":3092,"300":3093,"ĠAgf":3094,"ĠAaa":3095,"ĠcD":3096,"ĠFAcA":3097,"AEDE":3098,"ĠBcBG":3099,"ĠAcea":3100,"ExD":3101,"ĠEDCD":3102,"cEc":3103,"aFD":3104,"cECB":3105,"exe":3106,"EEG":3107,"aeC":3108,"ĠAFEG":3109,",,,-[_":3110,"ĠEFED":3111,"TA":3112,"Tf":3113,"zB":3114,"cAGA":3115,"FFE":3116,"gBGE":3117,"Ġceef":3118,"bBC":3119,"55":3120,"BFDE":3121,"ĠcAGB":3122,"ĠEBBA":3123,"CEB":3124,"ĠBef":3125,"Ġ(_":3126,"'|(":3127,"ĠAAB":3128,"ĠcBBA":3129,"dGED":3130,"pirit":3131,"ĠDFAB":3132,"ĠBdBA":3133,"gcB":3134,"/){":3135,"fcFC":3136,"ĠBdAc":3137,"aEC":3138,"aeF":3139,"cDD":3140,"ive":3141,"cGDA":3142,"gae":3143,"Ġ|\"^/\"":3144,"ĠCDEG":3145,"ĠdBed":3146,"Ġdged":3147,"eFDA":3148,"Ġecde":3149,"afE":3150,"ĠBdeg":3151,"An":3152,"Ġfbb":3153,"Ġgeag":3154,"58":3155,"ĠgGG":3156,"GxE":3157,"GFx":3158,"EFD":3159,"GAF":3160,"Ġ2":3161,"ĠBgdg":3162,"cADA":3163,"-)":3164,"xDD":3165,"Ġaaa":3166,"gBGDG":3167,"eBd":3168,"ĠbgdB":3169,"Ġw":3170,"ĠBBBB":3171,"BAGA":3172,"cdd":3173,",>_":3174,"ĠcAAg":3175,"ĠAag":3176,"Adf":3177,"BFCB":3178,",,,|=":3179,"AGFC":3180,"61":3181,"AdA":3182,"ĠAff":3183,"cBAF":3184,"CCD":3185,"DEx":3186,"Ba":3187,"xDG":3188,"ĠBdfd":3189,"Ġdee":3190,"?\"":3191,"ĠedBe":3192,"Ġdgb":3193,"ze":3194,",,,]_":3195,"ĠEDCB":3196,"Ġceec":3197,"abg":3198,"xAA":3199,"ĠBeg":3200,"AxG":3201,"am":3202,"cAx":3203,"ĠGBEB":3204,",,,-]|":3205,"Ġ|({":3206,"fdAE":3207,"ĠdgdB":3208,",,,-]=":3209,"BGFB":3210,"edd":3211,"xEF":3212,"\"^+\"":3213,"xFA":3214,"FDx":3215,"Ġcef":3216,"ĠFEFD":3217,"ĠAFcA":3218,"ĠAddB":3219,"ĠFEED":3220,"ecEA":3221,"uB":3222,"adAD":3223,"eFDB":3224,"Ġ[=":3225,"ĠGcc":3226,"dBEB":3227,"dAGDG":3228,"ĠGBed":3229,"CECA":3230,"pe":3231,"qu":3232,"BGEDE":3233,"ĠcAe":3234,"Ġuc":3235,"gAGAG":3236,"he":3237,"Ġ1":3238,"ĠdGB":3239,"xDxD":3240,"'''-^":3241,"168":3242,"ĠDCD":3243,"Ġgeef":3244,"..":3245,"BxA":3246,"cdec":3247,"eBD":3248,"DEFG":3249,"ĠBAcA":3250,"ccB":3251,"fBE":3252,"fcAE":3253,"ĠBgec":3254,"cdeg":3255,"ĠECEG":3256,"ĠAcBd":3257,"eGEG":3258,"xEA":3259,"ĠBddg":3260,",}":3261,"ĠAdA":3262,"geBEB":3263,"'-]|[":3264,"dFDF":3265,"Ġdfag":3266,"ĠBge":3267,"AEDCA":3268,"ĠAAAB":3269,"ĠAC":3270,"ĠEAce":3271,"aAFD":3272,"ĠGcB":3273,"acD":3274,"fBGD":3275,",,,[_":3276,"ĠDGF":3277,"Ġecg":3278,"146":3279,"'.":3280,"Ġfaag":3281,"ĠcFAF":3282,"ĠDdd":3283,"ecCA":3284,"GFEC":3285,"ĠAcfc":3286,"gcfc":3287,"gdBE":3288,"ĠDFBF":3289,"ced":3290,",,,,,-]|[":3291,"dBFC":3292,"EEx":3293,"ffff":3294,"ĠBdBd":3295,"ADCD":3296,"res":3297,"gBA":3298,"Ġbee":3299,"139":3300,"eBGF":3301,"ĠEFGF":3302,"ĠdBdg":3303,"horus":3304,"cgc":3305,"xCB":3306,"ĠBGcA":3307,"fdBA":3308,"CDD":3309,"last":3310,"AFDCF":3311,"Gce":3312,"xBxB":3313,"ĠdfBd":3314,"ĠBdGd":3315,"CDEF":3316,"cFDD":3317,"le":3318,"154":3319,"hr":3320,"FEx":3321,")({":3322,"ĠdFAF":3323,"bbb":3324,"Ġeac":3325,"dAFE":3326,"ĠEGcG":3327,"Ġgfde":3328,"DDB":3329,"dAED":3330,"Ġo":3331,"BGCB":3332,"Ġadfa":3333,"FGx":3334,"Ġgfgf":3335,"bgBG":3336,"Ġegc":3337,"aeAA":3338,"Ġuf":3339,"gcGE":3340,"ĠGge":3341,"AFx":3342,"ĠEBGB":3343,",,,-_":3344,"ĠAFGA":3345,"FFG":3346,",-|_":3347,"ĠEGFA":3348,"Ġgfgb":3349,"ĠBcAF":3350,"ĠGBdf":3351,"fcFF":3352,"ĠeBBA":3353,"ĠFBBA":3354,"].":3355,"Chorus":3356,"cded":3357,"xCD":3358,"bgeBE":3359,"26":3360,"Reel":3361,"dEE":3362,"xBA":3363,"Ġeffe":3364,"Ġaefd":3365,"'\"":3366,"Td":3367,"aefc":3368,"fxf":3369,"ĠdBeB":3370,"ĠdBfB":3371,"ecGCC":3372,"ĠBdAG":3373,"gecGECG":3374,"defg":3375,"dGEA":3376,"fGC":3377,"vb":3378,"ĠAcGc":3379,"Ġcfe":3380,"Ġbgd":3381,"Ġgafg":3382,"eCF":3383,"ĠcGEG":3384,"GDCC":3385,"ĠCa":3386,"Ġeaca":3387,"fECA":3388,"ĠECC":3389,"Ġbgdg":3390,"Ġfgec":3391,"Bdc":3392,"ĠAaf":3393,"eEF":3394,"156":3395,"ĠAfe":3396,"Ġfddd":3397,"cr":3398,"eFCA":3399,"}(":3400,"CDx":3401,"FFFFFFFF":3402,"PMTuCOM":3403,"BAECA":3404,"ĠFDC":3405,"Ġegb":3406,"ĠcAAe":3407,"ĠGEEG":3408,"ĠBGFE":3409,"EFCA":3410,"eAFD":3411,"eGEE":3412,"fBFDB":3413,"zG":3414,"(=":3415,"xDF":3416,"Ġdde":3417,"ĠAee":3418,"ecGCG":3419,"fdBDB":3420,"gecGEC":3421,"xCG":3422,"Ġega":3423,"agd":3424,"Ġms":3425,"ris":3426,"bfD":3427,"eFD":3428,"edAD":3429,"ĠAcfa":3430,"Ġegce":3431,"ĠDCDE":3432,"bdE":3433,"zc":3434,"ĠECA":3435,"ĠBgfg":3436,"aea":3437,"Ġeaec":3438,"xAB":3439,"cAFG":3440,"ĠBgg":3441,"BGECA":3442,"gDA":3443,"gGECG":3444,"ĠABdB":3445,"ĠDFG":3446,"ĠgfdB":3447,"ĠcAcd":3448,"dBc":3449,"\"^>\"":3450,"ĠafdB":3451,"BGCC":3452,"cAFB":3453,"ĠfddB":3454,"ĠfdAG":3455,"Andan":3456,"fCF":3457,"ĠBEB":3458,"ĠeAB":3459,"''[":3460,"ĠGEEF":3461,"Ġbege":3462,"'[^":3463,"BCE":3464,"ĠAFdB":3465,"141":3466,"aCF":3467,"gBF":3468,"fdDB":3469,"dcC":3470,"ĠBGBc":3471,">|[^":3472,"dEG":3473,"Ġeca":3474,"xdxd":3475,"ĠfdBc":3476,"CxG":3477,"EFB":3478,"GBA":3479,"adAF":3480,"dgd":3481,",,-|[^":3482,"DGF":3483,"DCx":3484,"ĠgBfB":3485,"360":3486,"fde":3487,"cea":3488,"bgC":3489,"ĠFDFG":3490,"Bcde":3491,"ĠuB":3492,"\"[":3493,"ĠfecB":3494,"AxAxAxAx":3495,"Ff":3496,"cxB":3497,",,-|^":3498,"aecAEC":3499,"xGG":3500,",,,,,-]":3501,"dBGC":3502,">\"^(":3503,"ĠcAFG":3504,"xED":3505,"ĠeBG":3506,"ĠeAAA":3507,"CECG":3508,"With":3509,"sic":3510,"ecGD":3511,"bec":3512,"xFB":3513,"ĠEee":3514,"dcGG":3515,"dfe":3516,"gBGB":3517,",,,,,][":3518,"xGc":3519,"ĠABdA":3520,"Ġfdfg":3521,"afdF":3522,"CxD":3523,"gcF":3524,"afG":3525,"CDCB":3526,"Ġpart":3527,"aeG":3528,"ĠBDD":3529,"GAA":3530,"No":3531,"aFDA":3532,"ECx":3533,"Ġcece":3534,"ĠBdgb":3535,"Ver":3536,"bfc":3537,"cAECF":3538,"cdcB":3539,"ĠGBEG":3540,"odal":3541,"Ġdgga":3542,"Ġug":3543,"urn":3544,"!!":3545,"Bce":3546,"aAFC":3547,"dcAG":3548,"fAFA":3549,"ĠEGF":3550,"Ġvc":3551,"/!":3552,"beA":3553,"172":3554,"ĠFAAc":3555,"Ġgfdf":3556,"risk":3557,",,-|=":3558,"BGCA":3559,"BAGD":3560,",,>=":3561,"'s":3562,"axa":3563,"ĠEFDE":3564,"eBc":3565,"acG":3566,"xEB":3567,"ĠcFF":3568,"ĠEGDE":3569,"Ġgege":3570,"ĠDFED":3571,"ĠdAdf":3572,"GxA":3573,"Variations":3574,"ddc":3575,"BAGE":3576,"Ġfaab":3577,"Ġ|\"^*\"":3578,"xGB":3579,"edD":3580,"gfa":3581,"Ġfda":3582,"ĠAdFA":3583,"ĠEBB":3584,"is":3585,"~\"":3586,"BEDA":3587,"EFx":3588,"Ġfeef":3589,"DEB":3590,"Ġmodal":3591,"GxB":3592,"phr":3593,"AGCG":3594,"ĠEFAc":3595,"ĠCapo":3596,"CxA":3597,"Ġ||{":3598,"ĠGEDG":3599,"ĠAddd":3600,"cDF":3601,"Ġ(!>!":3602,"beE":3603,",/)":3604,"ĠDFE":3605,"dADB":3606,"dcx":3607,"ĠGEGA":3608,"Seg":3609,"xFF":3610,"ĠBFDF":3611,"fdFDA":3612,"Ġegdc":3613,",,,,,-][^":3614,"Ġeeee":3615,"gecB":3616,"BGCE":3617,"feA":3618,"56":3619,"aEB":3620,"adc":3621,"gDG":3622,"edE":3623,"ABB":3624,"Ġedec":3625,"gdGB":3626,"Ġfafe":3627,"ĠfBde":3628,"ĠdEcE":3629,"))":3630,"tto":3631,"cAGEA":3632,"GGx":3633,"aeD":3634,"fdADD":3635,"27":3636,"\\\"":3637,"ĠfdBG":3638,"Ġdffe":3639,"fcFA":3640,"ĠvB":3641,"BGEF":3642,"Ġua":3643,"!>!":3644,"-\"^/\"":3645,"320":3646,"eGECG":3647,"ĠGDGB":3648,"DDF":3649,"Ġcedf":3650,"ugge":3651,"'-]":3652,"AxB":3653,"Brisk":3654,"bfe":3655,"uf":3656,"ĠFBA":3657,"EDx":3658,"Ġ.^":3659,"Ġefgb":3660,"GEDCB":3661,"rio":3662,")[":3663,"210":3664,"xed":3665,"DDx":3666,"Ġdfef":3667,"ĠeF":3668,"ĠEcB":3669,"ĠacA":3670,"eBFB":3671,"Ġcdea":3672,"FxG":3673,"ĠAAG":3674,"gdGG":3675,"ĠdBBB":3676,"dBGA":3677,"Ġ|\"^>\"":3678,"xbx":3679,"EEB":3680,"AEDC":3681,"uggest":3682,"BAFE":3683,"ecECG":3684,"/)\"":3685,"ĠAdcB":3686,"ĠcAAd":3687,"aecC":3688,"Ġfddg":3689,"acAF":3690,"ĠcAEA":3691,"fdcB":3692,"Edit":3693,"eae":3694,"ĠBFB":3695,"ĠcfA":3696,"EDxD":3697,"ĠdBec":3698,")(^":3699,"ĠGEFG":3700,"Allegro":3701,"cBx":3702,"BcdB":3703,"cBcd":3704,"Ġdeed":3705,"eGCC":3706,"gBDB":3707,"dAEDD":3708,"dCF":3709,"eFC":3710,"fcE":3711,"gdBF":3712,",-|[_":3713,"ĠBEF":3714,"ĠedA":3715,"Ġafc":3716,"GFGF":3717,"185":3718,"eAFE":3719,"cADB":3720,"ecCG":3721,"ĠbfdB":3722,"ĠAGAF":3723,"cDC":3724,"ĠAed":3725,"gBGEB":3726,"cGECB":3727,"FEDE":3728,"DFE":3729,"ĠGgg":3730,"ĠBAdB":3731,"Ġfeed":3732,"ĠDBB":3733,"ĠCDEC":3734,"orial":3735,"uggestion":3736,"ĠBgfe":3737,"cAFDB":3738,"dcD":3739,"xDC":3740,"CGC":3741,"ĠFAGE":3742,"TE":3743,"turn":3744,"AEDG":3745,"AGFG":3746,"fdFDB":3747,"ĠBABA":3748,"Ġeggf":3749,"bagf":3750,"\"{/":3751,"acAE":3752,"bFD":3753,"eed":3754,"gECA":3755,"ĠDCA":3756,"176":3757,"ĠeABA":3758,"])[":3759,"Moderato":3760,"ExC":3761,"GxF":3762,"ĠAEE":3763,"Ġaef":3764,"xAxA":3765,"Ġbaga":3766,"Ġsig":3767,"Tg":3768,"eFE":3769,"fCG":3770,"EDCD":3771,"bgdBG":3772,"ĠFDFD":3773,"158":3774,"gEA":3775,"Ġcefg":3776,"Ġfdg":3777,"ĠafcA":3778,"bfG":3779,"bfdBB":3780,"dde":3781,"']|":3782,"Bde":3783,"fGB":3784,"gxg":3785,"ĠGAA":3786,"cADF":3787,"BBc":3788,"ĠdBGE":3789,"dFd":3790,"ĠBege":3791,"ĠvG":3792,"ĠGBE":3793,"ĠBAdA":3794,"162":3795,"gBC":3796,"BcBA":3797,"Andante":3798,"DxA":3799,"cFG":3800,"fGF":3801,"ĠfF":3802,"cBEC":3803,"ĠAdfe":3804,"Ġgecd":3805,"(.":3806,"AeA":3807,"Trio":3808,"bdBB":3809,"Ġbgfg":3810,"28":3811,"DxF":3812,"EFGA":3813,"In":3814,"beBE":3815,"fDD":3816,"xGA":3817,"ecAGA":3818,"Ġfcec":3819,"orian":3820,"AcB":3821,"ExB":3822,"Ġeed":3823,"ĠcFAc":3824,"Ġand":3825,"ĠDGGB":3826,"ExA":3827,"ĠGdBd":3828,"dBDD":3829,"ĠGAAG":3830,"ĠeAAG":3831,"Ġefdf":3832,"ĠAEAc":3833,"Ġcefe":3834,"dAGD":3835,"gfdB":3836,"CEx":3837,"ĠdBcd":3838,"ĠGBFB":3839,"ĠGGA":3840,"eGCG":3841,"cAEDA":3842,"bgF":3843,"Ġcfaf":3844,"'[_":3845,"CDA":3846,"TG":3847,"cfc":3848,"GABG":3849,"ĠFDDA":3850,"ĠdBBg":3851,"GGB":3852,",,,,][=":3853,"ĠGDE":3854,"eBEG":3855,"xcxc":3856,"cGECE":3857,"gBfBgBfB":3858,"bFB":3859,"dcGC":3860,"fGDB":3861,"ABcB":3862,"GxGxGxGx":3863,"vA":3864,"Ġdorian":3865,"bgb":3866,"Ġversion":3867,"192":3868,"eGDB":3869,"gBGG":3870,"ĠfcAF":3871,"ĠeccB":3872,"afdAF":3873,"'/)":3874,",,-|[=":3875,"ĠFBd":3876,"ĠdBfd":3877,"ĠBddd":3878,"eACA":3879,"ĠBGFD":3880,"Ġecef":3881,"gecGE":3882,"edBD":3883,"EDED":3884,"''-_":3885,"Ġdce":3886,"147":3887,"retto":3888,"Ġsuggestion":3889,"BECF":3890,"fBFD":3891,"ecGEG":3892,"gdfd":3893,"TF":3894,"dAEE":3895,"ua":3896,"cAGEC":3897,"xExE":3898,"aEA":3899,"Ġgefe":3900,"Ġeff":3901,"ĠBdgB":3902,"ĠBAcB":3903,"ĠcGG":3904,"ĠDdc":3905,"BAx":3906,"DEFE":3907,"BbB":3908,"Ġegcg":3909,"EFF":3910,"gEE":3911,"Ġceeg":3912,"ĠeAe":3913,"ĠDAA":3914,"CxE":3915,"bCA":3916,"seg":3917,"ĠDEDC":3918,",,,-]^":3919,"fGE":3920,"ĠAcGE":3921,"EAB":3922,"gfB":3923,"164":3924,"Ġvg":3925,"segno":3926,"fag":3927,"fAFDA":3928,"aADA":3929,"Ġ|]:[":3930,"cFDG":3931,"xCC":3932,"CFG":3933,"ĠdBBc":3934,"ĠecBd":3935,"AcAc":3936,"acB":3937,">|(":3938,"Ġbafe":3939,"ĠECCE":3940,"bfdBFB":3941,"fEA":3942,"ĠFAcf":3943,"cBAB":3944,"EGG":3945,"BAEC":3946,"ABcA":3947,"cAFEF":3948,"ĠfddA":3949,"Gf":3950,"GGE":3951,"bGE":3952,"ĠBgdB":3953,"ĠFECE":3954,"dAGE":3955,"aAa":3956,"ĠgdcB":3957,"$\"":3958,"fDG":3959,"Ġdafa":3960,"ĠGgfe":3961,"Ġcaa":3962,"EDCC":3963,"GFEF":3964,">|:{":3965,"ĠAddA":3966,"ĠABAB":3967,"'-[=":3968,"bFDB":3969,"ĠAecA":3970,"ĠAaga":3971,"fdFB":3972,"cGEF":3973,"gGCG":3974,"bgec":3975,"ĠGEGB":3976,"Ġecea":3977,"zf":3978,"ĠeEE":3979,"edf":3980,"FFx":3981,"GABA":3982,"bgA":3983,"153":3984,"Ġgdec":3985,"Ġgdfd":3986,"Ġdgfa":3987,"DxG":3988,"EAG":3989,"dee":3990,"ĠdAcA":3991,"gdBA":3992,"Editorial":3993,"fAEA":3994,"gGDG":3995,"ĠdeB":3996,"Ġffff":3997,"GBB":3998,"FGAF":3999,"bged":4000,"egb":4001,"adG":4002,"ĠdABc":4003,"ĠCc":4004,"dce":4005,"163":4006,"Ġaffa":4007,"Ġbgbg":4008,"CxF":4009,"FxA":4010,"ĠeABc":4011,"ĠcaB":4012,"ĠBEdE":4013,"xax":4014,"ĠAaag":4015,"\"(":4016,"ĠAFB":4017,"ĠGcEc":4018,"GEDCA":4019,"BGCG":4020,"dBGED":4021,"DEDG":4022,"149":4023,"'-[^":4024,"').":4025,"CCG":4026,"fEC":4027,"ĠfedA":4028,"fgc":4029,"ĠDddc":4030,"fECG":4031,"ĠFAAA":4032,"ĠFGAd":4033,"acAA":4034,"sp":4035,"xCA":4036,"cGCA":4037,"Ġfdeg":4038,"ĠcAAF":4039,"ively":4040,"59":4041,"dGEE":4042,"cAFCC":4043,"fgaf":4044,"ĠafdA":4045,"Ġfagb":4046,"Ġadded":4047,"/[":4048,"adBF":4049,"dxc":4050,"gAD":4051,"ĠcGc":4052,"CAE":4053,",,,|(":4054,"ĠdccB":4055,"Ġspirit":4056,"ain":4057,"va":4058,"Ġedg":4059,"Ġaggf":4060,"Da":4061,"ul":4062,"Ġddc":4063,"ĠBAAA":4064,"166":4065,"dAFDB":4066,"aecF":4067,"DEC":4068,"cGDC":4069,"ol":4070,",,,,-]|[":4071,"ĠGFDF":4072,"ĠGAFG":4073,"Ġbgab":4074,"ĠeAc":4075,".^":4076,"Ġecdc":4077,"ĠGgf":4078,"cBFD":4079,"ĠeddB":4080,"xGxG":4081,"ĠFdd":4082,"cAGECA":4083,"cBFCB":4084,">|=":4085,"ĠBeec":4086,"ĠBEGE":4087,"ĠaAgA":4088,"eAB":4089,"ĠGDEF":4090,"EGC":4091,"dAFDF":4092,"ĠuG":4093,"moderat":4094,"Ġ-":4095,"Ġal":4096,"Ġacc":4097,"AGAB":4098,"Ġefef":4099,"ĠcBcB":4100,"ĠGBeB":4101,"ĠAFFE":4102,"Ġgbb":4103,"Ġgbe":4104,"Ġvf":4105,"ĠADDE":4106,"Ġof":4107,")=":4108,"280":4109,"xAd":4110,"GAx":4111,"''<":4112,"fcAG":4113,"ĠGcec":4114,"Ġfbba":4115,"31":4116,"xAG":4117,"xdd":4118,"GAd":4119,"gdDB":4120,"acCA":4121,"ĠEGGA":4122,"ĠEDDE":4123,"ĠEeed":4124,"geGC":4125,"fedB":4126,"Ġedde":4127,"gdF":4128,"Ġdfb":4129,"Ġabge":4130,"Segno":4131,"cBGF":4132,"fdBGG":4133,"ABx":4134,"cdx":4135,"fGG":4136,"fFCF":4137,"ĠAFBF":4138,"ĠegB":4139,"AEAE":4140,"ĠCEE":4141,"Ġcdcd":4142,"Ġbafd":4143,"beG":4144,"cFCC":4145,"ĠFAGB":4146,"DAG":4147,"geCC":4148,"Ġefgd":4149,"tro":4150,"xBB":4151,"Ġgcc":4152,"Ġgceg":4153,"dAEC":4154,"eBGEG":4155,"gdcG":4156,"ĠcAAf":4157,"ĠaAa":4158,"CED":4159,"ut":4160,"ĠFABA":4161,"Bcc":4162,"ĠFBdB":4163,"GcG":4164,"ĠAfed":4165,"dAFCA":4166,"ĠuE":4167,"Ġbeef":4168,"45":4169,"FFA":4170,"bdA":4171,"ke":4172,"cGFD":4173,"Ġafg":4174,"BEDE":4175,"fAFF":4176,"''-[":4177,"Ġgfaf":4178,"eAc":4179,"Bcx":4180,"Ġfada":4181,"Ġbaa":4182,"ĠgBaB":4183,"AxF":4184,"ĠAEF":4185,"ĠcAE":4186,"Ġbfdf":4187,"ĠdBgd":4188,"agc":4189,"cBAE":4190,"FEDCB":4191,"ĠBFD":4192,"BGFC":4193,"edef":4194,"ĠGBDG":4195,"Ġfafa":4196,"aAEC":4197,"ecAD":4198,"Ġgeed":4199,"Ġfae":4200,",,>_":4201,"Ġbgef":4202,"gcD":4203,"ot":4204,"zg":4205,"ecBGC":4206,"Ġceaf":4207,"ĠBcdA":4208,"ĠcGBG":4209,"ffe":4210,"Ġ((":4211,"ĠEGBd":4212,"DFx":4213,"key":4214,"dBEDB":4215,"ecAFD":4216,"Ġdege":4217,"Ġafga":4218,"Ġceac":4219,"Ġfcf":4220,"Ġgddg":4221,"FGFE":4222,"xFG":4223,"xee":4224,",/>":4225,"Ġcff":4226,"EGx":4227,"CCE":4228,"ecACA":4229,"aecAECA":4230,"ĠCEGE":4231,"BCC":4232,",,,,,-][=":4233,"Ġfcc":4234,"edcd":4235,"cBcB":4236,"Ġegbg":4237,"ĠfdBA":4238,"trath":4239,"PMTCO":4240,"trathsp":4241,"gCC":4242,"ecd":4243,"FEFG":4244,"feg":4245,"cGCF":4246,"ĠcAf":4247,"ĠAAcA":4248,"GxGx":4249,"trathspey":4250,"CEE":4251,"Ġgde":4252,"ĠdBBG":4253,"ĠcBcG":4254,"Ġafgf":4255,")\"_":4256,"57":4257,"eef":4258,"eCB":4259,"ĠBFF":4260,"ĠecG":4261,"fcGFCG":4262,"ĠAcFA":4263,"ĠAGB":4264,"DEDB":4265,"ĠCFAF":4266,"ĠAEAB":4267,"Part":4268,"cFDC":4269,"fDF":4270,"gEG":4271,"ecGB":4272,"BFEDB":4273,"ĠEGGF":4274,"Lively":4275,"aedA":4276,"ĠAcBc":4277,"ĠGEB":4278,"ecEE":4279,"Ġfac":4280,"ĠDEFE":4281,"bfBF":4282,"ĠdABA":4283,"ĠdcAd":4284,"ĠBcBc":4285,"ĠAEGE":4286,"'|=":4287,"Key":4288,"TcB":4289,"ccA":4290,"fbc":4291,"mf":4292,"ĠEg":4293,"dBFE":4294,"efga":4295,"ĠGEEE":4296,"ExG":4297,"FGG":4298,"Tfe":4299,"gfef":4300,"fede":4301,"cBGCB":4302,"54":4303,"ExF":4304,"Fast":4305,"gba":4306,"ĠGBBB":4307,"Ġccd":4308,"xBc":4309,"ĠFAdF":4310,"gBDG":4311,">(!":4312,"ĠfBBc":4313,"vd":4314,"ĠAcAc":4315,"ĠGceg":4316,"ĠFDED":4317,"151":4318,"bDG":4319,"cBGD":4320,"ne":4321,"ĠAdAF":4322,"ĠgeB":4323,"cBC":4324,"Ġfaed":4325,"Ġeaaa":4326,"Ġgdde":4327,"ĠGEDC":4328,"ĠuD":4329,"ĠFAAd":4330,"fAFCA":4331,"ĠddB":4332,"Ġcag":4333,"ĠCFA":4334,"ĠBGGc":4335,"ĠAdce":4336,"Strathspey":4337,"ebc":4338,"ĠAFDA":4339,"ĠADBD":4340,"ĠBGED":4341,"ecCC":4342,"cdcd":4343,"fADA":4344,"Ġbabg":4345,"ĠGDGA":4346,"xDA":4347,"Ġgggg":4348,"AFAF":4349,"fdAG":4350,"efge":4351,"ter":4352,"eCE":4353,"geBC":4354,"GFECG":4355,"eff":4356,"ĠEGAG":4357,"ĠDAG":4358,"ĠBcAc":4359,",.":4360,"ABAG":4361,"ĠABGB":4362,"ĠdBdf":4363,"dAFG":4364,"ĠDGGG":4365,"Ġfcfa":4366,"GAGF":4367,"as":4368,"ĠAFFF":4369,"''-|":4370,"174":4371,"ĠEAAc":4372,"Allegretto":4373,"'>=":4374,">[_":4375,"eECC":4376,"uG":4377,"ĠW":4378,"ĠcdA":4379,"dBAB":4380,"cdA":4381,"xFxF":4382,"dGFC":4383,"bgeBGED":4384,"ĠĠ":4385,"ĠFEC":4386,"cAGC":4387,"BAAG":4388,"CFF":4389,"dAFDC":4390,"ccx":4391,"Ġbged":4392,"GFCD":4393,"'\"^":4394,"<[":4395,"BECE":4396,"gAA":4397,",,,>_":4398,"Ġafcf":4399,"edx":4400,"cGCB":4401,"gff":4402,"dGBG":4403,"aCG":4404,"dcAD":4405,"slow":4406,"GDCF":4407,"ĠecBG":4408,"aaaa":4409,"dgb":4410,"Ġbafa":4411,"Ġbafb":4412,"53":4413,"lan":4414,"Ġno":4415,",,,,_":4416,"cAcA":4417,"edC":4418,"ĠBddf":4419,",,,-]_":4420,"Ġaeef":4421,"ĠEGBe":4422,"ay":4423,"gcAEA":4424,"ĠAcF":4425,"ĠBEEE":4426,"gdBGB":4427,"\"!":4428,"xff":4429,"ĠDf":4430,"Ġdfcf":4431,"Ġ|\"^+\"":4432,"bfa":4433,"GxGxGAGC":4434,"GdB":4435,"VB":4436,"bar":4437,"so":4438,"sus":4439,"BAEE":4440,"eded":4441,"afcAFCF":4442,"Ġaffe":4443,"ĠgBdB":4444,"cGDCG":4445,">)!":4446,"ccd":4447,"BFDCB":4448,"Ġcdd":4449,"eBGEC":4450,"ĠGGBG":4451,"ĠGGGB":4452,"Ġgded":4453,"aFC":4454,"min":4455,"ĠADF":4456,"ĠcC":4457,"CGc":4458,"ecAFE":4459,"FAcA":4460,"173":4461,"ĠfAgA":4462,"eBAEA":4463,"rot":4464,"aAECA":4465,"gFDB":4466,"Ġdba":4467,"ĠDGFG":4468,"dBEG":4469,"afg":4470,"cFCG":4471,"CDCA":4472,"Ġdfba":4473,"Ġ{/":4474,"ĠeAAc":4475,"Ġegeg":4476,"ĠEBE":4477,"bGDB":4478,"egf":4479,"ĠBGDB":4480,"ĠGBGE":4481,"dBFDG":4482,"cGBG":4483,"FEDD":4484,"ĠADED":4485,"xGF":4486,"ĠAfd":4487,"ĠGdd":4488,"Ġgfa":4489,"dcBc":4490,"cFCB":4491,"eFA":4492,"th":4493,"version":4494,"ĠcEBE":4495,"dfg":4496,"Ġdede":4497,"Bxc":4498,"EGF":4499,"eDG":4500,"ĠAfA":4501,"ĠFBAF":4502,"BBx":4503,"ĠCEGc":4504,"fBDB":4505,"aeAEA":4506,"ĠdAde":4507,"TED":4508,"cBGEC":4509,"fGD":4510,"ĠGdBG":4511,"xCEG":4512,"dGd":4513,"ĠBdfb":4514,"bad":4515,"gggg":4516,"ĠEAGE":4517,"Ġva":4518,"182":4519,"\\\"\"":4520,"cAECG":4521,"dBAFD":4522,"xCxC":4523,"ĠcAdA":4524,"Bdor":4525,"bgeG":4526,"]{":4527,"uF":4528,"BGx":4529,"Ġaaaa":4530,"ecGF":4531,"cdg":4532,"DCDC":4533,"dex":4534,"ecAB":4535,"ĠAFdA":4536,"Ġafb":4537,"**\"":4538,"fBFDG":4539,"xdc":4540,"ĠCCC":4541,"ĠFGB":4542,"dBFA":4543,"Ġbgf":4544,"dADG":4545,"eAe":4546,"CDEG":4547,"ddB":4548,"eac":4549,"}\"^":4550,"CGB":4551,"afcE":4552,"188":4553,"ĠBec":4554,"ĠFABd":4555,"DAd":4556,"EAA":4557,"cBFB":4558,"gfBF":4559,"fcAFA":4560,"EFC":4561,"{=":4562,"FDCC":4563,"ĠGBdc":4564,"gdGC":4565,"Ġagg":4566,"ĠAced":4567,"aca":4568,"ĠBGGd":4569,"ĠdgBd":4570,"__":4571,"cef":4572,"ĠccB":4573,"dBAD":4574,"ĠGBde":4575,"inal":4576,"Ġdgba":4577,"ĠDBA":4578,"DxDx":4579,"'][=":4580,"AAF":4581,"Fe":4582,"Ġ3":4583,"ĠGed":4584,"cAGECG":4585,"ecGEA":4586,"fee":4587,"gfcF":4588,"CDED":4589,"ĠBged":4590,"Adc":4591,"ake":4592,"xCF":4593,"Ġdz":4594,"ĠeBd":4595,"ĠFdAF":4596,"ĠEAAA":4597,"dcGE":4598,"ĠedBg":4599,"xcc":4600,"ĠAdFd":4601,"Ġwith":4602,"FAG":4603,"vB":4604,"ĠAz":4605,"BFED":4606,"CEGECE":4607,"cAFECA":4608,"''>":4609,"ecAEE":4610,"Ġdegd":4611,"Ġagag":4612,"Ġdgge":4613,"ĠeBgB":4614,"CGE":4615,"GxD":4616,"bECA":4617,"dxdx":4618,"xFE":4619,"ĠECB":4620,"Ġdbag":4621,"ĠBeB":4622,"cAECE":4623,"dBdB":4624,"fdDA":4625,"FGAG":4626,"ĠBdcd":4627,"EFED":4628,"ĠBGGg":4629,"Very":4630,"bae":4631,"gFDA":4632,"gFCA":4633,"ĠDg":4634,"Ġaeg":4635,"dBEE":4636,"BAFDA":4637,"Ġgff":4638,"Ġdfce":4639,"bBEB":4640,"ĠDBBA":4641,"fGEB":4642,"fBGE":4643,"xcd":4644,"Ġto":4645,"Ġdag":4646,"Ġfba":4647,"efef":4648,"Ġbfd":4649,"ĠBddc":4650,"167":4651,"Ġeccc":4652,")(.":4653,"dfb":4654,"CCA":4655,"dxB":4656,"ĠceBe":4657,"GEDD":4658,"ĠFdF":4659,"dAEB":4660,"ĠdBgf":4661,"Ġdced":4662,"Ġgedf":4663,"DFF":4664,"et":4665,"xcB":4666,"ĠGDD":4667,"ĠGFF":4668,"ecAFF":4669,"fdd":4670,"Ġedf":4671,"ĠeAaA":4672,"Ġdcdc":4673,"ĠfBeB":4674,"ĠfcdB":4675,"ĠAGGA":4676,"CxCDxC":4677,"-\"^":4678,"ĠDEDB":4679,"ĠCFAc":4680,"Ġdcec":4681,"ĠedcBAG":4682,"ĠfBdf":4683,"CFB":4684,"Cdor":4685,"GAE":4686,"aag":4687,"fefg":4688,"ĠAagf":4689,"ĠGdB":4690,"BABc":4691,"Ġbga":4692,"ĠdfA":4693,"ĠdedA":4694,"ĠEeef":4695,"bdBG":4696,"ĠceBd":4697,"cAd":4698,"ecx":4699,"ĠABF":4700,"geBEE":4701,"Ġfefe":4702,"moderate":4703,"SEG":4704,"aGE":4705,"bdBD":4706,"cGDD":4707,"dGEG":4708,"eAGC":4709,"cBcA":4710,"Ġdfga":4711,"Ġfea":4712,"eBGDA":4713,",,,,,-=":4714,"ĠuF":4715,",{":4716,"GFDD":4717,"crot":4718,"dedc":4719,"fFDD":4720,"gFD":4721,"ling":4722,"ĠdDFA":4723,"ĠBBc":4724,"AGFCA":4725,"xAc":4726,"ĠBcc":4727,"aAFDA":4728,"fADD":4729,"bgeBGE":4730,"Tgf":4731,"dCC":4732,"exd":4733,"ĠGFA":4734,"ĠFFFF":4735,"ĠDFEF":4736,"FEDG":4737,"ĠGBeg":4738,"ĠdGeG":4739,"aecG":4740,"bBGD":4741,"fecE":4742,"ĠEed":4743,"ĠDAF":4744,"dBDF":4745,"xxxB":4746,"ecBF":4747,"Ġeded":4748,"ĠGBBG":4749,"bgdD":4750,"ĠGFFE":4751,"Ġbgfe":4752,"184":4753,"2003":4754,"Ġfbaf":4755,"ĠAABc":4756,"ĠDEE":4757,"cBD":4758,"Ġgffe":4759,"fcGF":4760,"fcFCF":4761,"ĠFDCD":4762,"Ġegag":4763,"bBCA":4764,"Ebm":4765,"\"_>\"":4766,"bgeBG":4767,"Ġgagd":4768,"ĠaAAB":4769,"aFDB":4770,"acAC":4771,"dGEDB":4772,"ĠdABd":4773,"ĠeBc":4774,"ĠGAE":4775,"AFECC":4776,"Ġcdf":4777,"Ġegga":4778,"Acx":4779,"ĠddcB":4780,"TcA":4781,"UE":4782,"ĠAdBA":4783,"ĠGdc":4784,"dBGEDB":4785,"BAC":4786,"fdcAF":4787,"geECG":4788,"ĠdBf":4789,"dDd":4790,"gdGEB":4791,"gcGEC":4792,"ĠFDDg":4793,"Ġthe":4794,"gcfcgcfc":4795,"Intro":4796,"Bdd":4797,"BFCD":4798,"EAEA":4799,"FxD":4800,"cGFG":4801,"Ġfgfg":4802,"DAB":4803,"geCE":4804,"GFGA":4805,"dBGFDB":4806,"dDCA":4807,"ĠFAce":4808,"ĠAFEC":4809,"bgeBEB":4810,"Ġfeeling":4811,"SEGUE":4812,"ss":4813,"ĠAaA":4814,"Ġez":4815,"geCG":4816,"Ġfdgd":4817,"ĠcAfA":4818,"178":4819,"cdeb":4820,"EEEEEEEE":4821,"CEGECEGE":4822,"Ta":4823,"TAG":4824,"acAECA":4825,"cb":4826,"ĠGGB":4827,"ĠcBGB":4828,"Ġgae":4829,"ecAGE":4830,"ĠdAfd":4831,"Moderately":4832,"EcB":4833,"dEDB":4834,"gedc":4835,"ĠJ":4836,"ĠQuick":4837,"Ġedfe":4838,"ĠAGcG":4839,",,<_":4840,"-\"^(":4841,"aAEA":4842,"en":4843,"eFF":4844,"ebe":4845,"AGFED":4846,"ĠcBd":4847,"ĠBcef":4848,"gdGEC":4849,"!>)!":4850,"BxG":4851,"cBGC":4852,"ĠAfcf":4853,"EBEB":4854,"cACE":4855,"ĠDFGA":4856,"''(":4857,"defd":4858,"EFGF":4859,"aADB":4860,"ĠTb":4861,"adad":4862,"afdAFDA":4863,"CCCCCCCC":4864,"37":4865,"44":4866,"Ted":4867,"Ġ(([":4868,"ĠEdc":4869,"ĠDDDD":4870,"efed":4871,"afec":4872,"\"^#\"":4873,"Ġdgfd":4874,"ĠdAeA":4875,"ĠBEcE":4876,"FECD":4877,"ĠdBBe":4878,"BBBBBBBB":4879,"')(":4880,"->":4881,"Gxc":4882,"cres":4883,"gAF":4884,"ub":4885,"ĠAGEA":4886,"ĠBbag":4887,"Ġas":4888,"Ġ|:{":4889,"Ġgdgb":4890,"dcAEDCA":4891,"cDE":4892,"ĠgAA":4893,"ĠgeBe":4894,"dBAFB":4895,"edAE":4896,"DGx":4897,"FAx":4898,"xEFA":4899,"gfcD":4900,"BGEDG":4901,"ĠBAc":4902,"fcFCA":4903,"Ġaffd":4904,"BGBGdGBG":4905,"DDA":4906,"]\"_":4907,"aFA":4908,"dGDD":4909,"edBA":4910,"gFB":4911,"ĠFdc":4912,"FEFE":4913,"ĠAGBA":4914,"ĠFDDD":4915,"ĠAdef":4916,"cDCA":4917,"Ġafdg":4918,"afdc":4919,"ĠCEAE":4920,"CEGc":4921,"cAFDC":4922,"Ġcdfg":4923,">|:\"_":4924,"ĠTBA":4925,"ĠGEAG":4926,"157":4927,"ĠDBFB":4928,"CECB":4929,"aECG":4930,"dFDG":4931,"dcdc":4932,"edGE":4933,"cBGEB":4934,"Ġecfd":4935,"ĠTfe":4936,"gecEC":4937,"ĠvD":4938,"ĠAeed":4939,"Ġkey":4940,"ĠAECE":4941,"ĠFdB":4942,"dBx":4943,"ecEB":4944,"edGEC":4945,"ĠBGdc":4946,"ĠeBef":4947,"#<":4948,"Axc":4949,"^\"":4950,"ĠBfdf":4951,"GEGE":4952,"ĠEFDF":4953,"cACC":4954,"ĠDcBA":4955,"AEFD":4956,"AGECE":4957,"GFEE":4958,"DDCD":4959,"Ġefae":4960,"Ġddef":4961,"ĠAAAc":4962,"CxCx":4963,"BeB":4964,"fi":4965,"fecAF":4966,"ĠDFEG":4967,"ĠCEC":4968,"'''^":4969,"fcACF":4970,"cBAA":4971,"\"{^":4972,"all":4973,"xEC":4974,"ĠdBF":4975,"Ġgge":4976,"CCDE":4977,"gfG":4978,"dGECG":4979,"cFEB":4980,"gGCA":4981,"Ġddde":4982,"Ġfecd":4983,"ĠFADE":4984,"ĠGFDE":4985,"Ġaefa":4986,"xxxE":4987,"dcBG":4988,"ecAc":4989,"Ġceee":4990,"Ġgabc":4991,"eBGA":4992,"ĠBEEB":4993,"edBGE":4994,"EGEG":4995,"GFDF":4996,"dcAFD":4997,"ĠAec":4998,"DBg":4999,"ĠBedc":5000,"ĠGz":5001,"ĠGBAB":5002,"ĠccA":5003,"ecFA":5004,"CFx":5005,"ĠABdF":5006,"\"_=\"":5007,"rog":5008,"bBGE":5009,"cxA":5010,"gcAA":5011,"mpo":5012,"vc":5013,"Ġdaf":5014,"ĠdecA":5015,"ĠBGEC":5016,"ĠGcBA":5017,"ĠgBd":5018,"GDCE":5019,"feBD":5020,"ADCG":5021,"ĠEGFD":5022,"AxAx":5023,"'|^":5024,"DDG":5025,"FECE":5026,"cGFE":5027,"em":5028,"gAE":5029,"Ġ[_":5030,"ECDA":5031,"ĠFBc":5032,"Ġbbb":5033,"ĠdBFD":5034,"gdGE":5035,"Ġceea":5036,"ĠBDAF":5037,"EEA":5038,"cxd":5039,"ĠDdB":5040,"FCEC":5041,"Ġdfbf":5042,"ĠFDGE":5043,"Ġddfd":5044,"159":5045,"Ġafea":5046,"ĠGBBd":5047,"derly":5048,"/>^":5049,"reel":5050,"|\"":5051,"ĠAcAG":5052,"ĠBBAA":5053,"ĠGgfg":5054,"Ġcbag":5055,"ĠfBbB":5056,"BGFEB":5057,"cABG":5058,"xxd":5059,"AGFDA":5060,"fex":5061,"gfF":5062,"xCEA":5063,"dBGFG":5064,"ĠcAag":5065,"gac":5066,"ĠGEGE":5067,"ĠEDFA":5068,"ĠBggf":5069,"ĠGDEG":5070,"ir":5071,"pres":5072,"ĠADE":5073,"ĠAaec":5074,"Ġgdeg":5075,"ĠDcB":5076,"GDGD":5077,"gfx":5078,"dBGDD":5079,"ĠeccA":5080,"Ġafbg":5081,"fcACA":5082,"uE":5083,"ĠBC":5084,"Ġex":5085,"ĠFAE":5086,"ĠEcGc":5087,"cBFCF":5088,"geGEB":5089,"DEDA":5090,"ĠBccB":5091,"gdcA":5092,"Ġfege":5093,"Ġafba":5094,"ĠFGFD":5095,"Ġgbd":5096,"ĠCEAG":5097,"Ġfaga":5098,"aDD":5099,"adBG":5100,"fAEC":5101,"gAEC":5102,"gxf":5103,"str":5104,"ĠGGF":5105,"cAECB":5106,"afAD":5107,"Ġecaf":5108,"ĠFDDB":5109,"fgg":5110,"Ġabga":5111,"gdBGE":5112,"ĠeAAe":5113,"dAEF":5114,"ĠGGGA":5115,"ĠcABd":5116,"ĠCEAB":5117,"gFC":5118,",,,,-][=":5119,"ECEC":5120,"ĠdAAA":5121,"ĠGcA":5122,"FDFA":5123,"ĠfaA":5124,"edcA":5125,"efgf":5126,"feBE":5127,"shake":5128,"afcAC":5129,"Ġ.=":5130,"ĠGEBG":5131,"Ġgdgd":5132,"bGD":5133,"dxe":5134,"exc":5135,"eAFF":5136,"BAFDD":5137,"AAc":5138,"CFE":5139,"cBFDB":5140,"geEB":5141,"ĠBAd":5142,"cee":5143,"fgag":5144,"186":5145,"BGBGBG":5146,"fgd":5147,"ĠAdAd":5148,"ĠdBcB":5149,"ĠBAAF":5150,"BGBGcGBG":5151,"ĠaBgB":5152,"aBG":5153,"dGDE":5154,"pli":5155,"Ġcfa":5156,"AGFCF":5157,"EDCE":5158,"Ġefaf":5159,"gdGDC":5160,"ĠGggf":5161,",)(":5162,"ĠAAF":5163,"ĠFdE":5164,"fdFA":5165,"Ġgeae":5166,"Ġecf":5167,"gBg":5168,"defe":5169,"ĠeAAf":5170,"Ġada":5171,"ĠPc":5172,"FECC":5173,"bdC":5174,"Ġ:|{":5175,"AGCE":5176,"dcE":5177,"ĠBAeA":5178,"ĠBGGE":5179,"Ġgega":5180,"fgfe":5181,"gecD":5182,"Ġcfec":5183,"ĠcfAf":5184,"'|[=":5185,"bDA":5186,"cge":5187,"gcGECG":5188,"ĠdEE":5189,"CAFA":5190,"edAA":5191,"DGBG":5192,",]|(":5193,"dBGFD":5194,"Ġbaag":5195,"ĠvF":5196,"Ġbagfed":5197,"]!":5198,"eec":5199,"xFD":5200,"ĠGcAG":5201,"Ġfbag":5202,",,,|[^":5203,"edF":5204,"\"^~\"":5205,"cege":5206,"ĠGBBA":5207,"bBFB":5208,"Ġgbef":5209,"\"({":5210,"BdBd":5211,"Cxx":5212,"DAF":5213,"ExEx":5214,"cFCD":5215,"fBGF":5216,"fcBF":5217,"xef":5218,"Ġre":5219,"ĠADA":5220,"CAC":5221,"ĠFEDB":5222,"GFECA":5223,"gfga":5224,"ĠFDGF":5225,",\"^":5226,"eECB":5227,"ĠBag":5228,"ecEG":5229,"geGB":5230,"bgfd":5231,"ddx":5232,"fACA":5233,"ĠDEED":5234,"edcBA":5235,"ĠgdBc":5236,"Ġadbd":5237,"FxFx":5238,"ful":5239,"cADG":5240,"dBFDA":5241,"afAC":5242,"Ġdfff":5243,"ĠcAAa":5244,"ĠBFdB":5245,"FFD":5246,"gcGCG":5247,"ĠAGEC":5248,"ĠcBGF":5249,"GEFB":5250,",,,|^":5251,"ĠEFF":5252,"gefd":5253,"gecAE":5254,"FGAc":5255,"DFAF":5256,"eBAF":5257,"dGCG":5258,"Ġgebg":5259,"Ġfged":5260,"ĠGEFE":5261,"impli":5262,"ĠFBBc":5263,"Acc":5264,"DEDE":5265,"]\"^(":5266,"nat":5267,"zF":5268,"ĠAAGA":5269,"ĠBFA":5270,",,,|[=":5271,"ĠFine":5272,"cdcA":5273,"ĠBGcB":5274,"Ġeaae":5275,"gdBDB":5276,"Ġgdef":5277,"bdDB":5278,"ĠvE":5279,"'][^":5280,"'-[_":5281,"'<=":5282,"FxB":5283,"aFB":5284,"final":5285,"ĠdFAd":5286,"ĠGBD":5287,"dBFDF":5288,"BADA":5289,"dACA":5290,"ĠGEc":5291,"dAGG":5292,"Ġfecf":5293,"Ġslow":5294,"fied":5295,"implified":5296,"/\"^(":5297,"bfdF":5298,"fBGG":5299,"fAFB":5300,"gs":5301,"gAC":5302,"ĠeBGB":5303,"Ġggfg":5304,"\"^=\"":5305,"eEDB":5306,"ecAEF":5307,"Bcdc":5308,"Ġeeef":5309,"195":5310,"fdBGFDB":5311,"gcAGECA":5312,"Verse":5313,"49":5314,"FAA":5315,"FAFC":5316,"eAFB":5317,"za":5318,"ĠBz":5319,"fdAFB":5320,"ABe":5321,"ĠBAGD":5322,"ĠAccA":5323,"ĠGEEA":5324,"Ġdggg":5325,"bfBB":5326,"Ġwrit":5327,"Ade":5328,"bGEB":5329,"bECB":5330,"cGDE":5331,"eGEA":5332,"ĠAeA":5333,"ĠBFBd":5334,"ĠGcd":5335,"Ġffe":5336,"cAFDCA":5337,"GDx":5338,"fdFF":5339,"Ġeddf":5340,"dGFD":5341,"eAGE":5342,"ĠdfB":5343,"Ġfeaf":5344,"Ġceed":5345,"bBGEB":5346,"ĠGABe":5347,"gecECG":5348,"ĠAAeA":5349,"\"_#\"":5350,"ĠBBBA":5351,"peat":5352,">|[_":5353,"Df":5354,"aFF":5355,"fcGE":5356,"ĠAef":5357,"DBA":5358,"ĠBBd":5359,"]|:":5360,"ĠFdAd":5361,"DAf":5362,"Ġaaf":5363,"BABA":5364,"afCA":5365,"afcAFCA":5366,"aged":5367,"ĠaAce":5368,"ott":5369,"DGDG":5370,"aBA":5371,"edBE":5372,"fEE":5373,"ECEA":5374,"ĠAedc":5375,"ĠfcB":5376,"ĠEcBA":5377,"geGECG":5378,"eex":5379,"fcAFD":5380,"]-[":5381,"ega":5382,"Ġcgec":5383,"dBe":5384,"EEDB":5385,"afAFCA":5386,"ĠAFc":5387,"fcAGF":5388,"ĠdAf":5389,"ĠFEEF":5390,"AdB":5391,"Pl":5392,"Version":5393,"ĠGFDC":5394,"geBA":5395,"gfcC":5396,"Ġecfe":5397,"ĠecAe":5398,"ĠdAdA":5399,"Ġaege":5400,",,,]|=":5401,"].[":5402,"Md":5403,"cECF":5404,"ĠBEGA":5405,"ĠEGAc":5406,"Ġaag":5407,"ADCB":5408,"BFEA":5409,"dGDA":5410,"Ġecae":5411,"Ġfeae":5412,"dcBF":5413,"FFB":5414,"Fdor":5415,",-]|^":5416,"Ġdafd":5417,"ĠccBA":5418,"gaba":5419,"fFCG":5420,"ĠdfcA":5421,"ĠdBGd":5422,"fcFD":5423,"aeAD":5424,"ĠfdBe":5425,"ĠFDDc":5426,"Ġacec":5427,"DEDF":5428,"CDCDC":5429,"Vo":5430,"cxG":5431,"cce":5432,"fxe":5433,"Ġeef":5434,"ĠeBBB":5435,"FDFD":5436,"cdcBA":5437,"Ġeddd":5438,"Ġcegc":5439,"ĠAFDc":5440,"Ġeaed":5441,"ĠeAdA":5442,"Ġnote":5443,"Ġexpres":5444,"gsam":5445,"#)\"":5446,"..\"":5447,"52":5448,"AGEE":5449,"dEF":5450,"fGA":5451,"Ġ4":5452,"cBFC":5453,"Ġdccc":5454,"gabc":5455,"ĠAcfe":5456,"bac":5457,"Ġeace":5458,"Ġbabc":5459,"Ġgcge":5460,"ĠfBBf":5461,"BBG":5462,"fac":5463,"vG":5464,"vf":5465,"ĠADEF":5466,"ĠADDD":5467,"Ġgddd":5468,"ĠgBdg":5469,"AGFA":5470,"EAEC":5471,"FBcB":5472,"feF":5473,"gfge":5474,"ĠdBFB":5475,"bgc":5476,"bage":5477,"dEDA":5478,"CEAEC":5479,"ĠBBBc":5480,"'\"_":5481,"Aec":5482,"dxG":5483,"xFFF":5484,"Ġdece":5485,"ĠBBAG":5486,"ĠfBAB":5487,"ĠFAEF":5488,"ĠDe":5489,"EDEF":5490,"ĠFDDG":5491,"ĠcdeA":5492,"ĠGGAA":5493,"fdADF":5494,"cal":5495,"ĠPB":5496,"ĠBGAc":5497,"333":5498,".=":5499,"FGD":5500,"gECB":5501,"pp":5502,"Ġeec":5503,"Ġcagf":5504,"dAECA":5505,"FGc":5506,"afcD":5507,"ĠAccd":5508,"Ġfaba":5509,"ĠecAg":5510,"Ġgaag":5511,"ĠAAAG":5512,"ĠBBdB":5513,"bgeBGEE":5514,"183":5515,"ĠBeee":5516,"ĠPg":5517,"230":5518,"DGE":5519,"eDD":5520,"un":5521,"DBG":5522,"dcFD":5523,"Ġfegf":5524,"bgBGDB":5525,"Ġagba":5526,"ĠEDFE":5527,"ĠdAfA":5528,"Ġ{^":5529,"ĠCFF":5530,"Ġfgeg":5531,"--":5532,"GcB":5533,"xGE":5534,"ĠBgA":5535,"ĠEGEG":5536,"FBB":5537,"dACF":5538,"eBFD":5539,"ĠGBdG":5540,"fgb":5541,"bgeC":5542,"350":5543,"bed":5544,"bdBF":5545,"dAGF":5546,"gCE":5547,"gbd":5548,"oso":5549,",,,,-[":5550,"Ġdbd":5551,"ĠecGc":5552,",,,|_":5553,"FDAD":5554,"FBc":5555,"EEEEE":5556,"eBEA":5557,"Ġcddc":5558,"fACF":5559,"Ġabae":5560,"bega":5561,"ĠdDcD":5562,"ĠcBBc":5563,"Ġaeea":5564,"ĠcaBg":5565,"aeBE":5566,"ĠBBGB":5567,"Ġcaec":5568,"fdAC":5569,"afcG":5570,"eBED":5571,"ĠGBcd":5572,"Ġeccd":5573,"Ġ|{=":5574,"eBGDB":5575,"GEDCC":5576,"Ġafdc":5577,"ĠEGcB":5578,"ĠEGcd":5579,"ĠFGAg":5580,"pirited":5581,"As":5582,"EEC":5583,"Edc":5584,"Ephr":5585,"FGFG":5586,"bcB":5587,"dcAE":5588,"simplified":5589,"ĠAAFA":5590,"ĠBBAB":5591,"Ġeeg":5592,"ĠDEC":5593,"xxc":5594,"feE":5595,"DEFA":5596,"\"^$\"":5597,"ĠcAfc":5598,"gdDG":5599,"gdAG":5600,"CDEC":5601,"Ġdffd":5602,"Ġfaaa":5603,"ĠTD":5604,"ĠBAAc":5605,"langsam":5606,"196":5607,"<)":5608,"dAEDA":5609,"gDD":5610,"ĠAcdc":5611,"ĠGAFA":5612,"ĠGee":5613,"cABc":5614,"cdG":5615,"ĠCDF":5616,"agA":5617,"ĠEFEC":5618,"Bdim":5619,"GFDCB":5620,"ĠGAGA":5621,"Ġgaga":5622,"Ġgcac":5623,"Ġfcfg":5624,"ĠJig":5625,"Gdg":5626,"dcde":5627,"eAFA":5628,"ggf":5629,"ĠdAc":5630,"ĠeBA":5631,"Ġgbfa":5632,"EBe":5633,"ĠEcc":5634,"Ġagd":5635,"ecBE":5636,"agG":5637,"ecAGECA":5638,"Ġgeec":5639,"ĠdfAd":5640,"fgab":5641,"ĠfdAf":5642,"Ce":5643,"DEDC":5644,"adE":5645,"cFEF":5646,"gcAG":5647,"vg":5648,"xABc":5649,"ĠBfdB":5650,"ĠBagf":5651,"FDEF":5652,"Ġgce":5653,"BGECE":5654,"AGECC":5655,"FEED":5656,"/)\"^":5657,"ĠBdfa":5658,"ĠAFFD":5659,"ĠGFAF":5660,"AcBA":5661,"ĠdAAG":5662,"ĠgdBg":5663,"Ġaeed":5664,"ĠBAAd":5665,"aDG":5666,"bCG":5667,"fbf":5668,"ĠI":5669,"Ġcfc":5670,"ĠfBBB":5671,"EBA":5672,"cAGG":5673,"dBEC":5674,"GBdB":5675,"FAD":5676,"GGGGG":5677,"BBd":5678,"Ġ|]{":5679,"ĠBdga":5680,"eGe":5681,"Ġ|\"^/":5682,"bfC":5683,"ĠDGFA":5684,"Ġgdga":5685,"ĠfAec":5686,"Fmin":5687,"]-)":5688,"ace":5689,"bBFDB":5690,"xAAA":5691,",,,,|":5692,"ĠAgg":5693,"ĠGECD":5694,"ĠcBBB":5695,"BGFDA":5696,"ĠFFG":5697,"ĠEED":5698,"ĠaAAA":5699,"AGFDB":5700,"GFEDA":5701,"agx":5702,"gagf":5703,"ĠFAAG":5704,"Ġdefb":5705,"ĠFDDC":5706,"acEA":5707,"ĠGEDF":5708,"Ġfefc":5709,"ĠPf":5710,"BdA":5711,"BAFC":5712,"bxb":5713,"xcA":5714,"xde":5715,"ĠABGF":5716,"ĠAdBd":5717,"Ġcaf":5718,"Ġaedc":5719,"dBFCA":5720,"ĠAGAG":5721,"gdga":5722,"Ġdfad":5723,"ddf":5724,"ĠAFEA":5725,"ĠdBGF":5726,"177":5727,")\"\"":5728,"ĠBFBc":5729,"eGECC":5730,"Ġdbb":5731,"ĠAGGG":5732,"ĠBff":5733,"Ġeece":5734,"Ġegab":5735,"CAF":5736,"BGCF":5737,"cAGD":5738,"ĠCDC":5739,">|^":5740,"dedB":5741,"ĠfedcBA":5742,"Ġeggg":5743,"AcFA":5744,"abx":5745,"bca":5746,"bGB":5747,"gcGA":5748,"ĠdAGF":5749,"ĠdGGG":5750,"ĠGedc":5751,"ĠceBc":5752,"ĠcaAa":5753,"ĠEEF":5754,"cACG":5755,"fdDD":5756,"cBEG":5757,"afed":5758,"BFEC":5759,"cCcc":5760,"ĠBGe":5761,")([":5762,"ĠGEAF":5763,"ĠdddB":5764,"ore":5765,"afdAA":5766,"ĠdGdB":5767,"ĠDAFD":5768,"ĠBBBd":5769,"ĠEDDC":5770,"ĠBffe":5771,":\"\"":5772,"ĠecGE":5773,"ĠcecB":5774,"cAce":5775,"AAAG":5776,"GFEDB":5777,"afAA":5778,"cEDG":5779,"eEDA":5780,"dede":5781,"fad":5782,",,,,,-":5783,"ĠBgd":5784,"ĠEAF":5785,"xxe":5786,"dBGEC":5787,"deGdc":5788,"cFfF":5789,"Ġecfc":5790,"Ġfggf":5791,"ĠGGAB":5792,"ĠBeeB":5793,"ĠeBcA":5794,"205":5795,"ĠfBBg":5796,"ĠPd":5797,"Ġaeeg":5798,"48":5799,"Beg":5800,"co":5801,"xBBB":5802,"Ġdzd":5803,"Ġcfed":5804,"Ġggf":5805,"AFECG":5806,"DGd":5807,"fdDF":5808,"fdBGD":5809,"fdcAD":5810,"eBEC":5811,"ĠcBdB":5812,"gecGG":5813,"Ġdded":5814,"bfcF":5815,"ĠBGGf":5816,"aecB":5817,"ĠcEGE":5818,"eBAEB":5819,"rish":5820,".[":5821,"MA":5822,"Variation":5823,"cfcf":5824,"xAF":5825,"Ġl":5826,"ĠReel":5827,"Ġffed":5828,"cAeA":5829,"edg":5830,"EFxF":5831,"Ġddcd":5832,"ĠGccB":5833,"ĠcFdF":5834,"eAFEA":5835,"rest":5836,"tempo":5837,"bgfG":5838,"ĠfAAA":5839,"ĠFa":5840,"CGA":5841,"dccB":5842,"ĠBGc":5843,"ĠGBef":5844,"gdGDF":5845,"ĠcBAd":5846,"Ġagb":5847,"gBEB":5848,"ĠFEFE":5849,"Ġbggb":5850,"cBAc":5851,"ecAFECA":5852,"Ġgbgb":5853,"ĠdAAB":5854,"!^":5855,"BCD":5856,"daf":5857,"fBGB":5858,"gcAF":5859,"xAFC":5860,"zD":5861,"ĠAGBd":5862,"ĠeGG":5863,"ĠcFA":5864,"ĠDEB":5865,"GFEDC":5866,"aff":5867,"\"^?\"":5868,"dea":5869,"ĠBGGD":5870,"169":5871,"fcfc":5872,"Ġcegf":5873,"gecF":5874,"Ġddg":5875,"bfE":5876,"Ġcccd":5877,"ĠEAAE":5878,"Ġeeed":5879,"ĠBAAg":5880,"Ddim":5881,"BxF":5882,"acAEA":5883,"cFDCA":5884,"gCF":5885,",,-|_":5886,"dBAE":5887,"AGECF":5888,"fdGC":5889,"ABF":5890,"geACG":5891,"xEFGF":5892,"Ġfdce":5893,"bgBB":5894,"ecGECA":5895,"Ġcffe":5896,"ĠeGce":5897,"ĠDFBc":5898,"\".":5899,"/\"^/\"":5900,"Gcd":5901,"beBG":5902,"dAGA":5903,"Ġse":5904,"Ġdga":5905,"ĠdeBd":5906,"Ġcgg":5907,"BGd":5908,"ĠFBAc":5909,"ĠEAE":5910,"DGC":5911,"CCCB":5912,"Ġecag":5913,"Ġfgg":5914,"egfe":5915,"gdBDG":5916,"Ġefdc":5917,"fcBFB":5918,"ĠGDBD":5919,"gdfdgdfd":5920,"Ġexpression":5921,"Edim":5922,"aGDB":5923,"vo":5924,"ĠAfg":5925,"ĠcEGc":5926,"GEGB":5927,"ĠEEEE":5928,"fdcF":5929,"cBEB":5930,"gecAG":5931,"Ġbac":5932,"xCxB":5933,"Emix":5934,"gdcGC":5935,"ĠGFGD":5936,"ĠAddf":5937,"afecA":5938,"'-][=":5939,"AGEG":5940,"EEDC":5941,"bfA":5942,"bdBDB":5943,"cgec":5944,"cFDF":5945,"dCE":5946,"fAFE":5947,"ver":5948,",,,,,-]=":5949,"ĠcDD":5950,"Ġffd":5951,"DAA":5952,"Ġaefe":5953,"fdGE":5954,"Ġgfag":5955,"ĠcAed":5956,"EFGE":5957,"gad":5958,"Bdx":5959,"Cmaj":5960,"ĠDGBc":5961,"FBA":5962,"eBAG":5963,"gfdBG":5964,"Ġebge":5965,"ĠGGFG":5966,"Ġfgd":5967,"Ġfbf":5968,"ecDB":5969,"FFFE":5970,"bgBE":5971,")(=":5972,"Ġgaa":5973,"Ġbaba":5974,"ĠfAfA":5975,"cGFCG":5976,"CDEFG":5977,"ĠBgAf":5978,"EFEF":5979,"GAGA":5980,"eAFCA":5981,"fAFCF":5982,"gAG":5983,"gCB":5984,"gbe":5985,"ĠdBGD":5986,"ĠBfd":5987,"Ġcce":5988,"Ġffdf":5989,"ĠgBc":5990,"AFEDB":5991,"DADA":5992,"DAdADA":5993,"cAECC":5994,"ecAFC":5995,"efx":5996,"afcB":5997,"BFEE":5998,"cAFCB":5999,"deA":6000,"dDCG":6001,"ĠAFGF":6002,"Ġcega":6003,"aeAC":6004,"dfx":6005,"ĠdAfe":6006,"ĠEFGc":6007,"ĠcGce":6008,"Ten":6009,"Ġegdf":6010,"Dphr":6011,"Irish":6012,"axg":6013,"bEE":6014,"fecG":6015,"ĠdFG":6016,"ĠAEFG":6017,"GEGA":6018,"Ġ({":6019,"ĠEdcB":6020,"BAGB":6021,"ecFF":6022,"cdcdc":6023,"feBF":6024,"xGAB":6025,"'''-=":6026,"Ġgeee":6027,"fcBG":6028,"Ġfab":6029,"ĠGFGF":6030,"Ġdgec":6031,"Ġggge":6032,"DFAd":6033,"dGEDG":6034,"ĠcdBd":6035,"lich":6036,"CEGEcGEG":6037,")\"^(":6038,"eAEF":6039,"vF":6040,"zz":6041,",-]|=":6042,"ĠBBG":6043,"ĠBEG":6044,"ĠBfe":6045,"ĠGcBc":6046,"ĠcGEC":6047,"AFEE":6048,"BGFDD":6049,"dBcd":6050,"FAcf":6051,"Ġ||\"^(":6052,"gfC":6053,"''|[":6054,"Ġfeeg":6055,"ĠAceA":6056,"DxDD":6057,"BGBdeGdc":6058,"afdG":6059,"Ġ!>![":6060,"Ġ|\"_>\"":6061,"Ġbeeg":6062,"FcF":6063,"aAFCA":6064,"agfg":6065,"dgf":6066,"fCC":6067,"Ġeedc":6068,"ĠcDBD":6069,"ĠDDE":6070,"BAGG":6071,"CFAF":6072,"geBGB":6073,"Ġ::!":6074,"DEFD":6075,"CDEA":6076,"Ġagge":6077,"ĠAccc":6078,"baa":6079,"ĠeAcd":6080,"ĠEGGE":6081,"ĠcccA":6082,"bgeBGEB":6083,"BEDC":6084,"^!":6085,"aef":6086,"cxe":6087,"xDDD":6088,"Ġ&":6089,",,,-^":6090,"ĠdFA":6091,"Ġddf":6092,"Ġdaa":6093,"ĠGgdB":6094,"ĠfBc":6095,"ĠEFDB":6096,"dBEA":6097,"ecec":6098,"ecAFCF":6099,"ecGECC":6100,"feAF":6101,"CCCCC":6102,"afAFDA":6103,"afAFA":6104,"'']":6105,"ĠcAfd":6106,"EFGB":6107,"ĠcBdc":6108,"eAGEA":6109,"ĠeAde":6110,").^":6111,"xexe":6112,"aecECA":6113,"bbbb":6114,"DxDxD":6115,"Bxd":6116,"aDF":6117,"es":6118,"ĠBAE":6119,"ĠcAEC":6120,"ĠcEAc":6121,"cAGB":6122,"ĠDFDF":6123,"GBx":6124,"Ġbar":6125,"afDA":6126,"ĠCEEG":6127,"cFEC":6128,"fcFB":6129,"BcBG":6130,"ĠfdBf":6131,"ĠeBgf":6132,"ĠfBgB":6133,"cBGA":6134,"ĠEGBc":6135,"ĠAcdf":6136,"<(!":6137,"Tenderly":6138,"EGEC":6139,"ceA":6140,"dFDC":6141,"gxe":6142,"xgg":6143,"Ġdbca":6144,"ĠBDF":6145,"ĠfFF":6146,"AFECB":6147,"ĠFGG":6148,"cAGED":6149,"BADF":6150,"xxxC":6151,"fdGG":6152,"ĠedgB":6153,"AFDCB":6154,"xEFG":6155,"Ġfdag":6156,"ĠBAGFED":6157,"Ġgfea":6158,"fab":6159,"ĠMd":6160,"gcGCA":6161,"47":6162,"<)!":6163,"Bgf":6164,"Tdc":6165,"Var":6166,"bGC":6167,"bBFD":6168,"dFDCA":6169,"eag":6170,"fBAD":6171,"gGEDB":6172,"with":6173,"zE":6174,",,,<=":6175,"dBDA":6176,"xxxF":6177,"ecFB":6178,"fdFDD":6179,"feBC":6180,"ecAEB":6181,"Ġdfab":6182,"Ġdggd":6183,"ĠEDEC":6184,"ĠGFGABc":6185,"ĠEBA":6186,"Ġcfag":6187,"dedA":6188,"Ġth":6189,"aint":6190,"Dxx":6191,"GcF":6192,"abd":6193,"dxD":6194,"dECB":6195,"gcAD":6196,"xce":6197,"ĠBba":6198,"ĠBbb":6199,"ĠceG":6200,"Ġcgc":6201,"Ġcgeg":6202,"Ġccdd":6203,",,-|[_":6204,"ĠEcAF":6205,"GBE":6206,"CFc":6207,"GFEA":6208,"''][":6209,"161":6210,"ĠcBAa":6211,"eGECA":6212,"ĠdAAF":6213,"BFEF":6214,"ĠGgga":6215,"'{":6216,"Bed":6217,"aGD":6218,"ĠAAc":6219,"BGFF":6220,"ĠFdcB":6221,"ĠEGGG":6222,"cAAG":6223,"cAFDF":6224,"Ġabf":6225,"dBED":6226,"ecc":6227,"ecECE":6228,"geGG":6229,"GFGEF":6230,"cAFEA":6231,"xFd":6232,"agcGF":6233,"bgDB":6234,"ĠecAd":6235,"baB":6236,"gecAF":6237,"Ġgecg":6238,"exf":6239,"ĠdAAd":6240,"Ġdgeg":6241,"'|[^":6242,"'-|_":6243,"Axx":6244,"Fed":6245,"GBGF":6246,"The":6247,"dxA":6248,"xGGG":6249,",,,,-][^":6250,"ĠAEC":6251,"ĠBbfd":6252,"ĠEGDB":6253,"ĠEAGB":6254,"EGBG":6255,"cGFA":6256,"xGAc":6257,"ĠCEF":6258,"cFFB":6259,"eGCA":6260,"aeEA":6261,"ĠTed":6262,"Ġfgae":6263,"Ġfcaf":6264,"dAGC":6265,"bfdBG":6266,"Bfd":6267,"CECE":6268,"Coda":6269,"EBG":6270,"bcF":6271,"cac":6272,"cBGG":6273,"eBAB":6274,"ffg":6275,"fecB":6276,"ho":6277,"ĠAgec":6278,"ĠBfed":6279,"EEEx":6280,"xBEB":6281,"BFxA":6282,"xDFB":6283,"fcGG":6284,"ada":6285,"ĠgecB":6286,"ĠDBc":6287,"aecEC":6288,"Ġedea":6289,"ĠdAFG":6290,"ĠMA":6291,"ĠcfAc":6292,"cFFBcBc":6293,"EGEA":6294,"bEC":6295,"becF":6296,"ccBB":6297,"ĠddA":6298,"ĠcdBG":6299,"Ġgz":6300,"ĠFcAF":6301,"ĠFGGF":6302,"ĠEGDC":6303,"CGCG":6304,"ecBEC":6305,"edEB":6306,"dAdA":6307,"eBFE":6308,"ĠBcec":6309,"ĠBGcG":6310,"ĠAGGE":6311,"ĠGBg":6312,"cGEDG":6313,"ĠTBAB":6314,"fdBFF":6315,"Adim":6316,"Ġccec":6317,"ĠDGBA":6318,"Ġgddc":6319,"\"\"^*\"":6320,"ĠCFG":6321,">).":6322,"cfa":6323,"eAED":6324,"ĠeBGE":6325,"ĠfdBF":6326,"EAECE":6327,"afFCA":6328,"xCDC":6329,"ĠBAdc":6330,"gdAA":6331,"gGECA":6332,"eeg":6333,"ĠEDDB":6334,"ĠddcA":6335,"ĠAGAd":6336,"ĠDBG":6337,"ĠfAdA":6338,"ĠECDE":6339,"dBGEF":6340,"ĠBEEc":6341,"bfBFB":6342,"BxBx":6343,"exexe":6344,"Eg":6345,"aBE":6346,"beC":6347,"beF":6348,"Ġdgdg":6349,"ĠAGD":6350,"ĠAEG":6351,"ĠGgd":6352,"ĠFBBB":6353,"edBGG":6354,"gea":6355,"geAA":6356,"ĠdccA":6357,"ĠTED":6358,"Ġ|\"^=\"":6359,"ĠeedB":6360,"GABd":6361,"Ġeccg":6362,"ĠAcFc":6363,"AxGx":6364,"BcBc":6365,"GAD":6366,"bGG":6367,"fCB":6368,"xfe":6369,"xCCC":6370,"ĠcBGE":6371,"Ġfcd":6372,"ĠEABc":6373,"BAGFE":6374,"ecFD":6375,"ĠbBB":6376,"Ġfdb":6377,"ĠfdeB":6378,"xFED":6379,"ĠBdF":6380,"Ġfeec":6381,"cccB":6382,"ĠEFAF":6383,"ĠAABA":6384,"ĠAAce":6385,"ĠECEF":6386,"ĠEBDB":6387,"ĠBEEG":6388,"CxCxC":6389,"ĠPa":6390,"igh":6391,"EFAB":6392,"DAdADAdA":6393,"CDCD":6394,"adBA":6395,"dGFG":6396,"fxd":6397,"imat":6398,",,]/":6399,"ĠFcAc":6400,"edxd":6401,"gee":6402,"EGce":6403,"cGx":6404,"ĠefgB":6405,"eAdA":6406,"ĠGBec":6407,"ĠGAce":6408,"fADB":6409,"]([":6410,"ĠceAB":6411,"ĠAccB":6412,"ccBA":6413,"\"_(":6414,"ĠfAed":6415,"ĠeAAg":6416,"ĠgBe":6417,"AFECD":6418,"ĠDAD":6419,"cBGECB":6420,"ĠEDBA":6421,"ĠPe":6422,"Ġgefa":6423,"GFGEFGEF":6424,"']^":6425,"bfdD":6426,"gFF":6427,"ĠddBd":6428,"ĠBfB":6429,"Ġcz":6430,"ĠFFE":6431,"ĠEcE":6432,"cACB":6433,"gfA":6434,"xCDE":6435,"Ġfeee":6436,"ĠTcB":6437,"cDCG":6438,"ĠFEEA":6439,"ĠBBBG":6440,"ĠEAAF":6441,"ĠgBeg":6442,"xaxa":6443,"''''-=":6444,"alleg":6445,"Last":6446,"So":6447,"aGB":6448,"bAEC":6449,"io":6450,",,,,[":6451,"ĠAdG":6452,"Ġeba":6453,"ĠEf":6454,"DAc":6455,"ĠDGE":6456,"AGCC":6457,"feG":6458,"BBBA":6459,"FFFA":6460,"xBd":6461,"ĠCEB":6462,"cAFCG":6463,"cAFED":6464,"agag":6465,"\"^->":6466,"ĠTag":6467,"ĠABcf":6468,"ĠEFFE":6469,"Ġeafe":6470,"CxCC":6471,"ĠdgBG":6472,"ĠBegf":6473,"ĠdGAB":6474,"cFDCB":6475,"ĠWrit":6476,"Afe":6477,"FxC":6478,"Fcf":6479,"]<[":6480,"bFCA":6481,"bga":6482,"ĠdfdA":6483,"ĠBcAG":6484,"Ġcaaa":6485,"EBc":6486,"edAG":6487,"ABg":6488,"feC":6489,"ĠBdFA":6490,"Ġfedg":6491,"ĠdfAf":6492,"Ġecca":6493,"fcGD":6494,"bBf":6495,"Ġ!^!":6496,"ĠgfedcB":6497,"dxf":6498,"Ġgbgd":6499,"ĠFDDe":6500,"ĠFBdf":6501,"Ġcfef":6502,"ĠAEEA":6503,"bfdG":6504,"eBAC":6505,"ĠfBBa":6506,"ĠfBBd":6507,"ĠBegb":6508,"ĠFdEc":6509,"EcE":6510,"Fxx":6511,"eFG":6512,"egc":6513,"eAEE":6514,"fED":6515,"fEG":6516,"uD":6517,"xeee":6518,"Ġon":6519,"Ġdbg":6520,"ĠAFDB":6521,"ĠBdD":6522,"ĠGGBd":6523,"ĠGdFd":6524,"Ġfz":6525,"ĠgGBd":6526,"BAGDB":6527,"AGc":6528,"ABAF":6529,"geEC":6530,"DCDE":6531,"xEGB":6532,"xDFG":6533,"ĠcAa":6534,"gGd":6535,"fBcB":6536,"ĠGFEC":6537,"gecBEC":6538,"ĠEGGB":6539,"cBAEA":6540,"ĠdGd":6541,"ĠEBAG":6542,"ĠdcBcdB":6543,"ĠAFFc":6544,"ĠdDDF":6545,"ĠBgBg":6546,"]<":6547,"dGECC":6548,"eAGA":6549,"fcGA":6550,"ĠO":6551,"ECEG":6552,"ĠABBB":6553,"ĠBGDC":6554,"ĠGCEG":6555,"GEBG":6556,"dBDE":6557,"BAED":6558,"edit":6559,"GGFE":6560,"DDDE":6561,"afFD":6562,"cGEDC":6563,"bBede":6564,"ĠGEcA":6565,"bfBG":6566,"\"_=":6567,"Ġgdbg":6568,"ĠDBAG":6569,"aecAC":6570,">(^":6571,"ĠceAg":6572,"ĠTeil":6573,"Ġcage":6574,"ĠFDAG":6575,"AcebBede":6576,"FxFxF":6577,"pen":6578,"EDxDEDxD":6579,"FCECFC":6580,"ave":6581,"cBGB":6582,"fBAB":6583,"fBADB":6584,"ĠH":6585,"ĠBaf":6586,"GEc":6587,"dBAFDB":6588,"cBFF":6589,"cAFCD":6590,"DFxF":6591,"eABA":6592,"Ġdfgf":6593,"bgdA":6594,"bgdBGDB":6595,"ĠecAa":6596,"xcf":6597,"Ġbggf":6598,"ĠDFAD":6599,"Ġccce":6600,"ĠECGE":6601,"ĠCDFG":6602,"ĠaAfA":6603,"Fmaj":6604,"GEDCE":6605,"DDDDDDDD":6606,"PMTuC":6607,"AGEDB":6608,"CFAc":6609,"Cdim":6610,"EcA":6611,"TBAB":6612,"bcA":6613,"gfdc":6614,"mp":6615,"xFC":6616,"ĠAefg":6617,"ĠGBEF":6618,"ĠceB":6619,"ĠccBB":6620,"ĠEGEC":6621,"ĠaAc":6622,"Ġave":6623,"fdAFA":6624,"GFEG":6625,"Ġbeg":6626,"feAE":6627,"dAc":6628,"xDxE":6629,"BGEDC":6630,"bgEB":6631,"ĠFDd":6632,"Ġfade":6633,"ExEE":6634,"Ġafda":6635,"ĠADDA":6636,"Ġ\"^*\"":6637,"Ġuce":6638,"ĠAffe":6639,"bfdBFDB":6640,"BAGFED":6641,"ĠeBBc":6642,"DFDBFDB":6643,"xedg":6644,"ebeae":6645,"\"=":6646,"Bxe":6647,"Gfe":6648,"xad":6649,"xEEE":6650,"ĠAcGA":6651,"ĠefdA":6652,"AFEDD":6653,"BGECF":6654,"GBcFA":6655,"fdec":6656,"DDFG":6657,"dcGEDCG":6658,"agF":6659,"eGBG":6660,"fcCF":6661,"aedB":6662,"ĠTcA":6663,"bBDG":6664,"fdBE":6665,">\"^*\"":6666,"Ġaeae":6667,"DFAB":6668,"Ġeagb":6669,"ĠMD":6670,"De":6671,"Ga":6672,"Sub":6673,"cfe":6674,"eFCF":6675,"eGEDB":6676,"fecF":6677,"gAd":6678,"xGFE":6679,"ĠGdG":6680,"ĠEDCA":6681,"ĠEGDF":6682,"dBCA":6683,"ABBB":6684,"geEE":6685,"GFECB":6686,"dAFDCA":6687,"GCFCECFC":6688,"eBFF":6689,"cFED":6690,"bgdBGD":6691,"ccccc":6692,"gece":6693,"ĠDFFE":6694,"gAfA":6695,"ĠdGBA":6696,"ĠBGEd":6697,"ĠBAAe":6698,"gedBG":6699,"Gdim":6700,"stit":6701,"ageA":6702,"agen":6703,"fcBAFDB":6704,"dxdxd":6705,"cxcxc":6706,"ĠbBaB":6707,"pipe":6708,"eaebe":6709,"ternat":6710,"____":6711,"AxD":6712,"BcG":6713,"DEGA":6714,"Ged":6715,"bCB":6716,"exB":6717,"fxc":6718,"xBBBB":6719,"ĠBFG":6720,"ĠGAAB":6721,"ĠcgBg":6722,"AFd":6723,"ĠDdcd":6724,"dBg":6725,"ecECB":6726,"GDBA":6727,"GBdg":6728,"FFFG":6729,"gfcE":6730,"agdG":6731,"cex":6732,"ĠgeBG":6733,"171":6734,"gdBGF":6735,"Cmix":6736,"tragen":6737,"ĠDAB":6738,"194":6739,"ĠdGGA":6740,"Substit":6741,"Exx":6742,"GxC":6743,"ID":6744,"Spirited":6745,"edBB":6746,"npipe":6747,"open":6748,"ĠAafd":6749,"ĠAEEE":6750,"ĠBece":6751,"Ġebgb":6752,"ĠcCC":6753,"ĠccBc":6754,"ĠfAB":6755,"ĠgBG":6756,"ĠDgfe":6757,"geBF":6758,"DDDC":6759,"EGcG":6760,"cGe":6761,"FFFFF":6762,"afACA":6763,"afcCA":6764,"CEAE":6765,"\"^,\"":6766,"ĠBdFB":6767,"ĠBAdF":6768,"ĠAFBG":6769,"aeCA":6770,"gcBGDB":6771,"Ġbaaf":6772,"ĠBBg":6773,"ĠeBde":6774,"202":6775,"ĠcGe":6776,"CxCD":6777,"Ġaeca":6778,"ily":6779,"ĠAABB":6780,"fully":6781,"270":6782,"43":6783,"51":6784,"AGDC":6785,"egd":6786,"gBGC":6787,"um":6788,"une":6789,"Ġecdf":6790,"ĠcEF":6791,"ĠcGAB":6792,"BABd":6793,"xxxG":6794,"fdBGF":6795,"ĠbBAB":6796,"ĠABe":6797,"eBDB":6798,"eEe":6799,"gaa":6800,"cegc":6801,"Ġeccf":6802,"ĠBcdG":6803,"bafd":6804,"fdBC":6805,"ĠgdBA":6806,"fedAD":6807,"ĠDCDF":6808,"...\"":6809,"nell":6810,"Ġwritten":6811,"!>(!":6812,"GBAG":6813,"Tag":6814,"aFCF":6815,"aAFF":6816,"gcGEG":6817,"ish":6818,"ĠSlow":6819,"ĠfeB":6820,"ĠgGB":6821,"ĠFAEG":6822,"CGG":6823,"ecECC":6824,"edcG":6825,"AGFF":6826,"fdg":6827,"fdcD":6828,"GGFGF":6829,"feBG":6830,"ĠCDB":6831,"dcDC":6832,"cFcF":6833,"eAEB":6834,"cGEDB":6835,"ĠAFFB":6836,"ĠAcfA":6837,"fBC":6838,"adC":6839,"adgd":6840,"Ġdddc":6841,"fGFC":6842,"ĠcccB":6843,"ggag":6844,"GFDCG":6845,"ĠfAf":6846,"ĠgBgB":6847,"AGDE":6848,"187":6849,"ĠaAaA":6850,"lyd":6851,"ĠcaBa":6852,"41":6853,"CCF":6854,"FxEx":6855,"aBF":6856,"aADF":6857,"bFDA":6858,"bECG":6859,"bdBA":6860,"dfB":6861,",]>[":6862,"Ġeede":6863,"AFECE":6864,"ĠFFA":6865,"cAe":6866,"cADC":6867,"cAEDC":6868,"dBECA":6869,"xxxD":6870,"ecCF":6871,"AGGG":6872,"AGGF":6873,"geGEC":6874,"DCCB":6875,"Ġeddg":6876,"ĠBdeB":6877,"ecAGC":6878,"ĠBAce":6879,"ĠGBDB":6880,"gdx":6881,"aACF":6882,"Ġface":6883,"Ġegaf":6884,"Ġ|\"^~\"":6885,"FEDF":6886,"gxdd":6887,"ĠAEcA":6888,"ExExE":6889,"ĠfdAc":6890,"400":6891,"Al":6892,"BBAG":6893,"FAFA":6894,"MID":6895,"dCB":6896,"dFCF":6897,"gGEE":6898,"prog":6899,"ram":6900,"xdB":6901,"ĠdFBF":6902,"ĠBDB":6903,"Ġcge":6904,"ĠcGF":6905,"Ġcba":6906,"ĠFedc":6907,"ĠEgfe":6908,"dBGEG":6909,"dBGEA":6910,"EABA":6911,"AFDCC":6912,"gfgf":6913,"dBGFB":6914,"cFx":6915,"Ġafab":6916,"ĠGEFA":6917,"ĠeAgA":6918,"ĠAAd":6919,"bfFB":6920,"ĠAFFG":6921,"EFEFE":6922,"ĠGDBG":6923,"Ġprog":6924,"xBABB":6925,"PMTCOM":6926,"Ġgaeg":6927,"Play":6928,"MIDI":6929,"Ġprogram":6930,"EGD":6931,"FcA":6932,"adBDB":6933,"ccG":6934,"eGDG":6935,"edBF":6936,"gGECC":6937,"ĠAfcA":6938,"ĠGgG":6939,"Ġcede":6940,"ĠFdFd":6941,"DGxB":6942,"fdFDF":6943,"efb":6944,"Ġbef":6945,"FFAA":6946,"eEDG":6947,"Ġdegb":6948,"Ġafff":6949,"fgx":6950,"Ġdgdc":6951,"ĠdcBAGF":6952,"ĠEDED":6953,"ffx":6954,"fagf":6955,"bgeGE":6956,"ĠAddg":6957,"ĠgBBA":6958,"ĠgBeB":6959,"xbxbx":6960,"ĠaAcA":6961,"CEAc":6962,"ĠADDF":6963,"191":6964,"ĠEGBE":6965,"ĠEGGc":6966,"chnell":6967,"BAFA":6968,"DFDF":6969,"Fin":6970,"IN":6971,"Pi":6972,"aGEB":6973,"bfdA":6974,"cDCD":6975,"fBGC":6976,"gGEG":6977,"gECC":6978,"nce":6979,"ow":6980,"tin":6981,"xfd":6982,"ĠBEBE":6983,"ĠGcBd":6984,"ĠcGGA":6985,"Ġggd":6986,"ĠgBBB":6987,"AFcFfF":6988,"Ġaeee":6989,"BACA":6990,"DGBd":6991,"afAFF":6992,"gfec":6993,"''-[=":6994,"/))":6995,"gBEE":6996,"ĠAca":6997,"fBFF":6998,"gcgc":6999,"egg":7000,"ĠEDDA":7001,"ĠeAAa":7002,"ĠBFFB":7003,"ĠDABc":7004,"dAGDA":7005,"iss":7006,"otted":7007,"'][_":7008,"215":7009,"Aed":7010,"AxE":7011,"Axd":7012,"AAGF":7013,"BfB":7014,"Cf":7015,"aEE":7016,"aAFA":7017,"bDD":7018,"fxg":7019,"gFE":7020,"gdADA":7021,"gfdG":7022,"ice":7023,"oo":7024,"}.":7025,"nly":7026,"ĠAae":7027,"ĠBGEB":7028,"ĠBBcd":7029,"ĠBede":7030,"ĠcAFE":7031,"GEFD":7032,"GEGF":7033,"ĠfAd":7034,"DAE":7035,"BABG":7036,"ecFC":7037,"AEx":7038,"gex":7039,"DDCB":7040,"CCxC":7041,"xExC":7042,"AECEAECE":7043,"DFc":7044,"eBFC":7045,"dGECA":7046,"ĠcAaf":7047,"gafd":7048,"ĠAGGB":7049,"ĠcBAE":7050,"gBgBfB":7051,"eeed":7052,"dAFED":7053,"ĠDGGE":7054,"ĠfBaB":7055,"treb":7056,"Ġgfdg":7057,"gede":7058,"ĠMG":7059,"ution":7060,"FBcBfBcB":7061,"imated":7062,"gBgBfBfB":7063,"treble":7064,"']=":7065,"216":7066,"BAFF":7067,"CFD":7068,"FdF":7069,"Tgfg":7070,"adBE":7071,"cfg":7072,"dGDC":7073,"fADF":7074,"gbc":7075,"time":7076,"xBG":7077,"Ġor":7078,"ĠBggg":7079,"Ġeedd":7080,"Ġcfg":7081,"Ġcaea":7082,"Ġfcdf":7083,"ĠFGFG":7084,"edAEA":7085,"GBAF":7086,"fefd":7087,"ĠfdAB":7088,"BGEDA":7089,"cEDB":7090,"cEDA":7091,"ĠFDG":7092,"ĠeAf":7093,"gcEC":7094,"adDD":7095,"Ġbggg":7096,"FEDCG":7097,"ĠcAFc":7098,"bgedB":7099,"ĠgBg":7100,"cccccccc":7101,"'|_":7102,"Gxx":7103,"Gcx":7104,"cedc":7105,"exA":7106,"und":7107,"xFDB":7108,"Ġli":7109,"ĠAzA":7110,"Ġcafd":7111,"Ġfbfd":7112,"BAd":7113,"edADA":7114,"ABE":7115,"EEFE":7116,"afcAG":7117,"\"^:":7118,"dBGCA":7119,"dGFDB":7120,"ĠBdfg":7121,"gage":7122,"ĠGBeG":7123,"gdAGDA":7124,"fcCA":7125,"fAf":7126,"fBf":7127,"dAFCB":7128,"ĠDEFB":7129,"gcGG":7130,"ĠBGGe":7131,"ĠEAcB":7132,"BGFEE":7133,"bagfe":7134,"181":7135,"/.^":7136,"dcdcdcdc":7137,"fecAECF":7138,"ĠfaAc":7139,"exexexex":7140,"Substitution":7141,"Add":7142,"]/)":7143,"aab":7144,"bEG":7145,"bbg":7146,"fz":7147,"tt":7148,"zer":7149,",,,,][^":7150,"ĠdecB":7151,"Ġddcc":7152,"ĠAdBG":7153,"ĠecAE":7154,"Ġeefe":7155,"see":7156,"ĠgecG":7157,"BGdG":7158,"DAx":7159,"ĠDdAF":7160,"BAGEB":7161,"FCFA":7162,"FGABc":7163,"eBFG":7164,"Ġfdcf":7165,"xCEC":7166,"dcBAG":7167,",,]|(":7168,"\"^|\"":7169,"cFECA":7170,"Ġfedd":7171,"ĠcBAg":7172,"ĠFAcd":7173,"ĠFDGD":7174,"gecGDC":7175,"adFDA":7176,"fcAB":7177,"cBAGF":7178,"ĠADDB":7179,"bgeBB":7180,"dAEDB":7181,"ĠDAAG":7182,"ĠBeeg":7183,"ĠBEEd":7184,"'''-|[":7185,"gdcGD":7186,"dddddd":7187,"Ġ|!>(!":7188,"pizz":7189,"ĠdABF":7190,"xDBGA":7191,"gaegd":7192,"bBfbA":7193,"'-][^":7194,"<.":7195,"GxAx":7196,"Tge":7197,"bAF":7198,"ka":7199,",-]|_":7200,"ĠAgA":7201,"ĠBDG":7202,"ĠeEEF":7203,"Ġaz":7204,"Ġade":7205,"dBDC":7206,"ecGEE":7207,"cBcBA":7208,"gecAA":7209,"Ġby":7210,"CCCx":7211,"BBBc":7212,"xAC":7213,"xDFD":7214,"DEFGA":7215,"'''-_":7216,"ĠGAcG":7217,"dddc":7218,"ĠdBGg":7219,"aADD":7220,"acFCA":7221,"abag":7222,",,,]|^":7223,"201":7224,"ĠECDB":7225,"ĠAfec":7226,"BFCE":7227,"fdcCB":7228,"Segue":7229,"ĠgeBg":7230,"'|[_":7231,"DxEx":7232,"aaf":7233,"fCE":7234,"fAECA":7235,"gFA":7236,"ĠGfed":7237,"ĠEGC":7238,"ecGDG":7239,"fdGD":7240,"FAf":7241,"geBGC":7242,"EEED":7243,"efr":7244,"feBB":7245,"BBcB":7246,"dAFDG":7247,"cGFCF":7248,"afCF":7249,"Ġefc":7250,"Ġdccd":7251,"ĠcAae":7252,"bgfe":7253,"aeECA":7254,"Gmaj":7255,"gcGD":7256,"ĠAAe":7257,"ĠGGAG":7258,"ffa":7259,"afdAFA":7260,"ĠdGGB":7261,"aecAGA":7262,"ABAB":7263,"ĠGccd":7264,"ĠceAa":7265,"ĠcGAG":7266,"acACA":7267,"gagg":7268,"ĠMc":7269,"Ġbeed":7270,"fcGFC":7271,"aeBFB":7272,"ĠSig":7273,"Ġddee":7274,"gecAEDB":7275,"fgfg":7276,"}^":7277,"ĠdFBd":7278,"cAGDA":7279,"CGD":7280,"FCx":7281,"ecAFA":7282,"FEFA":7283,"ĠeddA":7284,"FGCxCD":7285,"CEGF":7286,"dBGDC":7287,"dGBGBGBG":7288,"ĠcAcf":7289,"ĠBdfe":7290,"CDFD":7291,"Ġcdfa":7292,"Ġdefc":7293,"aAe":7294,"ĠAcfg":7295,"Ġ!/":7296,"ĠgfeB":7297,"ĠeAed":7298,"ĠFEFB":7299,"afdcA":7300,"AEDCB":7301,"dBAGD":7302,"ĠCEGB":7303,"Ġdfdc":7304,"gedG":7305,"ĠPA":7306,"AAAAAA":7307,"!<)!":7308,"(_":7309,"GFDCA":7310,"Sy":7311,"TGF":7312,"aGG":7313,"acAFC":7314,"beBGEB":7315,"dgB":7316,"eGED":7317,"vE":7318,",,,,,-][_":7319,"DBFB":7320,"ĠBefe":7321,"ĠGGBB":7322,"ĠcEG":7323,"Ġcgf":7324,"ĠgGGA":7325,"ĠEBG":7326,"GBed":7327,"fdGDG":7328,"fdBGB":7329,"AAxA":7330,"ABf":7331,"FFEE":7332,"ĠedcG":7333,"gffe":7334,"xDFA":7335,"DEGE":7336,"agg":7337,"ĠcAeg":7338,"BDFB":7339,"ĠGBFA":7340,"ĠGAd":7341,"baG":7342,"gecBB":7343,"adFD":7344,"bfBD":7345,"dxAB":7346,"aBa":7347,"ĠDBD":7348,"Ġfffe":7349,"afcFCA":7350,"ĠaAeA":7351,"Ġgfefge":7352,"ĠcBABcA":7353,"ĠMB":7354,"ĠMe":7355,"alzer":7356,"ĠecdA":7357,"....":7358,"GBcFAB":7359,"DDFGAGFC":7360,"'>^":7361,"260":7362,"Bxx":7363,"DdD":7364,"aBB":7365,"exex":7366,"fFDF":7367,"xaa":7368,"ĠKey":7369,"ĠBdBF":7370,"Ġebag":7371,"ĠGBF":7372,"ĠcEA":7373,"ĠfBd":7374,"ĠgAf":7375,"BGc":7376,"ĠDDEF":7377,"EDCF":7378,"EAce":7379,"fdFE":7380,"FAcAFA":7381,"ABcde":7382,"cBFDC":7383,"cddd":7384,"cdefg":7385,"BBBBB":7386,"AFDCG":7387,"Ġ::\"_":7388,"ĠABdg":7389,"gfcB":7390,"Ġ=\"":7391,"Ġgeb":7392,"ĠAcce":7393,"ĠAFDC":7394,"dEDG":7395,"Ġeafd":7396,"Acec":7397,"Bcdf":7398,"fcAFE":7399,"aecCA":7400,"bgeBC":7401,"Ġfafc":7402,"ĠdBBf":7403,"afcFC":7404,"ĠAAAd":7405,"ĠceAf":7406,"ĠdedcBA":7407,"dcGx":7408,"ent":7409,"Ġrepeat":7410,"aintive":7411,"EABAeABA":7412,"tino":7413,"efrain":7414,"']_":7415,"AAEA":7416,"Min":7417,"adAFD":7418,"bdBFD":7419,"eDF":7420,"edBFB":7421,"fECF":7422,"xeg":7423,"xDGG":7424,",,,,]|[=":7425,"FDAF":7426,"ĠcdBA":7427,"ĠcBGA":7428,"Ġggfe":7429,"AFEDC":7430,",,,<^":7431,"ĠDcc":7432,"ĠDFFF":7433,"dBeB":7434,"GDGB":7435,"ecBAEA":7436,"AABA":7437,"EEEG":7438,"efec":7439,"ADFA":7440,"afFB":7441,"afDD":7442,"agB":7443,"Ġ^^":7444,"ĠBdGA":7445,"eADB":7446,"eAFDA":7447,"BGDCG":7448,"ĠdeBA":7449,"fFEB":7450,"bgGDB":7451,"aeAG":7452,"Ġgafd":7453,"BdcB":7454,"fcAc":7455,"xfxf":7456,"ĠeBfB":7457,"dged":7458,"208":7459,"Ġadde":7460,"ĠAage":7461,"ĠDddB":7462,"ĠecBe":7463,"ĠAeeg":7464,"Ġline":7465,"ggaggagg":7466,"Bef":7467,"BdG":7468,"BAFCA":7469,"Cd":7470,"CxDE":7471,"Sc":7472,"acAEC":7473,"eDC":7474,"ffc":7475,"gxgx":7476,"part":7477,"rd":7478,"xAGF":7479,",,,,-":7480,"ĠdDd":7481,"ĠADB":7482,"ĠGCEC":7483,"ĠGzG":7484,"ĠcGA":7485,"GEDF":7486,"ĠEedc":7487,"ĠaBB":7488,"fdAFDD":7489,"DCDA":7490,"afAFC":7491,"afcAFC":7492,"agb":7493,"cFc":7494,"bgBF":7495,"ĠFDCF":7496,"ĠTAG":7497,"adAE":7498,"ĠDFAG":7499,"Adx":7500,"ĠADFG":7501,"abe":7502,"ĠdBBa":7503,"ĠDDFA":7504,"ĠdFd":7505,"Ġaaaf":7506,"agecA":7507,"ĠdGBg":7508,"old":7509,"FAcAFAcA":7510,",\"_":7511,"Asus":7512,"FEEE":7513,"GGD":7514,"])\"":7515,"bxa":7516,"becB":7517,"dge":7518,"fGEC":7519,"fFDG":7520,"xddd":7521,"ĠGecA":7522,"ĠcAEF":7523,"BGdB":7524,"ĠFGBd":7525,"EBF":7526,"DAdf":7527,"cAf":7528,"ĠDdcB":7529,"Ġace":7530,"FCFC":7531,"ecBGA":7532,"fdFC":7533,"GGFG":7534,"GFGFE":7535,"Ġedgf":7536,"ĠABFA":7537,"BFc":7538,"DEFB":7539,"ecAECE":7540,"eACC":7541,"gGgG":7542,"ĠcBAA":7543,"ddddd":7544,"instr":7545,"fBFC":7546,"dfed":7547,"eBGDG":7548,"Ġfffd":7549,"Ġadgd":7550,"ĠFDDf":7551,"cGFF":7552,"){/":7553,"ĠdDFD":7554,"vace":7555,"Vocal":7556,"AcG":7557,"Ca":7558,"GBGB":7559,"Refrain":7560,"Vi":7561,"aGDG":7562,"bba":7563,"dFCB":7564,"gcBGE":7565,",]>":7566,"ĠAEGA":7567,"ĠGcG":7568,"AFdA":7569,"xxxA":7570,"Ġefff":7571,"''-][":7572,"''[=":7573,"\"^\\":7574,"ĠBddA":7575,"gax":7576,"aAEB":7577,"ĠFDCA":7578,"xcBA":7579,"fdBAD":7580,"Ġdcdefg":7581,"gcBG":7582,"acEC":7583,"ĠABAE":7584,"ĠEGcE":7585,"ĠfdBg":7586,"AGEF":7587,"dcADCA":7588,"Ġfgfc":7589,"ĠAfef":7590,"CEGCB":7591,"Ġdddf":7592,"Ġbcac":7593,"cdBc":7594,"gdcD":7595,"chor":7596,"Fa":7597,"GeG":7598,"\\\\\"":7599,"aCE":7600,"bCF":7601,"dba":7602,"fAFDB":7603,"gcc":7604,"ĠL":7605,",,,,]|":7606,",,,,,]":7607,"Ġdad":7608,"ĠAge":7609,"ĠAaca":7610,"Ġebg":7611,"Ġcae":7612,"ĠcDEF":7613,"ĠcEc":7614,"ĠfAc":7615,"ĠDa":7616,"ecBC":7617,"edBGD":7618,"AGFCB":7619,"EAe":7620,"AABB":7621,"FAFD":7622,"cBGEE":7623,"DDED":7624,"DDDDD":7625,"Ġbff":7626,"Ġbefe":7627,",,-]|^":7628,"feD":7629,"afEB":7630,"agfd":7631,"ecAGEA":7632,"BDCF":7633,"bgx":7634,"Bcf":7635,"dff":7636,"ĠDEGD":7637,"afdFDA":7638,"dAFDCB":7639,"ĠeBeg":7640,"ong":7641,"baga":7642,"ĠFAAf":7643,"ĠBFdc":7644,"cGDF":7645,"ĠAdfg":7646,"Ġbdfd":7647,"ĠMa":7648,"Ġfbdf":7649,"ĠDFBD":7650,"ĠFDBA":7651,"gfcgc":7652,"cAxcAx":7653,"chorus":7654,"!=":7655,"<\"^":7656,"DdA":7657,"Gr":7658,"bEA":7659,"bDF":7660,"bGDG":7661,"cxcx":7662,"xGD":7663,"xec":7664,"ĠECG":7665,"ĠAAGF":7666,"ĠAAGG":7667,"ĠGGD":7668,"ĠGAAA":7669,"FDCE":7670,"GEFG":7671,"Ġfor":7672,"Ġggff":7673,"ĠEGED":7674,"Ġaefg":7675,"Ġaua":7676,"dBFDD":7677,"AGECB":7678,"fdx":7679,"cBBA":7680,"geGA":7681,"Ġbfa":7682,"arg":7683,"EGd":7684,"dAGDB":7685,"GCEG":7686,"DFGF":7687,"Ġfdbf":7688,"DEFGAB":7689,"ĠdBce":7690,"agE":7691,"\"^-\"":7692,"dBGDE":7693,"Ġfeg":7694,"Ġcegb":7695,"xccc":7696,"Ġead":7697,"ĠeAdf":7698,"Ġbgge":7699,"Ġagfedc":7700,"eFd":7701,"ĠBGBe":7702,"afdf":7703,"afdFD":7704,"Ġgdad":7705,"Ġeeec":7706,"fedA":7707,"Ġfdda":7708,"ĠfBf":7709,"GcdBcd":7710,"ĠPG":7711,"ather":7712,"GxFx":7713,"aGEC":7714,"bBGB":7715,"cxx":7716,"dad":7717,"dEDE":7718,"gge":7719,"ĠddBB":7720,"ĠGdef":7721,"ĠFdcA":7722,"ĠEDA":7723,"ecBGE":7724,"edGD":7725,"AGe":7726,"FABA":7727,"geGEG":7728,"cGBGBGBG":7729,"FFED":7730,"xAxG":7731,"FGFD":7732,"xExCx":7733,"gfD":7734,"DFGB":7735,"eBGEDB":7736,"Ġ|]!":7737,"dBGFDG":7738,"ĠBGg":7739,"ĠAGAE":7740,"ĠgegB":7741,"ddg":7742,"ddcB":7743,"fAd":7744,"ĠAcGB":7745,"179":7746,"ĠecAf":7747,"bagfed":7748,"ĠeAef":7749,"Ġdcdg":7750,"ĠBABe":7751,"ĠDFBA":7752,"ĠBBAF":7753,"ggx":7754,"ĠDBGB":7755,"204":7756,"ĠBggB":7757,"cFAc":7758,"ĠGDDG":7759,"bfdBFD":7760,"ĠdGGg":7761,"andan":7762,"rom":7763,"eBebBfbA":7764,"xDBA":7765,"xBABBdAB":7766,"38":7767,"42":7768,"AaA":7769,"EGED":7770,"FdB":7771,"bFC":7772,"cxAx":7773,"ĠAED":7774,"ĠAcG":7775,"ĠBDGA":7776,"ĠeABd":7777,"cdF":7778,"DDEF":7779,"xAxGx":7780,"xBe":7781,"DFEA":7782,"ĠBGFA":7783,"gdGF":7784,"CDCG":7785,"ĠBAGG":7786,"aACG":7787,"ĠTgf":7788,"ĠeAec":7789,"xeb":7790,"ĠDFEC":7791,"fffg":7792,"ĠDGAG":7793,"ĠBEFA":7794,"ĠefeB":7795,"ĠABcdef":7796,"Ġeege":7797,"Ġ\"^/\"":7798,"afcFF":7799,"ĠECD":7800,"Ġacfc":7801,"Ġgcg":7802,"ĠBFd":7803,"dcAc":7804,"bfdDB":7805,"ĠAFFd":7806,"198":7807,"BxBxB":7808,"GGGGGG":7809,"GAdFGA":7810,"!\"":7811,":\"\"^":7812,"EcG":7813,"FFC":7814,"fAFDD":7815,"xECA":7816,"xgf":7817,"xag":7818,"xbc":7819,"ĠR":7820,"DBF":7821,"ĠBzB":7822,"ĠGgec":7823,"Ġcfd":7824,"ĠccAc":7825,"Ġcefa":7826,"Ġfine":7827,"ĠgBAB":7828,"ĠFCF":7829,"ecED":7830,"ecBAA":7831,"AGCF":7832,"fdef":7833,"fdcG":7834,"geAE":7835,"GFEx":7836,"xAcA":7837,"xCECA":7838,"xCDF":7839,"ĠdcBAG":7840,"fBAF":7841,"fBFE":7842,"BAGDA":7843,"xdb":7844,"adAA":7845,"adFB":7846,"ĠGFEd":7847,"GABB":7848,"Slowly":7849,"ĠdGGF":7850,"gdcGDG":7851,"ĠeBBe":7852,"moderato":7853,"AAEAAE":7854,"BxE":7855,"BgB":7856,"TFE":7857,"bBGDB":7858,"cBGDG":7859,"ddA":7860,"eECE":7861,"gED":7862,"vD":7863,"DBDB":7864,"ĠeecA":7865,"ĠGAFD":7866,"ĠGdGd":7867,"ĠccAA":7868,"Ġcon":7869,"Ġccdc":7870,"CAEA":7871,"ĠfD":7872,"BGAB":7873,"ĠFGBc":7874,"ĠEDAD":7875,"CGF":7876,"AGAF":7877,"GBg":7878,"fdCA":7879,"cBEE":7880,"cBFE":7881,"gege":7882,"Ġbed":7883,"Ġbfe":7884,"arco":7885,"Ġfdbg":7886,"xCxA":7887,"BEGB":7888,"ecAED":7889,"BDCA":7890,"eADA":7891,"gdGEDC":7892,"cGEeG":7893,"ĠcdAG":7894,"ĠcBAf":7895,"ĠFAdg":7896,"dAFEDA":7897,"ĠDEGE":7898,"Gxd":7899,"ĠGEEB":7900,"acECA":7901,"gecBG":7902,"Ġgbbg":7903,"ĠTBAFA":7904,"ĠcGcd":7905,"ĠABBd":7906,"isch":7907,"land":7908,"ternate":7909,")>\"":7910,"AxC":7911,"Gde":7912,"dcAFC":7913,"gcAC":7914,"Ġpl":7915,"Ġdbge":7916,"ĠdeBe":7917,"ĠBBGG":7918,"ĠGb":7919,"ĠcfcA":7920,"Ġccde":7921,"ĠcGAc":7922,"ĠczA":7923,"BGBd":7924,"BGFEC":7925,"ĠEcGE":7926,"cADCA":7927,"xxf":7928,"fdFDG":7929,"geBGDB":7930,"GFFE":7931,"CEFA":7932,"CEGEC":7933,"eBEF":7934,"xDED":7935,"agac":7936,"cEGE":7937,"gdDA":7938,"bgbg":7939,"Ġafgd":7940,"ĠFGAA":7941,"ĠAded":7942,"ĠAFDd":7943,"Ġeaue":7944,"ĠeAeg":7945,"ĠGGd":7946,"ĠdAcd":7947,"Ġggag":7948,"gxa":7949,"BAFCB":7950,"Ġcffg":7951,"Ġfcac":7952,"Ġbdaf":7953,"ĠgAeA":7954,"ĠDDDE":7955,"Instr":7956,"Ġ!//!":7957,"AAGA":7958,"CcC":7959,"MG":7960,"aECB":7961,"acAD":7962,"eGCE":7963,"xBAG":7964,"ĠdGA":7965,"Ġdbfd":7966,"ĠdGBe":7967,"ĠBFE":7968,"ĠBecA":7969,"ĠGCC":7970,"ĠGGFE":7971,"ĠcEEE":7972,"ĠfeBc":7973,"ĠFAFE":7974,"ĠFff":7975,"ĠEdcA":7976,"AEDF":7977,"FBFB":7978,"ĠedAB":7979,"GCx":7980,"eBfB":7981,"\"^**\"":7982,"/)!":7983,"ecACG":7984,"ĠBGed":7985,"gGDA":7986,"gGCC":7987,"eBGECB":7988,"dEd":7989,"acGF":7990,"acef":7991,"ĠAAAF":7992,"AbA":7993,"ĠBBgB":7994,"ĠBEFE":7995,"Ġgdbd":7996,"gfeg":7997,"Ġvariations":7998,"BDGB":7999,"ĠDEDE":8000,"ĠAGGc":8001,"ĠEccE":8002,"DFBF":8003,"fecBA":8004,"ĠGDBA":8005,"ĠaAAc":8006,"ĠBbba":8007,"GcdBcdAB":8008,"225":8009,"EAGFE":8010,"aGECA":8011,"adBD":8012,"baA":8013,"dTc":8014,"gxd":8015,"gcGEA":8016,"xedc":8017,"ĠAbag":8018,"ĠBFGA":8019,"ĠGedB":8020,"Ġcefc":8021,"AFEDCA":8022,",,,>=":8023,"ĠFFD":8024,"ĠDGFE":8025,"ecAFCA":8026,"edED":8027,",,-]|=":8028,"ĠedG":8029,"xGAG":8030,"ĠABcc":8031,"GAcB":8032,"DFAFC":8033,"dcGDG":8034,"DEFF":8035,"agC":8036,"ĠBccc":8037,"ĠdegB":8038,"ĠcdAF":8039,"fFEA":8040,"bgedBG":8041,"eBGFDG":8042,"fdBAB":8043,"gcECG":8044,"fdADB":8045,"Ġbgfd":8046,"dAFDE":8047,"xfed":8048,"Ġffef":8049,"ĠFDDd":8050,"BFEG":8051,"ĠcGAF":8052,"eBAA":8053,"ĠPart":8054,"Ġbfge":8055,"fdcAFDCA":8056,"ant":8057,"ĠfAAf":8058,",]/[":8059,"xCECAAEC":8060,"EGBd":8061,"Larg":8062,"Ma":8063,"beBEE":8064,"dga":8065,"gAFC":8066,"Ġr":8067,"ĠdAGA":8068,"ĠAb":8069,"ĠAEEF":8070,"ĠFCA":8071,"ĠaecB":8072,"dBAGG":8073,"dBeBe":8074,"xxg":8075,"edGDB":8076,"edGEB":8077,"fdGB":8078,"fdBGDB":8079,"cBe":8080,"GFEDCA":8081,"afecF":8082,"ĠCe":8083,"xDEF":8084,"dcdB":8085,"xFxE":8086,"\"^[":8087,"ĠcAfe":8088,"gdGED":8089,"dFEB":8090,"dFCG":8091,"Ġgegb":8092,"bgdBGDG":8093,"fAc":8094,"fgfd":8095,"ĠGABg":8096,"AxABcd":8097,"ĠeAa":8098,"ĠBABB":8099,"ĠBABF":8100,"gecCG":8101,"egno":8102,"ĠdddA":8103,"bfFDB":8104,"Ġgbfg":8105,"ĠBBcB":8106,"ĠDGAB":8107,"afdC":8108,"cAGc":8109,"ĠgddB":8110,"AGFEC":8111,"ĠeBdA":8112,"AGEDC":8113,"bgeD":8114,"ĠEBEB":8115,"ĠAeeA":8116,"ĠAaaf":8117,"ĠBDGD":8118,"ĠGBBc":8119,"ĠgAg":8120,"ĠaAAg":8121,"EFABd":8122,"ĠSegno":8123,"aceful":8124,",).":8125,"35":8126,"BBAB":8127,"GAEG":8128,"])([":8129,"xba":8130,"Ġsharp":8131,"ĠdGFG":8132,"ĠAEc":8133,"ĠGGE":8134,"ĠGef":8135,"FDEC":8136,"ĠcdAd":8137,"Ġffg":8138,"Ġaaga":8139,"dBde":8140,"dBADB":8141,"AGFDC":8142,"fdad":8143,"ABde":8144,"gega":8145,"ĠbBb":8146,"Ġbbg":8147,"xGxGx":8148,"eBx":8149,"Ġfdbd":8150,"ĠdBfe":8151,"ecAGEC":8152,"ĠGAcA":8153,"Ġeggd":8154,"ĠGEcG":8155,"bfBA":8156,"gdBEB":8157,"Ġgbed":8158,"xfef":8159,"ĠgedA":8160,"defa":8161,"Ġaegd":8162,"ĠcBcdef":8163,"ĠECEC":8164,"AGDF":8165,"ĠBgfd":8166,"ĠAEFA":8167,"Ġegfedc":8168,"ĠAaab":8169,"ĠGEGc":8170,"Ġbafg":8171,"ĠAdeg":8172,"ĠaAAa":8173,"Andantino":8174,"Ġnot":8175,"agedAF":8176,"218":8177,"46":8178,"Cg":8179,"Ch":8180,"Dg":8181,"Mo":8182,"bBGG":8183,"fDC":8184,"fDCA":8185,"nt":8186,"var":8187,",,,,-[=":8188,"ĠAdD":8189,"ĠAfdB":8190,"ĠAABd":8191,"ĠBBcc":8192,"ĠcEEF":8193,",,,|[_":8194,"ĠEecA":8195,"cAEDCA":8196,"Ġadf":8197,"GDFD":8198,"BAFDF":8199,"ecFDB":8200,"DGc":8201,"EAx":8202,"GGc":8203,"GGAB":8204,"cBxB":8205,"geGF":8206,"ĠfdeA":8207,"xCFA":8208,"dcg":8209,"DEFEDA":8210,"dGx":8211,"dGCA":8212,"CDFG":8213,"ĠcBAe":8214,"ĠcBAGFE":8215,"fBGEB":8216,"eer":8217,"CxCB":8218,"Ġ|\"^*":8219,"gecCC":8220,"Ġbgga":8221,"bfb":8222,"Ġgbdg":8223,"cAGCF":8224,"fedf":8225,"Ġ\"^>\"":8226,"ĠfAde":8227,"BDGBc":8228,"Ġggga":8229,"ĠdFBA":8230,"GAGFE":8231,"ĠcedcBA":8232,"]))":8233,"Ġtw":8234,"EDCDEC":8235,"alzertempo":8236,")_":8237,"212":8238,"Aag":8239,"aAFB":8240,"dxcx":8241,"eDE":8242,"eEDD":8243,"gAECA":8244,"gAGA":8245,"Ġqu":8246,"Ġdgc":8247,"ĠAfff":8248,"ĠBfg":8249,"ĠBeAe":8250,"ĠGcAF":8251,"ĠcGGG":8252,"GExE":8253,"ĠfBb":8254,"Ġgdf":8255,"ĠFBDB":8256,"ĠFcEc":8257,"ĠEDG":8258,"ĠEAFD":8259,"cAAB":8260,"cAcAc":8261,"DGAG":8262,"GBeB":8263,"fded":8264,"FEAE":8265,"Ġbdd":8266,"xAFD":8267,"gfcG":8268,"agab":8269,"agecE":8270,"ĠBceg":8271,"Ġ._":8272,"Ġdffa":8273,"ĠFAfe":8274,"bgdBGB":8275,"ĠFGAD":8276,"bBDA":8277,"cccd":8278,"fdBd":8279,"Ġeab":8280,"gcCG":8281,"egx":8282,"gdBFDG":8283,"ĠeBge":8284,"aecD":8285,"xgxg":8286,"ĠvC":8287,"GABcd":8288,"Gcf":8289,"ĠBDDB":8290,"eBAEE":8291,"ĠgAgA":8292,"ĠEDDF":8293,">)(^":8294,")\"^>\"":8295,"ĠEEEF":8296,"dddddddd":8297,"ĠABBc":8298,"BAGABG":8299,"xBxBxBxB":8300,"allegretto":8301,"issing":8302,"EAGFEAGF":8303,"Bge":8304,"GeB":8305,"GxEx":8306,"TD":8307,"aBD":8308,"axc":8309,"cecA":8310,"ccAA":8311,"dfdf":8312,"ddcc":8313,"eAEDA":8314,"gEF":8315,"tly":8316,"ĠdAFE":8317,"ĠADAD":8318,"ĠBGEA":8319,"Ġezc":8320,"ĠGFDB":8321,"Ġfccc":8322,"ĠDCC":8323,"BAGEC":8324,"edeg":8325,"AGCB":8326,"GBde":8327,"FAce":8328,"geBD":8329,"getragen":8330,"Ġbgfa":8331,"EGxB":8332,"CCCD":8333,"xAce":8334,"afcAA":8335,"gfBG":8336,"dcBAB":8337,"Ġ|]\"^(":8338,"eAcA":8339,"ĠGBgB":8340,"Ġdea":8341,"gGFB":8342,"bgGEB":8343,"ĠdBGc":8344,"ĠAcEA":8345,"ĠAcfd":8346,"fBDG":8347,"ĠecAA":8348,"ĠTcBc":8349,"bBCG":8350,"dAFCF":8351,"ĠGEAE":8352,"xddBd":8353,"ĠdBAA":8354,"ĠEGcA":8355,"cBAGA":8356,"ĠDFAA":8357,"Ġgbeb":8358,"dgx":8359,"aecAG":8360,"train":8361,"ĠEEGE":8362,"ĠcFc":8363,"gecGCG":8364,"Ġ|]:\"^":8365,"193":8366,"ĠdGGd":8367,"Ġcgge":8368,"adADD":8369,"]-)[":8370,"/\"_=\"":8371,"pel":8372,"ĠegBg":8373,"irst":8374,"Sym":8375,"cGEeGfG":8376,"#\"^":8377,"'>_":8378,"AR":8379,"II":8380,"acGE":8381,"add":8382,"bcE":8383,"bdBFB":8384,"ued":8385,"xfg":8386,"xDGA":8387,"Ġ6":8388,"Ġh":8389,"ĠdFD":8390,"ĠddBG":8391,"ĠdcAE":8392,"ĠdGBc":8393,"ĠcAD":8394,"ĠcaA":8395,"GEEDCDEC":8396,"Ġfce":8397,"BGFEDB":8398,"ĠEa":8399,"ĠEcd":8400,"ĠEGFG":8401,"ĠDz":8402,"ĠaAbA":8403,"BAECB":8404,"ecBAF":8405,"FBfG":8406,"GGd":8407,"cBcBE":8408,"geAG":8409,"dADC":8410,"ĠedeB":8411,"FGC":8412,"afdBA":8413,"CEGEB":8414,"dBGDF":8415,"ĠcAef":8416,"Ġgeea":8417,"gGBA":8418,"Ġecgf":8419,"ĠGAGD":8420,"bgxdb":8421,"ĠFDCE":8422,"ĠBcdd":8423,"aeAF":8424,"ĠTgfg":8425,"BAGFD":8426,"xcgd":8427,"xdbgxdb":8428,"ĠeAeA":8429,"adcA":8430,"bfDB":8431,"ĠDGc":8432,"ĠDGGD":8433,"ĠgBed":8434,"gdGFDCF":8435,"edBEB":8436,"bgdDB":8437,"ĠGDFD":8438,"ĠGDGD":8439,"\"\"^)>\"":8440,"EAceB":8441,"EGBe":8442,"ĠeBBd":8443,"aedAD":8444,"edBGc":8445,"222":8446,"xDxDxDxD":8447,"crots":8448,"Vivace":8449,"'<^":8450,"224":8451,"AcF":8452,"FAGF":8453,"aEG":8454,"bAE":8455,"bdc":8456,"bxg":8457,"fcd":8458,"fGDG":8459,"gAEA":8460,"ure":8461,"variation":8462,"Ġdaca":8463,"ĠADGA":8464,"DBB":8465,"GEEA":8466,"Ġ([^":8467,"ĠFg":8468,"AEc":8469,"FBx":8470,"FBdf":8471,"GFEDCB":8472,"DDEE":8473,"EGAG":8474,"BBcd":8475,"afdBB":8476,"Ġeffd":8477,"Ġefab":8478,"dcFDB":8479,"ĠdBdF":8480,"agD":8481,"BGDCB":8482,"Ġ...\"":8483,"Ġdfge":8484,"ĠdBGG":8485,"Ġfgga":8486,"ĠeAcB":8487,"Ġedca":8488,"ĠFEDA":8489,"Ġafdd":8490,"FxED":8491,"Ġdgag":8492,"oro":8493,"ĠADFE":8494,"ond":8495,"ĠFFAA":8496,"AGECD":8497,"ĠEBGE":8498,"gbx":8499,"ĠEFEF":8500,"gdGDA":8501,"ĠeGBG":8502,"ĠAeef":8503,"ĠfBBe":8504,"Fmix":8505,"ĠDGBe":8506,"tenderly":8507,"Ġfffa":8508,"Bdfb":8509,"Gaily":8510,"((":8511,"/\"_>":8512,"AcAF":8513,"Acde":8514,"BcF":8515,"CFCF":8516,"DdF":8517,"acGC":8518,"dcAA":8519,"fBGDB":8520,"ggd":8521,"use":8522,"}=":8523,"ĠAcEc":8524,"ĠBFDB":8525,"ĠBaa":8526,"ĠBAEF":8527,"ĠeGBd":8528,"Ġeve":8529,"ĠGa":8530,"ĠGec":8531,"ĠGfe":8532,"ĠGdcB":8533,"ĠFEB":8534,"ĠEz":8535,"ĠEdB":8536,"ĠEAFA":8537,"Ġaefc":8538,"CGCA":8539,"FDADEA":8540,"ECGCEC":8541,"BABAB":8542,"ecDA":8543,"ecFE":8544,"geEA":8545,"fexe":8546,"afAFD":8547,"afaf":8548,"CEc":8549,"eBCG":8550,"DEEDE":8551,"EFxx":8552,"eACF":8553,"Ġcdg":8554,"eGc":8555,"bgecB":8556,"ĠAccf":8557,"aeAECA":8558,"cGECF":8559,"dxg":8560,"afdAFDD":8561,"ĠdGcG":8562,".\"\"^":8563,"ĠEBAF":8564,"GAGAG":8565,"DFBfc":8566,"DFBFc":8567,"fefc":8568,"fcBB":8569,"GGGGGGGG":8570,"eeeeeeee":8571,"Animated":8572,"BDGBcFAB":8573,"AecA":8574,"Bgd":8575,"BxAx":8576,"EFDE":8577,"EEAc":8578,"FAE":8579,"_\"":8580,"aae":8581,"aAFDB":8582,"becA":8583,"cxC":8584,"gGEA":8585,"gcAFCF":8586,"xgd":8587,"xECE":8588,"{/^":8589,"Ġdagf":8590,"ĠAcE":8591,"ĠAgfg":8592,"Ġfbd":8593,"ĠFBF":8594,"ĠFBEB":8595,"ĠDec":8596,"dBECG":8597,"dBAA":8598,"BAcB":8599,"BAEF":8600,"GBGE":8601,"EAd":8602,"fdcd":8603,"FBFD":8604,"geCA":8605,"FEFDE":8606,"Ġbefg":8607,"Ġbbbb":8608,"Ġbdgb":8609,"DCxB":8610,"afcAE":8611,"gfedc":8612,"GAGE":8613,"Ġefce":8614,"eBGED":8615,"eBGEA":8616,"''-|[":8617,"/)^":8618,"ĠcAg":8619,"ĠcAac":8620,"ecAEG":8621,"ĠcBe":8622,"Ġdeee":8623,"Ġfeag":8624,"ĠceAG":8625,"Ġ|{/^":8626,"ĠAdAG":8627,"ecGc":8628,"cDCB":8629,"ors":8630,"fffe":8631,"ĠBEdB":8632,"AEBE":8633,"dcBB":8634,"Ġffaf":8635,"ADFc":8636,"ĠECCD":8637,"AGDCG":8638,"ĠBFFE":8639,"cFDCD":8640,">)^":8641,"Slowish":8642,"and":8643,"dxdxdx":8644,"AAAAAAAA":8645,"axaxa":8646,"ĠcGGc":8647,"ĠcdAc":8648,"CAFACAFA":8649,"edited":8650,"tting":8651,"andante":8652,"GAdFGAdF":8653,"'<_":8654,"288":8655,"DcB":8656,"Fxd":8657,"GAAA":8658,"See":8659,"^^":8660,"aECC":8661,"aAFE":8662,"adBFB":8663,"bcC":8664,"exE":8665,"gGED":8666,",/-":8667,"ĠeAG":8668,"ĠGeG":8669,"Ġfcde":8670,"Ġfzf":8671,"ĠgeA":8672,",,,>^":8673,"BGFDC":8674,"ĠFcA":8675,"ĠFcc":8676,"ĠFFGA":8677,"ĠFAED":8678,"ĠFFEF":8679,"ĠEDF":8680,"ĠDdD":8681,"CGcG":8682,"AGFGA":8683,"GBdc":8684,"cBEA":8685,"EEEF":8686,"Ġbut":8687,"ĠedF":8688,"afcGC":8689,"xEFE":8690,"ĠCCB":8691,"gfGF":8692,"CEFE":8693,"agdc":8694,"ACFA":8695,"ĠBdec":8696,"ĠBdfB":8697,"fca":8698,"Ġfaad":8699,"Ġfacf":8700,"Ġfast":8701,"aeBA":8702,"bBCB":8703,"DxCC":8704,"ĠeAAF":8705,"ĠEDGD":8706,"ĠGGGE":8707,"ĠDFd":8708,"\"_-":8709,"ĠBEEA":8710,"GFDE":8711,"Ġeea":8712,"aax":8713,"GFGFA":8714,"ĠECCB":8715,"ĠFBdc":8716,"189":8717,"Echo":8718,"BFEDA":8719,"ĠAEcE":8720,"ĠcEdE":8721,"ĠBdcBAG":8722,"FFFFFF":8723,"Ġschnell":8724,"ĠFffg":8725,"DxCxB":8726,"chott":8727,"ajor":8728,"iven":8729,"cresc":8730,"36":8731,"<!":8732,"Afd":8733,"Afc":8734,"BFCC":8735,"DAFA":8736,"Eee":8737,"End":8738,"For":8739,"Me":8740,"aCC":8741,"aGA":8742,"cae":8743,"uAB":8744,"ĠdgG":8745,"ĠBcG":8746,"ĠBAD":8747,"ĠBDE":8748,"ĠGccc":8749,"Ġcaga":8750,"Ġfgdg":8751,"Ġgga":8752,"Ġgcea":8753,"ĠgeBc":8754,"EBB":8755,"ĠEAFE":8756,"ĠEcBc":8757,"cAGFF":8758,"dBFCF":8759,"CGx":8760,"GDBG":8761,"GGg":8762,"gem":8763,"DDCC":8764,"Ġbgae":8765,"fedBFB":8766,"FFc":8767,"xAdf":8768,"BFECA":8769,"CEFG":8770,"DFd":8771,"eBECB":8772,"dcGEC":8773,"ĠdBb":8774,"ĠdBba":8775,"ĠgfgB":8776,"dGe":8777,"cFECF":8778,"BFDCA":8779,"ceae":8780,"gdgd":8781,"ĠcdcG":8782,"Bbdim":8783,"Ġfebe":8784,"ĠFDEG":8785,"xxxxB":8786,"fBd":8787,"aege":8788,"aeEE":8789,"baD":8790,"fgec":8791,"fdBFE":8792,"xdg":8793,"ĠdBAf":8794,"adDA":8795,"adAB":8796,"cBAGE":8797,"FDFAF":8798,"ĠDFFA":8799,"ĠADdD":8800,"Ġgdb":8801,"ĠgdeB":8802,"ĠDBAB":8803,"ĠBABcdB":8804,"ĠeAAd":8805,"Ġfdfb":8806,"dAEG":8807,"ĠDAc":8808,"ecBECG":8809,"ĠcdcBAG":8810,"ĠdfeA":8811,"ĠCDED":8812,"bgdGDB":8813,"GxGxGx":8814,"ĠEDDg":8815,"decd":8816,"ĠGBEd":8817,"AEAEAEAE":8818,"adadadad":8819,"ighland":8820,"Ġlib":8821,"Dsus":8822,"GcGE":8823,"Gceg":8824,"MD":8825,"Re":8826,"bGF":8827,"bFF":8828,"cxex":8829,"dcAFA":8830,"eDCA":8831,"ii":8832,"om":8833,"rr":8834,"ude":8835,"xcde":8836,",/^":8837,"ECcd":8838,"ECFE":8839,"ĠAfdf":8840,"Ġeze":8841,"ĠGgfa":8842,"ĠGeFd":8843,"ĠcfdB":8844,"Ġczc":8845,"ĠEGCE":8846,"DAdA":8847,"ĠDfe":8848,"ĠDDF":8849,"ĠDde":8850,"ecf":8851,"ecde":8852,"AGGA":8853,"fdEB":8854,"GGGA":8855,"Ġbegb":8856,"BBe":8857,"xGxF":8858,"BFx":8859,"dcGD":8860,"eGcG":8861,"ĠAFBA":8862,"aAaA":8863,"ĠFDdc":8864,"Ġaffg":8865,"ĠceBG":8866,"aebega":8867,"dAFCC":8868,"ĠedcBA":8869,"Bded":8870,"fdAfdA":8871,"gecGEG":8872,"FEDCD":8873,"fax":8874,"eBGEF":8875,",,,-|=":8876,"AGEDA":8877,"Ġvb":8878,"dBAGDG":8879,"gxgg":8880,"ĠEBBE":8881,"ĠEEED":8882,"eEBcx":8883,"Ġaaag":8884,"ĠeGdB":8885,"ĠGGGF":8886,"ĠGgbg":8887,"afdADA":8888,"beBEG":8889,"Ġdance":8890,"adBAGA":8891,"Gcegd":8892,"xAxAxAxA":8893,"fGAcx":8894,"chottisch":8895,"DFDC":8896,"]/\"":8897,"aGC":8898,"bcG":8899,"ceB":8900,"eedc":8901,"eAFEC":8902,"fxfx":8903,"gGDF":8904,"hlich":8905,"DBE":8906,"ĠGAEA":8907,"GEEE":8908,"ĠFGEC":8909,"ĠFfe":8910,"ĠFBAB":8911,"ĠDCE":8912,"BAe":8913,"ecEF":8914,"edec":8915,"fdCG":8916,"fdECG":8917,"fdff":8918,"FBdB":8919,"GGGF":8920,"CFxA":8921,"GFAG":8922,"Ġbgc":8923,"arch":8924,"eBFDB":8925,"xCxD":8926,"dcGDCG":8927,"BFDCF":8928,"bgBGE":8929,"bgdBD":8930,"aAgA":8931,"ĠFDdD":8932,"fdBFG":8933,"ĠeAd":8934,"ĠeAdc":8935,"FCGC":8936,"Ġbggd":8937,").=":8938,"ĠAAdd":8939,"dAFDCD":8940,"ĠgdcA":8941,"bdFB":8942,"exg":8943,"ĠEAcd":8944,"ĠdGgG":8945,"ĠdcAg":8946,"ĠEFGg":8947,"ĠECDC":8948,"ĠEEcE":8949,"Ġaca":8950,"Ġfcag":8951,"ĠAEED":8952,"Ġabab":8953,"ĠGBBe":8954,"ĠCCCC":8955,"ĠgAaA":8956,"ĠDdfd":8957,"oderato":8958,"beBC":8959,"Ġgafa":8960,"ĠDDDF":8961,"cccccc":8962,"']|[^":8963,"-(":8964,"Dal":8965,"ExGx":8966,"ExFx":8967,"aFE":8968,"egB":8969,"fce":8970,"fefe":8971,"fcGCG":8972,"fig":8973,"{_":8974,"Ġn":8975,"ĠdcG":8976,"ĠdeA":8977,"ĠdAFB":8978,"ĠdEBe":8979,"DBGB":8980,"DBBAGABG":8981,"ĠBbab":8982,"ĠegBd":8983,"FDFB":8984,"ĠfAcf":8985,"Ġffee":8986,"Ġfrom":8987,"Ġgiven":8988,"ĠEAGF":8989,"ĠDFCF":8990,"ĠDddd":8991,"dBf":8992,"BAfe":8993,"xxa":8994,"AGAc":8995,"AGFEDB":8996,"geAF":8997,"fea":8998,"dAx":8999,"afx":9000,"xBcd":9001,"Ġeffg":9002,"DEED":9003,"DEFED":9004,"''\"":9005,"dBGDA":9006,"eAeA":9007,"eAce":9008,"ĠFAcB":9009,"fcFE":9010,"xxxxG":9011,"fBFG":9012,"Ġ!/!":9013,"ĠAdfA":9014,"xdxdx":9015,"ĠeAca":9016,"gcfgc":9017,"ĠEDFD":9018,"ĠAAa":9019,"cxcB":9020,"gdBFB":9021,"ĠcAFB":9022,",,,,,-|":9023,"ĠFFFD":9024,"ĠGEEc":9025,"EFGAB":9026,"ĠBFGB":9027,"cGDCB":9028,"ĠBggd":9029,"ĠaAdf":9030,"ĠFddc":9031,"CECEC":9032,"Ġgbab":9033,"ĠaAAf":9034,"urce":9035,"/\"_#\"":9036,"xAAC":9037,"axaxbxbx":9038,"ook":9039,"ccAAcA":9040,"chottische":9041,"/>=":9042,"34":9043,"AP":9044,"CxDx":9045,"ap":9046,"az":9047,"adADA":9048,"bBGDG":9049,"eCD":9050,"eab":9051,"ril":9052,"xAE":9053,"}!":9054,"ĠGDC":9055,"CAG":9056,"Ġffa":9057,"ĠFz":9058,"ĠFdA":9059,"ĠFAEC":9060,"cAAA":9061,"dBAGE":9062,"ecBAE":9063,"edAB":9064,"GBBB":9065,"GGAG":9066,"geGD":9067,"efcAc":9068,"feAGF":9069,"cGFDG":9070,"xGcd":9071,"cAFECF":9072,"BEx":9073,"ĠBdDF":9074,"EFCG":9075,"EFGFE":9076,"ceG":9077,"Ġdfc":9078,"ĠdfBa":9079,"Ġfeac":9080,"bgBGB":9081,"bgBEG":9082,"aAGE":9083,"fACC":9084,"Ġegba":9085,"aeAEC":9086,"eea":9087,"dfga":9088,"ĠAFDf":9089,"ĠABcBAG":9090,"Ġefgg":9091,"Bcdef":9092,"bfcB":9093,"cxf":9094,"Ġgbba":9095,"bdFDB":9096,"ĠefeA":9097,"Ġbagd":9098,"ĠfAe":9099,"206":9100,"]/>[":9101,"eGEDG":9102,"ĠEccB":9103,"ecBGECB":9104,"ĠdgBc":9105,"ĠbBfB":9106,"ĠfGeG":9107,"Ġebba":9108,"Ġcfeg":9109,"Voors":9110,"Voorspel":9111,"BAFCF":9112,"CEDC":9113,"Jig":9114,"bAD":9115,"bee":9116,"dm":9117,"dCD":9118,"dGECB":9119,"eECF":9120,"exdx":9121,"gFG":9122,"gBGF":9123,"maj":9124,"uBc":9125,"xgc":9126,"xFGA":9127,"xfff":9128,"ECEF":9129,"ĠdFB":9130,"ĠdDE":9131,"ĠBefg":9132,"ĠBeGe":9133,"Ġeefg":9134,"ĠcGBc":9135,"GEe":9136,"Ġgaea":9137,"DAFD":9138,"dBFDC":9139,"ecFCA":9140,"FCACFC":9141,"edAC":9142,"DGBGDB":9143,"fdAFE":9144,"AAd":9145,"cBECB":9146,"geGEE":9147,"DDFD":9148,"FEGE":9149,"dAdBeBe":9150,"cGFCA":9151,"ĠedAF":9152,"xGxE":9153,"ĠABE":9154,"xExEx":9155,"ĠCDCB":9156,"dcf":9157,"agcA":9158,"cCEAc":9159,"gdAE":9160,"Ġcdfd":9161,"gGg":9162,"eGDA":9163,"ĠFDGA":9164,"aee":9165,"aeg":9166,"ĠdcBe":9167,"eBGECC":9168,"Bdgb":9169,"ĠEDDG":9170,"fcADC":9171,"ĠGGc":9172,"\"_/\"":9173,"ĠADFB":9174,"gdBFC":9175,"ggfe":9176,"ĠGFEc":9177,"ĠDBAF":9178,"Ġgggf":9179,"ĠDDFD":9180,"Ġacfa":9181,"cCCcx":9182,"ĠEDBD":9183,"CEAcCEAc":9184,"eGBe":9185,"fdcBGG":9186,"''''-_":9187,"Ġdbaf":9188,"gedBGEDB":9189,"Ġeaea":9190,"CECGECE":9191,"olce":9192,"bgfdBGFD":9193,"Bxdx":9194,"CeCC":9195,"DS":9196,"Highland":9197,"axf":9198,"bGEC":9199,"beD":9200,"ds":9201,"eAECC":9202,"ffd":9203,"gxB":9204,"gADA":9205,"ht":9206,"xefg":9207,"Ġ8":9208,"Ġsh":9209,"Ġsharps":9210,"ĠdzB":9211,"Ġdze":9212,"ĠAAFD":9213,"ĠccAF":9214,"ĠgcBc":9215,"ĠFEG":9216,"ĠEEB":9217,"ĠEAd":9218,"Ġan":9219,"BADG":9220,"ecBGEC":9221,"AEDCG":9222,"edce":9223,"AAAAA":9224,"geBGG":9225,"Ġbook":9226,"dAdf":9227,"ĠABcG":9228,"afCC":9229,"xBBA":9230,"CEGB":9231,"eBFDA":9232,"xDCB":9233,"xDEG":9234,"xCECD":9235,"xCcCCcx":9236,"ĠdBdA":9237,"agio":9238,"dBGdB":9239,",,,](":9240,"ecAe":9241,"ecAGD":9242,"Ġgeba":9243,"gGCB":9244,"Ġdffg":9245,"ĠdfAc":9246,"ĠdfBg":9247,"bgg":9248,"bgGB":9249,")(_":9250,"gBFB":9251,"baF":9252,"fdBAG":9253,"Ġeaac":9254,"ĠGABB":9255,"ĠeAge":9256,"Ġ|\"^$\"":9257,"cGECD":9258,"ĠAAGE":9259,"afdE":9260,"afdcD":9261,"ĠEABA":9262,"dcBd":9263,"Ġfgac":9264,"bgeEB":9265,"Ġver":9266,"Ġggbg":9267,"ĠcBcdec":9268,"ĠEBeB":9269,"Ġfcgc":9270,"cfb":9271,"DFAC":9272,"DFAFDFAF":9273,"ecAFEF":9274,"imo":9275,"Ġcaac":9276,"bfdBD":9277,"FFFFG":9278,"ĠBffB":9279,"egega":9280,"Ġtoo":9281,"vocal":9282,"Ġthis":9283,"\"_(\"\"^)>\"":9284,"INE":9285,"Substitutions":9286,"cxAxcA":9287,"'>\"^":9288,"Bfe":9289,"BdBA":9290,"Ecx":9291,"GADFc":9292,"ME":9293,"Rather":9294,"axe":9295,"ause":9296,"bBFDG":9297,"ck":9298,"cag":9299,"dxx":9300,"dbg":9301,"eAFDB":9302,"hy":9303,"ie":9304,"ucd":9305,"xga":9306,"xEGA":9307,"Ġlangsam":9308,"ĠeAGA":9309,"ĠGAEG":9310,"ĠcAED":9311,"CAB":9312,"Ġggeg":9313,"AFEG":9314,"AFGA":9315,"ĠEgf":9316,"ĠEcAG":9317,"cACD":9318,"ĠaAB":9319,"dBAFA":9320,"FDADFD":9321,"BAGDG":9322,"ecBGG":9323,"FAe":9324,"FABd":9325,"GGGE":9326,"CBEB":9327,"Ġbec":9328,"EGAA":9329,"dAfe":9330,"FFEC":9331,"Ġ||!":9332,"afFF":9333,"afdBF":9334,"afcAFF":9335,"afcACA":9336,"xBFB":9337,"ĠCGEG":9338,"ĠCECE":9339,"xCDCB":9340,"dcFA":9341,"'''_":9342,"dBGFE":9343,"deee":9344,"ĠcAGD":9345,"ĠAGc":9346,"gGFDG":9347,"fFEC":9348,"bgDG":9349,"bgBGD":9350,"bgfdFDB":9351,"gBFDB":9352,"fAeAdA":9353,"aeDD":9354,"ĠGFEA":9355,"BAGx":9356,"BAGECA":9357,"bax":9358,"fdBGE":9359,"ĠEFAE":9360,"cDCF":9361,"ĠeAcf":9362,"Ġdgbd":9363,"Ġ|\"^[":9364,"acGEC":9365,"eged":9366,"ĠAABG":9367,"ĠDFdF":9368,"gdBd":9369,"afdDA":9370,"ĠBEFG":9371,"beb":9372,"bedB":9373,"Ġfgad":9374,"Ġ\"^\\\"":9375,"Ġued":9376,"Ġaebe":9377,"fxfe":9378,"207":9379,"BAFG":9380,"ĠEBc":9381,"Gcec":9382,"ĠBFGE":9383,"Ġcfac":9384,"gBGDE":9385,"dAGgAfA":9386,"gaga":9387,"FGFGF":9388,"ĠBedf":9389,"CCCCCC":9390,"ĠgGfG":9391,"Ġtune":9392,"ĠFADd":9393,"Ġmissing":9394,"FAFAF":9395,"DDDDCCCC":9396,"DGDBDGD":9397,"xABx":9398,"Edited":9399,"dCCc":9400,"FCECFCGC":9401,"AFcFfFAG":9402,"gfdGFDG":9403,"BGdGgGBA":9404,"acefully":9405,"CeCCdCCc":9406,"CGEG":9407,"DFFF":9408,"DEDCB":9409,"EGFE":9410,"Fdc":9411,"Fce":9412,"FGGG":9413,"aEDB":9414,"bdBE":9415,"cxBx":9416,"fBAG":9417,"fba":9418,"gga":9419,"ige":9420,"tion":9421,"ufg":9422,"xeA":9423,"xAGFE":9424,"-])":9425,"ĠAab":9426,"ĠAEBE":9427,"Ġend":9428,"ĠGDF":9429,"ĠcFFG":9430,"GEAE":9431,"ĠDDB":9432,"GBeg":9433,"EDEB":9434,"EDxC":9435,"fdAFDB":9436,"geBGF":9437,"GFGB":9438,"cdee":9439,"EEGG":9440,"EGFA":9441,"feAD":9442,"cGFDB":9443,"DCDx":9444,"Ġ||\"_":9445,"xGxA":9446,"afDB":9447,"xBf":9448,"ĠfdgB":9449,"dcFCA":9450,"xFAF":9451,"\"^*":9452,"dGAG":9453,"ĠgeBA":9454,"Ġgegd":9455,"gGFDB":9456,"ĠFAe":9457,"bgBD":9458,"Ġfgge":9459,"dBFEB":9460,"eBGFE":9461,"eBGDE":9462,"gcGF":9463,"acFF":9464,"gecGECC":9465,"efgb":9466,"ĠdcBABc":9467,"ĠEGAE":9468,"cBAFD":9469,">\"^$\"":9470,"ornpipe":9471,"Ġgbgf":9472,"ffed":9473,"Ġgecf":9474,"Ġeefd":9475,"fedcB":9476,"Ġaega":9477,"Ġfffg":9478,"ĠDAAD":9479,"ĠAAAe":9480,"ĠBAAf":9481,"ĠAffA":9482,"ĠAEFE":9483,"cBGECG":9484,"ĠAaae":9485,"Ġbeae":9486,"tes":9487,"ĠdDAF":9488,"EEEEEE":9489,"ill":9490,"afeA":9491,"\"\"_-":9492,"ĠbBgB":9493,"pol":9494,"AAGAD":9495,"ĠEGDc":9496,"hornpipe":9497,"axax":9498,"gdgadgd":9499,"/\"^*\"":9500,"AAE":9501,"BdBG":9502,"Bxcx":9503,"DFC":9504,"Fg":9505,"Fxc":9506,"Mdc":9507,"bxc":9508,"becG":9509,"bbc":9510,"bfeB":9511,"dFCC":9512,"ebg":9513,"fAGF":9514,"fBAFD":9515,"xdA":9516,"xbd":9517,"xCCCC":9518,",]\"":9519,"ĠdFDF":9520,"ĠdcAA":9521,"ĠdDEF":9522,"ĠAGEB":9523,"ĠAFCF":9524,"ĠAFDD":9525,"ĠBeA":9526,"ĠeBAB":9527,"ĠGGEG":9528,"ĠGFDG":9529,"ĠGcde":9530,"ĠgE":9531,"ĠgBA":9532,"ĠFFED":9533,"ĠFCFG":9534,"ĠEAGA":9535,"ĠDEA":9536,"CGEC":9537,"BAGFG":9538,"FCFG":9539,"edAEDA":9540,"EDDD":9541,"EAEB":9542,"EAcA":9543,"fdfd":9544,"cGcG":9545,"xABA":9546,"ADFDADFD":9547,"afAFB":9548,"BFECB":9549,"dcGF":9550,"dcxc":9551,"ĠAGcA":9552,"gdf":9553,"gdFD":9554,"gdGDE":9555,"fFf":9556,"ĠGAde":9557,"ddef":9558,"ĠAFec":9559,"ĠBcdF":9560,"bass":9561,"ĠGEe":9562,"Ġ|\"^#\"":9563,"ĠABAc":9564,"ĠAAfA":9565,"ĠDFAg":9566,"\"_*\"":9567,"dxdc":9568,"cAGFD":9569,"dcBC":9570,"ĠeBcB":9571,"aecEA":9572,"Ġ\"^+\"":9573,"Ġuca":9574,"EFGC":9575,"cAFDCD":9576,"gdGCG":9577,"ĠAGGg":9578,"ĠeGd":9579,"BEDD":9580,"gecGECA":9581,"ĠBDcD":9582,"ĠADDc":9583,"ĠGggd":9584,"Ġefgfed":9585,"afeF":9586,"ĠFFFG":9587,")}(":9588,"Bbmaj":9589,"ĠSpirit":9590,"ĠGBEg":9591,"gefdef":9592,"----":9593,"Cheer":9594,"(!":9595,"AdG":9596,"Ea":9597,"EFDA":9598,"EFCE":9599,"TdB":9600,"TcBc":9601,"bcAE":9602,"bFCF":9603,"cba":9604,"eFEDA":9605,"for":9606,"gxc":9607,"gfdA":9608,"more":9609,"ucB":9610,"uef":9611,"xEAc":9612,"xeeee":9613,"-]([":9614,"ECDE":9615,"ĠAFC":9616,"ĠBFFF":9617,"ĠGga":9618,"ĠGcGE":9619,"ĠGzB":9620,"ĠfcBA":9621,"ĠgABc":9622,"Ġ([_":9623,"ĠFGDG":9624,"ĠFECB":9625,"EBg":9626,"ĠEcA":9627,"ĠEADA":9628,"cAGDB":9629,"cAGDG":9630,"cAGEG":9631,"ĠDECD":9632,"Ġacea":9633,"BAAA":9634,"EDEA":9635,"fdGDB":9636,"FAAF":9637,"GGFF":9638,"cdfd":9639,"cdcAG":9640,"DDDx":9641,"efA":9642,"ĠbBbB":9643,"feFE":9644,"feBGB":9645,"CCECD":9646,"cGCx":9647,"xAGE":9648,"afcAD":9649,"xBxA":9650,"DFED":9651,"dcFF":9652,"agdB":9653,"cFAF":9654,"eAGDB":9655,"ĠBGFB":9656,"Ġdegf":9657,"gGFC":9658,"ĠdfBc":9659,"Ġdfac":9660,"eGecx":9661,"ĠFAf":9662,"ĠAFAA":9663,"ĠfgdB":9664,"Ġaggg":9665,"gBeBG":9666,"dfdB":9667,"ĠDEGG":9668,"Axe":9669,"gcGDG":9670,"ĠABAGFE":9671,"ĠAAec":9672,"ĠAFAf":9673,"afdAB":9674,"abb":9675,"ĠcBca":9676,"ĠcBcf":9677,"Ġub":9678,"ĠfAaA":9679,"ĠGccG":9680,"ĠEEGB":9681,"agfed":9682,"Ġfca":9683,"ĠBgge":9684,"ĠBEEe":9685,"ĠTfef":9686,"GxGA":9687,"Ġfagfed":9688,"ĠME":9689,"ĠMg":9690,"DCCx":9691,"afdADD":9692,"ĠDdde":9693,"ĠgGg":9694,"gBfBeBfB":9695,"gedBEG":9696,"ĠEAcf":9697,"Adfae":9698,"AxGxAxGx":9699,"ĠBEBd":9700,"Ġfccf":9701,"ĠWalzertempo":9702,"ĠceGc":9703,"Cb":9704,"Eex":9705,"FxGx":9706,"GcA":9707,"GBGD":9708,"Gsus":9709,"TR":9710,"aac":9711,"ageC":9712,"becE":9713,"cgf":9714,"cxF":9715,"dag":9716,"dcAFF":9717,"gFDG":9718,"xGBe":9719,"}[":9720,"ĠK":9721,"ECDB":9722,"ĠAS":9723,"ĠAfdA":9724,"ĠADBA":9725,"ĠAaBa":9726,"ĠeEGB":9727,"ĠGzd":9728,"ĠcADF":9729,"CAc":9730,"GEDCD":9731,"Ġgzg":9732,"ĠFEA":9733,"ĠFCEC":9734,"cAGEB":9735,"ĠDfed":9736,"dBcB":9737,"BAGED":9738,"ecCE":9739,"AGCD":9740,"AGFDG":9741,"fdcC":9742,"FBcd":9743,"FAcx":9744,"ABBc":9745,"cBGEG":9746,"gedBE":9747,"Ġbfed":9748,"ark":9749,"feBGE":9750,"cGFB":9751,"cGFCC":9752,"afAG":9753,"ĠCED":9754,"gfE":9755,">|_":9756,"cAFEE":9757,"xCxCx":9758,"xFGF":9759,"ĠBADA":9760,"BDFD":9761,"ĠBGAD":9762,"gabg":9763,"ĠGBcB":9764,"ĠGBgf":9765,"ĠBAGd":9766,"bgBC":9767,"fcCG":9768,"ĠFDFB":9769,"ĠceeA":9770,"aeCF":9771,"ecGCA":9772,"fdBDF":9773,"xdcB":9774,"CxCA":9775,"ĠFEd":9776,"gcBGC":9777,"Ġdggb":9778,"ĠdBAD":9779,"ĠAAcd":9780,"xexd":9781,"BxBA":9782,"ĠcAGG":9783,"ĠAGEc":9784,"ĠBBe":9785,"ĠBAFf":9786,"ĠDGGc":9787,"ĠfBce":9788,"Ġacge":9789,"Aea":9790,"ĠAEcB":9791,"DCDAF":9792,"DFAc":9793,"dGDF":9794,"dcdA":9795,"FGFGFGF":9796,"ADCE":9797,"ĠCFE":9798,"Ġso":9799,"fcBC":9800,"Ġmoderato":9801,"bafB":9802,"bgfB":9803,"Ġ|!<(!":9804,"ĠFABF":9805,"Quad":9806,"ĠSchottische":9807,"PMTuCOMA":9808,",,,,,-]_":9809,"Ġnotes":9810,"cAeAaAgA":9811,"xAFCxAFC":9812,"Mod":9813,"fAeAdAcF":9814,"EFFF":9815,"bdBFDB":9816,"cxE":9817,"eAGEC":9818,"fxx":9819,"fFCB":9820,"uABc":9821,"xge":9822,"Ġtempo":9823,",,,,-]":9824,"ĠAfa":9825,"ĠAeee":9826,"ĠBecB":9827,"ĠBDBD":9828,"ĠBDAG":9829,"ĠeGB":9830,"ĠFGEG":9831,"ĠEEG":9832,"ĠEdcd":9833,"ĠEcdf":9834,"CGCGC":9835,"BAEG":9836,"ecECF":9837,"GFc":9838,"GFxE":9839,"cdBG":9840,"EExE":9841,"FEEC":9842,"FEFD":9843,"Ġbad":9844,"CCDC":9845,"ADx":9846,"GCECGCEC":9847,"afAB":9848,"ĠCEDC":9849,"Ġfdfe":9850,"dcFC":9851,"\"^^\"":9852,"dGCB":9853,"EFEDC":9854,"eACE":9855,"gadgd":9856,"ceag":9857,"ĠGBce":9858,"dFED":9859,"dFcF":9860,"Ġdfcd":9861,"ĠeccG":9862,"Ġfeea":9863,"bgdBB":9864,"ĠdBGf":9865,"ĠTdc":9866,"dfad":9867,"baed":9868,"baba":9869,"AceA":9870,"ĠABAA":9871,"ĠGGdG":9872,"bfBFDB":9873,"ĠDFFD":9874,"afdBG":9875,"bdGB":9876,"beAD":9877,",,,-|^":9878,"defga":9879,"Ġ\"^/":9880,"ĠDEFd":9881,"Ġacga":9882,"Ġacac":9883,"dcADA":9884,"edBd":9885,"cGFEDA":9886,"bfdc":9887,"255":9888,"CEAA":9889,"ĠAaed":9890,"ĠADDd":9891,"ĠGgge":9892,"ĠEcDB":9893,"ĠPdc":9894,"ageAGEA":9895,"Ġ|\"_#\"":9896,"gcGECA":9897,"ariant":9898,"ĠBEAB":9899,"235":9900,"ĠgBBg":9901,"AAGAE":9902,"CEGEcEGE":9903,"afcAFCG":9904,"fffffffg":9905,"Ġonly":9906,"xCEAxC":9907,",,,,,-]|=":9908,"EFEFEFEF":9909,"cAxcAxcA":9910,"-{":9911,"AfA":9912,"Bee":9913,"DxCx":9914,"TGFG":9915,"aGF":9916,"aBGD":9917,"adBB":9918,"bAA":9919,"cgdx":9920,"eba":9921,"fFDCA":9922,"gli":9923,"our":9924,"rimo":9925,"uce":9926,"xFFFF":9927,"xfdf":9928,"xEEF":9929,"ĠAAD":9930,"ĠAfG":9931,"ĠAzd":9932,"ĠGdcA":9933,"Ġgze":9934,"AFc":9935,"BGBc":9936,"cAcd":9937,"dBAFDA":9938,"ecDG":9939,"eda":9940,"eddc":9941,"edEDG":9942,"edAEB":9943,"DGAB":9944,"AGFB":9945,"AGFCG":9946,"EABFB":9947,"fdGF":9948,"fdFG":9949,"FABc":9950,"gegaegd":9951,"GFEDG":9952,"EEAE":9953,"EExB":9954,"CBc":9955,"CCDD":9956,"Ġedcc":9957,"FGd":9958,"cAFEB":9959,"ĠefA":9960,"dcFCF":9961,"xFAFC":9962,"ĠBAe":9963,"ĠBAaf":9964,"ĠAGFB":9965,"ĠAGcB":9966,"ĠGBcA":9967,"ĠGBdd":9968,"Ġdeef":9969,"gdAF":9970,"gdcB":9971,"CDFE":9972,"ĠdefB":9973,"Ġdeff":9974,"fcGFG":9975,"Ġfabf":9976,"Ġegbe":9977,"ĠedBf":9978,"aebe":9979,"aeAEE":9980,"baE":9981,"Ġgaaf":9982,"GDAGDG":9983,"ĠAAcc":9984,"ĠGGGD":9985,"gAGE":9986,"gdBFG":9987,"fcAFG":9988,"afdAFB":9989,"dAFDAFdA":9990,"bea":9991,"bgeGEB":9992,"Ġedefge":9993,"Ġaeec":9994,"Ġffec":9995,"ĠfBfB":9996,"AGDCA":9997,"EEEEB":9998,"ĠaAag":9999,"/{/":10000,"bfdFD":10001,"bfdFB":10002,"CEGA":10003,"CEGC":10004,"ĠGBAd":10005,"Ġcaag":10006,"bfdBDB":10007,"gedC":10008,"ĠPE":10009,"gdAC":10010,"ĠFADc":10011,"cgcfg":10012,"xdxdxd":10013,"ĠcFFc":10014,"aaaaaaaa":10015,"thm":10016,"xFEc":10017,"etc":10018,"gdgadg":10019,"Ġbars":10020,"allegro":10021,"editorial":10022,"ument":10023,"Alternate":10024,"DGAGdGAG":10025,"EABFBcBF":10026,"EFAd":10027,"GAFD":10028,"Glyd":10029,"axd":10030,"bAG":10031,"bAFD":10032,"bBGEC":10033,"ccdc":10034,"dfc":10035,"dgg":10036,"dFCD":10037,"dTcB":10038,"eAFCF":10039,"egec":10040,"eAGF":10041,"spirited":10042,"uC":10043,"xFAB":10044,"xGBc":10045,",,,,-][_":10046,"ĠddBA":10047,"ĠAedB":10048,"ĠBFAB":10049,"ĠBfAf":10050,"FDED":10051,"ĠgAAA":10052,"ĠFdcd":10053,"EBGE":10054,"ĠEec":10055,"ĠEDDD":10056,"cABA":10057,"GDxB":10058,"edcc":10059,"AGGAB":10060,"EDEx":10061,"FBE":10062,"FAdf":10063,"GGGx":10064,"cBFG":10065,"cBce":10066,"EEFG":10067,"ĠABC":10068,"ĠABFB":10069,"ĠABcF":10070,"FGAA":10071,"afFC":10072,"ĠCcB":10073,"cAFCE":10074,"cAFECB":10075,"dcDB":10076,"xFc":10077,"DExE":10078,"Ġgfba":10079,"dGc":10080,"cEd":10081,"ACFCACFC":10082,"ĠcAea":10083,"EFEC":10084,"EFGG":10085,"ĠBGgB":10086,"gagefdef":10087,"Ġcddd":10088,"ĠFADB":10089,"ĠFDCB":10090,"intro":10091,"AFAc":10092,"Dmaj":10093,"aeDA":10094,"aest":10095,"ĠTFE":10096,"ĠTfed":10097,"ĠTAGA":10098,"bBDF":10099,"ĠABca":10100,"ĠEFGG":10101,"ĠGEed":10102,"gcecG":10103,"Bdgd":10104,"acEG":10105,"edcBAG":10106,"Ġddgd":10107,"bfcG":10108,"ĠFGAf":10109,"ĠBBdd":10110,"cAGFC":10111,"dcBE":10112,"AGEDG":10113,"bgeA":10114,"ĠuC":10115,"ĠfAce":10116,"ĠfAeg":10117,"ony":10118,"ĠGEEg":10119,"ĠGcEG":10120,"AGDCB":10121,"gbeg":10122,"Fdim":10123,"ĠcABF":10124,"repeat":10125,"197":10126,"EGBE":10127,"gecAGC":10128,"ans":10129,"aedGE":10130,"plet":10131,"ugh":10132,"CEGEFAcA":10133,"Ġcaca":10134,"ĠAgfa":10135,"PMTuCOMB":10136,"otch":10137,"xffxf":10138,"CEGcecGE":10139,"Plaintive":10140,"ABGA":10141,"Aceg":10142,"CDDD":10143,"Exc":10144,"Gcc":10145,"Tfd":10146,"aAEDA":10147,"cgfed":10148,"dEDCG":10149,"fDE":10150,"fECB":10151,"fbd":10152,"fxex":10153,"gDC":10154,"gEDB":10155,"rea":10156,"rAP":10157,"xcdc":10158,"xAGA":10159,"xFAc":10160,"xCEF":10161,"xaff":10162,"Ġ'":10163,"Ġis":10164,",/<":10165,",,,,,]|[":10166,"ECEB":10167,"Ġdbf":10168,"ĠdFED":10169,"ĠAaaa":10170,"ĠBFEF":10171,"ĠcDFA":10172,"ĠcCEG":10173,"GEED":10174,"BGFA":10175,"BGFDF":10176,"ĠEdd":10177,"BAAF":10178,"BAFDG":10179,"ecfF":10180,"edGG":10181,"edcBc":10182,"edFBd":10183,"AGFx":10184,"cBcG":10185,"geDA":10186,"geAC":10187,"cdcf":10188,"cdGBG":10189,"Ġbeee":10190,"dAe":10191,"dAeAdA":10192,"FFFD":10193,"ĠedAG":10194,"FGAD":10195,"xExA":10196,"BFcFcF":10197,"GAe":10198,"xCxG":10199,"BGEDD":10200,"dBGFF":10201,"deG":10202,"cEdF":10203,"ĠcAde":10204,"ĠcAaA":10205,"ĠcBed":10206,"ĠGBED":10207,"ĠGBge":10208,"CDFA":10209,"fFAFcFfF":10210,">|:!":10211,"eGCB":10212,"ddcd":10213,"aAGD":10214,"ĠagB":10215,"Ġagc":10216,"gBc":10217,"inor":10218,"ĠceAA":10219,"Bcec":10220,"aeae":10221,"ĠTime":10222,"bBDD":10223,"ĠGFEB":10224,"babc":10225,"fdBAF":10226,"ĠeAgf":10227,"gcCC":10228,"gcFDG":10229,"FxFE":10230,"ĠBABcde":10231,"Ġ|\"^?\"":10232,"acDB":10233,"gecGF":10234,"gecBGDB":10235,"ĠdBAE":10236,"ĠEDEB":10237,"ĠEDFG":10238,"Ġbgdc":10239,"Ġcdee":10240,"Ġdedd":10241,")\"{":10242,"gdBAG":10243,"exfx":10244,"beEB":10245,"beBA":10246,"begae":10247,".\"{":10248,"ĠFFGG":10249,"ĠfBec":10250,"ĠfBed":10251,"ĠBcBF":10252,"203":10253,"gxff":10254,"Ġagac":10255,"Ġdcdefd":10256,"dFBdeB":10257,"dFBdBGdB":10258,"Ġadfe":10259,"agfedc":10260,"'>.":10261,"cFAcdGBG":10262,"gBGDA":10263,"bgdE":10264,"bgdDG":10265,"BGFDE":10266,"){^":10267,"Ġcaed":10268,"gecGCC":10269,"eGBedFBd":10270,"ĠPF":10271,"Ġfbbf":10272,"xxxxxxE":10273,"Ġgefc":10274,"Ġeeeg":10275,"aedE":10276,"AdAdedA":10277,"cgcfgc":10278,"bfeE":10279,"AAFAFD":10280,"Ebmaj":10281,"ĠFdEd":10282,"CDCDCDCD":10283,"EEDCDC":10284,"CxCxCxCx":10285,"Solo":10286,"BDFBcFAc":10287,"BGdBeGBG":10288,"hythm":10289,"cdcAGAGA":10290,"xfdffdff":10291,"ecfFAF":10292,"Agf":10293,"BfA":10294,"GcC":10295,"MBA":10296,"]>(":10297,"aDCA":10298,"bEDB":10299,"dafd":10300,"dGBd":10301,"dAFCD":10302,"dxBxB":10303,"gAFD":10304,"ib":10305,"pt":10306,"pause":10307,"ru":10308,"rall":10309,"xfa":10310,"xdddd":10311,"}\"_":10312,"ĠNo":10313,",,,,,-]|[=":10314,"Ġdzc":10315,"ĠBbge":10316,"ĠBgeg":10317,"ĠeeB":10318,"ĠegG":10319,"Ġezd":10320,"ĠGECA":10321,"ĠGzA":10322,"Ġcfcf":10323,"CAA":10324,"ĠFcB":10325,"ĠFCD":10326,"ĠFCDE":10327,"ĠEm":10328,"ĠEAD":10329,"cAGCA":10330,"ĠDGD":10331,"Ġadc":10332,"Ġadef":10333,"BADD":10334,"BAFDC":10335,"edAF":10336,"eddd":10337,"fda":10338,"AABc":10339,"cBFDA":10340,"cBCB":10341,"cBGED":10342,"cBFx":10343,"geGEA":10344,"cdgf":10345,"FEFEF":10346,"EGFB":10347,"dAGDD":10348,"GCGEG":10349,"xBcB":10350,"eBDG":10351,"eBEDB":10352,"Ġfdba":10353,"xDxGx":10354,"xFGB":10355,"BDCB":10356,"ĠBccA":10357,"ĠGBFG":10358,"Ġdfgd":10359,"ĠBAGFE":10360,"eGCF":10361,"bgBEB":10362,"xxxxxE":10363,"dBFCG":10364,"fBEE":10365,"eeef":10366,"ĠTC":10367,"bBECG":10368,"Ebdim":10369,"xcxB":10370,"ĠGABD":10371,"ĠeAfe":10372,"fdAd":10373,"BGBe":10374,"Ġddad":10375,"ĠAAAE":10376,"gdBC":10377,"gdBDD":10378,"ĠBeGB":10379,"Ġccf":10380,"geBEC":10381,"gdBGDE":10382,"ĠeBce":10383,"fedAFDA":10384,"ĠGFGe":10385,"bgeF":10386,"ĠGEEd":10387,"Ġadcd":10388,"Ġadag":10389,"Ġadad":10390,"ĠEBdB":10391,"ĠFEFd":10392,"\"{=":10393,"cfefc":10394,"edBAB":10395,"cFDCF":10396,"ĠAEFD":10397,"Ġ(.[":10398,"CEAECE":10399,"ĠGBAGFE":10400,"Ġ::\"^*\"":10401,"ĠBdcBA":10402,"Ġbdgd":10403,"reit":10404,"ĠdDDB":10405,"xDxDD":10406,"gfedcB":10407,"ign":10408,"228":10409,"DFGx":10410,"PMTuCOMD":10411,"PMTuCOMd":10412,"ExCxG":10413,"ĠĠĠĠ":10414,"xffxffxf":10415,"Ġsetting":10416,"xCCCCB":10417,"ĠWritten":10418,"adgdadgd":10419,"Pia":10420,"fdadedd":10421,"Ġquick":10422,"Ġverse":10423,"FAFAFAFA":10424,"Quadril":10425,"$?":10426,"']|[=":10427,"'-]=":10428,"-\"^/":10429,"AAGG":10430,"Bold":10431,"Con":10432,"DFDG":10433,"DEGc":10434,"EAF":10435,"FcB":10436,"FINE":10437,"GxBx":10438,"IO":10439,"Tdcd":10440,"aECF":10441,"cgfcgc":10442,"dFEDA":10443,"end":10444,"fBGDG":10445,"fafd":10446,"gGDD":10447,"jed":10448,"lu":10449,"uoso":10450,"xaf":10451,"xABd":10452,"Ġlast":10453,"ĠdGF":10454,"ĠdbB":10455,"ĠdgeB":10456,"ĠdDDD":10457,"ĠAm":10458,"ĠAGEE":10459,"ĠAdGd":10460,"ĠBgb":10461,"FDGD":10462,"Ġcgfe":10463,"BGFCA":10464,"BGAG":10465,"EBD":10466,"EBAB":10467,"ĠDEBE":10468,"ĠDzD":10469,"ecGEB":10470,"ecBc":10471,"ecAFEC":10472,"ecGECE":10473,"AEAEA":10474,"DGDA":10475,"GBdd":10476,"fdFCA":10477,"fdAFDF":10478,"AAAB":10479,"FBD":10480,"ABC":10481,"CFAFC":10482,"geECA":10483,"gefe":10484,"geBFB":10485,"efgab":10486,"Ġbreit":10487,"EGAE":10488,"feAFE":10489,"dAGEA":10490,"DCxC":10491,"afdBD":10492,"ĠCEDF":10493,"gfcc":10494,"CEFC":10495,"agdD":10496,"ĠBAcd":10497,"ĠBGge":10498,"fFc":10499,"ĠBAGc":10500,",>(":10501,",>)":10502,"ĠFAed":10503,"bgecE":10504,"fcFG":10505,"gBe":10506,"fAcA":10507,"fAdf":10508,"ĠFDdB":10509,"Ġafgb":10510,"ĠedBB":10511,"ĠTcBA":10512,"ĠTon":10513,"badB":10514,"Ġgac":10515,"Ġgaef":10516,"ĠEFGD":10517,"gcGDB":10518,"gcEG":10519,"Ġ|\"^**\"":10520,"gecg":10521,"ĠEGe":10522,"bfcC":10523,"ĠADcD":10524,"Ġabba":10525,"ĠBBfB":10526,"bdGDB":10527,"abaf":10528,"ĠABcdec":10529,"ĠDBfB":10530,"Ġ{=":10531,"Ġffgf":10532,"ĠEBBB":10533,"xbb":10534,"EFGx":10535,"AGDCF":10536,"ĠBFdF":10537,"ĠceAd":10538,"Ġaaab":10539,"bbbc":10540,"cGFEC":10541,"dGEDA":10542,"ĠcEAG":10543,"acAB":10544,"Ġedcdef":10545,"Ġdddg":10546,"gedA":10547,"ĠCFEG":10548,"ĠeBBg":10549,"ĠdDDf":10550,"bgfdB":10551,"Ġabgb":10552,"...":10553,"fxfxf":10554,"Not":10555,"dccBBAAG":10556,"GGFEFD":10557,"________":10558,"polka":10559,"aestoso":10560,"cgfedecx":10561,"reak":10562,"jeder":10563,"!<(!":10564,",)\"":10565,":\"\"^*\"":10566,">{^":10567,"AcC":10568,"Aphr":10569,"BBAA":10570,"GdBG":10571,"adf":10572,"axgx":10573,"bcAF":10574,"bxd":10575,"cBGDB":10576,"ccBc":10577,"dcAEA":10578,"fGECA":10579,"fbe":10580,"su":10581,"ved":10582,"xBGD":10583,"xDDDD":10584,"xAAAA":10585,",]\"^":10586,"ĠeBAG":10587,"ĠGFFF":10588,"ĠGged":10589,"Ġczd":10590,"BGAF":10591,"ĠFed":10592,"EBEBE":10593,"ĠEFBF":10594,"cAdc":10595,"Ġaceg":10596,"BAa":10597,"AEEAA":10598,"AGg":10599,"GBFGB":10600,"fddc":10601,"fdAFF":10602,"CFEC":10603,"cBECG":10604,"geGED":10605,"FExE":10606,"ĠedcF":10607,"ĠCECA":10608,"ĠCcc":10609,"DFxA":10610,"xCECG":10611,"dcDD":10612,"ĠBddG":10613,"EFc":10614,"eACG":10615,"ĠBced":10616,"ĠBGec":10617,"gaec":10618,"bgcA":10619,"bgGG":10620,"fcBA":10621,"gBCA":10622,"fBx":10623,"baeE":10624,"Ġgaed":10625,"ĠAdg":10626,"Bmix":10627,"DxCA":10628,"Acg":10629,"acFC":10630,"edcBG":10631,"ĠdBAg":10632,"fcAECF":10633,">^^":10634,"Ġabe":10635,"ĠAGEd":10636,"ĠdAe":10637,"afdDD":10638,"afdcAF":10639,"ĠBEGF":10640,"bdDG":10641,"xfFA":10642,"AGFECA":10643,"beBF":10644,"Ġ!>!^":10645,"ĠFFAF":10646,"]\"^/\"":10647,"tri":10648,"ĠDDED":10649,"ABAGF":10650,"ĠECEA":10651,"ĠGcBG":10652,"ĠcGec":10653,"gBGFDB":10654,"Ġ||\"^\\\"":10655,"ĠADDC":10656,"ĠGddB":10657,"ĠMf":10658,"Acea":10659,"\"\"_?\"":10660,"Ġdaag":10661,"eeeeee":10662,"CEGEGF":10663,"xEEx":10664,"ĠegBe":10665,"DEFGABcd":10666,"Ġtwice":10667,"FEFDEFDE":10668,"iger":10669,"gliss":10670,"!{":10671,"Aaa":10672,"Acdc":10673,"BcE":10674,"BdBE":10675,"EEDE":10676,"FcAF":10677,"FGEF":10678,"Gee":10679,"MB":10680,"aFDG":10681,"acGECG":10682,"cEDC":10683,"cond":10684,"dGFE":10685,"exx":10686,"fBAE":10687,"gfdAFDA":10688,"lA":10689,"per":10690,"was":10691,"xdBG":10692,"xac":10693,"xEDC":10694,"xGBd":10695,",/(":10696,"ĠACEA":10697,"ĠAzB":10698,"DBd":10699,"DBxB":10700,"ĠBAFF":10701,"ĠBeBe":10702,"FDFG":10703,"Ġcceg":10704,"CACF":10705,"GEcGE":10706,"Ġfzd":10707,"Ġfze":10708,"ĠgGGG":10709,"ĠFfed":10710,"ĠFEEE":10711,"ĠFAGA":10712,"ĠacBc":10713,"dBECB":10714,"dBFEDB":10715,"BAf":10716,"xxxc":10717,"fdfa":10718,"AAcd":10719,"GGxG":10720,"CFFFF":10721,"cBBAAG":10722,"geEG":10723,"GFEDE":10724,"dAECG":10725,"dADE":10726,"cGCD":10727,"ĠABcE":10728,"xExFx":10729,"CEcCG":10730,"DFxB":10731,"eBFDG":10732,"DEGB":10733,"cCc":10734,"decA":10735,"ĠcAAE":10736,"EFECG":10737,"ecAGF":10738,"gdEB":10739,"CDEB":10740,"eGdG":10741,",>.":10742,"bgGE":10743,"bgfdG":10744,"ddde":10745,"aACC":10746,"fcEC":10747,"Ġcefd":10748,"ĠBcdcBA":10749,"eeeee":10750,"ĠTGF":10751,"ĠTede":10752,"dfbd":10753,"xccB":10754,"xccx":10755,"eBGCC":10756,"GEGBG":10757,"ecGecG":10758,"Gxe":10759,"AxAB":10760,"ĠeAag":10761,"gcx":10762,"gcCA":10763,"AcCGB":10764,"Ġ|\"^->":10765,"Ġ|\"^^\"":10766,"ack":10767,"gecBGC":10768,"fcAEA":10769,"Ġddec":10770,"ĠAAg":10771,"ĠAAdf":10772,"Ġbaef":10773,"Ġbaaa":10774,"fGFDB":10775,"Ġgbc":10776,"ĠDGFD":10777,"faa":10778,"abga":10779,"beBB":10780,"ĠfAef":10781,",,,]|_":10782,"ĠFFFA":10783,"ĠFAAg":10784,"Ġfcfc":10785,"dcAFDA":10786,"Ġdfea":10787,"bgdGDG":10788,"ĠAFFe":10789,"GxGAGC":10790,"ACGC":10791,"gedcG":10792,"244":10793,"199":10794,"Ġfedefd":10795,"DxDxDx":10796,"ĠgAce":10797,"EGEGE":10798,"gecAGECA":10799,"ĠDGBD":10800,"afeB":10801,"Ġdgfedc":10802,"Ġbffe":10803,"vely":10804,"ĠFADf":10805,"Ġmo":10806,"ĠbBdf":10807,"DDCCB":10808,"Ġpfig":10809,"ĠaBfB":10810,"ĠeEEg":10811,"ĠADAc":10812,"Ġeegg":10813,"Ġcgcg":10814,"ebeaebega":10815,"ABBBBAA":10816,"xAcAecAc":10817,"Ġplay":10818,"Repeat":10819,"Quadrille":10820,"CEcCGBCG":10821,"({/":10822,"AcAG":10823,"BcAG":10824,"CFCB":10825,"Sh":10826,"aDC":10827,"aFG":10828,"aGECG":10829,"ccde":10830,"cfx":10831,"cTB":10832,"ccdd":10833,"eaf":10834,"eFDG":10835,"fae":10836,"gDF":10837,"gbag":10838,"ist":10839,"rone":10840,"udc":10841,"uefg":10842,"xGEC":10843,"xCFG":10844,"Ġ\\\"":10845,"ĠdFFF":10846,"ĠAECA":10847,"ĠeaA":10848,"ĠeBcd":10849,"Ġebd":10850,"ĠGAFE":10851,"ĠGDAD":10852,"ĠcFFF":10853,"GEcG":10854,"BGe":10855,"ĠEgec":10856,"ĠEFCE":10857,"cAAF":10858,"ĠDDG":10859,"ĠDDGG":10860,"ĠaF":10861,"ĠaeA":10862,"Ġaede":10863,"dBAFDG":10864,"BADC":10865,"ecGED":10866,"GBF":10867,"EAGE":10868,"fdAFC":10869,"AAa":10870,"AAe":10871,"GECGEG":10872,"gecAD":10873,"geBAE":10874,"GFd":10875,"EEEA":10876,"arm":10877,"feAGG":10878,"BBF":10879,"xAcd":10880,"afef":10881,"afedA":10882,"ĠCDD":10883,"ĠCEEE":10884,"gfdBFD":10885,"BFdB":10886,"CEEC":10887,"CEFGF":10888,"DEFx":10889,"dege":10890,"dexg":10891,"dDCF":10892,"Ġdcf":10893,"ĠBdag":10894,"EFEB":10895,"eAf":10896,"eAx":10897,"ceb":10898,"Ġcdfe":10899,"gGFCA":10900,"ĠGAe":10901,"bgFDB":10902,"fcc":10903,"ABcBA":10904,"ĠceAF":10905,"ĠAcdB":10906,"BcBAG":10907,"ĠegdG":10908,"Ġeggb":10909,"baeA":10910,"ĠgfeA":10911,"Ġgaec":10912,"fged":10913,"Aca":10914,"acFA":10915,"gecGD":10916,"gecEG":10917,"gecGA":10918,"adb":10919,"Ġbabf":10920,">\"^[":10921,"ĠGGBA":10922,"fGFD":10923,"ĠBBcA":10924,"ĠccBG":10925,"afdcF":10926,"Ġgdba":10927,"gdBGFD":10928,"ĠeBg":10929,"deff":10930,".\"!":10931,"ĠDGGg":10932,"]\"^+\"":10933,"ĠGEEf":10934,"afcCF":10935,"Ġadab":10936,"ĠEBed":10937,"ĠEEGG":10938,"Ġgcgb":10939,"ĠFddF":10940,"ĠcABe":10941,"ĠGddG":10942,"eBAD":10943,"alt":10944,"Ġmajor":10945,"efde":10946,"aedD":10947,"roll":10948,"ĠdDDE":10949,"]>[^":10950,"xEEFG":10951,"fedBAFDD":10952,"xffx":10953,"DCDCDCDC":10954,"xDFDECA":10955,"Minore":10956,"Largo":10957,"gegaeg":10958,"ĠAfGe":10959,"##":10960,"'!":10961,"<\"":10962,"Aac":10963,"Bar":10964,"Bex":10965,"FcAc":10966,"Gef":10967,"Mc":10968,"TFD":10969,"ade":10970,"aBFD":10971,"aAECF":10972,"bm":10973,"ct":10974,"cefg":10975,"dcGECG":10976,"fGCG":10977,"fBGA":10978,"fxdx":10979,"ier":10980,"xECG":10981,"xGFG":10982,"xEEEE":10983,"~~\"":10984,",,)":10985,"'/^":10986,",])":10987,"ĠdzA":10988,"ĠdzG":10989,"ĠeGc":10990,"set":10991,"sehr":10992,"Ġgcd":10993,"ĠgdA":10994,"Ġgcde":10995,"ĠFdBG":10996,"ĠFdBF":10997,"DADB":10998,"cAFDG":10999,"ĠDGEG":11000,"ĠaABc":11001,"Ġaafa":11002,"dBa":11003,"dBcA":11004,"FDBF":11005,"ecFDA":11006,"AEAG":11007,"Ġ:|!":11008,"DGFE":11009,"GBdf":11010,"EAee":11011,"FAde":11012,"DDGE":11013,"ĠbG":11014,"Ġbz":11015,"FFGA":11016,"ĠABdc":11017,"BFGF":11018,"GAAG":11019,"xDxF":11020,"dcFDG":11021,"dBGDCG":11022,"EFEDE":11023,"EFdEF":11024,"ĠBAa":11025,"ĠBGgf":11026,"gaed":11027,"CDEE":11028,"ĠcddG":11029,"Ġgetragen":11030,"gGc":11031,"gGFD":11032,"ddec":11033,"ĠFDcA":11034,"Ġafce":11035,"Ġaffc":11036,"Ġ|{_":11037,"ĠAcDF":11038,"Bccc":11039,"xxxxC":11040,"aeBAE":11041,"bBe":11042,"Ġedcf":11043,"ĠFEGE":11044,"gcg":11045,"gcGEB":11046,"AcecA":11047,"ĠBABg":11048,"gecGB":11049,"adED":11050,"cBAGB":11051,"Ġbabd":11052,"eFEB":11053,"bfDF":11054,"Adagio":11055,"xfgf":11056,"AGFECB":11057,"beGE":11058,"ĠeBdc":11059,"gfedB":11060,"Ġ!>!=":11061,"aecGC":11062,"Ġgedd":11063,"GABcde":11064,"ĠGFEDEF":11065,"ĠECCG":11066,"agfa":11067,"ĠBFFA":11068,"cAFDCF":11069,"ĠfccB":11070,"ĠAcBAGF":11071,"ĠCDFA":11072,"cFCE":11073,"ĠcGcG":11074,"ĠaAg":11075,"gBGA":11076,"fcFCG":11077,"CDEFE":11078,"ĠAaaA":11079,"eAFECA":11080,"bfdBA":11081,"ĠBDFB":11082,"Ġbegf":11083,"ĠGBBg":11084,"ĠCCCE":11085,"eBFEB":11086,"DFBx":11087,"usic":11088,"Ġstrain":11089,"Ġagfgaf":11090,"AAAAx":11091,"FECFECFE":11092,"ĠCGG":11093,"FGEx":11094,"xCEx":11095,"xgxfe":11096,"hetto":11097,"ĠEeeg":11098,"gdBFCG":11099,"gxgxg":11100,"ĠGBEe":11101,"xcxcxcxc":11102,"Scotch":11103,"rAPhlich":11104,"ruh":11105,"!\"^":11106,"\"\"^(":11107,"Aedc":11108,"Do":11109,"Ddd":11110,"FFEF":11111,"Ggf":11112,"Mg":11113,"abf":11114,"acAG":11115,"adAFDD":11116,"bedG":11117,"dcAFE":11118,"eAECE":11119,"eAGECA":11120,"fxB":11121,"fFDC":11122,"gfdAD":11123,"red":11124,"uAG":11125,"xfc":11126,"xbf":11127,"xGGGG":11128,"ĠAAE":11129,"ĠAeAe":11130,"ĠBGEE":11131,"ĠGFB":11132,"ĠccG":11133,"ĠcBF":11134,"Ġcbge":11135,"ĠcAEG":11136,"ĠcDAD":11137,"Ġfcdc":11138,"Ġggec":11139,"AFEDCB":11140,"BGFCG":11141,"ĠFBAG":11142,"EBx":11143,"ĠEgE":11144,"ĠEEDE":11145,"ĠEFFF":11146,"cAg":11147,"ĠDdFd":11148,"ĠaS":11149,"Ġaagf":11150,"Ġaza":11151,"dBAGF":11152,"CGcB":11153,"BAg":11154,"BAxG":11155,"ecDD":11156,"AEGA":11157,"Ġ:|\"_":11158,"AGd":11159,"GBcd":11160,"EAC":11161,"AAcc":11162,"AAAGA":11163,"ABdA":11164,"cBxA":11165,"cBfB":11166,"gecAEC":11167,"FEc":11168,"ard":11169,"DCCA":11170,"xAde":11171,"afb":11172,"afAFE":11173,"ĠCBA":11174,"ĠCoda":11175,"gfcGC":11176,"gfcAGG":11177,"CEGEG":11178,"cAFx":11179,"GAf":11180,"GAcd":11181,"Ġefag":11182,"dcxB":11183,"xFFE":11184,"xFxFx":11185,"dBGBd":11186,"dBGFED":11187,"gdCG":11188,"gdFG":11189,"ĠBAGABc":11190,"ĠceEG":11191,"fBDF":11192,"dfaf":11193,"ĠGFAG":11194,"BAGc":11195,"ACACGCGC":11196,"Bdfd":11197,"AceB":11198,"adDB":11199,"ĠEGGD":11200,"cBAx":11201,"ĠdedF":11202,"ĠADAF":11203,"ĠBBed":11204,"ĠDGdG":11205,"DEFEB":11206,"ĠBGEc":11207,"eBGEDG":11208,"AGEFCA":11209,",,,,,-|[":11210,"bcb":11211,"Ġvariation":11212,"aecAED":11213,"ĠFBfe":11214,"ĠAAAa":11215,"ĠBgdc":11216,"aeACA":11217,"Ġaaba":11218,"bgdGG":11219,"ĠGDED":11220,"ĠcEAE":11221,"CEAx":11222,"lively":11223,"Ġbdbd":11224,"ĠGddc":11225,"FGFED":11226,"FcecF":11227,"Ġgagfed":11228,"ĠPfe":11229,"AxAxAx":11230,"DxDE":11231,"ĠDddA":11232,"beBEF":11233,"ĠaAAd":11234,"BxBxBxB":11235,"aedAE":11236,"uet":11237,"ĠCGP":11238,"CEGEcGE":11239,"GFGFGF":11240,"CDEFGABc":11241,"Ġonce":11242,"cxcxcxcx":11243,"undotted":11244,"DBFBDBFB":11245,"armony":11246,"'-|=":11247,",!":11248,"BcAB":11249,"CFCE":11250,"EGEE":11251,"FdBF":11252,"aED":11253,"aFDD":11254,"axb":11255,"bCC":11256,"bfg":11257,"bFDG":11258,"ccGA":11259,"dgc":11260,"dECF":11261,"exG":11262,"ead":11263,"fGECG":11264,"fGFG":11265,"frAPhlich":11266,"gDCA":11267,"gGCE":11268,"lef":11269,"ra":11270,"schnell":11271,"xdf":11272,"xbe":11273,"xEGc":11274,"Ġ-\"":11275,",/\"":11276,"'/).":11277,"ĠAeg":11278,"ĠBDDE":11279,"GEGED":11280,"ĠfABc":11281,"ĠgAB":11282,"ĠFGD":11283,"ĠEEBE":11284,"DAxDF":11285,"cAec":11286,"cAxc":11287,"ĠDcd":11288,"ĠDECE":11289,"ĠDdcA":11290,"dBCG":11291,"BAEDA":11292,"ecBB":11293,"edAED":11294,"edBGA":11295,"GBeBG":11296,"GBdx":11297,"EDEG":11298,"EAxB":11299,"fdcAFD":11300,"AAAF":11301,"AAcA":11302,"ABcdc":11303,"CFFF":11304,"cBEDA":11305,"cBGEA":11306,"geCB":11307,"geGECC":11308,"gedBB":11309,"gegx":11310,"GFGE":11311,"EEEC":11312,"efedc":11313,"FExA":11314,"feBFB":11315,"CCDxDD":11316,"cGd":11317,"ĠCEGA":11318,"GAcA":11319,"GABAG":11320,"xDxA":11321,"xCDx":11322,"\"^_\"":11323,"cEAE":11324,"cEFc":11325,"ecAEDCA":11326,"ĠBGAA":11327,"gdedc":11328,"gdGEA":11329,"dFECF":11330,"eGFA":11331,"ĠdefA":11332,"aACE":11333,"fcx":11334,"fAdA":11335,"Ġcegece":11336,"Ġfaae":11337,"ĠBcdefg":11338,"ĠFGd":11339,"aeEC":11340,"ĠTcAA":11341,"ĠdcBB":11342,"xcxcx":11343,"xcxExCx":11344,"ĠAda":11345,"ĠAdFD":11346,"ĠAdgf":11347,"cccA":11348,"ĠeacA":11349,"ExAE":11350,"BddB":11351,"acCF":11352,"edcGEC":11353,"BcdcB":11354,"gecECA":11355,"egfd":11356,"adcB":11357,"ĠAAdA":11358,"cBAD":11359,"cBAECA":11360,"fcAFCG":11361,"geBEA":11362,"bdGDG":11363,"ĠdGAG":11364,"dcBFDB":11365,"ĠBAFd":11366,"bgeg":11367,"xgb":11368,"dBAGDB":11369,"ĠFFFE":11370,"dFBF":11371,"ĠDEGc":11372,"ĠECCF":11373,"fgac":11374,"ĠGced":11375,"ĠBFBA":11376,"DDDxB":11377,"eaed":11378,"dcAFDC":11379,"Ġaaef":11380,"ĠcFFE":11381,"Ġ:|\"^\\\"":11382,"CEAECA":11383,"gedE":11384,"ĠMC":11385,"fBGFDB":11386,"ĠPD":11387,"afeD":11388,"DADGD":11389,"Ġbfbf":11390,"ĠgGGB":11391,"Ġgbac":11392,"cGBc":11393,"bgfF":11394,"/\"^=\"":11395,"xDDDxCC":11396,"GxAxB":11397,"xExExExE":11398,"etwas":11399,"xECEDEB":11400,"Ġthro":11401,"aintively":11402,"EEExCCCx":11403,"own":11404,"bbggffe":11405,"ĠEBGe":11406,"ĠcaAc":11407,"triplet":11408,"ruhig":11409,"'-][_":11410,"275":11411,"AAFA":11412,"BeBG":11413,"EFDF":11414,"MABc":11415,"Tb":11416,"Time":11417,"])(":11418,"aEF":11419,"aAECE":11420,"adBGDG":11421,"bCE":11422,"cfd":11423,"cfA":11424,"dAGEC":11425,"excx":11426,"fGEDB":11427,"fGFE":11428,"fBFDF":11429,"fBGFD":11430,"fAFDCD":11431,"gxx":11432,"gce":11433,"ggc":11434,"gFCB":11435,"gAFB":11436,"gxfx":11437,"xEDE":11438,"xFEF":11439,"xDGB":11440,"xggg":11441,"Ġ5":11442,"Ġone":11443,"'/=":11444,"ĠdDF":11445,"Ġdbgd":11446,"Ġdzg":11447,"ĠAAFF":11448,"ĠAaea":11449,"ĠBaB":11450,"ĠBDFA":11451,"ĠeEEG":11452,"ĠGDDD":11453,"ĠcGB":11454,"GEFE":11455,"Ġfirst":11456,"BGCD":11457,"BGFED":11458,"BGFEG":11459,"ĠFfd":11460,"ĠEDGB":11461,"ĠEDGA":11462,"ĠEdEd":11463,"cAdB":11464,"ĠDdBG":11465,"dBAFF":11466,"CGCFC":11467,"ecdc":11468,"ecBGEB":11469,"ecGECB":11470,"edcC":11471,"edEDA":11472,"AGFEG":11473,"fdECA":11474,"fdgf":11475,"geGCG":11476,"DDFA":11477,"DDEFE":11478,"efdB":11479,"Ġbae":11480,"ĠbBdB":11481,"EGAc":11482,"feBA":11483,"feBGEB":11484,"CCCA":11485,"cGec":11486,"DCDB":11487,"FFGG":11488,"xGd":11489,"xGBG":11490,"FGe":11491,"afAE":11492,"afdBAF":11493,"xEc":11494,"ĠCEEF":11495,"dccc":11496,"ĠdBeg":11497,"Ġgffd":11498,"EFd":11499,"ecAGG":11500,"ecACC":11501,"Ġ|:\"_":11502,"gaA":11503,"dFdF":11504,"ĠcBAGF":11505,"ĠcBAGFG":11506,"Ġdfbg":11507,"cAEDB":11508,"bgEE":11509,"ddxd":11510,"ĠAFdc":11511,"aAECG":11512,"aACB":11513,"fcECA":11514,"fcEA":11515,"fcef":11516,"ĠagdB":11517,"gBEG":11518,"ĠceBA":11519,"aeAB":11520,"ĠTFEF":11521,"dfec":11522,"ĠdcBg":11523,"ĠAGFd":11524,"ĠAFDG":11525,"ĠGABE":11526,"ĠFEAE":11527,"Bcdefg":11528,"fcAFDA":11529,"Ġagfed":11530,"ĠFEDD":11531,"Bxb":11532,"bfDG":11533,"\"_?\"":11534,"cxa":11535,"gAe":11536,"ĠADd":11537,"ĠBEAE":11538,"Ġgdcd":11539,"GFDCD":11540,"Ġ!>!.":11541,"ĠDBBD":11542,"ĠDBFd":11543,"cdea":11544,"Ġfefb":11545,"bgecA":11546,"Ġcdefge":11547,"Ġfddb":11548,"BGECD":11549,".\"\"_":11550,"ĠfABA":11551,"fxb":11552,"fxgg":11553,"Ġgged":11554,"aecAD":11555,"ABAE":11556,"Ġaded":11557,"bagb":11558,"ĠEEFG":11559,"\"{/^":11560,"ecBEA":11561,"ecBECB":11562,"edBC":11563,">(=":11564,"ĠAffd":11565,"gBGDD":11566,"bgdGB":11567,"Ġabagfe":11568,"GAGFC":11569,"CDEx":11570,"ĠeGcG":11571,"CEGce":11572,"ĠBBBe":11573,"ĠBDd":11574,"DFBd":11575,"EGBGEGBG":11576,"EEEEG":11577,"fcBFCB":11578,"Ġdaad":11579,"ĠfdAa":11580,"fdcAFDC":11581,"ĠFEEd":11582,"ĠBdAg":11583,"DEAC":11584,"ĠeEEA":11585,"\"^+\"[":11586,"ExCxExCx":11587,"FDFDFDFD":11588,"dxABdxAB":11589,"#?\"":11590,"Aee":11591,"Bfc":11592,"EFDB":11593,"Eec":11594,"FBG":11595,"MF":11596,"PAR":11597,"Sign":11598,"TFEF":11599,"aGEA":11600,"aver":11601,"bFA":11602,"beBEB":11603,"dgfg":11604,"dGDCG":11605,"dxBx":11606,"dxex":11607,"eFDD":11608,"eGDE":11609,"egdgadg":11610,"fGCA":11611,"fTe":11612,"gBGEE":11613,"ns":11614,"nedited":11615,"op":11616,"ted":11617,"uFG":11618,"xGEB":11619,"xcdeg":11620,"xFEx":11621,"xbaa":11622,"zC":11623,"Ġle":11624,"ECCC":11625,"ĠdDGB":11626,"ĠADGF":11627,"DBc":11628,"ĠBDEF":11629,"ĠBGDE":11630,"ĠeS":11631,"Ġegae":11632,"ĠGDA":11633,"ĠGde":11634,"ĠGeg":11635,"ĠGDDE":11636,"ĠcGEF":11637,"GEGECGEG":11638,"ĠgBGB":11639,"Ġgbf":11640,"AFEDE":11641,"ĠFdf":11642,"ĠFECD":11643,"ĠFast":11644,"ĠEABd":11645,"cAGEE":11646,"ĠDS":11647,"Ġadfg":11648,"CGECG":11649,"ecGDCG":11650,"AEFG":11651,"edAFD":11652,"edcAFE":11653,"DGFG":11654,"AGBA":11655,"AGAGA":11656,"GBcB":11657,"EAD":11658,"ABD":11659,"ABce":11660,"geBGEE":11661,"geBGEC":11662,"geAGECA":11663,"DDxD":11664,"FEGF":11665,",,-]|_":11666,"feee":11667,"CCGE":11668,"BBBAB":11669,"cGecGE":11670,"FFf":11671,"FFxF":11672,"xGC":11673,"xGGB":11674,"CEAG":11675,"eBECG":11676,"Ġfdga":11677,"xCFC":11678,"ĠdBa":11679,"ĠdBFA":11680,"BGEDF":11681,"dBGECG":11682,"dBGedBGc":11683,"Ġdcce":11684,"eAGD":11685,"ĠBceB":11686,"gdFB":11687,"CDDB":11688,"ĠeceB":11689,"bgCA":11690,"bgaf":11691,"ĠAFGB":11692,"ĠAFdf":11693,"AEAc":11694,"fcDA":11695,"gBAFCA":11696,"ĠafTed":11697,"Ġfaac":11698,"Ġfadg":11699,"xxxxF":11700,"aeEB":11701,"ĠTdB":11702,"ĠTBAF":11703,"xccBAA":11704,"GEGc":11705,"ccf":11706,"GxGB":11707,"GEDGD":11708,"gcGDC":11709,"ĠdcBAB":11710,"adGD":11711,"ĠEDEA":11712,"Ġbass":11713,"xebgx":11714,"ĠFEDc":11715,"bfBE":11716,"ĠDFGF":11717,"BEBEBEBE":11718,"gADD":11719,"Ġabd":11720,"cAGFCA":11721,"bdCA":11722,"ĠdGdG":11723,"ĠDBFD":11724,"aecGA":11725,"ĠGFGc":11726,"ĠEFGe":11727,"GDDGEGE":11728,"ĠdBdb":11729,".\"\"":11730,"ĠAcee":11731,"ĠfAa":11732,"ĠfAg":11733,"Ġaeab":11734,"ĠDEDF":11735,"Ġgggd":11736,"aecAB":11737,"ABAD":11738,"ĠdAFd":11739,"Ġadaf":11740,"ĠdfedcB":11741,"ĠEBd":11742,"ĠGFGABG":11743,"ĠBFcF":11744,"Ġcffc":11745,"ĠCEEC":11746,"cAFDCB":11747,"DDDxD":11748,"edBAE":11749,"edBGEB":11750,"edBGED":11751,"ĠBAAa":11752,"dAGB":11753,"dGEDC":11754,"CDEGG":11755,"ĠAFFf":11756,"CEAcAEC":11757,"eAEG":11758,"ition":11759,"cEBE":11760,"DFBB":11761,"ĠdGGe":11762,"ĠEDDe":11763,"dGDGdG":11764,"Ġgddf":11765,"beBEA":11766,"ĠgGgG":11767,"icht":11768,"ĠBGAd":11769,"ĠFEEG":11770,"ĠFEEe":11771,"\"^*\"=":11772,"dxdxdxd":11773,"DGDx":11774,"bgfc":11775,"ĠFBBd":11776,"FEEFC":11777,"play":11778,"dfdgdfd":11779,"ĠDFFG":11780,"EAEAEAEA":11781,"ĠeEdE":11782,"dBcedBGc":11783,"Briskly":11784,"CGCFB":11785,"ffee":11786,"FEFGAGFA":11787,")\"_>\"":11788,"xFxFxFxF":11789,"fbfb":11790,"resto":11791,"verse":11792,"Larghetto":11793,"xddBddB":11794,"DDGEGEDG":11795,"GEGEDGDG":11796,"PART":11797,"-.":11798,"AS":11799,"Aae":11800,"AxBx":11801,"Bceg":11802,"BTB":11803,"CBA":11804,"CcGEeGfG":11805,"DFGA":11806,"Ddx":11807,"DGDE":11808,"EEDD":11809,"FcG":11810,"GAFG":11811,"Hm":11812,"Th":11813,"acAFCA":11814,"bED":11815,"becC":11816,"cgx":11817,"daA":11818,"eefg":11819,"eedd":11820,"fgef":11821,"gAB":11822,"gBAG":11823,"gBAEA":11824,"mo":11825,"si":11826,"tuoso":11827,"uDEF":11828,"xgfg":11829,"ĠN":11830,"Ġst":11831,",,,,-|":11832,"'/.":11833,"ĠAn":11834,"ĠBbB":11835,"ĠBEDE":11836,"Ġeeff":11837,"ĠGFFG":11838,"sed":11839,"ĠfBA":11840,"Ġfbg":11841,"ĠgdG":11842,"BGBGB":11843,"ĠFECA":11844,"ĠFecA":11845,"ĠFcBA":11846,"EBd":11847,"ĠEEA":11848,"DADAD":11849,"cAGECC":11850,"ĠDef":11851,"ĠDgf":11852,"Ġat":11853,"dBCB":11854,"BABx":11855,"ecEDB":11856,"eceg":11857,"FCAF":11858,"edGB":11859,"AGFEB":11860,"GBf":11861,"EDd":11862,"fdDG":11863,"fdDC":11864,"fdBGFD":11865,"GGC":11866,"GGe":11867,"ABdc":11868,"CFGA":11869,"cBBB":11870,"geDB":11871,"gedBF":11872,"geADA":11873,"EEGE":11874,"EEDA":11875,"Ġbbag":11876,"EGcGE":11877,"dABA":11878,"cGFCB":11879,"Ġeda":11880,"xAdfx":11881,"Ġ::\"^(":11882,"ĠABge":11883,"afECA":11884,"afBA":11885,"Ġeffa":11886,"xDxB":11887,"xCxE":11888,"dcgc":11889,"DEAG":11890,"agae":11891,"deed":11892,"Ġdcfe":11893,"cFdF":11894,"ĠAGd":11895,"ĠAGGD":11896,"cedB":11897,"ĠGBDE":11898,"cAEc":11899,"ĠGAdA":11900,"Ġfgb":11901,"Ġfgdc":11902,"fcDF":11903,"gBEA":11904,"ĠafcB":11905,"Ġceba":11906,"ĠedBa":11907,"dAFCG":11908,"dAFEDCA":11909,"Ġ!>(!":11910,"ĠAGFED":11911,"BGEBGEBG":11912,"ccec":11913,"ExDB":11914,"AxAG":11915,"ĠeAg":11916,"Acef":11917,"xexc":11918,"ĠGGg":11919,"ĠGGAF":11920,"bfBGE":11921,"ĠDFGB":11922,"FEDx":11923,"fGFB":11924,"gAGD":11925,"Ġcca":11926,"fafdA":11927,"bdb":11928,"bdg":11929,"ĠGABcdB":11930,"beGEB":11931,"bGd":11932,"GDDGE":11933,"Ġ\"^*":11934,"dFDE":11935,"ĠgBdf":11936,"ĠECCC":11937,"bagc":11938,"ĠEBe":11939,"ĠEEFF":11940,"ĠFGABcA":11941,"agfc":11942,"Ġfgfedc":11943,"edBDB":11944,"/)({":11945,"ĠAEGF":11946,"bgdGD":11947,"ĠGGGd":11948,"245":11949,"eBAFD":11950,"ĠMBAF":11951,"Gdgd":11952,"ĠCAB":11953,"ĠCAG":11954,"Ġ|\"_=":11955,"bdBDG":11956,"DFBdf":11957,"GCDGDB":11958,"fecFA":11959,"ile":11960,"ĠcGEc":11961,"\"\"_(":11962,"Ġbfae":11963,"ĠgGBG":11964,"BBBBBB":11965,"ĠfAAe":11966,"FxFxFx":11967,"DGDGDDGE":11968,"gfcfg":11969,"ĠcEEc":11970,"ĠEGAd":11971,"FGABcBAF":11972,"cAGFEC":11973,"FGBc":11974,"xgxgg":11975,"FxEFx":11976,"crs":11977,"ĠECAG":11978,"ĠBEBA":11979,"ĠBEBc":11980,"bfeBB":11981,"ther":11982,"ĠAzF":11983,"dBdBcBfB":11984,"ĠFAEc":11985,"Ġeecc":11986,"xABcecBA":11987,"ĠII":11988,"Ġsee":11989,"Playfully":11990,"FFAAcc":11991,"Gracefully":11992,"GAGAGAGE":11993,"BdF":11994,"BgeB":11995,"CH":11996,"EeB":11997,"EeE":11998,"FxBx":11999,"Gec":12000,"GdA":12001,"OR":12002,"Ro":12003,"SE":12004,"VAR":12005,"aAFCF":12006,"aAFDD":12007,"cxdx":12008,"ebd":12009,"eGECE":12010,"est":12011,"eede":12012,"fFCE":12013,"ggB":12014,"gcBE":12015,"vde":12016,"xBAB":12017,"xBAE":12018,"Ġ9":12019,",,,,,-]|[^":12020,",,,,,-]|":12021,"ĠdGE":12022,"ĠdEc":12023,"Ġdaga":12024,"ĠAEB":12025,"ĠACFA":12026,"ĠADAB":12027,"DBGD":12028,"DBxGE":12029,"Ġebb":12030,"ĠGddd":12031,"Ġcfdf":12032,"ĠcFAd":12033,"ĠcFAB":12034,"Ġcze":12035,"CAFC":12036,"GExD":12037,"GEedB":12038,"ĠgfdA":12039,"Ġggdg":12040,"ĠgBbB":12041,"ĠgeAc":12042,"AFAD":12043,"ĠFBG":12044,"ĠFdef":12045,"ĠEFDA":12046,"ĠEedB":12047,"DAGDB":12048,"cAAc":12049,"ĠDdA":12050,"Ġaddd":12051,"ĠaAe":12052,"dBCF":12053,"CGe":12054,"ecGDB":12055,"edGDG":12056,"edee":12057,"GBD":12058,"EDEDG":12059,"fdcAG":12060,"AAD":12061,"cBEDC":12062,"geAD":12063,"GFxG":12064,"GFECC":12065,"DDc":12066,"efB":12067,"EGdc":12068,"dAf":12069,"dAGED":12070,"cGAB":12071,"ĠedeA":12072,"Ġedad":12073,"xAe":12074,"xAxB":12075,"ĠABBG":12076,"ĠABFE":12077,"afFDA":12078,"xBxBx":12079,"ĠCDA":12080,"ĠCccB":12081,"gfdBB":12082,"eBFCA":12083,"DEc":12084,"DEGDE":12085,"ĠdBef":12086,"dBGd":12087,"dBGECA":12088,"deb":12089,"/)=":12090,"ĠcAcc":12091,"ĠBAfg":12092,"CDCC":12093,"ĠcdeB":12094,"Ġecbg":12095,"ĠFADD":12096,"ĠFAdd":12097,"cAEcA":12098,"ĠdBGe":12099,"fccc":12100,"gBCB":12101,"fADG":12102,"Ġceagec":12103,"ĠAcGF":12104,"ĠAcac":12105,"Ġegca":12106,"aeBF":12107,"aeBAEB":12108,"ĠTge":12109,"bBEE":12110,"xcBG":12111,"Ġgfee":12112,"ĠAGFEDC":12113,"ECCDE":12114,"ĠDEFGA":12115,"fdBAFDA":12116,"fdBafd":12117,"Ġeada":12118,"GDAD":12119,"xdef":12120,"CxEGFA":12121,"acg":12122,"acGDF":12123,"Ġagfc":12124,"eFdF":12125,"ĠBGBg":12126,"ĠBega":12127,"Ġgbec":12128,"ĠBBeB":12129,"ĠfdBB":12130,"ĠdGc":12131,"/>)":12132,"ĠDBd":12133,",,,-|[=":12134,"aecGECG":12135,"aecAFECF":12136,"gxax":12137,"ABAGA":12138,"ĠECEE":12139,"]/[^":12140,"ĠFBde":12141,"Ġbgea":12142,"ĠDAAF":12143,"ĠDAAB":12144,"ĠdFcA":12145,"cCGc":12146,"geGCC":12147,"ĠAEAE":12148,"ĠAEGB":12149,"dedG":12150,"/{^":12151,"ĠeGe":12152,"ĠeGeG":12153,"CEGx":12154,"ĠAeec":12155,"eBADB":12156,"FGFF":12157,"ĠPcB":12158,"dGGF":12159,"bdBC":12160,"DFBf":12161,"geBGECB":12162,"fefcfefc":12163,"ĠFDAc":12164,"gcAGF":12165,"ĠEeeB":12166,"Ġdace":12167,"ĠdDDe":12168,"eBebGd":12169,"Ġaddf":12170,"bgeBEA":12171,"\"^/@":12172,"ĠgBBc":12173,"ExDCB":12174,"BxAxG":12175,"!>!.":12176,"CCEEDC":12177,"GdBdG":12178,"ĠFdBg":12179,"ird":12180,"xefbx":12181,"Ġaaff":12182,"Ġaagg":12183,"gfdBGFDG":12184,"FxFxFxFx":12185,"Pizz":12186,"........":12187,"FceFcecF":12188,"istin":12189,"AceBdedB":12190,"Ġthrough":12191,"eBebGdbA":12192,"'-|^":12193,"Aef":12194,"AdAF":12195,"BeBe":12196,"DGEE":12197,"DEDD":12198,"Ef":12199,"Ecc":12200,"EGFG":12201,"EGGG":12202,"EEDCB":12203,"FGGF":12204,"GgGgG":12205,"]\\":12206,"]{/":12207,"aBFB":12208,"bDE":12209,"bGDA":12210,"caf":12211,"cecG":12212,"dxF":12213,"ft":12214,"fAFDC":12215,"fBFDD":12216,"gDE":12217,"gAGEC":12218,"gBAD":12219,"xDDE":12220,"Ġ7":12221,"Ġhe":12222,",,,,,[":12223,"'/)(":12224,"ĠdS":12225,"ĠdFE":12226,"ĠdFEF":12227,"Ġdbab":12228,"ĠABGD":12229,"DBAG":12230,"ĠBGDF":12231,"ĠBzG":12232,"ĠeEED":12233,"ĠGBFD":12234,"ĠGbag":12235,"Ġclef":12236,"CAx":12237,"ĠfAF":12238,"ĠffA":12239,"ĠfcdA":12240,"ĠgGFG":12241,",,]\"^":12242,"ĠEAEA":12243,"ĠEeBe":12244,"DAEA":12245,"cAxA":12246,"cAGEF":12247,"ĠDDC":12248,"ĠadB":12249,"Ġaac":12250,"Ġaafd":12251,"dBCE":12252,"BAAB":12253,"BAECF":12254,"xxb":12255,"FDBFDF":12256,"eca":12257,"AEFA":12258,"edxc":12259,"DGdGDGdG":12260,"GEBGEB":12261,"fdde":12262,"fdGFD":12263,"AAAx":12264,"FAdA":12265,"Ġzu":12266,"ABdB":12267,"CFCG":12268,"CFAG":12269,"cBg":12270,"EEEB":12271,"EEFF":12272,"DDCA":12273,"Ġbfg":12274,"ĠbBd":12275,"ĠbgeB":12276,"Ġbfff":12277,"are":12278,"EGcd":12279,"EGcGEG":12280,"EGCEG":12281,"cGAF":12282,"DCDF":12283,"DCDCD":12284,"FFGAG":12285,"ĠABg":12286,"FGBA":12287,"afAFDB":12288,"xExD":12289,"ĠCcBd":12290,"gfdBF":12291,"DFAG":12292,"ĠefB":12293,"Ġefcf":12294,"xDd":12295,"xCxF":12296,"dcec":12297,"dcGEG":12298,"xFxG":12299,"ĠdBbg":12300,"agcG":12301,"ĠgfgA":12302,"ĠcAdF":12303,"ĠBdba":12304,"eAGEB":12305,"Ġ.\"":12306,"ĠAGAA":12307,"ĠAGef":12308,"gdAB":12309,"CDEDC":12310,"Ġdfca":12311,"eGFDB":12312,"bgFD":12313,"bgedc":12314,"bgdBGG":12315,"dddB":12316,"fcEB":12317,"Ġagga":12318,"fAGE":12319,"ĠFDdF":12320,"Ġafad":12321,"fBg":12322,"fBFCF":12323,"bBFCA":12324,"BAGAB":12325,"babg":12326,"Ġgfeb":12327,"Ġgafe":12328,"ccg":12329,"GxDG":12330,"Dxd":12331,"Ġgfedef":12332,"gcBA":12333,"Acfc":12334,"EDADE":12335,"BcdG":12336,"Bcdd":12337,"Bcdec":12338,"gecBECB":12339,"ĠdBAe":12340,"ĠDFFB":12341,"ĠDFdc":12342,"Abm":12343,"FEDEx":12344,"Adcd":12345,"afdcC":12346,"bdGG":12347,"ĠeBeB":12348,"aEg":12349,"defed":12350,"ĠfAaf":12351,"Ġaeag":12352,"fxa":12353,"gxb":12354,"]\"^\\\"":12355,"Ġaddc":12356,"ĠECFD":12357,"ĠEBBc":12358,"xbxb":12359,"Ġgced":12360,"Ġbgeb":12361,"ĠDAd":12362,"ĠdFFE":12363,"edBGEE":12364,"Ġcdce":12365,"/)(^":12366,"cFDCG":12367,"cBGFDB":12368,"bbx":12369,"ĠBEEf":12370,"ĠcFd":12371,"ĠcFcA":12372,"ĠcFed":12373,"CEAB":12374,"CEACE":12375,"ĠBBBg":12376,"cGGFF":12377,"ĠcdedcB":12378,"fBGECB":12379,"fBGFDG":12380,"FcdB":12381,"EBEAE":12382,"Ġaecd":12383,"Tempo":12384,"ĠBdea":12385,"ĠAggf":12386,"Ġcedg":12387,"Ġmark":12388,"ĠaAAe":12389,"BxBcB":12390,"dcAFG":12391,"ĠcBBd":12392,"ĠcBBe":12393,"ĠEEEG":12394,"ĠBdGg":12395,"Ġadda":12396,"ĠFffe":12397,"AgAF":12398,"ĠcBGc":12399,"DFDBFDF":12400,"ĠSo":12401,"ĠStrain":12402,"lem":12403,"becBC":12404,"ĠcFFf":12405,"Ġdffee":12406,"ABcABF":12407,"ĠCccd":12408,"Ġacca":12409,"ĠGEBA":12410,"xFxFxF":12411,"CGEGCGEG":12412,"ECECEF":12413,"natur":12414,"ĠBfdb":12415,"FFFFFFBB":12416,"ExExExEx":12417,"ĠECGC":12418,"ECcdECcd":12419,"edecfefc":12420,"TRIO":12421,"fAdfafdA":12422,"ctave":12423,"!.":12424,"290":12425,"340":12426,":\\\"\"":12427,"Aex":12428,"Bff":12429,"BcAGE":12430,"CDDC":12431,"DcG":12432,"ExCx":12433,"FAGFE":12434,"Final":12435,"Gdx":12436,"Ggg":12437,"Ggx":12438,"MS":12439,"MDEF":12440,"Maestoso":12441,"Only":12442,"Song":12443,"axx":12444,"aCD":12445,"aGCA":12446,"aedc":12447,"adAFDA":12448,"bGA":12449,"bdAF":12450,"bxbx":12451,"cEDF":12452,"dcAC":12453,"duc":12454,"dTd":12455,"eFCB":12456,"ell":12457,"fCD":12458,"fece":12459,"fro":12460,"gCD":12461,"gECF":12462,"if":12463,"ruf":12464,"weg":12465,"xeB":12466,"xbg":12467,"xae":12468,"ĠV":12469,"Ġtr":12470,",,,,=":12471,"'/\"":12472,"ĠdfF":12473,"ĠAefe":12474,"ĠBED":12475,"ĠBeE":12476,"ĠBeG":12477,"ĠBfff":12478,"ĠBzd":12479,"ĠeGFE":12480,"ĠeEBE":12481,"ĠeEe":12482,"Ġezf":12483,"Ġezg":12484,"ĠGcGc":12485,"ĠcFEF":12486,"ĠcDc":12487,"Ġccee":12488,"Ġffgg":12489,"ĠgbB":12490,"BGGE":12491,"ĠFzF":12492,"ĠEef":12493,"ĠEccc":12494,"ĠEcAc":12495,"ĠDEEE":12496,"Ġaad":12497,"ĠacBA":12498,"dBfB":12499,"dBedc":12500,"dBFCB":12501,"dBAFE":12502,"dBAFG":12503,"ecCB":12504,"ecBEB":12505,"AExE":12506,"EDFB":12507,"EDEEE":12508,"fdcBA":12509,"fdAED":12510,"fdAEDA":12511,"ABcdef":12512,"CFED":12513,"cBDB":12514,"geFA":12515,"geaf":12516,"gecACA":12517,"EExEE":12518,"FExD":12519,"ĠbBBc":12520,"feAG":12521,"feAGE":12522,"dACG":12523,"FFFx":12524,"FFGAB":12525,"Ġedee":12526,"Ġ::{/":12527,"afCG":12528,"afFA":12529,"afADD":12530,"ĠCf":12531,"ĠCce":12532,"gfDB":12533,"gfecGC":12534,"CExC":12535,"CEcGecGE":12536,"xCCB":12537,"dcDA":12538,"dcBGF":12539,"xFxD":12540,"DEEB":12541,"ĠdBga":12542,"ĠdBbf":12543,"dGeG":12544,"ĠdcF":12545,"ACEA":12546,"ĠcAcB":12547,"ĠcAge":12548,"ecADA":12549,"BDx":12550,"ceec":12551,"Bbf":12552,"bgBA":12553,"dddf":12554,"aAGDG":12555,"fcFDA":12556,"gBDA":12557,"gBdg":12558,"ĠAcag":12559,"BcxE":12560,"xxxxE":12561,"fBdf":12562,"xcBAG":12563,"GxFE":12564,"xded":12565,"Ġefgc":12566,"gcEE":12567,"BdcA":12568,"Bdef":12569,"Ġ|\"^\\":12570,"egbe":12571,"adFA":12572,"ĠEGBA":12573,"ĠAAdB":12574,"Ġbaab":12575,"ĠAFAg":12576,"xeed":12577,"bfec":12578,"Ġdedf":12579,"BEBEDADE":12580,"cxg":12581,"Ada":12582,"Ġabeg":12583,"ĠcBAGAB":12584,"Ġccgc":12585,"ĠBEAG":12586,"ggb":12587,"AEBA":12588,"AEBAE":12589,"bdad":12590,"exdc":12591,"GFDCF":12592,"beEE":12593,"dcBx":12594,"dcBGE":12595,"gfee":12596,"ĠDBBG":12597,"aecFF":12598,"ĠEFGABc":12599,"ĠGAGB":12600,"ĠFFd":12601,"aecACA":12602,"ABAA":12603,"BAFED":12604,"gbaf":12605,"EDEEDEEE":12606,"ĠCEEA":12607,"BBBBA":12608,"ĠDAAA":12609,"ĠDAde":12610,"gdGFB":12611,"EEEED":12612,"ĠBgde":12613,"ĠBgAc":12614,"cEGc":12615,"DFAD":12616,"bfdC":12617,"ĠcEGB":12618,"ĠcEeE":12619,"GAGG":12620,"GAGFG":12621,"Ġ:|\"^*\"":12622,"Ġfeca":12623,"ĠAaef":12624,"aAFG":12625,"lod":12626,"eBAGD":12627,"ĠMF":12628,"Ġcdedef":12629,"ĠdDdD":12630,"Ġaecf":12631,"agecAGE":12632,"DFBD":12633,"aACD":12634,"ĠEDDc":12635,"ĠCFFG":12636,"fcBFF":12637,"ally":12638,"ance":12639,"animated":12640,"DDDDDD":12641,"CFAcC":12642,"ĠfcAd":12643,"BGBGBGBG":12644,"ĠAagb":12645,"Ġout":12646,"GxBc":12647,"ĠGBEc":12648,"xExExE":12649,"Ġgccg":12650,"GDGDGDGD":12651,"ung":12652,"begaec":12653,"ececdcgc":12654,"xaxaxax":12655,"ternative":12656,"AAAAAAdd":12657,"Ġtwo":12658,"Ġschneller":12659,"gemA":12660,"umental":12661,"cBBAAGGF":12662,"Shake":12663,"altz":12664,"'-]|[=":12665,"'-|[^":12666,"Arr":12667,"Bag":12668,"CxEx":12669,"DcF":12670,"DECD":12671,"Dolce":12672,"EdE":12673,"EcBA":12674,"EGDDGEGE":12675,"FxxE":12676,"First":12677,"GcE":12678,"Gdf":12679,"Gxcx":12680,"MAG":12681,"Pol":12682,"TAGE":12683,"]}":12684,"aCB":12685,"acAFF":12686,"ageG":12687,"by":12688,"bcD":12689,"bbd":12690,"bdBGD":12691,"eGDC":12692,"eve":12693,"fGDA":12694,"fGEA":12695,"gr":12696,"gdAFD":12697,"ife":12698,"ian":12699,"os":12700,"primo":12701,"suggestion":12702,"the":12703,"uBA":12704,"variant":12705,"xdG":12706,"xgfe":12707,"xAFG":12708,"xFAd":12709,"Ġy":12710,",,,,-=":12711,"ECCE":12712,"ĠdFGA":12713,"ĠdEBc":12714,"ĠADAG":12715,"ĠAfca":12716,"DBx":12717,"ĠBcAE":12718,"ĠcFG":12719,"GEGEB":12720,"AFe":12721,"AFGE":12722,"AFAB":12723,"BGg":12724,"ĠFfF":12725,"ĠFzA":12726,"ĠEFB":12727,"ĠEeE":12728,"DAC":12729,"cADCB":12730,"ĠDDGA":12731,"Ġacd":12732,"BAGEE":12733,"BABcd":12734,"BAGEDB":12735,"ecGAc":12736,"GBBG":12737,"EDDC":12738,"EDCx":12739,"EAcd":12740,"AAAE":12741,"ABxB":12742,"CFGF":12743,"cBf":12744,"cBAFDB":12745,"gedBD":12746,"GFFF":12747,"cdAc":12748,"cdcBc":12749,"EEFC":12750,"DDFB":12751,"DDDF":12752,"efD":12753,"feBGF":12754,"FFd":12755,"Ġedda":12756,"xAxAx":12757,"afBD":12758,"BFd":12759,"BFECG":12760,"CEGG":12761,"GAC":12762,"ĠdBTAG":12763,"''-]|[":12764,"''|(":12765,"dBGECC":12766,"deec":12767,"degf":12768,"dGGB":12769,"cEEB":12770,"ĠBdb":12771,"EFxA":12772,"ecAecA":12773,"eAec":12774,"gaily":12775,"ĠAGdB":12776,"gdd":12777,"dFAF":12778,"fFECA":12779,"bgGD":12780,"bgBGEB":12781,"bgBGDG":12782,"bgbx":12783,"AEACC":12784,"fcGEC":12785,"fcfa":12786,"AFAd":12787,"ĠAcg":12788,"ĠFGFA":12789,"aeBAED":12790,"bBEG":12791,"ĠdcBF":12792,"BAGFCA":12793,"xcfc":12794,"xcxex":12795,"babd":12796,"eBGFDB":12797,"ĠDEFF":12798,"ecGCB":12799,"cca":12800,"xdxc":12801,"ĠeAdB":12802,"Ġedcg":12803,"gcEA":12804,"Acfg":12805,"AccAG":12806,"acCC":12807,"gecBA":12808,"gecBGE":12809,"ĠEGed":12810,"cBAe":12811,"ĠFEDd":12812,"bfBGD":12813,"ĠBGGa":12814,"\"_\\\\\"":12815,"ĠBGBB":12816,"ECFEC":12817,"Adfd":12818,"ĠADDG":12819,"ĠdAGE":12820,"fffx":12821,"fcAFECF":12822,"afdCA":12823,"fage":12824,"ĠEAe":12825,"eBGEDE":12826,"AGFECE":12827,"ber":12828,"ĠeBf":12829,"fedD":12830,"defx":12831,"bgeEE":12832,"Ġved":12833,"Ġvdc":12834,"gfgb":12835,"dgbd":12836,"GABcA":12837,"dBAECG":12838,"ĠDDDB":12839,"AEEAE":12840,"AEEAEACC":12841,"ĠEBBG":12842,"ĠEBgB":12843,"agfcC":12844,"gbb":12845,"ĠCEAF":12846,"cAFDE":12847,"ĠdFGE":12848,"Ġcdcc":12849,"ĠDEFGAB":12850,"ĠDCDC":12851,"aeACC":12852,"ĠcAca":12853,"FFFFE":12854,"dGEF":12855,"bfdE":12856,"ĠcEcE":12857,"ĠAdfb":12858,">.^":12859,"ĠAafe":12860,"eAFG":12861,"read":12862,"fafa":12863,"Ġeccb":12864,"agecAGEC":12865,"edAcB":12866,"DEDEx":12867,"Ġfbec":12868,"ĠTdcde":12869,"Ġgeeb":12870,"fdfef":12871,"ĠdAAg":12872,"/(^":12873,"Ġdbba":12874,"cFBF":12875,"Ġtlich":12876,"ĠfAAB":12877,"Ġgggb":12878,")}^":12879,"Ġafafaf":12880,"ĠfGfG":12881,"EAEAEEAE":12882,"xEEG":12883,"ExDxC":12884,"GAFAEA":12885,"lear":12886,"Ġbgdb":12887,"Ġ(!>!!":12888,"uld":12889,"AFAFAFAF":12890,"ccdcc":12891,"Ġsecond":12892,"Ġfgdf":12893,"Ġddff":12894,"xadae":12895,"gcgcgc":12896,"xGDGDG":12897,"ĠRo":12898,"ĠbBba":12899,"dAeAdAf":12900,"BfcfA":12901,"CCGEGECG":12902,"GEDGDGDD":12903,"DGEEAEAE":12904,"'-|[=":12905,"39":12906,">{/":12907,"All":12908,"AfdAfdA":12909,"Bgg":12910,"DGDF":12911,"DdAGgAfA":12912,"FdBB":12913,"Fca":12914,"Gi":12915,"GGEG":12916,"MdB":12917,"Med":12918,"Presto":12919,"To":12920,"TBAG":12921,"bAFDA":12922,"bafF":12923,"cff":12924,"ceAe":12925,"cund":12926,"dfA":12927,"dEDCA":12928,"dcGA":12929,"dotted":12930,"eADF":12931,"fgB":12932,"fEDA":12933,"fGFF":12934,"gBFD":12935,"gAFDA":12936,"ugf":12937,"xcGC":12938,"xbag":12939,"xede":12940,"xgfge":12941,"ĠVersion":12942,"'/>":12943,"-]/":12944,"ĠdGFE":12945,"ĠAged":12946,"ĠAaAa":12947,"DBf":12948,"ĠBBE":12949,"Ġen":12950,"ĠeEF":12951,"ĠGGFF":12952,"FDxC":12953,"Ġcafc":12954,"Ġcfff":12955,"ĠczB":12956,"secund":12957,"GEdBG":12958,"Ġflat":12959,"Ġffdd":12960,"ĠgAa":12961,"AFFE":12962,"BGGG":12963,"ĠFCFA":12964,"ĠFdDd":12965,"ĠEb":12966,"ĠEfed":12967,"ĠEEDC":12968,"ĠDdF":12969,"ĠDDBD":12970,"dBCC":12971,"dBbx":12972,"BAEDG":12973,"BAfeB":12974,"FCFB":12975,"ecFCF":12976,"AEAB":12977,"AExFx":12978,"edBGEC":12979,"AGFDCA":12980,"EDGE":12981,"fdcAFCF":12982,"FADF":12983,"FAdc":12984,"ABdf":12985,"cBcde":12986,"cBFDCB":12987,"geDD":12988,"cdeG":12989,"DDCDCB":12990,"efxB":12991,"efede":12992,"EGAB":12993,"feAA":12994,"CCEC":12995,"BBf":12996,"xAAG":12997,"ĠABD":12998,"ĠABDE":12999,"afADA":13000,"xExG":13001,"xBE":13002,"xBeBd":13003,"ĠCef":13004,"ato":13005,"DFAA":13006,"DFxDFB":13007,"eBECA":13008,"eBCE":13009,"eBAFDB":13010,"eBAFB":13011,"xDdA":13012,"xCCA":13013,"DEFDE":13014,"Ġ|]\"_":13015,"agdA":13016,"agcC":13017,"agcE":13018,"Ġgffg":13019,"\"^..\"":13020,"dGdB":13021,"ACFD":13022,"ĠBAg":13023,"BDCG":13024,"BDCC":13025,"ĠcBBG":13026,"ĠBcce":13027,"ĠAGed":13028,"CDEDCG":13029,"gGFDD":13030,"ĠGAeA":13031,"bgEC":13032,"bgdBF":13033,"dddx":13034,"aAaa":13035,"fcGB":13036,"Ġfadc":13037,"xxxxA":13038,"fBEB":13039,"fBcdf":13040,"aex":13041,"aeCC":13042,"aeECF":13043,"eexe":13044,"ĠTue":13045,"ĠTAGAB":13046,"ĠTedef":13047,"bBfd":13048,"bBCC":13049,"ĠGFEE":13050,"dAFECA":13051,"BAGFA":13052,"Ġgabf":13053,"ĠAdaf":13054,"ĠDEcE":13055,"ecGefcAc":13056,"dEGBd":13057,"Ġeaba":13058,"ExFG":13059,"ĠGABcd":13060,"GCACGCFC":13061,"BGDGBG":13062,"ĠeABG":13063,"ĠeAaf":13064,"Ġdcded":13065,"ĠFEEB":13066,"gcEB":13067,"gcec":13068,"fdAEB":13069,"EDADED":13070,"acf":13071,"BcdfBcdf":13072,"gecefcAc":13073,"BGBEGBG":13074,"FGAd":13075,"cBAEB":13076,"xea":13077,"ĠFEDf":13078,"ĠGGcG":13079,"eFECA":13080,"eFED":13081,"BxABBB":13082,"bfBFD":13083,"Ġabb":13084,"Ġgbfd":13085,"ĠDGcG":13086,"afdcDD":13087,"cAEAcAEA":13088,"ggggg":13089,"Ġgdfc":13090,"ĠdGcB":13091,"xfxe":13092,"gfeB":13093,"ĠDBCA":13094,"aagf":13095,"ĠEFGd":13096,"xgbd":13097,"Ġ\"^=\"":13098,"Ġund":13099,"ĠefedcB":13100,"ĠEAAe":13101,"BAFEB":13102,"afcFA":13103,"fgabc":13104,"ĠGcce":13105,"ĠEEFE":13106,"ĠFAAD":13107,"ĠFAAa":13108,"EFGdxG":13109,"Ġacg":13110,"Ġacua":13111,"eGEF":13112,"eas":13113,"ĠDAcA":13114,"ĠDAdA":13115,"ĠAAAf":13116,"ĠAAAg":13117,"dcAGF":13118,"dcAFDD":13119,"edBAGFEDB":13120,"dDAca":13121,"BcBB":13122,"BcBd":13123,"cBGd":13124,"cBGCC":13125,"ĠcGeG":13126,"fAFECA":13127,"bgdF":13128,"Ġabac":13129,"Ġ||\"^**\"":13130,"DFAdf":13131,"Ġgbagfe":13132,"ĠeGfG":13133,"eGCD":13134,"Ġcapo":13135,"ĠGeed":13136,"Ġ|]:{":13137,"242":13138,"eBAFDA":13139,"fafb":13140,"FGFGA":13141,"ĠPAG":13142,"GdGgfed":13143,"ADGDADGD":13144,"ĠCCD":13145,"DFDFD":13146,"ĠCFFE":13147,"fefa":13148,"ĠFDAB":13149,"beBCG":13150,"adAC":13151,"veuf":13152,"Ġeeea":13153,"ĠFEEc":13154,"ĠdDDd":13155,"/-)":13156,"bgfD":13157,"dddddc":13158,"ĠFBBF":13159,"GFEDEF":13160,"ĠCEGe":13161,"226":13162,"ĠBGDc":13163,"DccB":13164,"agecBGEB":13165,"Bbmin":13166,"ĠGcea":13167,"Ġegdb":13168,"xFAcAFx":13169,"CECAECE":13170,"ĠECCc":13171,"bfcBAB":13172,"xEBe":13173,"bfeBE":13174,"fdcBFE":13175,"DAGAGA":13176,"Ġgcca":13177,"ffeed":13178,"cdcdcdcd":13179,"cAcAcB":13180,"gggggggg":13181,"ĠDAFd":13182,"ecBFEC":13183,"ĠGzD":13184,",,,,,-|=":13185,"cccBdGGF":13186,"cccBdGGB":13187,"Source":13188,"FcfcF":13189,"ĠHornpipe":13190,"Minuet":13191,"AABAGFG":13192,"DEFBxB":13193,"ĠfBbg":13194,"DEEDEEDE":13195,"Cheerful":13196,"EEEEBBBB":13197,"DEFEBFEF":13198,"natural":13199,"cEEBEEAE":13200,"ecAecAeA":13201,"secundo":13202,"EDADEDdD":13203,"BxABBBxB":13204,")\"^*\"":13205,"-<":13206,"AdF":13207,"Aeg":13208,"Axcx":13209,"Bphr":13210,"Break":13211,"CECF":13212,"FxAx":13213,"Hornpipe":13214,"SS":13215,"Tr":13216,"US":13217,"acc":13218,"apo":13219,"aTg":13220,"bBb":13221,"bdd":13222,"bFDC":13223,"bbag":13224,"bdBGDG":13225,"bdAFB":13226,"bafD":13227,"beBGC":13228,"cz":13229,"dECE":13230,"dgdBG":13231,"eaga":13232,"fEDG":13233,"fFCC":13234,"gACA":13235,"gFCG":13236,"gcACA":13237,"uFE":13238,"uded":13239,"wo":13240,"xAFE":13241,"xab":13242,"xefe":13243,"xaaa":13244,"xcdf":13245,"xFFG":13246,"xeBx":13247,"|\\":13248,"Ġ0":13249,",]-":13250,"ECGE":13251,"ĠdcEF":13252,"ĠAAEA":13253,"ĠAacA":13254,"ĠAede":13255,"ĠAlleg":13256,"ĠAzG":13257,"ĠBac":13258,"ĠBFAd":13259,"ĠeC":13260,"ĠeeA":13261,"ĠedAd":13262,"ĠGdf":13263,"ĠcEB":13264,"ĠccAG":13265,"Ġcfdc":13266,"ĠcGGF":13267,"ĠccBd":13268,"GEGG":13269,"ĠfeA":13270,"ĠfcAB":13271,"ĠgcB":13272,"Ġggc":13273,"Ġgccc":13274,"Ġgzf":13275,",,,<_":13276,"BGcB":13277,"ĠFBGB":13278,"cAdA":13279,"cAGCG":13280,"ĠDga":13281,"ĠDFCE":13282,"ĠDCCD":13283,"ĠacB":13284,"Ġaaea":13285,"ECAE":13286,"dBBG":13287,"dBBB":13288,"dBADA":13289,"BAxB":13290,"FCDG":13291,"eccc":13292,"edcAEA":13293,"DGxA":13294,"AGFDD":13295,"AGFEF":13296,"EDEC":13297,"FBxB":13298,"ABcAB":13299,"GECEG":13300,"cBAFC":13301,"GFGFG":13302,"cdede":13303,"EEeE":13304,"DDDEF":13305,"EGe":13306,"EGBA":13307,"CCxCx":13308,"BBxB":13309,"BBBd":13310,"BBBx":13311,"BBeeee":13312,"DCxA":13313,"FFFEF":13314,"ĠedS":13315,"xGxFx":13316,"afBB":13317,"xBde":13318,"xBcxB":13319,"ĠCg":13320,"ĠCGE":13321,"gfag":13322,"gfADA":13323,"ĠfdTcA":13324,"xDxC":13325,"dcFB":13326,"xFAA":13327,"Ġgfff":13328,"AECAE":13329,"cEx":13330,"cEcE":13331,"ĠBAf":13332,"ĠcBcc":13333,"ĠBcf":13334,"gabd":13335,"ĠGBag":13336,"gdGEDB":13337,"Ġcdde":13338,"Ġcdfc":13339,"Bba":13340,"Ġfeda":13341,"Ġfedefg":13342,"fFECG":13343,"ĠdfcB":13344,"Ġdfbd":13345,"bgEG":13346,"bgBGG":13347,"aAc":13348,"fcg":13349,"fcCC":13350,"fcfcA":13351,"gBECB":13352,"fAEB":13353,"ĠceGB":13354,"ĠAcecAc":13355,"fBFA":13356,"ĠTdcd":13357,"dfef":13358,"ĠGFFD":13359,"Ġgabe":13360,"eBGCG":13361,"cccx":13362,"dEe":13363,"fdBFDF":13364,"fdBAFDB":13365,"ĠGEdB":13366,"ExDC":13367,"ĠGABcde":13368,"AxcAx":13369,"ĠeAae":13370,"ĠFEDG":13371,"FxFFF":13372,"Bcded":13373,"BcdcBA":13374,"gecBAEA":13375,"xxxf":13376,"ĠABAD":13377,"adAG":13378,"adcd":13379,"ĠEDGE":13380,"fcADF":13381,"ĠEGef":13382,"cBABc":13383,"ĠdAeg":13384,"GFEFCD":13385,"Ġgdge":13386,"AEBAEBAE":13387,"ĠEAdc":13388,"xfxB":13389,"GFDCE":13390,"beECB":13391,"gdBGC":13392,",,,-|[^":13393,"aece":13394,"ĠvdB":13395,"ĠvAB":13396,"Ġvcd":13397,"cEAc":13398,"Ġaegf":13399,"ecGCE":13400,"Ġecee":13401,"ĠfBe":13402,"ĠBcBE":13403,"ĠBcBd":13404,"ĠDDFF":13405,"BAFECA":13406,"Gcg":13407,"eGEDC":13408,"ĠcfAB":13409,"Ġfcef":13410,"Ġfcce":13411,"ĠDAGF":13412,"cfef":13413,"cFDE":13414,"325":13415,"ĠdBcABG":13416,"dBGEDA":13417,"ĠAGGe":13418,"FEFAF":13419,"ĠeGdc":13420,"ĠAege":13421,"dcdf":13422,"ĠBBBa":13423,"lot":13424,"CCCCB":13425,"Ġfafdec":13426,"cAGEDA":13427,"GdbgA":13428,"ĠEGBg":13429,"ĠEcce":13430,"CECx":13431,"bfBECA":13432,"fecf":13433,"xxxxxxd":13434,"ĠFGFEDC":13435,"AcAcA":13436,"ExExEx":13437,"ĠEege":13438,"ĠgGeGcG":13439,"ĠAdea":13440,"dcBAc":13441,"aedAEDA":13442,"not":13443,"cccccB":13444,"ĠCEGceg":13445,"fedcBA":13446,"ĠecdF":13447,"dfdfd":13448,"231":13449,"234":13450,"236":13451,"ĠgBBd":13452,"aeBC":13453,"ĠDFFd":13454,"CEGEcE":13455,"ĠBaae":13456,"les":13457,"ĠBEBe":13458,"gecBCC":13459,"bfeBF":13460,"Ġsignat":13461,"vAuc":13462,"vAuB":13463,"Ġspirito":13464,"cBcBcB":13465,"vdue":13466,"ass":13467,"EFCxEFGF":13468,"BeBef":13469,"Ġggee":13470,"AeceA":13471,"very":13472,"DADADADA":13473,"DxDxDxDx":13474,"EGceEGce":13475,"Alt":13476,"BBAGxGA":13477,"PMTCOMD":13478,"xCECEF":13479,"ddddddFF":13480,"CAEACAEA":13481,"FAcxGBdx":13482,"Ġplayed":13483,"dexgxe":13484,"ierlich":13485,"fcfcAdAd":13486,"GFEFCDEG":13487,"GdbgAec":13488,"Ġsignature":13489,"/-\"":13490,"213":13491,"AcE":13492,"AAFE":13493,"AAFx":13494,"AgAe":13495,"BxD":13496,"DFEG":13497,"EAED":13498,"Gdd":13499,"LO":13500,"Pf":13501,"Tfef":13502,"Unedited":13503,"aBEB":13504,"aAFDC":13505,"adAFB":13506,"bAB":13507,"bAECA":13508,"bAEA":13509,"bxf":13510,"becGC":13511,"bfcD":13512,"cfB":13513,"cbag":13514,"cecB":13515,"ceAc":13516,"ctly":13517,"dcAECA":13518,"dfdc":13519,"dot":13520,"el":13521,"ez":13522,"eeB":13523,"eAFDD":13524,"eGECB":13525,"egab":13526,"fEF":13527,"fAEE":13528,"fecC":13529,"gAFCF":13530,"gcAB":13531,"gafa":13532,"hi":13533,"her":13534,"ler":13535,"ppo":13536,"sn":13537,"udef":13538,"xGDG":13539,"xBGF":13540,"xcBB":13541,"xGEx":13542,"xcAx":13543,"Ġj":13544,",,,,][_":13545,"ECxB":13546,"Ġdab":13547,"ĠddAd":13548,"ĠdDAD":13549,"Ġdbbb":13550,"ĠAEEG":13551,"ĠAzc":13552,"ĠBgG":13553,"ĠBAEA":13554,"ĠBaga":13555,"Ġebe":13556,"Ġebab":13557,"ĠGag":13558,"ĠGBGF":13559,"ĠGdAG":13560,"ĠGgBg":13561,"FDDD":13562,"ĠcAFC":13563,"ĠfGG":13564,"ĠfFAF":13565,"ĠgGA":13566,"ĠgBcd":13567,"ĠgAAB":13568,"AFAA":13569,"AFxA":13570,"AFdFE":13571,"BGcA":13572,"BGGB":13573,"BGABA":13574,"ĠFBD":13575,"ĠFFAc":13576,"ĠEcde":13577,"ĠEcEc":13578,"ĠEzE":13579,"DAED":13580,"cAGFE":13581,"ĠDDA":13582,"ĠDAFB":13583,"ĠaAGA":13584,"dBdc":13585,"dBAFDF":13586,"dBcAx":13587,"FDAG":13588,"BAEDB":13589,"edFDA":13590,"edAGA":13591,"edede":13592,"AGGE":13593,"EDEFGF":13594,"fdCC":13595,"fdAEA":13596,"fddf":13597,"AAGE":13598,"FAC":13599,"GGAA":13600,"CFxB":13601,"CFGAGFC":13602,"cBdc":13603,"geb":13604,"geECB":13605,"gefg":13606,"gecAEA":13607,"GFFD":13608,"EEGB":13609,"EExG":13610,"DDd":13611,"Ġbfgf":13612,"EGxC":13613,"feed":13614,"CCEE":13615,"BBeB":13616,"dAECD":13617,"FFFDEF":13618,"Ġedfg":13619,"FGFC":13620,"afcAFA":13621,"xEGE":13622,"xEED":13623,"xBdg":13624,"ĠCEFG":13625,"BFEDCB":13626,"CEED":13627,"eBCA":13628,"eBCC":13629,"dcEC":13630,"dcFDA":13631,"xFEB":13632,"DExA":13633,"DExD":13634,"ĠdBD":13635,"ĠgfB":13636,"dGBGB":13637,"cFEE":13638,"ĠBdFd":13639,"EFAF":13640,"EFAEF":13641,"ecACF":13642,"ĠBAde":13643,"ĠcBdG":13644,"Ġ|:\"^(":13645,"eAECG":13646,"ĠBccd":13647,"ĠBcfe":13648,"ĠBGdg":13649,"gdCA":13650,"CDECD":13651,"cGEc":13652,"dFEA":13653,"Bbg":13654,"dded":13655,"ĠAFe":13656,"Ġdefgab":13657,"aAgAfA":13658,"Ġfggd":13659,"fcDD":13660,"fcBGC":13661,"fcGDCG":13662,"Bcxc":13663,"ĠfaB":13664,"ĠfaAB":13665,"xxxxxB":13666,"fBDA":13667,"ĠBcdD":13668,"aeAFD":13669,"eege":13670,"ĠTBE":13671,"ĠTBAG":13672,"ĠTune":13673,"bBECA":13674,"xcg":13675,"ĠAGFF":13676,"ĠAdag":13677,"GxGG":13678,"ĠGEdE":13679,"ExEEF":13680,"xdfd":13681,"xdcd":13682,"ĠFEGF":13683,"gcECA":13684,"BdfB":13685,"AcBAG":13686,"ĠBABf":13687,"acEB":13688,"gecCA":13689,"adGDG":13690,"ĠEDc":13691,"Ġddgg":13692,").[":13693,"cBAd":13694,"cBAeA":13695,"ord":13696,"ADADADAD":13697,"bfGB":13698,"ĠDFAf":13699,"Adg":13700,"dxcB":13701,"ĠADcB":13702,"ĠADEG":13703,"gdBFD":13704,"AEBAEA":13705,"ĠEACE":13706,"aBEA":13707,"ĠBGEg":13708,"AGFAGF":13709,"bedBB":13710,"dcBcA":13711,"fedd":13712,"Ġ!>!_":13713,"ĠdcAe":13714,"ĠfgaA":13715,"ĠfAcA":13716,"xxxxxxxxxxxxxxxx":13717,"ĠfBg":13718,"Ġgagc":13719,"ĠAGABcd":13720,"Ġadba":13721,"ĠEEEB":13722,"Ġgcfc":13723,"gdGFDC":13724,"edBGEG":13725,"ĠAfaf":13726,"aeAGEA":13727,"cBGFC":13728,"cBGECC":13729,"ĠAGGf":13730,"ĠaAAG":13731,"GAGc":13732,"fgfc":13733,"CEGcGEC":13734,"ĠAaac":13735,"cEBEc":13736,"gedD":13737,"lower":13738,"ĠGgde":13739,"ĠCAA":13740,"]))[":13741,"CECEF":13742,"ĠCCE":13743,"DxDxDxD":13744,"ĠgAfa":13745,"dBGBdB":13746,"EGBdEGBd":13747,"fecc":13748,"ĠDddF":13749,"gcAGCA":13750,"gdcC":13751,"gdcBGDB":13752,"Ġdbfg":13753,"gfdBGF":13754,"ĠgGce":13755,"ĠAcdA":13756,"BxBc":13757,"aedAG":13758,"aedAEDB":13759,"ĠdDDc":13760,"ĠBgfa":13761,"ĠcBBf":13762,"CFAcAFC":13763,"ĠfcAf":13764,"bgfBG":13765,"adBADB":13766,"ĠEFDe":13767,"CDFGB":13768,"ĠdEcd":13769,"ĠCGEC":13770,"chet":13771,"AAGGAB":13772,")!>)!":13773,"DFDBFB":13774,"Ġ\"_-":13775,"ABcdefg":13776,"CFCAFCA":13777,"BAEBAEBA":13778,"AAxAA":13779,"EEGGE":13780,"AxGxF":13781,"....\"":13782,"xEAB":13783,"cedf":13784,"Ġoctave":13785,"ĠECCg":13786,"PMTuCOMe":13787,"eAFDCB":13788,"ĠeFcF":13789,"EFFGG":13790,"EABex":13791,"spres":13792,"ĠcAEc":13793,"ĠĠĠ":13794,"ĠAcFe":13795,"ĠFGBF":13796,"Introduc":13797,"ĠAeca":13798,"Voice":13799,"vGuA":13800,"GBdBgdBG":13801,"BAGGAAAG":13802,"fxdaf":13803,"dxdxdxdx":13804,"AGGGAAB":13805,"ood":13806,"ĠAaeg":13807,"azi":13808,"DDFDDFGF":13809,"Cheerfully":13810,"FBcdxfxB":13811,"dFcFcFBF":13812,"GEcGEGCE":13813,"xgxggxgx":13814,"istinctly":13815,"FcdBcAGE":13816,"ExEEFxFx":13817,"Introduction":13818,"'-]|[^":13819,",\"^(":13820,"._":13821,"214":13822,"420":13823,"Ddc":13824,"DFDCA":13825,"DEDCA":13826,"DxFx":13827,"GAFA":13828,"GAFE":13829,"TC":13830,"TAGA":13831,"Taga":13832,"aBC":13833,"aFCB":13834,"bADB":13835,"bdBGDB":13836,"bedA":13837,"caa":13838,"ceBe":13839,"cTBA":13840,"dgfe":13841,"dGCD":13842,"faA":13843,"fBc":13844,"fACD":13845,"lf":13846,"nc":13847,"ng":13848,"ou":13849,"uEFG":13850,"vi":13851,"xdBA":13852,"xAAB":13853,"xAGx":13854,"xeff":13855,"~~":13856,"ĠNB":13857,"ĠVariation":13858,",,,,,-]|[_":13859,"ĠdEFG":13860,"ĠdEGB":13861,"ĠdeBc":13862,"ĠAfc":13863,"ĠAecB":13864,"ĠADGB":13865,"ĠBfaf":13866,"ĠBage":13867,"ĠGGEE":13868,"ĠGGED":13869,"ĠGGDD":13870,"ĠGdcd":13871,"ĠcBE":13872,"ĠcgB":13873,"Ġcafa":13874,"ĠcEAB":13875,"self":13876,"Ġfbab":13877,"ĠfaAa":13878,"AFFF":13879,"AFBFcFcF":13880,"ĠFGED":13881,"ĠFddd":13882,"ĠFGGG":13883,"ĠEFDG":13884,"ĠEdFd":13885,"ĠDcAF":13886,"ĠDcE":13887,"ĠDGED":13888,"ĠDEEF":13889,"Ġazg":13890,"Ġadfb":13891,"ECGECE":13892,"FDBDFD":13893,"ecdB":13894,"ecFEC":13895,"ecBGF":13896,"AEGE":13897,"AEdcBA":13898,"edde":13899,"edcAG":13900,"AGFCD":13901,"AGGFEB":13902,"EDEE":13903,"EDxCxB":13904,"FBDF":13905,"ĠzS":13906,"GGGD":13907,"geGCE":13908,"gedBGE":13909,"efxed":13910,"Ġbdc":13911,"Ġbfb":13912,"ĠbAaA":13913,"fecAE":13914,"CCECG":13915,"dAGEDA":13916,"cGdB":13917,"cGcd":13918,"FFECCDE":13919,"Ġedb":13920,"ĠeddF":13921,"xGed":13922,"FGFA":13923,"GCc":13924,"GCDG":13925,"afge":13926,"afADB":13927,"xExB":13928,"xBcG":13929,"gfb":13930,"gfBD":13931,"DFEC":13932,"DFAGF":13933,"DFAFG":13934,"DFAFCE":13935,"eBg":13936,"eBCB":13937,"xDdD":13938,"xDGDxB":13939,"dcCA":13940,"dcECG":13941,"dccd":13942,"DEGD":13943,"aggf":13944,"agecG":13945,"Ġgffa":13946,"cCEGc":13947,"dega":13948,"cFGB":13949,"ĠBdfdBd":13950,"eEGBe":13951,"EFEE":13952,"ĠBAdf":13953,"ĠBGde":13954,"ĠBGgd":13955,"gdGA":13956,"CDCF":13957,"cGEDE":13958,"Ġgegc":13959,"eGFB":13960,"ĠFABG":13961,"bgCG":13962,"bgdc":13963,"bgcC":13964,"ddff":13965,"ĠAFf":13966,"ĠAFEE":13967,"aAGDB":13968,"Ġfabg":13969,"Ġfabc":13970,"aeBB":13971,"ĠThe":13972,"ĠTgfga":13973,"bBEC":13974,"Ġgadf":13975,"fdBAE":13976,"ĠEFcF":13977,"ĠGEd":13978,"Ġeaad":13979,"ExCA":13980,"xdedeg":13981,"Ġdcdb":13982,"gcGB":13983,"FxDB":13984,"AcBG":13985,"Aced":13986,"acCG":13987,"acBA":13988,"edcGG":13989,"gecBC":13990,"adDF":13991,"adAFA":13992,"fcAFDCA":13993,"ĠAAf":13994,"BxDF":13995,"gAg":13996,"dxde":13997,"Ġgfgg":13998,"ĠFGAe":13999,"ĠBefd":14000,"ĠBBef":14001,"ĠBBfe":14002,"afdBGDB":14003,"ĠBEd":14004,"Ġgeca":14005,"Ġgecc":14006,"ggga":14007,"bdGD":14008,"exa":14009,"Ġagee":14010,"ĠdGf":14011,"ĠdGg":14012,"GFDCC":14013,"ĠABcde":14014,"aecGE":14015,"aecAFE":14016,"GFCE":14017,"ĠGAGFED":14018,"\"^(#)\"":14019,"ĠFFGF":14020,"ĠFFEE":14021,"ĠFFcF":14022,"aecAGECA":14023,"ĠDDDG":14024,"ĠDDFG":14025,"ABAx":14026,"ABABA":14027,"ĠEEFA":14028,"ĠFGABcd":14029,"EFGc":14030,"gbbg":14031,"Aeaef":14032,"dcAB":14033,"dcADC":14034,"cfcB":14035,"edBAD":14036,"fAFCG":14037,"ĠAGGd":14038,"ĠaAec":14039,"ĠaAga":14040,"Ġ||\"^[":14041,"dAGFD":14042,"dAGCG":14043,"dAGFDB":14044,"bfdf":14045,"Ġedcdec":14046,"eAFED":14047,"aAFECA":14048,"ĠGeeG":14049,"ĠGdgd":14050,"ĠGgfd":14051,"fBGFG":14052,"FcFBF":14053,"CxCxD":14054,"ĠPefxed":14055,"Ġ|\"_\\\\\"":14056,"EFEG":14057,"EGBeEGBe":14058,"usk":14059,"CCCCCB":14060,"GFFEE":14061,"adAGD":14062,"Ġminor":14063,"anc":14064,"aedEB":14065,"ĠdDDg":14066,")\"^=\"":14067,"ĠdFFd":14068,"ĠAEAe":14069,"BcABF":14070,"ĠCGAB":14071,"ĠcEEd":14072,"gedBGEB":14073,"ugle":14074,"pia":14075,"EEDDCCB":14076,"239":14077,"ĠfdAdfd":14078,"EAEx":14079,"ĠBaag":14080,"ĠaBaB":14081,"ĠFCCF":14082,"ĠSt":14083,"ecBAC":14084,"quaver":14085,"xBAx":14086,"Bdce":14087,"xCGF":14088,"ĠeFdF":14089,"Editorialsuggestion":14090,"FFABcABF":14091,"PMTCOMA":14092,"FGGFG":14093,"AFAFAF":14094,"cAcAcA":14095,"minim":14096,"CFBFcFBF":14097,"EBEBEB":14098,"EBEBEBE":14099,"Plaintively":14100,"FBcBeB":14101,"afcGFA":14102,"voll":14103,"bbbbbbbb":14104,"ĠTagae":14105,"AxABcdxB":14106,"xEFEFEG":14107,"FFECCDEA":14108,"cFAFcF":14109,"ourself":14110,"CHOR":14111,"Ġhere":14112,"aAgAfAeA":14113,"DFAFCEGE":14114,"CHORUS":14115,"!(":14116,"-!":14117,"/\"^/":14118,"310":14119,"AT":14120,"Az":14121,"Aaf":14122,"Aff":14123,"Accc":14124,"AcAB":14125,"Bgdg":14126,"CecC":14127,"Coro":14128,"DECB":14129,"EAGG":14130,"ETB":14131,"FGED":14132,"FAAA":14133,"FGDF":14134,"FxDx":14135,"FxDxD":14136,"Geg":14137,"Jo":14138,"Len":14139,"Once":14140,"SA":14141,"Se":14142,"TBG":14143,"aBFDB":14144,"aFDC":14145,"aFED":14146,"acAFCF":14147,"bxx":14148,"bFE":14149,"bGEG":14150,"beg":14151,"bdAD":14152,"bdBFF":14153,"bxax":14154,"cxD":14155,"cece":14156,"cede":14157,"cri":14158,"dECC":14159,"dGCE":14160,"egfed":14161,"eTd":14162,"flot":14163,"gBAB":14164,"gfdf":14165,"mit":14166,"oun":14167,"ould":14168,"ster":14169,"vef":14170,"xcBx":14171,"xfex":14172,"zb":14173,"Ġ/":14174,"Ġ72":14175,"ĠQuadrille":14176,",/=":14177,"Ġdafe":14178,"Ġdotted":14179,"Ġdrone":14180,"ĠAFCA":14181,"ĠACE":14182,"ĠAEDE":14183,"ĠAea":14184,"DBED":14185,"ĠBbg":14186,"ĠBze":14187,"ĠBaBa":14188,"ĠGcEC":14189,"FDEA":14190,"ĠceE":14191,"ĠcecG":14192,"CAdA":14193,"GEDx":14194,"Ġfbge":14195,"Ġfbea":14196,"ĠgD":14197,"ĠggB":14198,"ĠggdB":14199,"ĠgGdG":14200,"Ġgiger":14201,"Ġ([=":14202,"BGeBGB":14203,"ĠFce":14204,"ĠFfc":14205,"ĠFEBE":14206,"ĠFCDF":14207,"EBeg":14208,"ĠEx":14209,"DAdD":14210,"DAdg":14211,"cAEDE":14212,"ĠDzF":14213,"ĠageB":14214,"dBEF":14215,"CGdg":14216,"CGECEC":14217,"FCEF":14218,"ecDC":14219,"ecBAG":14220,"ecGDC":14221,"DGxD":14222,"DGBGDF":14223,"AGAA":14224,"AGCx":14225,"AGFEDCB":14226,"EAcc":14227,"fdb":14228,"AAf":14229,"FBcdc":14230,"FBdDA":14231,"FBcAB":14232,"FBDFB":14233,"GGGB":14234,"ABBA":14235,"cBCA":14236,"cBdB":14237,"cBBc":14238,"cBFEB":14239,"geFD":14240,"GFdF":14241,"cddcB":14242,"EEEFG":14243,"DDGD":14244,"DDEG":14245,"EGECG":14246,"fege":14247,"feFF":14248,"fexd":14249,"feAGA":14250,"feierlich":14251,"CCED":14252,"cGFDC":14253,"cGdBeB":14254,"FFFED":14255,"Ġedga":14256,"xAECA":14257,"afBDB":14258,"xBfB":14259,"xBcFGB":14260,"ĠCed":14261,"ĠCDCA":14262,"gfgd":14263,"GAce":14264,"ĠefcB":14265,"eBeB":14266,"eBFEG":14267,"eBfAcA":14268,"xDEB":14269,"xCDA":14270,"xCxDx":14271,"dccA":14272,"BEGBd":14273,"ĠdBfg":14274,"Ġgfc":14275,"Ġgfac":14276,"\"^''\"":14277,"AFCFD":14278,"den":14279,"dent":14280,"ĠBda":14281,"ĠBdGG":14282,"ecACE":14283,"ĠBAcc":14284,"Ġ|:!":14285,"eAfA":14286,"BGDCF":14287,"cebc":14288,"ĠGBdA":14289,"Ġdegg":14290,"gdDD":14291,"ĠcddB":14292,"ĠcdAB":14293,"ĠgeeB":14294,"gGCF":14295,"Ġeced":14296,">|:\"^(":14297,"eGcF":14298,"eGcFB":14299,"ĠFAeA":14300,"ĠGAAF":14301,"bgdBA":14302,"ĠAFa":14303,"gBDD":14304,"fAa":14305,"fAGEA":14306,"fAcAFA":14307,"ĠFDc":14308,"Ġafac":14309,"Ġceab":14310,"BcFG":14311,"Ġfadb":14312,"xxxxxC":14313,"fBgf":14314,"ĠBcdedc":14315,",<(":14316,"ĠFGAE":14317,"aeAEF":14318,"aeADE":14319,"aefde":14320,"ĠTfd":14321,"bBFDA":14322,"bBDE":14323,"dAFEB":14324,"AFCFE":14325,"Ġgabd":14326,"fggg":14327,"eBGFEB":14328,"GEGx":14329,"ĠDEGF":14330,"cced":14331,"ccfccc":14332,"GxGF":14333,"fdBGEB":14334,"ĠEFAG":14335,"ĠGEec":14336,"Ġeacd":14337,"Ġeabg":14338,"ExDD":14339,"ExEEE":14340,"xdcA":14341,"AxBA":14342,"ĠeATcA":14343,"FCGD":14344,"Ġdcdd":14345,"GEDCF":14346,"Fxf":14347,"AcecAE":14348,"EDAED":14349,"EDAEEDA":14350,"acfa":14351,"Bcdx":14352,"gecEE":14353,"FDCd":14354,"ĠdcBABG":14355,"ĠEDEE":14356,"fcADA":14357,"fcAECA":14358,"ĠEGAF":14359,"ĠAAdc":14360,">\"^#\"":14361,"\"_|\"":14362,"cxBA":14363,"AdAG":14364,"Adef":14365,"gAf":14366,"ĠADGD":14367,"gdBAGDG":14368,"ĠcAFd":14369,"fffff":14370,"afdFA":14371,"afdfdB":14372,"cAEAA":14373,"geBFE":14374,"fadf":14375,"ĠAGAf":14376,"ĠGEDD":14377,"ĠBGEe":14378,"gfeBG":14379,"fedcA":14380,"aecECG":14381,"cdefd":14382,"ĠdcADFA":14383,"Ġfeff":14384,"Ġfgaa":14385,"AAABA":14386,"AAAAG":14387,"bgeBF":14388,"bgeBD":14389,"Ġ\"^~\"":14390,"Ġ\"^**\"":14391,".\"[":14392,"Ġdefdef":14393,"aCapo":14394,"ĠfAfe":14395,"ĠfAgf":14396,"ĠaegB":14397,"GABexA":14398,"ĠDGGGAB":14399,"ĠfBef":14400,"ĠAdda":14401,"cADCF":14402,"ĠgBf":14403,"Ġgagg":14404,"bagxg":14405,"ĠGcGG":14406,"ĠEBef":14407,"xbxbxbx":14408,"EFGd":14409,"Ġgfgabg":14410,"BEEE":14411,"ĠdFc":14412,"Ġefdg":14413,"/.=":14414,"edBFDB":14415,"edBEDB":14416,"ĠcdcBA":14417,"ĠBgcA":14418,"ĠaAcB":14419,"bgdC":14420,"ĠcFBA":14421,"ĠcFAG":14422,"bfdFDB":14423,"CDEFGA":14424,"ĠAeae":14425,"lig":14426,"Ġcaef":14427,"GxGxAx":14428,"Ġbdb":14429,"eeeec":14430,"eBAGEDA":14431,"fBGFE":14432,"ĠdDc":14433,"fdcff":14434,"FcdBc":14435,"ĠPGF":14436,"ĠPFE":14437,"ĠPgf":14438,"ageBB":14439,"GdGdG":14440,"Ġ|\"_(":14441,"err":14442,"FAcFBDFB":14443,"ĠCCCD":14444,"bdBDD":14445,">\"_*\"":14446,"gcGCC":14447,"ĠGBdgbd":14448,"fecBEC":14449,"ĠDddD":14450,"xCxCB":14451,"AcAd":14452,"Ġinstr":14453,"ĠEeec":14454,"Ġcggf":14455,"BAGFEB":14456,"fcBFC":14457,"bafE":14458,"ĠfAAd":14459,"GGGGFE":14460,"BECBECE":14461,"ĠFDBD":14462,"ĠCGBG":14463,"ĠcEEG":14464,"Ġaedb":14465,"Ġtimes":14466,"eeeeed":14467,"CEGEBGEC":14468,"ĠaBdf":14469,"DFDAFDF":14470,"EEGGBB":14471,"FFEED":14472,"gcBECB":14473,"xAAcdd":14474,"amp":14475,"ccBBG":14476,"ffffffff":14477,"PMTuCOMG":14478,"!!>(!":14479,"ĠcFFd":14480,"xFFFFF":14481,"adcD":14482,"GABGxG":14483,"gdfdgefd":14484,"ĠcaBe":14485,"CCGF":14486,"Ġ(([^":14487,"ĠGEBd":14488,"Ġcaged":14489,"cdcdadcd":14490,"dGBGBEGB":14491,"source":14492,"DAdgG":14493,"dBdBdB":14494,"EBEBEBEB":14495,"ĠdAeAfA":14496,"GxcxCx":14497,"CFxAFx":14498,"ĠdEEe":14499,"]|:\"^":14500,"FEEDFE":14501,"EFGBEFGB":14502,"ĠaAca":14503,"eGBGcEdF":14504,"eGBGcGdB":14505,"FcAcF":14506,"Ġggdd":14507,"EGBdFBd":14508,"AecAecA":14509,"AEBEcAE":14510,"AEBEcAEA":14511,"DAdAdedA":14512,"Ġending":14513,"GEAEGEDE":14514,"cEdFeGcF":14515,"xCECGCAC":14516,"ecGecGec":14517,"gxgxgxgx":14518,"BgeBgeB":14519,"fdBafdd":14520,"FFGAGFED":14521,"AfdAfdAf":14522,"Giga":14523,"CCxCxCCx":14524,"BBeeeeAA":14525,"azioso":14526,"flottes":14527,"CAdAdedA":14528,"CGECECEG":14529,"DGBGDFAF":14530,"BEGBdFBd":14531,"eGcFBEGB":14532,"fAcAFAcF":14533,"##\"":14534,"'-]|":14535,"'-|[_":14536,"*)\"":14537,"--\"":14538,".\"^":14539,"211":14540,"375":14541,"AeB":14542,"Axxx":14543,"AcBc":14544,"ATe":14545,"AxEx":14546,"Air":14547,"BeA":14548,"Bfg":14549,"BAFEC":14550,"Bugle":14551,"CcCC":14552,"CEEE":14553,"CEEF":14554,"Dv":14555,"Dedc":14556,"DCCC":14557,"Ece":14558,"Exxx":14559,"Fl":14560,"Fz":14561,"Ffe":14562,"FFDx":14563,"FcGe":14564,"GecG":14565,"GBAB":14566,"GTF":14567,"Out":14568,"Pe":14569,"Sec":14570,"ai":14571,"aDE":14572,"aAGEC":14573,"bfcA":14574,"bEDG":14575,"caec":14576,"dbd":14577,"dab":14578,"eFDCA":14579,"eefe":14580,"eFEF":14581,"eTf":14582,"fGDC":14583,"fFDCB":14584,"fre":14585,"gFCF":14586,"gGDE":14587,"gcGEE":14588,"gGECD":14589,"lar":14590,"mA":14591,"sf":14592,"sl":14593,"uag":14594,"vC":14595,"vBc":14596,"xFDA":14597,"xcE":14598,"xGGF":14599,"xcdx":14600,"Ġ#":14601,"Ġ71":14602,"Ġ$\"":14603,",,,,-]|[=":14604,"ECCB":14605,"ECxG":14606,"ECxD":14607,"ECcC":14608,"Ġdgef":14609,"Ġdzf":14610,"ĠAcC":14611,"ĠAga":14612,"ĠAac":14613,"ĠAfdc":14614,"ĠAeBe":14615,"ĠBar":14616,"ĠBFDE":14617,"ĠBfec":14618,"ĠBfef":14619,"ĠBaaa":14620,"ĠBDAf":14621,"ĠegeB":14622,"Ġeafa":14623,"ĠeBdg":14624,"ĠGECG":14625,"ĠGBAE":14626,"ĠGeBe":14627,"ĠGFBF":14628,"ĠcdG":14629,"Ġcbg":14630,"GEAB":14631,"GEEF":14632,"ĠfAG":14633,"ĠfbdB":14634,"ĠfzA":14635,"Ġgza":14636,"AFGF":14637,"AFEDF":14638,"ĠFFB":14639,"ĠFCB":14640,"ĠFECF":14641,"ĠFagf":14642,"ĠEgfg":14643,"ĠEEDD":14644,"cAGDD":14645,"ĠDdf":14646,"ĠDedc":14647,"ĠDefg":14648,"ĠaBbB":14649,"Ġabfa":14650,"Ġarr":14651,"dBxA":14652,"dBAFDD":14653,"ECGx":14654,"BAECG":14655,"ecBAB":14656,"edcGE":14657,"eddccB":14658,"DGCG":14659,"DGBGDGBG":14660,"AGGGG":14661,"GEBE":14662,"GBdBGBdB":14663,"EABc":14664,"fdDCA":14665,"fdFDC":14666,"FAcB":14667,"FAxF":14668,"FAxCEAxC":14669,"ĠzA":14670,"ABGE":14671,"ABAFA":14672,"CFAFCF":14673,"cBED":14674,"cBECC":14675,"cBFDF":14676,"geAFD":14677,"geAEA":14678,"gedBA":14679,"efgd":14680,"efff":14681,"FEFx":14682,"Ġbcd":14683,"CCEG":14684,"CCxE":14685,"arpegg":14686,"dAdc":14687,"dACD":14688,"cGce":14689,"cGFCD":14690,"DCDG":14691,"DCDCF":14692,"Ġedfa":14693,"xGe":14694,"FGxA":14695,"FGAGF":14696,"afgefd":14697,"xEe":14698,"xEDB":14699,"xExF":14700,"xEFx":14701,"xBce":14702,"ĠCd":14703,"ĠCh":14704,"ĠCEDB":14705,"ĠCDDD":14706,"CEcEC":14707,"GAGD":14708,"xDEA":14709,"cCcC":14710,"del":14711,"Ġdcb":14712,"ĠBAef":14713,"ĠcBcE":14714,"ceac":14715,"cegec":14716,"gdCC":14717,"gdcAD":14718,"gdAGA":14719,"gdedG":14720,"CDFF":14721,"Ġcdac":14722,"Ġfedcde":14723,"fFcF":14724,"fFfF":14725,"ĠecGB":14726,"bgBGC":14727,"bgdBE":14728,"ddxe":14729,"fcGFE":14730,"Bced":14731,"fBDD":14732,"ĠTFD":14733,"ĠTrio":14734,"bBFF":14735,"xcccc":14736,"bafe":14737,"badF":14738,"bafdD":14739,"fdBEC":14740,"fdBDG":14741,"ĠEFAA":14742,"DxCB":14743,"ExED":14744,"xdxB":14745,"xdad":14746,"CxCCC":14747,"ĠdcdF":14748,"BdAB":14749,"AccA":14750,"adFDB":14751,"adcAF":14752,"fcAED":14753,"ĠddAA":14754,"ĠAAde":14755,"xeec":14756,"orn":14757,"ĠGGFD":14758,"ĠDFdB":14759,"Ġabgf":14760,"ĠcBAGFA":14761,"ĠBeBA":14762,"fffd":14763,"ĠBEcB":14764,"faxaa":14765,"Ġefgefd":14766,"GFEFG":14767,"Ġgdgf":14768,"bdEE":14769,"exef":14770,"ĠAGAe":14771,"ĠdGed":14772,"xfb":14773,"ĠeBfe":14774,"feddc":14775,"fedefef":14776,"fedefed":14777,"aaxa":14778,"ĠdBGBdB":14779,",,,,,-^":14780,",,,,,-_":14781,"cECD":14782,"Ġ\"^[":14783,"Ġaeba":14784,"Ġaeac":14785,"GABdB":14786,"fxfffx":14787,"Ġggb":14788,"ĠgagB":14789,"Ġgagede":14790,"xagf":14791,"afcFCF":14792,"Ġadb":14793,"ĠECCA":14794,"Ġacce":14795,"Ġgcgc":14796,"ĠCEGF":14797,"ĠCEcd":14798,"Ġafgefd":14799,"ĠfccA":14800,"ĠdFdF":14801,"EEExE":14802,"edBGEDB":14803,"ĠAfAA":14804,"ĠAfge":14805,"Ġaaae":14806,"ĠCDEA":14807,"ĠcGdG":14808,">)=":14809,"CEGcG":14810,"ited":14811,"ĠafeA":14812,"ĠFdDF":14813,"gagfe":14814,"ĠBDEG":14815,"Ġbdag":14816,"ĠcABB":14817,"ĠGEGe":14818,"ĠMuc":14819,"ĠMinor":14820,"bBGCA":14821,"Ġ|\"_>":14822,"''''^":14823,"eBFCG":14824,"ĠGFEFGE":14825,"ĠdGGc":14826,"ĠDFBf":14827,"ĠBdee":14828,"AcAcG":14829,"afeE":14830,"ExEF":14831,"ĠcedG":14832,"Ġdbbd":14833,"BAGFEDCB":14834,"gfdcAFC":14835,"ĠGEAB":14836,"veud":14837,"alternate":14838,"Ġ|:\"^\\\"":14839,"Ġbbbg":14840,"ĠeBBf":14841,"BxBxBx":14842,"DDDDC":14843,"DDDDE":14844,"iginal":14845,"ĠEEEc":14846,"DGDGD":14847,"cxcxd":14848,"ĠBdAf":14849,"EEDEx":14850,"237":14851,"gafg":14852,"ĠEddc":14853,"AAGx":14854,"CEGEcGEC":14855,"Ġfbbb":14856,"xDGABe":14857,"risch":14858,"gcFCG":14859,"DEBD":14860,"bgdBGDD":14861,"xcxcxc":14862,"ĠcGGf":14863,"solo":14864,"ĠGdBg":14865,"ĠBzE":14866,"ĠcFAf":14867,"GcdABcAB":14868,"fdecdB":14869,"GedGc":14870,"Ġrhythm":14871,"xAFDxAFD":14872,"gxgggxff":14873,"Ġnicht":14874,"CECECECE":14875,"FEGEcA":14876,"BFcFcFcF":14877,"gxffxffx":14878,"ible":14879,"Boldly":14880,"fxgggxgg":14881,"GEBGEBGE":14882,"ĠSolo":14883,"ĠExpres":14884,"arpeggio":14885,"faxaaxgg":14886,"!_":14887,"Adfa":14888,"Acdf":14889,"Agfef":14890,"Bfx":14891,"BxGx":14892,"Cr":14893,"CFDC":14894,"DFEDA":14895,"DAFG":14896,"ER":14897,"Eed":14898,"EFFFF":14899,"EFAc":14900,"ExDx":14901,"Fb":14902,"FFDB":14903,"FGBd":14904,"FFAc":14905,"FTED":14906,"GgE":14907,"Gcde":14908,"GxDx":14909,"Pg":14910,"TAF":14911,"TBe":14912,"Waltz":14913,"aaA":14914,"aFDF":14915,"axbx":14916,"bGECG":14917,"bGEDB":14918,"bdBGE":14919,"bafA":14920,"bBGEG":14921,"ccAc":14922,"cgeg":14923,"cTd":14924,"dbB":14925,"dGECE":14926,"dFEDB":14927,"deBe":14928,"dTf":14929,"eFDF":14930,"eAAA":14931,"eGDD":14932,"eAECF":14933,"egfa":14934,"fxF":14935,"fbg":14936,"fecGC":14937,"fbx":14938,"gxG":14939,"gAFCA":14940,"gGECB":14941,"gTfe":14942,"id":14943,"me":14944,"mi":14945,"righ":14946,"xdex":14947,"Ġtenderly":14948,"ĠdAD":14949,"ĠddG":14950,"ĠdFAc":14951,"ĠdADE":14952,"ĠAl":14953,"ĠAGDE":14954,"ĠAGBc":14955,"ĠAMa":14956,"ĠBBF":14957,"ĠBFED":14958,"ĠBEAc":14959,"ĠBDAB":14960,"ĠGS":14961,"FDd":14962,"FDECD":14963,"ĠccE":14964,"ĠcacA":14965,"ĠccAB":14966,"ĠcFBF":14967,"Ġchor":14968,"ĠceGe":14969,"]|:\"":14970,"CAGA":14971,"setting":14972,"ĠfbB":14973,"ĠfcBc":14974,"ĠfFf":14975,"ĠgcA":14976,"ĠgAe":14977,"Ġgbfb":14978,"ĠFcd":14979,"ĠFag":14980,"ĠFcF":14981,"ĠFdAG":14982,"ĠFGGA":14983,"ĠEGCG":14984,"ĠEEGA":14985,"ĠEnd":14986,"ĠEADE":14987,"DAGAFAEA":14988,"cABcdefg":14989,"ĠDfg":14990,"ĠDfD":14991,"ĠaBg":14992,"CGFED":14993,"BAGC":14994,"BAAFA":14995,"xxCD":14996,"FCDA":14997,"ecg":14998,"ecfc":14999,"ecAFB":15000,"FCAC":15001,"edfe":15002,"edxe":15003,"edcde":15004,"AGFCC":15005,"GBdBG":15006,"fdBGDG":15007,"fdGFDB":15008,"FBf":15009,"FAdAF":15010,"GGFD":15011,"GGBAG":15012,"GGFGx":15013,"ABcF":15014,"CFAA":15015,"CFAFCA":15016,"geGECA":15017,"cdeA":15018,"cdAcd":15019,"EEFB":15020,"DDFF":15021,"DDEDA":15022,"DDxDx":15023,"efece":15024,"Ġbfab":15025,"EGcE":15026,"fecAA":15027,"BBa":15028,"BBg":15029,"dAcA":15030,"dADx":15031,"dADCA":15032,"cGeG":15033,"FFAF":15034,"xGdB":15035,"xGec":15036,"xGAd":15037,"xGECGECE":15038,"xAf":15039,"xAAF":15040,"xAcf":15041,"AFDFA":15042,"FGFB":15043,"ADAFA":15044,"afFDB":15045,"afEA":15046,"afae":15047,"afad":15048,"afAGF":15049,"afecAF":15050,"xEGG":15051,"xEGEGE":15052,"xBdB":15053,"ĠCCG":15054,"gfBB":15055,"gfcAG":15056,"BFECD":15057,"GAxA":15058,"GAAEEAA":15059,"DFGE":15060,"DFGD":15061,"DFBA":15062,"ĠefcA":15063,"eBf":15064,"dcCG":15065,"dcEF":15066,"dcGED":15067,"DEGED":15068,"ĠdBdd":15069,"agba":15070,"BGEcAF":15071,"dGg":15072,"Ġdcfc":15073,"ĠcAfg":15074,"EFcEF":15075,"ecAECC":15076,"ĠBAag":15077,"gagfg":15078,"cegb":15079,"Ġdeag":15080,"CDxB":15081,"cGEDD":15082,"dFGF":15083,"gGdG":15084,"fFEE":15085,"ĠdfAF":15086,"eGce":15087,"eGeG":15088,"ĠFADC":15089,"ĠFAfA":15090,"ĠFAzA":15091,"ĠGAfg":15092,"bgBGF":15093,"bgfdBG":15094,"dddef":15095,"ĠAFGD":15096,"ĠAFde":15097,"ĠdBGDGA":15098,"fcDCA":15099,"fcBGF":15100,"ABcc":15101,"BFDBFDBF":15102,"ind":15103,"ĠceAE":15104,"ĠAcFE":15105,"ĠegA":15106,"dBFdBF":15107,"fBe":15108,"aeBG":15109,"ĠecAceg":15110,"ĠTBG":15111,"ĠTdBB":15112,"ĠTBABc":15113,"bBED":15114,"dfxe":15115,"dfab":15116,"dAFEC":15117,"BAGFDB":15118,"xccd":15119,"ecGDA":15120,"ccBAG":15121,"ccxc":15122,"cccBA":15123,"cccBAc":15124,"ĠEFFA":15125,"ĠGEDA":15126,"DxCCC":15127,"ExCB":15128,"eCeC":15129,"Axf":15130,"fdAf":15131,"ĠBABa":15132,"Ġ|\"^-\"":15133,"Ġ|\"^''\"":15134,"BFBFB":15135,"gecBGECG":15136,"egag":15137,"ĠABAGFG":15138,"ady":15139,"ĠEGd":15140,"ĠAFAD":15141,"ĠcAAD":15142,"Ġagfb":15143,"ĠGGcc":15144,"eFEA":15145,"Bxf":15146,"BxFDC":15147,"bfFD":15148,"bfEB":15149,"bfcE":15150,")\"\"^":15151,")\"\"^(":15152,"fGFDG":15153,"dxb":15154,"dxbafd":15155,"eDCB":15156,"ĠdAdF":15157,"Ġgbbb":15158,"fcAFB":15159,"afdef":15160,"ĠBEeE":15161,"geBECB":15162,"bdFD":15163,"exb":15164,"ext":15165,"xfxfx":15166,"Ġefea":15167,"eBGEDA":15168,"eBGEGBeg":15169,"/>(":15170,"/>.":15171,"beGC":15172,"dcBAF":15173,"dcBFB":15174,"gdBGFDB":15175,"gdBGDCG":15176,"gfeE":15177,"ĠDBDB":15178,"aecaec":15179,"AGEDCA":15180,"ĠgedG":15181,",,,,-_":15182,"BGFECE":15183,"ĠBABcBA":15184,"Ġude":15185,"GABe":15186,"ĠfBaf":15187,"']/[":15188,"aecACC":15189,"ĠECFE":15190,"fgaa":15191,"baged":15192,"agfef":15193,"gbgf":15194,"BBBBABc":15195,"DDDxDxDD":15196,"ĠDACA":15197,"gdGFDB":15198,"cfaf":15199,"edBdB":15200,"ĠBcAe":15201,"ĠEFAd":15202,"ĠecAcec":15203,"cGDCD":15204,"ĠDCDB":15205,"dedBG":15206,"dBGEDG":15207,"Ġ(.^":15208,"ĠcFFA":15209,"fgff":15210,"ĠTfefg":15211,"ĠBAGABG":15212,"CEAxECE":15213,"BEDF":15214,"ĠGBAD":15215,"Ġcaaf":15216,"gGEDG":15217,"ĠcABE":15218,"249":15219,"eBAGE":15220,"ĠMarch":15221,"ĠEcdB":15222,"ecFECF":15223,"FFFFGA":15224,"ageAG":15225,"Ġ|\"_*\"":15226,"EFEx":15227,"EAcec":15228,"fdBGFB":15229,"Ġfbfe":15230,"')\"^":15231,"EEEEx":15232,"EGEDA":15233,"fefxax":15234,"CCCCCCC":15235,"ĠBffd":15236,"ĠdAAc":15237,"AceaE":15238,"xDxDB":15239,"gfdGG":15240,"EGABGABA":15241,"fcBFDB":15242,"ĠgGBA":15243,"ĠBdfbd":15244,"fdcADF":15245,"ĠFADg":15246,"ano":15247,"GBGBGBGB":15248,"ĠFcac":15249,"AGFEAGFE":15250,"GGFFE":15251,"BGBGcGB":15252,"cccccBAc":15253,"ĠCGB":15254,"ple":15255,"ĠFEFAGE":15256,"aeAEDD":15257,"xDBGx":15258,"ĠcAFDFA":15259,"xEGcx":15260,"dADFAFdA":15261,"dcccA":15262,"ecBAECB":15263,"FDxAGF":15264,"defgx":15265,"dfeg":15266,"GGxGFF":15267,"Ġuave":15268,"eaebg":15269,"ĠAedF":15270,"FFAAEEAA":15271,"ĠEBEg":15272,"ecGFcfa":15273,"vBuc":15274,"ĠGFAed":15275,"vcuB":15276,"GDxBAG":15277,"Ġ42":15278,"xDFBdBFD":15279,"xEGBeBGE":15280,"xBBBBBBc":15281,"xBABBBAB":15282,"ĠGgGg":15283,"]/)[":15284,"Ġrepeated":15285,"Ġplaintive":15286,"ebgbf":15287,"xFGFdFGF":15288,"DFBxFDC":15289,"xgxfeef":15290,"CEAxECB":15291,"CFFFFGA":15292,"This":15293,"GgGgGgGg":15294,"ĠAllegro":15295,"snap":15296,"xcAxcAxc":15297,"DFAFGADF":15298,"Lento":15299,"FBcABcGA":15300,"GdGdGdGd":15301,"DDEDAEDE":15302,"AfdA":15303,"Afed":15304,"Bec":15305,"Bri":15306,"CFDA":15307,"CECC":15308,"CEDCB":15309,"DFEF":15310,"EFDC":15311,"FGEC":15312,"FdA":15313,"FAFCA":15314,"FdcBF":15315,"GGEB":15316,"GecA":15317,"Ggd":15318,"GcBc":15319,"Gda":15320,"Mf":15321,"PB":15322,"SB":15323,"Walzertempo":15324,"]>)":15325,"aBd":15326,"aad":15327,"aAEE":15328,"aTgf":15329,"bAFDB":15330,"bdBGG":15331,"becGE":15332,"bTa":15333,"ceE":15334,"cbc":15335,"con":15336,"dece":15337,"dGECD":15338,"dTcA":15339,"eFDC":15340,"eGBd":15341,"ere":15342,"eGECD":15343,"fin":15344,"fxgx":15345,"gGDC":15346,"ggfg":15347,"up":15348,"ufd":15349,"uGA":15350,"uae":15351,"ube":15352,"uch":15353,"xcAA":15354,"xcBc":15355,"xfdc":15356,"xafa":15357,"ĠY":15358,"Ġtro":15359,",/{":15360,"ECECG":15361,"ECxC":15362,"ĠdecG":15363,"ĠABGG":15364,"ĠAADF":15365,"ĠAafa":15366,"ĠBBD":15367,"ĠBafd":15368,"Ġebaf":15369,"Ġebbb":15370,"Ġespres":15371,"ĠGr":15372,"ĠGece":15373,"ĠGded":15374,"ĠGdgb":15375,"Ġcfga":15376,"ĠcEFG":15377,"Ġcada":15378,"GEEG":15379,"GEGDG":15380,"GEGEG":15381,"ĠfFAc":15382,"Ġgdfg":15383,"AFGEFD":15384,"BGGA":15385,"BGFCF":15386,"ĠFaf":15387,"ĠFBcd":15388,"ĠFFDF":15389,"ĠFaF":15390,"ĠFcAG":15391,"ĠFFBF":15392,"ĠEge":15393,"ĠEeB":15394,"ĠEECE":15395,"ĠEzB":15396,"cAde":15397,"ĠDcAc":15398,"ĠDzG":15399,"ĠaG":15400,"Ġaab":15401,"ĠaBBB":15402,"dBb":15403,"dBcx":15404,"dBAEB":15405,"dBAGB":15406,"FCDB":15407,"AEcA":15408,"FCAFCA":15409,"edeG":15410,"DGGF":15411,"AGFEDC":15412,"GBce":15413,"EDFE":15414,"EDDCA":15415,"EAdex":15416,"fdcFD":15417,"AAAGAB":15418,"GGFED":15419,"GECECD":15420,"cBAFF":15421,"gegb":15422,"gecAGE":15423,"geBGEG":15424,"gegeg":15425,"GFGG":15426,"cdD":15427,"cdAG":15428,"cdgd":15429,"cdedc":15430,"cdefe":15431,"EEe":15432,"efaf":15433,"efgfef":15434,"FEGEc":15435,"Ġbba":15436,"ĠbdcB":15437,"Ġbfga":15438,"Ġbbaa":15439,"EGFD":15440,"CCEEGG":15441,"BBcc":15442,"dAGEB":15443,"xGxB":15444,"xAxc":15445,"ĠABeB":15446,"FGAE":15447,"FGAx":15448,"ADd":15449,"ADCC":15450,"afBF":15451,"afBGE":15452,"afBFD":15453,"afcBF":15454,"xBF":15455,"xBdd":15456,"cAFECC":15457,"cAFEDA":15458,"DFFD":15459,"DFxE":15460,"Ġfdgb":15461,"xCFB":15462,"dcFG":15463,"dcDCD":15464,"BEc":15465,"agecC":15466,"agdGC":15467,"\"^#?\"":15468,"BGEBG":15469,"dGFDA":15470,"dGFDG":15471,"cEFE":15472,"ĠdccE":15473,"ACx":15474,"ĠBdEd":15475,"EFFA":15476,"ecAEDA":15477,"BDdEe":15478,"ĠcBf":15479,"ĠcBcF":15480,"ĠcBcde":15481,"eAd":15482,"ĠBcea":15483,"ĠAGe":15484,"ceax":15485,"ĠGBFE":15486,"Ġdeba":15487,"CDFB":15488,"dFECG":15489,"ĠcddA":15490,"ĠcBABcd":15491,"eGFD":15492,"ĠGAdc":15493,"bgcB":15494,"bgBDB":15495,"bgecC":15496,"bgcBG":15497,"Ġdefedc":15498,"Ġfggg":15499,"fcFCC":15500,"Ġaggb":15501,"gBEC":15502,"fADC":15503,"ABcdB":15504,"xxxxxD":15505,"xxxxxF":15506,"fBAFB":15507,"ĠBcda":15508,"ĠFGBG":15509,"ĠFGABc":15510,"aeFDA":15511,"aeAFC":15512,"ĠTedB":15513,"ĠGFBA":15514,"ĠGFGG":15515,"dAFEDB":15516,"BAGCA":15517,"xcef":15518,"fgxg":15519,"fgagfe":15520,"eBGCE":15521,"ecGdBGBd":15522,"ccFFF":15523,"dEc":15524,"GEEAEE":15525,"ĠeaaA":15526,"Exd":15527,"xdde":15528,"Ġefgedc":15529,"AxGFG":15530,"AxcAxcAx":15531,"ĠeAea":15532,"Ġdcdede":15533,"gcDB":15534,"AcfcA":15535,"fdAGD":15536,"edcg":15537,"gecEB":15538,"adcAD":15539,"adAGB":15540,"Ġdda":15541,"ĠddAB":15542,"Ġddfe":15543,"ĠEGdc":15544,"ĠAAcB":15545,"ĠAAfe":15546,">\"^\\\"":15547,"xexf":15548,"oroso":15549,"eFEC":15550,"bfx":15551,"bfed":15552,"dxBG":15553,"ĠcAGg":15554,"eDdB":15555,"aFECA":15556,"ĠgdBe":15557,"ĠBEFD":15558,"bdGF":15559,"ĠAGAa":15560,"abge":15561,"ĠdGcA":15562,"Ġefeg":15563,"aBAF":15564,"]\"\"":15565,"beDB":15566,"beDG":15567,"ĠeBed":15568,"fedcAFD":15569,"aecAFCF":15570,"Ġfefgfg":15571,"Ġfefagf":15572,"ĠABcAGF":15573,"Ġbagc":15574,"Ġbagabg":15575,"Ġvue":15576,"Ġup":15577,"ĠdBBF":15578,"BDGBAC":15579,"ĠfBa":15580,"ĠfBcB":15581,"ĠBcdedB":15582,"gxgf":15583,"GFGxF":15584,"try":15585,"ĠGEEe":15586,"Ġadga":15587,"]/-":15588,"ĠEEc":15589,"EFGABc":15590,"ĠFBDF":15591,"Ġgcce":15592,"Ġgcbc":15593,"ĠCEc":15594,"ĠdFeF":15595,"EEEEC":15596,"cGDCA":15597,"ĠBgbg":15598,"/)(.":15599,"aeAEB":15600,"dedcB":15601,"dedcBE":15602,"Ġdfegfa":15603,"cBGCG":15604,"fAFG":15605,"BEGA":15606,"dBGEDE":15607,"bbbbb":15608,"dAGFDA":15609,"DFAx":15610,"ĠEDBc":15611,"252":15612,"Ġegfed":15613,"Ġfecc":15614,"acACF":15615,"ĠeGdf":15616,"CEGcCEGc":15617,"dAAB":15618,"Ġcacc":15619,"eBAGEB":15620,"ĠEcec":15621,"FGFGE":15622,"ĠdDDG":15623,"Ġgagfef":15624,"ĠPb":15625,"ĠPBA":15626,"ĠPed":15627,"gdAGDG":15628,"gcGCB":15629,"DEDx":15630,"DEDED":15631,"Ġfbef":15632,"Ġfbeg":15633,"bBEDG":15634,"geAGEA":15635,"DFDx":15636,"AcAcAcAc":15637,"ĠAgfd":15638,">)(=":15639,"Acee":15640,"gdcGEC":15641,"\"\"_*\"":15642,"\"\"_**\"":15643,"fcBDB":15644,"Ġdaaf":15645,"angem":15646,"bafdB":15647,"ĠfAAg":15648,"GBGBFBFB":15649,"egee":15650,"dcAFB":15651,"bgfE":15652,"DEGx":15653,"ĠdEcB":15654,"227":15655,"ĠCGAG":15656,"eAGCA":15657,"cheer":15658,"ĠgBBa":15659,"DDCDCD":15660,"ĠEdEE":15661,"ĠCEAC":15662,"Ġ\"_>\"":15663,"CCxCC":15664,"AxGxGx":15665,"Ġcefb":15666,"xDxDxDx":15667,"cgcg":15668,"xdxdxdxd":15669,"axaxAc":15670,"eedcd":15671,"xddcd":15672,"GcGcAcAc":15673,"oth":15674,"xFFFAAcc":15675,"xDDDFFAA":15676,"xDFBdB":15677,"CGCGCGCG":15678,"agagag":15679,"Playful":15680,"BxBxBxBx":15681,"Ġdgcg":15682,"xgdgB":15683,"andard":15684,"Ġnon":15685,"BAfeBAfe":15686,"Ġshown":15687,"xFFFFFFF":15688,"lute":15689,"AcecAcec":15690,"sivo":15691,"\"^/@>.":15692,"irdo":15693,"lody":15694,"Polka":15695,"FBdDAef":15696,"freud":15697,"Ġarrangem":15698,"AcAcGBGB":15699,"GgEeDdB":15700,"Ġarrangement":15701,"'){":15702,"460":15703,"Av":15704,"AcAE":15705,"Addd":15706,"ATA":15707,"Bz":15708,"BxC":15709,"BeG":15710,"BBGF":15711,"CECD":15712,"CDDE":15713,"Crot":15714,"DdB":15715,"Ded":15716,"DFDD":15717,"DxGx":15718,"DGDCD":15719,"DEEF":15720,"DcGEeGfG":15721,"ETE":15722,"EcGEeGfG":15723,"Fcd":15724,"Fcc":15725,"FFCC":15726,"FEEF":15727,"FGGA":15728,"FcBcA":15729,"Gz":15730,"Gcdc":15731,"GAAAA":15732,"Gphr":15733,"LA":15734,"Mge":15735,"Ne":15736,"Sto":15737,"]>.":15738,"aBGE":15739,"ageB":15740,"aEDG":15741,"adAd":15742,"adfa":15743,"aAFDG":15744,"bFG":15745,"bAFC":15746,"bcGEC":15747,"bFCB":15748,"bGEA":15749,"becEC":15750,"bedE":15751,"cga":15752,"cefe":15753,"cgb":15754,"cdBd":15755,"cedAcB":15756,"dbfd":15757,"dcGCG":15758,"eFCG":15759,"ebf":15760,"eAGG":15761,"eTe":15762,"exBx":15763,"fgG":15764,"fEDB":15765,"fGED":15766,"frisch":15767,"gFDF":15768,"gBGEC":15769,"gAGDA":15770,"hold":15771,"ky":15772,"ous":15773,"rec":15774,"sch":15775,"uga":15776,"uca":15777,"xcG":15778,"xFDF":15779,"xdcBA":15780,"xGFED":15781,"xfcf":15782,"xagx":15783,"xgax":15784,"zec":15785,"{!":15786,"Ġ)\"":15787,"Ġit":15788,"Ġpo":15789,",,/)":15790,",]<":15791,"ECDC":15792,"ECECE":15793,"Ġdi":15794,"Ġdo":15795,"ĠdcE":15796,"Ġdac":15797,"ĠdADA":15798,"Ġdgab":15799,"Ġddeg":15800,"Ġdafg":15801,"ĠAbc":15802,"ĠAAGB":15803,"ĠADAd":15804,"DBFDB":15805,"ĠBS":15806,"ĠBga":15807,"ĠBcAA":15808,"ĠeFF":15809,"ĠedBF":15810,"ĠeecB":15811,"ĠGAD":15812,"ĠGCE":15813,"ĠGBGD":15814,"ĠGaec":15815,"ĠGbge":15816,"ĠGeee":15817,"ĠGdEd":15818,"ĠGmaj":15819,"ĠcS":15820,"ĠcFGA":15821,"ĠcAFF":15822,"Ġcgfg":15823,"ĠcGFG":15824,"ĠccAd":15825,"Ġcuded":15826,"GEd":15827,"GEeBGE":15828,"ĠfGB":15829,"ĠffdB":15830,"ĠfcAG":15831,"ĠgdAF":15832,"ĠgGAB":15833,"Ġgig":15834,"AFFD":15835,",,]>":15836,"BGFCB":15837,"ĠFde":15838,"ĠFdD":15839,"ĠFBFB":15840,"ĠFzG":15841,"EBeBGEG":15842,"ĠEce":15843,"ĠEeBG":15844,"ĠEBGA":15845,"ĠEzG":15846,"ĠEDGF":15847,"cAa":15848,"cAGFED":15849,"ĠDFDB":15850,"ĠDed":15851,"ĠDDCD":15852,"ĠDCCC":15853,"ĠDDAD":15854,"Ġaae":15855,"dBcG":15856,"CGce":15857,"CGcGCG":15858,"BAGEA":15859,"BAGEF":15860,"ecBD":15861,"ecGFEC":15862,"ecdBc":15863,"ecEDCD":15864,"edAFDA":15865,"edcGC":15866,"edGFD":15867,"DGBA":15868,"DGFB":15869,"DGADG":15870,"AGxE":15871,"EAECA":15872,"EAxG":15873,"EAxCEA":15874,"fdcAA":15875,"AAg":15876,"FBdx":15877,"FAcF":15878,"GGBA":15879,"GGGFD":15880,
[...]
