{"<s>":0,"<pad>":1,"</s>":2,"<unk>":3,"<mask>":4,"!":5,"\"":6,"#":7,"$":8,"%":9,"&":10,"'":11,"(":12,")":13,"*":14,"+":15,",":16,"-":17,".":18,"/":19,"0":20,"1":21,"2":22,"3":23,"4":24,"5":25,"6":26,"7":27,"8":28,"9":29,":":30,";":31,"<":32,"=":33,">":34,"?":35,"@":36,"A":37,"B":38,"C":39,"D":40,"E":41,"F":42,"G":43,"H":44,"I":45,"J":46,"K":47,"L":48,"M":49,"N":50,"O":51,"P":52,"Q":53,"R":54,"S":55,"T":56,"U":57,"V":58,"W":59,"X":60,"Y":61,"Z":62,"[":63,"\\":64,"]":65,"^":66,"_":67,"`":68,"a":69,"b":70,"c":71,"d":72,"e":73,"f":74,"g":75,"h":76,"i":77,"j":78,"k":79,"l":80,"m":81,"n":82,"o":83,"p":84,"q":85,"r":86,"s":87,"t":88,"u":89,"v":90,"w":91,"x":92,"y":93,"z":94,"{":95,"|":96,"}":97,"~":98,"¡":99,"¢":100,"£":101,"¤":102,"¥":103,"¦":104,"§":105,"¨":106,"©":107,"ª":108,"«":109,"¬":110,"®":111,"¯":112,"°":113,"±":114,"²":115,"³":116,"´":117,"µ":118,"¶":119,"·":120,"¸":121,"¹":122,"º":123,"»":124,"¼":125,"½":126,"¾":127,"¿":128,"À":129,"Á":130,"Â":131,"Ã":132,"Ä":133,"Å":134,"Æ":135,"Ç":136,"È":137,"É":138,"Ê":139,"Ë":140,"Ì":141,"Í":142,"Î":143,"Ï":144,"Ð":145,"Ñ":146,"Ò":147,"Ó":148,"Ô":149,"Õ":150,"Ö":151,"×":152,"Ø":153,"Ù":154,"Ú":155,"Û":156,"Ü":157,"Ý":158,"Þ":159,"ß":160,"à":161,"á":162,"â":163,"ã":164,"ä":165,"å":166,"æ":167,"ç":168,"è":169,"é":170,"ê":171,"ë":172,"ì":173,"í":174,"î":175,"ï":176,"ð":177,"ñ":178,"ò":179,"ó":180,"ô":181,"õ":182,"ö":183,"÷":184,"ø":185,"ù":186,"ú":187,"û":188,"ü":189,"ý":190,"þ":191,"ÿ":192,"Ā":193,"ā":194,"Ă":195,"ă":196,"Ą":197,"ą":198,"Ć":199,"ć":200,"Ĉ":201,"ĉ":202,"Ċ":203,"ċ":204,"Č":205,"č":206,"Ď":207,"ď":208,"Đ":209,"đ":210,"Ē":211,"ē":212,"Ĕ":213,"ĕ":214,"Ė":215,"ė":216,"Ę":217,"ę":218,"Ě":219,"ě":220,"Ĝ":221,"ĝ":222,"Ğ":223,"ğ":224,"Ġ":225,"ġ":226,"Ģ":227,"ģ":228,"Ĥ":229,"ĥ":230,"Ħ":231,"ħ":232,"Ĩ":233,"ĩ":234,"Ī":235,"ī":236,"Ĭ":237,"ĭ":238,"Į":239,"į":240,"İ":241,"ı":242,"Ĳ":243,"ĳ":244,"Ĵ":245,"ĵ":246,"Ķ":247,"ķ":248,"ĸ":249,"Ĺ":250,"ĺ":251,"Ļ":252,"ļ":253,"Ľ":254,"ľ":255,"Ŀ":256,"ŀ":257,"Ł":258,"ł":259,"Ń":260,"Ġ|":261,"Ġd":262,"ĠA":263,"ĠB":264,"čĊ":265,"Ġe":266,"Ġc":267,"ĠG":268,"Ġf":269,"Ġg":270,"Ġ\"":271,"ĠF":272,"Ġ(":273,"ĠE":274,"Ġa":275,"ĠD":276,"Ġ:":277,"ed":278,"BA":279,"Bc":280,"Ġed":281,"Ġz":282,"ef":283,"ĠBA":284,"Ġb":285,"Ġdc":286,"Ġ[":287,"fe":288,"GA":289,"ĠcA":290,"ĠdB":291,"fg":292,"Ġ::":293,"cA":294,"Ġfd":295,"cd":296,"Bd":297,"ĠAG":298,"FA":299,"ĠC":300,"ag":301,"ĠBG":302,"ĠGA":303,"Ġ^":304,"Ġcd":305,"ĠBd":306,"ĠAF":307,"Ġag":308,"ec":309,"fd":310,"/)":311,"\"^":312,"Ġ1":313,"cB":314,"ED":315,"Ġ2":316,"FG":317,"BG":318,"ĠFA":319,"Ġfed":320,"af":321,"Ġfg":322,"Ġef":323,"ĠAB":324,"EF":325,"Ġ.":326,"Ġgf":327,"Am":328,"Ġ=":329,"GB":330,"Em":331,"Ġ{":332,"ĠcBA":333,"ĠBc":334,"AA":335,"ĠGF":336,"ĠAd":337,"ĠABc":338,"Ġdef":339,"de":340,"Ġec":341,"Ġeg":342,"in":343,"Ġde":344,"dB":345,"ĠAc":346,"Ġdf":347,"Ġfe":348,"GF":349,"ĠFD":350,"Ġefg":351,"dc":352,")(":353,"Ġ\"^":354,"Dm":355,"ĠcB":356,"Ġce":357,"ĠBcd":358,"Ġge":359,"][":360,"16":361,"ĠecA":362,"ge":363,"Bb":364,"ĠGB":365,"ĠdBA":366,"ĠDE":367,"Ġgfe":368,"ĠGE":369,"gf":370,"Ġ!":371,"AB":372,"ĠED":373,"12":374,"AG":375,"Ġfa":376,"AF":377,"ĠdBG":378,"ce":379,"ĠBAG":380,"Bcd":381,"Gm":382,"Ġaf":383,"Ġgfg":384,"ĠEF":385,"ĠAFD":386,"ĠT":387,"ĠABA":388,"ab":389,"Ġea":390,"GE":391,"GG":392,"Ġdg":393,"ĠedB":394,"dd":395,"Bm":396,"Ġged":397,"ĠFGA":398,"ĠGBd":399,"ĠdcB":400,"Ġded":401,"Ad":402,"ĠFE":403,"ĠFG":404,"ĠAGF":405,"Ġedc":406,"10":407,"or":408,"Ġafd":409,"Ġbg":410,"ĠAD":411,"Ġab":412,"BB":413,"ĠeA":414,"eg":415,"ĠEG":416,"ee":417,"at":418,"80":419,"Ġgfed":420,"Ac":421,"Ġgd":422,"ĠGAB":423,">!":424,"EG":425,"ĠDG":426,"ĠFED":427,"ĠAGA":428,"FD":429,"fa":430,"ĠedcB":431,"Ġdcd":432,"ĠDFA":433,"ĠAFA":434,"ĠcBc":435,"120":436,"ĠdcBA":437,"ĠdA":438,"Ġdd":439,"Ġ]":440,"Ġga":441,"efg":442,"Ġgb":443,"DE":444,"ĠBAB":445,"Eb":446,"Ġcc":447,"agf":448,"ĠDF":449,"ĠBE":450,"Ġagf":451,"df":452,"ĠABd":453,"ga":454,"Ġcde":455,"ĠAA":456,").":457,"mat":458,"ĠdG":459,"fer":460,"BAG":461,"ĠGG":462,"fermat":463,"fermata":464,"ĠGED":465,"Ġ!>!":466,"Ġefe":467,"ĠEFG":468,"CE":469,"ĠcBAG":470,"ba":471,"\"\"":472,"ĠcAG":473,"90":474,"DD":475,"ĠGFG":476,"ĠAGE":477,"Ġ:\"":478,",/":479,"15":480,"32":481,"ĠcAF":482,"14":483,"ĠBe":484,"70":485,"cBA":486,"ix":487,"Ġfef":488,"Ġba":489,"/\"":490,"ĠBB":491,"FE":492,"/^":493,"60":494,"ĠfdB":495,")\"":496,"]\"":497,"ĠABcd":498,"ĠDEF":499,">^":500,"on":501,"Ġbag":502,"ĠcAA":503,"cc":504,"Ġefge":505,"72":506,"Emin":507,"13":508,"ĠEA":509,"ĠGABc":510,"Ġgec":511,"ĠBGG":512,"88":513,"ĠBAF":514,"dor":515,"ĠgedB":516,"Ġ_":517,"EE":518,"Ġfdd":519,"gfe":520,"20":521,"ABc":522,"]\"^":523,"17":524,"Ġee":525,"ĠBGB":526,"67":527,"Ġfedc":528,"ĠGFE":529,"45":530,"Ġdefg":531,"30":532,"DF":533,"69":534,"DG":535,"40":536,"edc":537,"Ġede":538,"EA":539,"gd":540,"Ador":541,"19":542,"ĠdBGB":543,"65":544,"82":545,"ĠgdB":546,"GAB":547,"ĠABcA":548,"85":549,"def":550,",]":551,"FF":552,"gg":553,"Ġae":554,"35":555,"39":556,"ĠBcdB":557,"ĠBGE":558,"#\"":559,"Amin":560,"\"_":561,"49":562,"62":563,"dA":564,"75":565,"Ab":566,".\"":567,"ĠeB":568,"Ġgag":569,"Ġff":570,"Ġage":571,"Ġefed":572,"89":573,"Ġfaf":574,"ĠBAGF":575,"Ġfgaf":576,"42":577,"aa":578,"Ġedef":579,"79":580,"ĠdBd":581,"cde":582,"ĠeAA":583,"Ġdefd":584,"bg":585,"gB":586,"ĠAce":587,"dcB":588,"ĠGD":589,"100":590,"fed":591,"/>":592,"ĠGAG":593,"Ġgab":594,"Gmin":595,",>":596,"Ġdcde":597,"ĠGFGA":598,"ĠEAA":599,"ĠBABc":600,"dG":601,"Ġcdef":602,"ĠBdB":603,"ĠAdd":604,"fA":605,"Cm":606,"Ġfga":607,"ĠdAF":608,"37":609,"84":610,"ĠGc":611,"ĠDD":612,"25":613,"87":614,"ĠdF":615,"ĠGABG":616,"CD":617,"ĠFDD":618,"eA":619,"Dmin":620,"GAG":621,"FED":622,"ĠdcA":623,"ĠDED":624,"ĠdBAF":625,"ĠdBAG":626,"Ġagfe":627,"dg":628,"ĠfA":629,"Amix":630,"FGA":631,"ĠDB":632,"FB":633,"ĠfdcA":634,"Ġaga":635,"ĠFEF":636,"]/":637,"Ġgg":638,"ar":639,"ĠBAFA":640,"66":641,"ĠBcde":642,"34":643,"ĠDC":644,"/.":645,"EB":646,"Ġfdf":647,"ĠGBA":648,"ĠfB":649,"Ġ::[":650,"Ġbge":651,"ac":652,"ĠcAFA":653,"GFE":654,"Ġdfe":655,"29":656,"ĠAAA":657,"ĠAFDF":658,"tr":659,"Ġefd":660,"Ġgfga":661,"Ġafdf":662,"DA":663,"ĠedBd":664,"DEF":665,"ff":666,"ĠcBcd":667,"Ġgef":668,"ĠecAc":669,"ĠEE":670,"ABA":671,"Ġece":672,"'/":673,"Ġv":674,"ĠGABd":675,"Ġfdec":676,"bag":677,"ĠBAGB":678,"ĠFGAB":679,"Ec":680,"Ġac":681,"Ġcdec":682,"ad":683,"ĠABde":684,"ĠEC":685,"ĠAGAB":686,":\"":687,"Ġgc":688,"86":689,"efe":690,"ĠDEFG":691,"non":692,"180":693,"ĠBcB":694,"none":695,"36":696,"ĠCE":697,"Ġdfaf":698,"ĠBg":699,"ĠFF":700,"fge":701,"Ġeaag":702,"55":703,"ĠBcA":704,"ĠFB":705,"Ae":706,"Ġdfa":707,"Ġege":708,"Ġ::\"":709,"ĠBGBd":710,"\"^(":711,"ĠcAGE":712,"ĠdBc":713,"ĠAFE":714,"Ġdfed":715,"ĠAE":716,"Ġad":717,"47":718,"ĠBGA":719,"ĠgB":720,"Ġgfd":721,"Ġfec":722,"ĠdBB":723,"ĠGEE":724,"ĠABAG":725,"ĠABG":726,"Ġfedf":727,"Edor":728,"DB":729,"Ġaa":730,"50":731,"57":732,"ĠEFA":733,"ĠAGFE":734,"AAA":735,"59":736,"BdB":737,"ĠGFED":738,"46":739,"ĠFd":740,"ea":741,"ion":742,"33":743,"Ġca":744,"Ġafe":745,"ĠedBA":746,"ded":747,"gfg":748,"!>!":749,"Bmin":750,"ĠEFGA":751,"Ġeaa":752,"ĠAf":753,"ĠFAd":754,"ddd":755,"ĠDA":756,"ĠdBAB":757,"Ġaba":758,"44":759,"ĠBF":760,"FAF":761,"ĠADFA":762,"ĠeG":763,"/)(":764,"83":765,"160":766,"11":767,"Ġcf":768,"Ġbagf":769,"Ġabag":770,"gef":771,"ĠEDB":772,"ĠdedB":773,"Ġeag":774,"ĠcAc":775,"fga":776,"52":777,">.":778,"ĠGe":779,"Ġaged":780,"ĠFDFA":781,"Ġfefg":782,"Ġfc":783,"ĠAGEG":784,"Dmix":785,"ĠEDE":786,"\"{":787,"Ġdfd":788,"ĠBee":789,"Ġ(.":790,"Ġcdc":791,"ĠFAA":792,"ĠFGAF":793,"ĠgdBd":794,"ĠGGG":795,"ĠBGAF":796,"Gdc":797,"ĠcE":798,"Ġaec":799,"ĠDGG":800,"Ġgefd":801,"'d":802,"43":803,"Ġu":804,"ĠcG":805,"ĠGd":806,"ĠcABG":807,"Ġfgf":808,"27":809,"ĠaA":810,"Ġafge":811,"Ġedcd":812,"Bg":813,"ĠGBAG":814,"Ġ\"^(":815,"*\"":816,"ĠTB":817,"Ġgbag":818,"48":819,"Ġdedc":820,",,":821,"EFG":822,"Ġ:[":823,"ĠBAA":824,"ĠBdd":825,"ĠAcBA":826,"ĠEFE":827,"Ġcee":828,"ĠAe":829,"BcB":830,"ĠGBdB":831,"'>":832,"_-":833,"cE":834,"Ġfag":835,"ĠdcBc":836,"77":837,"BF":838,"ĠAa":839,"ĠAcA":840,"Ġ([":841,"ĠDEG":842,"18":843,"ĠEB":844,"Ġfgfe":845,"ĠABAF":846,"cG":847,"dF":848,"ĠGg":849,"Be":850,"ĠBABd":851,"56":852,"ĠCD":853,"ĠDEGA":854,"Db":855,"76":856,"im":857,"ĠGBG":858,"ĠcABc":859,"ĠDFAF":860,">(":861,"ĠEFGE":862,"ae":863,"Ġ::\"^":864,"CB":865,"fB":866,"\"^/\"":867,"Ġgfef":868,"Ġafa":869,"ĠdBcA":870,"EC":871,"fgf":872,"ĠAdfd":873,"')":874,"63":875,"78":876,"ĠBD":877,"ĠBcBA":878,"ĠdAFA":879,"bd":880,"cdB":881,"ĠTc":882,"/=":883,"Ġfb":884,"ĠAGED":885,"ĠAFF":886,"/{":887,"21":888,"te":889,"ĠBBB":890,"ĠAdf":891,"Ġgfeg":892,"54":893,"ĠdcAG":894,"Ġgedc":895,"Ġbgaf":896,"23":897,"AD":898,"Ġ3":899,"Ġfdc":900,"ĠDGBG":901,"ĠP":902,"cAG":903,"ine":904,"ĠTe":905,"ĠTf":906,"ĠdGBG":907,"ari":908,"28":909,"74":910,"AGF":911,"Ġgagf":912,"Ġgbg":913,"..\"":914,"110":915,"26":916,">=":917,"BE":918,"cf":919,"gc":920,"ation":921,"Ġefec":922,"Ġgage":923,"ariation":924,"cdc":925,"Ġgfge":926,"ĠGEDE":927,"73":928,"81":929,"Ġcec":930,"ĠBAGA":931,"Ġdeg":932,"ĠFDF":933,"150":934,"Ġgece":935,"41":936,"dcd":937,"gag":938,"BAB":939,"ĠAGFG":940,"ĠAcec":941,"Ġfded":942,"ĠcBAc":943,"GGG":944,"){":945,"Ġfagf":946,"ĠAdc":947,"Ġfaaf":948,"ĠGBAF":949,"22":950,"64":951,"cF":952,"eB":953,"Ġddd":954,"ĠAFEF":955,"Ġegfe":956,"38":957,"Ġcedc":958,"ĠEc":959,"ĠDEFA":960,"68":961,"gb":962,"DDD":963,"31":964,"wed":965,"ĠBed":966,"ĠCA":967,"wedge":968,"Fd":969,"Ġbf":970,"Ġcded":971,"ĠABce":972,"200":973,"er":974,"li":975,"\"\"_-":976,"ĠcF":977,"Ġ(^":978,"Ġbe":979,"ĠdcAF":980,"Ġefga":981,"ĠDEFD":982,"ariations":983,"53":984,"eG":985,"ĠEDEF":986,"Af":987,"Dd":988,"ĠedBG":989,"Ġbb":990,"Ġbd":991,"-\"":992,"to":993,"abc":994,"DC":995,"Ddor":996,"ĠDGB":997,"ĠcdB":998,"Ġdefe":999,"Ġgee":1000,"ĠeAce":1001,"ĠedcA":1002,"Ġagef":1003,"\"^*\"":1004,"24":1005,"ca":1006,"ĠcAd":1007,"ĠBdg":1008,"Ġgedg":1009,"ĠFEFG":1010,"BBB":1011,"Ġ]:":1012,"ĠBEE":1013,"Gc":1014,"re":1015,"ĠdD":1016,"Ġdb":1017,"Ġeee":1018,"ĠEGB":1019,"ĠBdcB":1020,"ĠFAF":1021,"ĠcBAB":1022,"Ġbgb":1023,"{/":1024,"ĠBGGB":1025,"ĠBeed":1026,"]/[":1027,"58":1028,"61":1029,"BD":1030,"cAF":1031,"ĠBdef":1032,"Ġ...\"":1033,"Ġgfgd":1034,"ĠADFD":1035,"ĠgdBG":1036,"ĠcBcA":1037,"AE":1038,"ĠdAG":1039,"ĠDd":1040,"ĠcdcB":1041,"SO":1042,"ĠAGFA":1043,"ĠBGdG":1044,"ĠecAF":1045,"aba":1046,"Bf":1047,"ĠFAdA":1048,"Ġfaa":1049,">)":1050,"CA":1051,"lo":1052,"Ġdec":1053,"Ġced":1054,"Ġedd":1055,"Ġfdad":1056,"Ġdega":1057,"ĠFDEF":1058,"ĠTd":1059,"ĠM":1060,"ĠedBc":1061,"ĠAddc":1062,"Ġfee":1063,"ĠGBB":1064,"ĠBAGE":1065,"140":1066,"Te":1067,"da":1068,"ĠDAFA":1069,"ĠcAB":1070,"ĠBdcA":1071,"ĠfedB":1072,"Ġgeg":1073,"ĠADD":1074,"it":1075,"Ġ:\"^":1076,"cAc":1077,"Ġfdef":1078,"low":1079,"Ġfdde":1080,"ceg":1081,"Ġedce":1082,"ĠBdgd":1083,"ĠceAe":1084,"Ġfafd":1085,"Ġeaaf":1086,"Adf":1087,"Ġabc":1088,"ĠDGBd":1089,"Ġ]\"":1090,"Ġgabg":1091,"sli":1092,"ĠecdB":1093,"Ġecc":1094,"ten":1095,"slide":1096,"/-":1097,"91":1098,"Ġ][":1099,"Ġda":1100,"ĠdcdB":1101,"dim":1102,"ĠcGE":1103,"ĠfBB":1104,"Ġbaf":1105,"ĠAGG":1106,"Ġfede":1107,"Ġdfec":1108,"71":1109,"Gdor":1110,"bc":1111,"fef":1112,"gcd":1113,"us":1114,"Ġgdd":1115,"ĠcAe":1116,"Ġdggf":1117,"51":1118,"FEF":1119,"GdG":1120,"aA":1121,"uto":1122,"ĠeBB":1123,"ĠFGF":1124,"Ġ(=":1125,"Ġedeg":1126,"ĠdBBA":1127,"Ġegfa":1128,"ĠEDC":1129,"ĠGFGB":1130,"tenuto":1131,"BGB":1132,"ĠGFEF":1133,"Ġdff":1134,"Ġafed":1135,"ĠcBce":1136,"\"\"^":1137,"GFG":1138,"cBc":1139,"Ġfde":1140,"ĠAGEF":1141,"ĠTA":1142,"Ġbgag":1143,"Ġadfd":1144,"fine":1145,"ĠGEF":1146,"ĠdcBd":1147,"ĠegdB":1148,"ĠdfBf":1149,"ĠFGAc":1150,"aaa":1151,"232":1152,"ĠcEE":1153,"DFA":1154,"ĠAcB":1155,"ede":1156,"ĠcAAB":1157,"ĠcAeA":1158,"ĠAdde":1159,"ĠGEG":1160,"ĠDGGF":1161,"Ġdcdf":1162,"ers":1163,"({":1164,",)":1165,"/_":1166,"cec":1167,"Ġs":1168,"ĠBFAF":1169,"ĠEGE":1170,"ĠcAAc":1171,"EFE":1172,"ĠeAcA":1173,"Aa":1174,"ĠdGG":1175,"Ġggg":1176,"Ġ\"_":1177,"ĠFf":1178,"Ġbc":1179,"ĠBGGA":1180,"ĠBdAF":1181,"\"_-":1182,"il":1183,"ĠBGAG":1184,"ĠgA":1185,"ĠFc":1186,"edB":1187,"ĠcAGF":1188,"Ġceg":1189,"Ġabaf":1190,"Ġccc":1191,"ĠGDB":1192,"Ġfece":1193,"GD":1194,"fc":1195,"ĠdAA":1196,"ĠecB":1197,"ĠCB":1198,"ĠFAdf":1199,"Ġfge":1200,"ĠAdB":1201,"Ġegdg":1202,"ĠGEA":1203,"ĠeAfA":1204,"Ġbagb":1205,"Slow":1206,"Ġaee":1207,"ĠDFD":1208,"ĠCEG":1209,"ĠBdf":1210,"Ġegg":1211,"128":1212,"])":1213,"ĠBGAB":1214,"ĠEEE":1215,"Ġagfa":1216,"ĠGFD":1217,"Ġefgf":1218,"ĠGBdg":1219,"Ġgba":1220,"Ġaea":1221,"Ġafec":1222,"([":1223,",,]":1224,"GBd":1225,"pl":1226,"ĠdFF":1227,"ĠBdAd":1228,"Ġageg":1229,"der":1230,"ĠecBA":1231,"ĠDCB":1232,">\"":1233,"TB":1234,"ĠBf":1235,"ĠdBGA":1236,"ĠBGF":1237,"ĠdBAc":1238,"ĠTF":1239,"93":1240,"BcA":1241,"ĠdcAB":1242,"ĠcdcA":1243,"Ġ.!":1244,"ĠecAG":1245,"Ġfefa":1246,"FFF":1247,"DAD":1248,":\"^":1249,"is":1250,"ve":1251,"BAF":1252,"ĠfdBd":1253,"Ġagab":1254,"Ġfgag":1255,"320":1256,"ccc":1257,"Ġvar":1258,"98":1259,"Ed":1260,"be":1261,"Ġdgf":1262,"ĠeBdB":1263,"aga":1264,"ĠEDCE":1265,"ĠdcdA":1266,"EAE":1267,"ĠEAAB":1268,"/(":1269,"92":1270,"bf":1271,"gab":1272,"ĠAC":1273,"ĠGf":1274,"ĠgBB":1275,"Ġ[=":1276,"FAc":1277,"Ġcdeg":1278,"ĠTg":1279,"Ġdgg":1280,"Ġdgfg":1281,"Ġ]\"^":1282,"ggg":1283,"Variations":1284,"no":1285,"oder":1286,"Ġdge":1287,"Ġeaf":1288,"ĠEAc":1289,"ĠEGFE":1290,"ĠdcAc":1291,"ĠBddB":1292,"ĠFAD":1293,"ĠAde":1294,"Ġdgfe":1295,"ĠAGFD":1296,"\"_>":1297,"oderat":1298,"94":1299,"ig":1300,"ly":1301,"Ġdfg":1302,"ĠEe":1303,"ĠEGG":1304,"Ġedgd":1305,"fdf":1306,"ĠABB":1307,"ĠcBB":1308,"ĠDGGA":1309,"Ġcccc":1310,"ĠdGBd":1311,"ĠEAAG":1312,",-":1313,"96":1314,"CF":1315,"dD":1316,"Ġcg":1317,"ĠBABG":1318,"ĠBAFE":1319,"cdef":1320,"/).":1321,"Ġdefa":1322,"Ġegf":1323,")([":1324,"Ġcea":1325,"Ġgfec":1326,"ĠGEC":1327,"ĠEGBG":1328,"130":1329,"EEE":1330,"ersion":1331,"(=":1332,"97":1333,"Ġin":1334,"ĠdAd":1335,"ĠEGA":1336,"ĠcAce":1337,"ĠfdAd":1338,"ĠBGEF":1339,"ĠBGDG":1340,"ĠBde":1341,"Ġ{/":1342,"Ġegfd":1343,"ĠEDD":1344,"ath":1345,"Ġfage":1346,"an":1347,"gA":1348,"variations":1349,"ĠBgg":1350,"Ġeed":1351,"ĠfAA":1352,"Ġfdcd":1353,"Ġfddf":1354,"ĠCC":1355,"ĠBdBG":1356,"ece":1357,"ĠFAde":1358,"Ġfgfd":1359,"Ġegec":1360,"ĠfecA":1361,"Ġfaec":1362,"ĠEGD":1363,"Ġgbaf":1364,"300":1365,"Teil":1366,"+\"":1367,"Ba":1368,"PM":1369,"bb":1370,"ĠAcd":1371,"ĠeE":1372,"ĠDDD":1373,"ĠfdAF":1374,"ĠCDEF":1375,"ĠGAGF":1376,"ĠBdc":1377,"ĠAFd":1378,"Ġagfg":1379,"ĠFAdc":1380,"Ġecec":1381,"ĠTG":1382,"eee":1383,"ĠFEDE":1384,"CEC":1385,"EBE":1386,"Ġbgeg":1387,"Ġgcec":1388,"![":1389,"Fm":1390,"gBd":1391,"zd":1392,"Ġdddd":1393,"Ġgdc":1394,"ĠBAFG":1395,"ĠAceg":1396,"Ġeaab":1397,"ĠDFAd":1398,"ĠGFGE":1399,"Ġgaba":1400,"SOO":1401,"SOSOO":1402,"plus":1403,"PMT":1404,"95":1405,"Moderat":1406,"]>":1407,"ĠAg":1408,"ĠBBA":1409,"ĠDGF":1410,"ĠCF":1411,"age":1412,"ĠBGGF":1413,"Ġfgab":1414,"ĠcBAF":1415,"ĠGEDB":1416,"ĠEFGB":1417,"ĠEAcA":1418,"ĠEFAB":1419,"AcA":1420,"]-":1421,"faf":1422,"st":1423,"ĠBgf":1424,"ĠGDG":1425,"ĠgG":1426,"ĠFGE":1427,"ĠEAG":1428,"ĠECE":1429,"ĠaAA":1430,"ĠcAcd":1431,"ĠcAec":1432,"ĠdBgB":1433,"ĠCDE":1434,"ĠBGd":1435,"ĠABcB":1436,"Ġeged":1437,"Ġafaf":1438,"ĠDFAc":1439,"Ġagae":1440,"ĠcBG":1441,"Ġcac":1442,"ĠfG":1443,"Ġadd":1444,"efd":1445,"Ġfddc":1446,"ĠBdG":1447,"FGF":1448,"Ġdee":1449,"Ġfeef":1450,"Ġ\"^*\"":1451,"ĠceAc":1452,"ĠGECE":1453,"ĠEDCD":1454,"ĠBEED":1455,"Ġfefd":1456,"Ġaece":1457,",\"":1458,"/\"^":1459,"112":1460,"Ge":1461,"NB":1462,"ecA":1463,"fedc":1464,"ĠBDAD":1465,"Ġeb":1466,"ĠfAdf":1467,"Ġ\"_-":1468,"Ġedge":1469,"ĠBAAB":1470,"Ġbab":1471,"ĠcAdc":1472,"ĠfdA":1473,"Ġfdfa":1474,"Bde":1475,"afa":1476,"ĠBeef":1477,"Ġbage":1478,"ĠBcBG":1479,"ĠBcAB":1480,"-]":1481,"99":1482,"Ace":1483,"CEG":1484,"Ġp":1485,"ĠFFF":1486,"Ġ[^":1487,"ĠdBge":1488,"ĠAGGF":1489,"Ġ.[":1490,"ĠAdfa":1491,"Ġceag":1492,"ĠGBe":1493,"ĠdBAd":1494,"ĠGEcE":1495,"ĠFEFA":1496,"ĠDFBF":1497,"ĠaecA":1498,"ĠeBe":1499,"Ġafeg":1500,"Ġeaga":1501,"Ġbfaf":1502,"115":1503,"ABG":1504,"Tc":1505,"bre":1506,"dcA":1507,"gde":1508,"ĠBgB":1509,"ĠGBc":1510,"ĠdBf":1511,"Ġ::{":1512,"ĠfdcB":1513,"Bdg":1514,"ĠBGdB":1515,"fdB":1516,"\"^/":1517,"EDE":1518,"ĠecBc":1519,"ĠAcc":1520,"ĠDEGB":1521,"Ġgede":1522,"Ġabg":1523,"ĠEGDE":1524,"ĠfAeA":1525,"ĠGBAc":1526,"fff":1527,"<[":1528,"?\"":1529,"AGA":1530,"BEA":1531,"CO":1532,"DGB":1533,"cD":1534,"ege":1535,"fb":1536,"Ġm":1537,"ĠdAB":1538,"ĠDc":1539,"ĠcAGA":1540,"ĠAFGE":1541,"ĠFAG":1542,"ĠFABc":1543,"ĠFAcA":1544,"Ġecce":1545,"ĠFDDF":1546,"Ġceec":1547,"Ġafef":1548,"Ġdgd":1549,"ĠFEE":1550,"ĠFEDF":1551,"ĠBAFB":1552,"ĠFEFD":1553,"Ġdfeg":1554,"Ġeage":1555,"ĠGEFD":1556,"breath":1557,"Tf":1558,"al":1559,"cBAG":1560,"gdc":1561,"{^":1562,"}\"":1563,"Ġecde":1564,"Ġcef":1565,"Ġ(_":1566,"ĠBAAG":1567,"Ġfdge":1568,"ĠBGGG":1569,"ĠBdce":1570,"ĠAFG":1571,"Ġagbg":1572,"Ġecgc":1573,"Ġegc":1574,"Ġegd":1575,"ĠFDB":1576,"ĠBcdc":1577,"Ġfaef":1578,"AFD":1579,"ĠEFD":1580,"ĠTE":1581,"Ġdgbg":1582,"ĠedBe":1583,"104":1584,"ĠFEDC":1585,"ĠAFAB":1586,"ĠABdf":1587,"ĠABGE":1588,"=\"":1589,"CC":1590,"Fine":1591,"GBG":1592,"aj":1593,"dBd":1594,"eb":1595,"ĠdGB":1596,"ĠBb":1597,"Ġecd":1598,"ĠEGAB":1599,"ĠDGA":1600,"Ġfdgf":1601,"FAd":1602,"ĠGAF":1603,"ĠFAdB":1604,"ĠAcef":1605,"Ġgea":1606,"gfed":1607,"ĠEDEG":1608,"Gmix":1609,"Ġaff":1610,"FDF":1611,"art":1612,"Ġacgc":1613,"Ġgfdc":1614,"ĠGBGB":1615,"ĠBDGB":1616,"Ġeedd":1617,"PMTu":1618,"170":1619,"240":1620,"afd":1621,"ĠdFAF":1622,"ĠAgfe":1623,"ĠBeg":1624,"ĠFBd":1625,"ĠEd":1626,"ĠDAA":1627,"ĠcAFG":1628,"ĠdBBB":1629,"ĠBGEG":1630,"ĠGABA":1631,"ĠBdge":1632,"Ġagec":1633,"ĠFAEA":1634,"Ġfgef":1635,"EFGA":1636,"GFD":1637,"ĠceA":1638,"][^":1639,"Ġfaea":1640,"Ġbgd":1641,"Ġgdg":1642,"Ebm":1643,"850":1644,"Ġefde":1645,"ĠFdAF":1646,"Moderate":1647,")!":1648,">_":1649,"ĠfcA":1650,"ĠfcAc":1651,"ĠBAcA":1652,"ĠcABA":1653,"ĠBGFG":1654,"ĠGAcd":1655,"ĠFAB":1656,"ĠFAFA":1657,"ĠFADF":1658,"Ġefa":1659,"Ġeceg":1660,"Bbm":1661,"Ġdgb":1662,"ĠdgBg":1663,"ĠGBdf":1664,"AdA":1665,"ĠFGEF":1666,"ĠdABG":1667,"Gb":1668,"ic":1669,"ue":1670,"ĠBC":1671,"Ġedfd":1672,"ĠcAFD":1673,"ĠdBg":1674,"ĠAGBG":1675,"ĠAFFA":1676,"ĠAFED":1677,"ĠABBA":1678,"Ġeggf":1679,"ĠdeB":1680,"Ġfad":1681,"ĠdAcA":1682,"gdg":1683,"ĠdFcF":1684,"ĠfecB":1685,"ĠGGGG":1686,"Ġue":1687,"Ġbdad":1688,"/!":1689,"667":1690,">)(":1691,"CDE":1692,"DED":1693,"eE":1694,"hr":1695,"rit":1696,"ris":1697,"ĠAcde":1698,"ĠBa":1699,"ĠBge":1700,"Ġgde":1701,"Ġaed":1702,"ĠBAFD":1703,"ĠdBde":1704,"Ġfdaf":1705,"ĠfdAG":1706,"ĠBdeg":1707,"ĠAFFF":1708,"BGG":1709,"ĠFADA":1710,"ĠABGA":1711,"ĠAddB":1712,"ĠFDE":1713,"ĠcecA":1714,"ĠgecA":1715,"ĠGBEB":1716,"ĠEFDE":1717,"abg":1718,"ĠFECE":1719,"Ġbgab":1720,"ĠEGDG":1721,"800":1722,"ĠBEGB":1723,"600":1724,"400":1725,"ĠefdB":1726,"ĠAcBG":1727,"!!":1728,")\"^":1729,"AC":1730,"Td":1731,"ug":1732,"ĠAgf":1733,"ĠcFAF":1734,"Ġeddc":1735,"efa":1736,"GABc":1737,"ĠcAAG":1738,"ĠdBe":1739,"cAA":1740,"ĠAGGA":1741,"ĠCFAF":1742,"ĠCEAE":1743,"\"^=\"":1744,"ĠAcf":1745,"ĠAFDE":1746,"ĠDFF":1747,"CEA":1748,"450":1749,"DFB":1750,"Ġagea":1751,"Ġgfdf":1752,"ĠBFBc":1753,"#/":1754,",<":1755,"288":1756,"275":1757,"590":1758,"529":1759,"670":1760,"Gd":1761,"TBA":1762,"].":1763,"bB":1764,"bagf":1765,"pi":1766,"phr":1767,"ĠdDD":1768,"ĠAed":1769,"ĠAAB":1770,"ĠdcBG":1771,"fec":1772,"Bdf":1773,"FGB":1774,"Ġ{^":1775,"Ġceae":1776,"Ġgege":1777,"Ġgebe":1778,"ĠGBeB":1779,"Ġfaeg":1780,"108":1781,"ĠAFAF":1782,"144":1783,"ĠBcAc":1784,"ĠgfdB":1785,"ĠeGdG":1786,"Ġ]:[":1787,"res":1788,"ĠgAfA":1789,"Ġpart":1790,"PMTuCO":1791,"\"[":1792,"360":1793,">[":1794,"ABd":1795,"nd":1796,"oda":1797,"ĠAece":1798,"Ġeagf":1799,"ĠdcAd":1800,"Ġfdfd":1801,"ĠAGBd":1802,"ĠcdBc":1803,"ĠAFcF":1804,"\"^+\"":1805,"ĠFAc":1806,"ĠGFDF":1807,"Ġdeed":1808,"ĠAcGc":1809,"Ġdffe":1810,"Ġ\"^/\"":1811,"ĠBcdf":1812,"Ġgecd":1813,"ĠecAB":1814,"Ġfafe":1815,"egno":1816,"ĠAGAc":1817,"\"\"_":1818,"900":1819,"Ġfefe":1820,"Ġfddg":1821,"Cmin":1822,"ĠAcAF":1823,"ith":1824,"/<":1825,"349":1826,">\"^":1827,"Bris":1828,"DFD":1829,"EAA":1830,"FGAB":1831,"^!":1832,"dBA":1833,"ey":1834,"gbg":1835,"ĠS":1836,"ĠĠ":1837,"ĠdEBE":1838,"Ġcaa":1839,"ĠGC":1840,"ĠfcAF":1841,"Ġgaf":1842,"ĠFC":1843,"ĠDAG":1844,"ĠDBB":1845,"Ġdcc":1846,"Ġdcec":1847,"ĠcAAd":1848,"ĠdBed":1849,"ĠBGD":1850,"ĠBGBG":1851,"ĠBdGB":1852,"ĠBdde":1853,"ĠAFGA":1854,"\"^>\"":1855,"FGE":1856,"ĠFAAB":1857,"ĠFAGE":1858,"ĠAdF":1859,"ĠFDFG":1860,"ĠgeBe":1861,"ĠGBBB":1862,"Ġ!^!":1863,"Ġeac":1864,"Ġabge":1865,"ĠeAe":1866,"Ġgafg":1867,"ĠDFED":1868,"ĠcAAe":1869,"720":1870,"Ġfff":1871,"ĠeAAB":1872,"ĠECA":1873,"Brisk":1874,"'.":1875,"'}":1876,",=":1877,",}":1878,"220":1879,"416":1880,"735":1881,"em":1882,"gaf":1883,"ol":1884,"ĠAaa":1885,"Ġcff":1886,"ĠFBA":1887,"ĠFGFE":1888,"ĠEBB":1889,"ĠbB":1890,"ĠfdBc":1891,"cdec":1892,"ĠCEA":1893,"ĠGAAG":1894,"fdc":1895,"/){":1896,"Ġgfa":1897,"ĠAdcd":1898,"Ġega":1899,"Ġegge":1900,"ing":1901,"Ġfeed":1902,"Ġgeaf":1903,"Ġeaec":1904,"ĠDFBd":1905,"ĠcAGc":1906,"142":1907,"650":1908,"377":1909,"ĠAAAB":1910,"ĠFBBA":1911,"Ġgfde":1912,"DBg":1913,"ĠMS":1914,"gAGAG":1915,")^":1916,",^":1917,"//!":1918,"369":1919,"615":1920,"Ag":1921,"ABcd":1922,"GBA":1923,"am":1924,"cr":1925,"gec":1926,"hor":1927,"io":1928,"ive":1929,"mf":1930,"{=":1931,"Ġdbd":1932,"ĠAEA":1933,"ĠeBG":1934,"ĠeEE":1935,"Ġ(!>!":1936,"ĠEGAG":1937,"ĠDFG":1938,"ĠDDDD":1939,"ĠcABd":1940,"ĠcAEA":1941,"ĠfdBA":1942,"ĠfddB":1943,"ĠBdBd":1944,"ĠBdfd":1945,"ĠAFFE":1946,"ĠAFdF":1947,"Ġagfd":1948,"ĠFAGF":1949,"ĠAdcA":1950,"ĠFDC":1951,"ĠFDGF":1952,"ĠFDAD":1953,"ĠBcdg":1954,"ĠGBed":1955,"ĠGEGA":1956,"ĠGEED":1957,"Ġ!//!":1958,"ĠdBGE":1959,"ĠFGAG":1960,"ĠGBdc":1961,"ori":1962,"ĠDGFG":1963,"ĠdABc":1964,"Ġgbeg":1965,"DEFG":1966,"ĠdAFD":1967,"371":1968,"Ġve":1969,"ĠBcAF":1970,",,][":1971,"ĠCDEG":1972,"ĠBedB":1973,"GdGe":1974,"Ġdfgd":1975,"210":1976,"267":1977,"230":1978,"362":1979,"475":1980,"782":1981,"Cdor":1982,"Tr":1983,"aB":1984,"dfd":1985,"dAF":1986,"gG":1987,"ĠdAdf":1988,"ĠAff":1989,"ĠBef":1990,"ĠBgdg":1991,"Ġez":1992,"ĠcBd":1993,"Ġcefe":1994,"ĠGz":1995,"ĠGdc":1996,"Ġgefg":1997,"ĠgBdB":1998,"ĠEcB":1999,"Ġbfd":2000,"ĠcAGB":2001,"ĠcAdB":2002,"Ġfdb":2003,"FAB":2004,"ĠBGED":2005,"ĠGAc":2006,"ĠFAAF":2007,"ĠFAAc":2008,"Ġeffe":2009,"ĠBce":2010,"ĠGFEG":2011,"ĠAddd":2012,"Ġeccc":2013,"Ġegfg":2014,"ĠAcfa":2015,"ĠcBBc":2016,"Ġgeag":2017,"ĠEDCB":2018,"Ġgfgf":2019,"ĠTa":2020,"Ġdgga":2021,"Ġbgec":2022,"ĠEGce":2023,"ĠEGcG":2024,"ĠcBcG":2025,"Ġ]:\"":2026,"ĠBEEF":2027,"143":2028,"399":2029,"Ġversion":2030,"Ġdfdf":2031,"ĠBBBB":2032,"ĠcedB":2033,"ĠCEGceg":2034,"$\"":2035,"(.":2036,".!":2037,"190":2038,"188":2039,"219":2040,"345":2041,"365":2042,"580":2043,"745":2044,"779":2045,"810":2046,"An":2047,"AGFE":2048,"DGA":2049,"po":2050,"}(":2051,"ĠI":2052,"ĠAee":2053,"Ġcb":2054,"Ġcaf":2055,"Ġcgfe":2056,"ĠcEAE":2057,"Ġffe":2058,"ĠaB":2059,"Ġdce":2060,"ĠcAAF":2061,"ĠdBdB":2062,"ĠBded":2063,"ĠBdgf":2064,"ĠBdgB":2065,"ĠFAFD":2066,"ĠfedA":2067,"ĠAdA":2068,"Ġdecd":2069,"ĠdfA":2070,"Ġdffd":2071,"ĠFDDE":2072,"124":2073,"Ġfaag":2074,"Ġeae":2075,"Ġdgfd":2076,"ĠAFAd":2077,"ĠcBcB":2078,"ĠDFE":2079,"146":2080,"148":2081,"Ġbaa":2082,"/\"_":2083,"177":2084,"gdG":2085,"Ġffff":2086,"fAf":2087,"877":2088,"ĠDCDE":2089,"ĠAAAA":2090,"EcE":2091,"ĠcEAc":2092,"ĠAecA":2093,"Ġfbb":2094,"Ġfbba":2095,"Ġcece":2096,"ĠCEGc":2097,"horus":2098,"')(":2099,"119":2100,"249":2101,"242":2102,"225":2103,"470":2104,"488":2105,"435":2106,"688":2107,"832":2108,"870":2109,"820":2110,"<(":2111,"Dc":2112,"EGB":2113,"EGE":2114,"Fdor":2115,"Gg":2116,"TA":2117,"cg":2118,"dE":2119,"gdB":2120,"he":2121,"ll":2122,"Ġt":2123,"ĠAeA":2124,"ĠGdd":2125,"ĠgBc":2126,"Ġgge":2127,"Ġgcc":2128,"ĠacA":2129,"ĠBAdA":2130,"ĠcAE":2131,"ĠAGBA":2132,"ĠCc":2133,"ĠCEE":2134,"ĠBGDB":2135,"ĠBGcG":2136,"ĠBdAB":2137,"ĠBdAc":2138,"ĠAFdA":2139,"\"^..\"":2140,"EDB":2141,"ĠFABA":2142,"Ġegde":2143,"Ġdfb":2144,"Ġfea":2145,"ĠFDCF":2146,"ĠGBBA":2147,"gfef":2148,"125":2149,"Ġaffe":2150,"Ġafbf":2151,"Ġgfgb":2152,"Ġdgba":2153,"Ġbgdg":2154,"ĠAFAc":2155,"Ġgbd":2156,"ĠDFGA":2157,"ĠABdB":2158,"ĠGEDG":2159,"ĠAGEA":2160,"152":2161,"159":2162,"ĠfddA":2163,"174":2164,"652":2165,"859":2166,"defd":2167,"\"_?\"":2168,"ĠeBBA":2169,"gBg":2170,"847":2171,"ĠDCA":2172,"Ġefdf":2173,"ĠvB":2174,"ĠCEAc":2175,"ĠBgdB":2176,"ĠdfdB":2177,"Ġua":2178,"dan":2179,"ively":2180,"Trio":2181,"'s":2182,"172":2183,"280":2184,"388":2185,"469":2186,"440":2187,"582":2188,"780":2189,"770":2190,"788":2191,"769":2192,"862":2193,"AFA":2194,"Chorus":2195,"DCB":2196,"Ee":2197,"GGF":2198,"In":2199,"ho":2200,"of":2201,"~\"":2202,"Ġ4":2203,"Ġw":2204,"Ġx":2205,"ĠdBcd":2206,"ĠdFAd":2207,"ĠeGG":2208,"ĠfBdB":2209,"Ġffdf":2210,"ĠFBB":2211,"ĠEGF":2212,"Ġedf":2213,"Ġeddf":2214,"ĠcAf":2215,"ĠcAcA":2216,"ĠdBBd":2217,"ĠdBgf":2218,"ĠdBgd":2219,"cAB":2220,"Ġfda":2221,"Ġfdg":2222,"ĠBGFD":2223,"Ġagaf":2224,"Ġagge":2225,"Ġaggf":2226,"cBG":2227,"BGE":2228,"Ġfgec":2229,"ĠGFDC":2230,"deg":2231,"Ġeca":2232,"Ġecac":2233,"ĠAcFA":2234,"ĠAcfc":2235,"ĠcBBA":2236,"Ġcege":2237,"Ġgeed":2238,"ĠGBE":2239,"ĠGEEF":2240,"Ġfac":2241,"ĠafcA":2242,"Ġbgg":2243,"ĠbgdB":2244,"ĠgdcB":2245,"ĠAGAF":2246,"ĠDFAB":2247,"ĠABdA":2248,"ĠcAAg":2249,"ĠEAce":2250,"350":2251,"ĠeBfB":2252,"424":2253,"846":2254,"871":2255,"ĠECEG":2256,"831":2257,"838":2258,"Ġfcec":2259,"ĠCDFG":2260,"ime":2261,"ĠPf":2262,"Ġ\"_>\"":2263,"ĠDFDF":2264,"Ġdgfa":2265,"ick":2266,"-\"^/\"":2267,"260":2268,"279":2269,"229":2270,"380":2271,"390":2272,"370":2273,"367":2274,"389":2275,"412":2276,"432":2277,"472":2278,"489":2279,"520":2280,"534":2281,"690":2282,"790":2283,"860":2284,"Qu":2285,"cEE":2286,"dBG":2287,"gba":2288,"uf":2289,"Ġno":2290,"ĠddB":2291,"ĠAfed":2292,"ĠBDD":2293,"ĠBgfe":2294,"ĠeF":2295,"ĠcBdB":2296,"ĠGDE":2297,"Ġ({":2298,"ĠEed":2299,"ĠEAF":2300,"ĠDdd":2301,"Bcde":2302,"Ġbaba":2303,"ĠfdBG":2304,"cded":2305,"ĠBddc":2306,"ĠBdAG":2307,"EDC":2308,"ĠAdAF":2309,"ĠAddA":2310,"Ġecge":2311,"Ġegb":2312,"Ġegbg":2313,"ĠFDA":2314,"dcBA":2315,"Ġceaf":2316,"ĠGBg":2317,"ĠGEBE":2318,"AGE":2319,"Ġfada":2320,"101":2321,"ĠADE":2322,"ĠeAed":2323,"ĠEGef":2324,"Ġgaag":2325,"Ġcdea":2326,"ĠGGGA":2327,"DDC":2328,"6765":2329,",]/":2330,"ĠeBgB":2331,"ĠeAAG":2332,"ĠCEAG":2333,"ĠBgfg":2334,"ĠAEGE":2335,"ĠEFAc":2336,"Ġbagfed":2337,"ĠuA":2338,"Ddim":2339,"erse":2340,"Edit":2341,"ĠCDEC":2342,"ĠcBGF":2343,"Quick":2344,"#\"^":2345,"'\"":2346,"(^":2347,"216":2348,"290":2349,"319":2350,"375":2351,"490":2352,"482":2353,"570":2354,"560":2355,"540":2356,"519":2357,"716":2358,"712":2359,"869":2360,"CG":2361,"Cc":2362,"FC":2363,"Fc":2364,"Tg":2365,"TED":2366,"Version":2367,"With":2368,"dedc":2369,"fF":2370,"mpo":2371,"vb":2372,"version":2373,"Ġof":2374,"Ġdz":2375,"Ġdzd":2376,"ĠAz":2377,"ĠAaf":2378,"ĠBag":2379,"ĠBFD":2380,"Ġeef":2381,"ĠcFF":2382,"ĠGge":2383,"ĠGcc":2384,"Ġgceg":2385,"ĠFBdB":2386,"ĠEAB":2387,"ĠEee":2388,"Ġaaa":2389,"edcB":2390,"BAGF":2391,"Bce":2392,"Ġedec":2393,"ĠBAcB":2394,"ĠBAeA":2395,"Ġbeg":2396,"GAc":2397,"ĠdBec":2398,"ĠdBeB":2399,"cdd":2400,"FAA":2401,"ĠGAA":2402,"ĠAFEG":2403,"fdcA":2404,"ĠcBAg":2405,"ĠAdfe":2406,"Ġecg":2407,"ĠecBd":2408,"ĠFDCD":2409,"ĠFDEC":2410,"Ġgeeg":2411,"ĠdBGg":2412,"ĠEFED":2413,"ĠTBA":2414,"ĠedcBAG":2415,"105":2416,"ĠADF":2417,"ĠEGBd":2418,"ĠEGGF":2419,"eel":2420,"Ġgdbd":2421,"ĠFEDB":2422,"ĠddBd":2423,"Ġgbe":2424,"Ġgbge":2425,"145":2426,"Ġbafe":2427,"178":2428,"6715":2429,"ĠgdBg":2430,"8555":2431,"750":2432,"ĠdBdg":2433,"250":2434,"CDB":2435,"ĠDBfB":2436,"ĠECB":2437,"Ġadbd":2438,"ĠAcAc":2439,"ĠEBE":2440,"ĠEBBA":2441,"ĠEBgB":2442,"7812":2443,"ĠPd":2444,"Ġbege":2445,"ĠeBBe":2446,"ĠEGEG":2447,"bbb":2448,"]-)":2449,"))":2450,"-)":2451,"-][":2452,"..":2453,"116":2454,"132":2455,"285":2456,"330":2457,"335":2458,"379":2459,"480":2460,"442":2461,"487":2462,"532":2463,"579":2464,"616":2465,"672":2466,"640":2467,"689":2468,"772":2469,"767":2470,"740":2471,"742":2472,"830":2473,"835":2474,"839":2475,">\"_":2476,"Acd":2477,"Cdim":2478,"Ephr":2479,"Fb":2480,"GED":2481,"Jig":2482,"Lively":2483,"Md":2484,"TcA":2485,"Var":2486,"^\"":2487,"afg":2488,"bm":2489,"dfa":2490,"en":2491,"eAA":2492,"pe":2493,"segno":2494,"ĠdE":2495,"Ġdde":2496,"Ġddc":2497,"Ġdfga":2498,"ĠAef":2499,"ĠAEE":2500,"ĠBBcB":2501,"ĠeAB":2502,"ĠeBBB":2503,"ĠccB":2504,"ĠGed":2505,"ĠGdB":2506,"ĠfAdA":2507,"ĠFe":2508,"ĠFedc":2509,"ĠFFFF":2510,"ĠEBA":2511,"ĠEcc":2512,"ĠEGFD":2513,"Ġaeg":2514,"ĠDBAG":2515,"ĠDCD":2516,"ĠBAc":2517,"Ġbabc":2518,"feg":2519,"GAF":2520,"Bdor":2521,"ĠAGD":2522,"FAG":2523,"ĠCFAc":2524,"ĠBGcA":2525,"ĠGAGE":2526,"Ġcddc":2527,"ĠBdBA":2528,"ĠBdfa":2529,"ĠAFc":2530,"ĠAFBF":2531,"ĠFAGB":2532,"Ġefae":2533,"Ġ...":2534,"GBe":2535,"ĠBcc":2536,"ĠAdcB":2537,"ĠecG":2538,"ĠeccA":2539,"Ġegeg":2540,"Ġeggg":2541,"Ġdege":2542,"Ġdfag":2543,"Ġfeee":2544,"GFED":2545,"Ġ\"^/":2546,"Ġceef":2547,"ĠGEc":2548,"gff":2549,"Ġfadf":2550,"Ġafc":2551,"ĠAFDA":2552,"GEC":2553,"ĠdgB":2554,"ĠFEC":2555,"ĠafdB":2556,"Ġafde":2557,"Ġbgfg":2558,"ĠADA":2559,"ĠADDE":2560,"Ġccec":2561,"ĠBEGA":2562,"ĠAAde":2563,"137":2564,"658":2565,"3934":2566,"ĠeAAe":2567,"ĠAcea":2568,"ĠGDEG":2569,"373":2570,"376":2571,"ĠdFBd":2572,"tro":2573,"Ġvd":2574,"Echo":2575,"ĠBged":2576,"550":2577,"ĠAECE":2578,"ĠdBBg":2579,"8339":2580,"\"{/":2581,"Ġuf":2582,"Ġug":2583,"Ġ([=":2584,"Ġfbaf":2585,"2312":2586,"ĠDddc":2587,"Ġspi":2588,"].[":2589,"PMTuCOM":2590,"Andan":2591,"Ġ...\"\"_-":2592,",/)":2593,"/>^":2594,"270":2595,"235":2596,"262":2597,"289":2598,"467":2599,"516":2600,"572":2601,"569":2602,"585":2603,"589":2604,"525":2605,"547":2606,"612":2607,"645":2608,"669":2609,"682":2610,"642":2611,"730":2612,"739":2613,"880":2614,"840":2615,"849":2616,"<)!":2617,"BBc":2618,"DDE":2619,"GC":2620,"Gf":2621,"Segno":2622,"TF":2623,"TBAB":2624,"Verse":2625,"\\\"":2626,"\\\"\"":2627,"])([":2628,"as":2629,"aec":2630,"ain":2631,"dec":2632,"et":2633,"gE":2634,"min":2635,"ne":2636,"oca":2637,"qu":2638,"ua":2639,"uc":2640,"vf":2641,"Ġl":2642,"ĠAag":2643,"ĠAEG":2644,"ĠBBd":2645,"ĠBFF":2646,"ĠBBGG":2647,"ĠeBd":2648,"Ġeeg":2649,"ĠcfAf":2650,"ĠGce":2651,"ĠfAAA":2652,"ĠgBdg":2653,"ĠFa":2654,"ĠFdB":2655,"ĠFdc":2656,"Ġ(!":2657,"ĠEBGB":2658,"ĠDBc":2659,"ĠDdB":2660,"ĠDcBA":2661,"ĠBABA":2662,"ĠcAAA":2663,"ĠdBfB":2664,"cdefg":2665,"FADE":2666,"ĠBGe":2667,"Ġcdf":2668,"ĠBdFB":2669,"ĠAFcA":2670,"ĠAFdB":2671,"ĠAFGF":2672,"Ġagag":2673,"Ġagba":2674,"/)\"":2675,"\"^$\"":2676,"ĠFAcf":2677,"Ġeff":2678,"ĠABF":2679,"ĠABcF":2680,"Ġecef":2681,"Ġegdc":2682,"Ġegce":2683,"ĠAcfe":2684,"ĠAccA":2685,"Ġfecd":2686,"ĠFDAF":2687,"ĠFDDG":2688,"Ġ\"^>\"":2689,"Ġceeg":2690,"][=":2691,"ĠGBEG":2692,"ĠDEGE":2693,"ĠEDFA":2694,"ĠEDDE":2695,"127":2696,"Ġdged":2697,"Bmix":2698,"ĠGBdG":2699,"102":2700,"Ġgdfd":2701,"ĠdAf":2702,"ĠdAde":2703,"Ġdded":2704,"Ġddfd":2705,"ĠcccB":2706,"ĠdGBA":2707,"ĠGEDC":2708,"bae":2709,"]\"_":2710,"135":2711,"627":2712,"ĠeAAA":2713,"ĠGDEF":2714,"Cmaj":2715,"378":2716,"ĠFDDA":2717,"ĠfBfB":2718,"Ġva":2719,"368":2720,"5570":2721,"5730":2722,"eaBc":2723,"ĠcaBa":2724,"ĠEDEC":2725,"Ġuc":2726,"ĠcGeG":2727,"ĠAafe":2728,"2003":2729,"Ġbbb":2730,"ĠdDFA":2731,"ĠecBG":2732,"]>[":2733,"<(!":2734,"ĠEccE":2735,"ocal":2736,"'-":2737,"185":2738,"272":2739,"340":2740,"385":2741,"460":2742,"420":2743,"479":2744,"513":2745,"539":2746,"562":2747,"575":2748,"630":2749,"619":2750,"639":2751,"649":2752,"760":2753,"789":2754,"786":2755,":{":2756,"Fig":2757,"ay":2758,"ch":2759,"cfe":2760,"cBcd":2761,"db":2762,"fag":2763,"ged":2764,"key":2765,"na":2766,"ro":2767,"sic":2768,"uA":2769,"ur":2770,"vA":2771,"vocal":2772,"zG":2773,"zc":2774,"ze":2775,"}\"^":2776,"Ġon":2777,"Ġdba":2778,"Ġdaa":2779,"ĠdEd":2780,"ĠAb":2781,"ĠAAG":2782,"ĠAaga":2783,"ĠBec":2784,"ĠBFB":2785,"ĠBBGB":2786,"ĠcD":2787,"Ġcfa":2788,"ĠGdG":2789,"ĠGcAG":2790,"ĠFdd":2791,"ĠEg":2792,"ĠEcG":2793,"Ġand":2794,"ĠDf":2795,"edf":2796,"Ġeddg":2797,"ĠBAAd":2798,"ĠBAAc":2799,"Ġbfdf":2800,"Ġdcdc":2801,"Ġ[_":2802,"Ġ::!":2803,"cAD":2804,"Ġfdeg":2805,"Bdc":2806,"ĠGAFG":2807,"Ġcddd":2808,"ĠAFB":2809,"ĠFAAA":2810,"ĠBcec":2811,"ĠBccB":2812,"AAB":2813,"ĠGFDG":2814,"ĠAdFd":2815,"ĠeccB":2816,"Ġegga":2817,"ĠdecA":2818,"ĠAcBc":2819,"ĠAcBd":2820,"ĠAcfd":2821,"ĠFDDD":2822,"dcBc":2823,")({":2824,"Ġgeef":2825,"geg":2826,"gest":2827,"ĠGEFG":2828,"cea":2829,"ĠTgfg":2830,"ĠFEED":2831,"Ġbggg":2832,"ĠeABA":2833,"ĠEGc":2834,"ĠEGcB":2835,"ĠBEEE":2836,"ĠBEBE":2837,"ĠABdF":2838,"ĠAGEC":2839,"141":2840,"ĠBeec":2841,"7025":2842,"ĠDEFE":2843,"ĠEAE":2844,"171":2845,"8915":2846,"bgb":2847,"fAD":2848,"FGAF":2849,"ĠFEFE":2850,"344":2851,"ĠfBBA":2852,"ĠfBeB":2853,"Ġvc":2854,"Ġvg":2855,"363":2856,"ĠAEAc":2857,"5732":2858,"ĠFdDd":2859,"111":2860,"118":2861,"ĠuD":2862,"ĠGdBG":2863,"ĠAaag":2864,"ter":2865,"ĠTeil":2866,"gcg":2867,"Ġeeee":2868,"ĠcGEG":2869,"Ġbafb":2870,"ĠcEEE":2871,"ĠecBa":2872,"ĠBdfb":2873,"ĠEeed":2874,"Moderato":2875,"ĠEAGE":2876,"6676":2877,"uggest":2878,"EAAB":2879,"ĠĠĠĠ":2880,"orial":2881,"Ġffee":2882,"Intro":2883,"Editorial":2884,"Ġspirit":2885,"Figu":2886,"cfecAc":2887,"ĠEcGc":2888,"uggestion":2889,"#)\"":2890,"'(":2891,"'=":2892,"'^":2893,"').":2894,",.":2895,",][":2896,".^":2897,"189":2898,"187":2899,"245":2900,"239":2901,"372":2902,"382":2903,"415":2904,"445":2905,"430":2906,"515":2907,"567":2908,"535":2909,"549":2910,"620":2911,"665":2912,"635":2913,"662":2914,"715":2915,"732":2916,"719":2917,"785":2918,"845":2919,"9143":2920,"Dphr":2921,"No":2922,"TG":2923,"aag":2924,"ast":2925,"babc":2926,"cC":2927,"cres":2928,"dfe":2929,"dgf":2930,"fG":2931,"ffe":2932,"ot":2933,"sp":2934,"str":2935,"uG":2936,"ud":2937,"ul":2938,"~~\"":2939,"Ġdori":2940,"ĠAcdc":2941,"ĠBBc":2942,"ĠBBAG":2943,"Ġeba":2944,"ĠeBde":2945,"ĠcFA":2946,"ĠcGAG":2947,"ĠcFAc":2948,"ĠcEBE":2949,"ĠccAA":2950,"ĠGGA":2951,"ĠGGB":2952,"ĠGee":2953,"ĠGedc":2954,"ĠGgBg":2955,"Ġfcc":2956,"ĠgGG":2957,"ĠggB":2958,"ĠgAf":2959,"Ġacc":2960,"Ġafga":2961,"ĠDe":2962,"ĠDg":2963,"ĠDBA":2964,"ĠDAF":2965,"ĠDDE":2966,"ĠDBGB":2967,"edef":2968,"ĠBAdB":2969,"GABG":2970,"ĠdBBG":2971,"ĠdBFB":2972,"cAAB":2973,"Ġfddd":2974,"ĠAGce":2975,"ĠBGc":2976,"ĠBGFE":2977,"ĠAFBG":2978,"Ġefaf":2979,"Ġgfad":2980,"Ġ{_":2981,"ĠBceg":2982,"ĠGFDE":2983,"ĠGFFE":2984,"ĠAdBA":2985,"ĠAdef":2986,"ĠAdFA":2987,"ĠAdAd":2988,"dee":2989,"ĠecGE":2990,"ĠegB":2991,"instr":2992,"ĠdfB":2993,"Ġdfad":2994,"Ġfeaf":2995,"Ġfegf":2996,"ĠFDCA":2997,"164":2998,"ĠGBFA":2999,"ĠEDDC":3000,"Ġfaad":3001,"Ġafff":3002,"ĠdgBd":3003,"ĠedBg":3004,"Ġbgef":3005,"ĠADBD":3006,"ĠeAGA":3007,"ĠeAag":3008,"ĠeAaA":3009,"ĠEGGE":3010,"Ġgdb":3011,"Ġgdgd":3012,"Ġgdbg":3013,"ĠDGBA":3014,"ĠDGBc":3015,"FDD":3016,"FDFA":3017,"Ġddcd":3018,"Ġgbfa":3019,"ĠccBA":3020,"ĠBEB":3021,"ĠBEEG":3022,"ĠBEEB":3023,"ĠdGf":3024,"ĠdGeG":3025,"149":3026,"1468":3027,"2079":3028,"ABcA":3029,"DGD":3030,"defa":3031,"defe":3032,"4967":3033,"374":3034,"ĠFDDC":3035,"ĠFDDg":3036,"664":3037,"668":3038,"343":3039,"348":3040,"ĠcAFAcf":3041,"DAo":3042,"ĠvA":3043,"ĠvG":3044,"868":3045,"ĠCEAB":3046,"ĠAEFG":3047,"Ġadfa":3048,"Ġaaaf":3049,"500":3050,"ĠFdcA":3051,"ĠcGe":3052,"2749":3053,"ĠaAcB":3054,"481":3055,"Ġfaga":3056,"ĠCDED":3057,"Ġfbdf":3058,"tempo":3059,"ĠPfe":3060,"AEAB":3061,"Ġcedf":3062,"Ġsuggestion":3063,"Ġgggg":3064,"ĠdAAF":3065,"PMTCO":3066,"ĠBdGd":3067,"Ġbabg":3068,"Ġms":3069,"Ġgdeg":3070,"2750":3071,"5296":3072,"ĠCEAC":3073,"7826":3074,"8107":3075,"ĠII":3076,"Ġtime":3077,"Ġnote":3078,"ĠEBAE":3079,"Andante":3080,"Ġdorian":3081,"ĠecGEGE":3082,"!>)":3083,"\"!":3084,"\".":3085,"']":3086,"'/)":3087,"->":3088,"/[":3089,"/\"^*\"":3090,"227":3091,"2371":3092,"419":3093,"485":3094,"462":3095,"588":3096,"545":3097,"530":3098,"565":3099,"542":3100,"684":3101,"765":3102,"762":3103,"747":3104,"746":3105,"7850":3106,"875":3107,"8424":3108,"912":3109,"ABAG":3110,"AEA":3111,"Cb":3112,"DFE":3113,"DCD":3114,"Min":3115,"Reel":3116,"SEG":3117,"Str":3118,"TE":3119,"Tfe":3120,"TcB":3121,"UE":3122,"baf":3123,"ddB":3124,"dgd":3125,"es":3126,"ecd":3127,"eBG":3128,"eac":3129,"fAA":3130,"fefg":3131,"his":3132,"le":3133,"ling":3134,"sna":3135,"uD":3136,"zer":3137,"Ġ\\":3138,"Ġto":3139,"ĠJig":3140,"Ġdbag":3141,"ĠdGGG":3142,"ĠAfe":3143,"ĠAec":3144,"ĠAagf":3145,"ĠAedc":3146,"ĠBfe":3147,"ĠBEF":3148,"ĠBba":3149,"ĠBfed":3150,"ĠBbag":3151,"ĠBFDF":3152,"Ġeec":3153,"ĠcC":3154,"Ġcag":3155,"Ġcgg":3156,"Ġcbag":3157,"Ġcceg":3158,"Ġcgcg":3159,"ĠGb":3160,"ĠGFA":3161,"ĠGcB":3162,"ĠGgf":3163,"ĠGcBA":3164,"ĠGgg":3165,"ĠGGFE":3166,"ĠGgfg":3167,"Ġfz":3168,"Ġffd":3169,"ĠfcdB":3170,"Ġfine":3171,"ĠfBdf":3172,"ĠgBd":3173,"ĠgBG":3174,"ĠFcAc":3175,"ĠFBAF":3176,"ĠFfff":3177,"Ġas":3178,"Ġaef":3179,"ĠaAc":3180,"Ġafgf":3181,"ĠDGE":3182,"Ġ:{":3183,"Ġedde":3184,"ĠeddB":3185,"ĠBAe":3186,"ĠBAAA":3187,"Ġbfe":3188,"ĠbBb":3189,"Ġbfa":3190,"ĠcAdA":3191,"ĠcAfc":3192,"ĠdBBc":3193,"ĠdBGF":3194,"cAGE":3195,"Ġfdfg":3196,"Ġfdgd":3197,"ĠCG":3198,"ĠcdA":3199,"ĠcdBd":3200,"ĠBddg":3201,"Ġagg":3202,"ĠFAcB":3203,"Ġfgg":3204,"Ġfged":3205,"Ġefc":3206,"Ġeffg":3207,"ĠGFF":3208,"ĠdefB":3209,"Ġecag":3210,"ĠdeBd":3211,"ĠAcGA":3212,"ĠAcEc":3213,"Ġfeec":3214,"Ġfege":3215,"ĠFDdD":3216,")(=":3217,"ĠcBBe":3218,"Ġgeb":3219,"ĠecAd":3220,"ĠGBD":3221,"ĠGBec":3222,"ĠGBDG":3223,"ĠGEB":3224,"ĠGEAG":3225,"Ġfaed":3226,"Ġafcf":3227,"Ġeafe":3228,"Ġeaca":3229,"Ġdggg":3230,"ĠFEEF":3231,"107":3232,"1052":3233,"Ġbgde":3234,"Ġbgbg":3235,"ĠADED":3236,"ĠeAeA":3237,"ĠEGDC":3238,"Ġgded":3239,"ĠgdBA":3240,"ĠGABe":3241,"ĠDGGB":3242,"FDE":3243,"ĠcBcE":3244,"ĠdABd":3245,"ĠddA":3246,"Ġddef":3247,"ĠDFB":3248,"ĠDFCA":3249,"ĠBEdB":3250,"ĠBEdE":3251,"ĠAAec":3252,"700":3253,"7010":3254,"cBAB":3255,"Ġbafg":3256,"Ġbafd":3257,"ĠBBBG":3258,"ĠcAAf":3259,"131":3260,"133":3261,"ĠEABd":3262,"ĠEAEA":3263,"ĠgecB":3264,"ĠBGGd":3265,"8818":3266,"173":3267,"1766":3268,"Ġeeef":3269,"6967":3270,"6997":3271,"1949":3272,"7561":3273,"7988":3274,"ĠAceA":3275,"/>=":3276,"Ġgabc":3277,"ĠGcec":3278,"873":3279,"ĠdFBF":3280,"ĠdcAE":3281,"dgb":3282,"ĠDBBA":3283,"ĠFEFd":3284,"Ġggge":3285,"ĠAAAc":3286,"ĠECCE":3287,"ĠAEAB":3288,"ĠgBfB":3289,"Ġgfdg":3290,"ĠABGB":3291,"5766":3292,"5748":3293,"4635":3294,"eae":3295,"ĠcaAa":3296,"Ġeaae":3297,"Ġabae":3298,"ĠeGeG":3299,"Ġcffe":3300,"Ġcfaf":3301,"431":3302,"4337":3303,"ĠGdBd":3304,"2747":3305,"ĠBAAg":3306,"ĠAcAG":3307,"181":3308,">(!":3309,"6332":3310,"7867":3311,"ĠBDGA":3312,"ĠPa":3313,"2866":3314,"Ġcede":3315,"ĠMD":3316,"ĠMd":3317,"ĠMBAF":3318,"Ġfeeling":3319,"Ġbafa":3320,"ĠFGFD":3321,"Ġsig":3322,"ĠdGGg":3323,"Ġaeea":3324,"athsp":3325,"ĠDGFD":3326,"Ġcaca":3327,"Ġadded":3328,"Ġmoda":3329,"1701":3330,"ĠFBdc":3331,"2885":3332,"5905":3333,"1881":3334,"3659":3335,"2425":3336,"4354":3337,"ĠeGGd":3338,"ĠGdGd":3339,"Figure":3340,"SEGUE":3341,"Strathsp":3342,"snap":3343,"Ġmodal":3344,"Strathspey":3345,"!<)!":3346,"'<":3347,"'/^":3348,"({/":3349,")}":3350,",_":3351,"265":3352,"244":3353,"2847":3354,"316":3355,"315":3356,"332":3357,"342":3358,"439":3359,"449":3360,"4142":3361,"544":3362,"632":3363,"685":3364,"6838":3365,"749":3366,"775":3367,"733":3368,"7373":3369,"816":3370,"819":3371,"865":3372,"879":3373,":[":3374,"<=":3375,"<^":3376,"AcB":3377,"All":3378,"BBA":3379,"Bfe":3380,"IN":3381,"Tb":3382,"Variation":3383,"Wal":3384,"](":3385,"ak":3386,"cef":3387,"defg":3388,"dBGB":3389,"eedc":3390,"fi":3391,"ful":3392,"gaba":3393,"imat":3394,"pli":3395,"slow":3396,"tto":3397,"ub":3398,"ut":3399,"ĠW":3400,"Ġdi":3401,"Ġdag":3402,"ĠdGAB":3403,"ĠdEcE":3404,"ĠAEF":3405,"ĠBz":3406,"ĠBfg":3407,"ĠBedc":3408,"ĠBFGA":3409,"ĠeBGB":3410,"ĠeBce":3411,"Ġcefg":3412,"Ġcfec":3413,"Ġczc":3414,"ĠGGF":3415,"ĠGgfe":3416,"ĠGceg":3417,"ĠGccc":3418,"ĠGggg":3419,"ĠfBde":3420,"Ġgz":3421,"ĠgBBB":3422,"ĠFFED":3423,"ĠEdcB":3424,"ĠEdF":3425,"ĠECDB":3426,"Ġaefe":3427,"ĠaAAA":3428,"Ġaefa":3429,"ĠDa":3430,"ĠDBG":3431,"ĠDdc":3432,"edBA":3433,"ĠedA":3434,"Ġedg":3435,"ĠeddA":3436,"ĠBAd":3437,"ĠbA":3438,"Ġdced":3439,"GAd":3440,"GABd":3441,"GABcd":3442,"ĠcAed":3443,"ĠcAfg":3444,"ĠcAag":3445,"ĠcAfA":3446,"ĠcAEC":3447,"fgaf":3448,"cAd":3449,"cAFA":3450,"cAGB":3451,"cdA":3452,"cdf":3453,"cdeg":3454,"ĠAGB":3455,"ĠAGc":3456,"ĠCFF":3457,"ĠGAde":3458,"Ġ^^":3459,"Ġcdfg":3460,"Ġcdee":3461,"Ġcdac":3462,"ĠBdeB":3463,"ĠBdgb":3464,"ĠAFFD":3465,"fde":3466,"fdfa":3467,"/)\"^/":3468,"ĠFADE":3469,"Ġfedg":3470,"ĠfedcBA":3471,"Ġefff":3472,"ĠABge":3473,"Ġgff":3474,"Ġgffe":3475,"ĠcBAA":3476,"ĠBccA":3477,"ĠBccc":3478,"ĠAdG":3479,"ĠAdAG":3480,"ĠABcc":3481,"Ġegag":3482,"Ġdegd":3483,"dBB":3484,"ĠAced":3485,"ĠAccd":3486,"Ġdfef":3487,"Ġdfba":3488,"Ġdfff":3489,"Ġdfzd":3490,"ĠFDED":3491,"ĠFDGE":3492,"Ġefgb":3493,")(^":3494,"Ġ\"^~~\"":3495,"Ġceed":3496,"Ġgebg":3497,"ĠecAe":3498,"ĠGBEF":3499,"ĠGBeg":3500,"ĠGBFB":3501,"ĠDECD":3502,"ĠGEBG":3503,"ĠGEEE":3504,"Ġ!<(!":3505,"ABBA":3506,"ĠEDFE":3507,"ĠEDDA":3508,"AFE":3509,"AFF":3510,"cege":3511,"Ġafab":3512,"Ġafba":3513,"ĠAFDc":3514,"ĠTdcd":3515,"Ġeaac":3516,"ĠdgdB":3517,"Ġdgdg":3518,"ĠGBde":3519,"ĠdedA":3520,"ĠFEEG":3521,"106":3522,"1060":3523,"1011":3524,"ore":3525,"ĠADFG":3526,"ĠADEF":3527,"ĠADDA":3528,"ĠEGDF":3529,"8045":3530,"8069":3531,"ĠgfedcB":3532,"Acc":3533,"Ġgdec":3534,"ĠDGDG":3535,"ĠcBca":3536,"ĠdAfd":3537,"ĠddGB":3538,"Ġ]{":3539,"Ġgaeg":3540,"Ġgbgd":3541,"DEB":3542,"DEFA":3543,"Ġcccd":3544,"ĠBEFG":3545,"ĠBEAB":3546,"Ġagfedc":3547,"ĠABdg":3548,"ĠAAFA":3549,"Ġ!>!^":3550,"ĠefeB":3551,"ĠEFGD":3552,"ĠEFGg":3553,"bac":3554,"ĠcAGC":3555,"9098":3556,"3227":3557,"3223":3558,"147":3559,"7084":3560,"7036":3561,"Ġfefc":3562,"Ġbaag":3563,"ĠBBBA":3564,")\"\"^(":3565,"ĠABcdef":3566,"ĠDEFd":3567,"7223":3568,"134":3569,"136":3570,"138":3571,"139":3572,"ĠEAe":3573,"ĠEABc":3574,"ĠEAcB":3575,"2086":3576,"175":3577,"176":3578,"4093":3579,"8286":3580,"8565":3581,"Ġaebe":3582,"6256":3583,"4298":3584,"ĠGDGA":3585,"ĠGDBD":3586,"ĠGAGe":3587,",>.":3588,"ĠEAAF":3589,"ĠEAAc":3590,"841":3591,"ĠGcBc":3592,"ĠDDFA":3593,"ĠDDDE":3594,"2572":3595,"ĠFDDc":3596,"ĠDEDC":3597,"ĠfAed":3598,"Ġggbg":3599,"661":3600,"663":3601,"346":3602,"Ġecea":3603,"861":3604,"864":3605,"361":3606,"ĠBggf":3607,"ĠFBBc":3608,"4779":3609,"ĠgBaB":3610,"ĠgfdA":3611,"ĠAffA":3612,"ĠAfcf":3613,"ĠeGdc":3614,"1606":3615,"ĠGecA":3616,"Ġedcdef":3617,",,)":3618,"ĠAadf":3619,"ĠAaAa":3620,"cGeG":3621,"ĠGgG":3622,"impli":3623,"6317":3624,"5472":3625,"ĠPe":3626,"ĠPg":3627,"2219":3628,"6832":3629,"Ġcdedef":3630,"ĠcFFG":3631,"ĠcFFE":3632,"repe":3633,"ĠdDcD":3634,"Ġdbba":3635,"ĠMc":3636,"Ġdafd":3637,"Ġslow":3638,"ĠFfF":3639,"ĠdAAG":3640,"ĠdAAd":3641,"ish":3642,"not":3643,"oderate":3644,"ĠEeef":3645,"ang":3646,"ĠeEe":3647,"ĠeEED":3648,"ĠcBGE":3649,"PMTuC":3650,"afdef":3651,"ĠDAAB":3652,"6671":3653,"5907":3654,"5293":3655,"3496":3656,"Ġcaac":3657,"old":3658,"2673":3659,"ĠezdB":3660,"ĠcBdG":3661,"6886":3662,"8321":3663,"Ġggeg":3664,"Ġwith":3665,"2293":3666,"4121":3667,"ĠEBEg":3668,"7407":3669,"ent":3670,"5474":3671,"aint":3672,"!>)!":3673,"zertempo":3674,"Alleg":3675,"Walzertempo":3676,"fied":3677,"ĠEdFd":3678,"implified":3679,"repeat":3680,"'>.":3681,"*)\"":3682,"-\"^":3683,"-{/":3684,"1150":3685,"212":3686,"215":3687,"269":3688,"282":3689,"287":3690,"247":3691,"2128":3692,"2171":3693,"317":3694,"3846":3695,"447":3696,"433":3697,"4371":3698,"4859":3699,"5142":3700,"647":3701,"6399":3702,"710":3703,"815":3704,"867":3705,"842":3706,"8600":3707,"8652":3708,"8137":3709,"9124":3710,"AGB":3711,"Adc":3712,"Add":3713,"AGAB":3714,"Aceg":3715,"Coda":3716,"DFG":3717,"Dol":3718,"EAc":3719,"Edim":3720,"Fin":3721,"FFE":3722,"FBdB":3723,"FcF":3724,"Fast":3725,"GFA":3726,"Gce":3727,"Pl":3728,"Ta":3729,"Tdcd":3730,"The":3731,"VB":3732,"[^":3733,"aed":3734,"dAA":3735,"eF":3736,"han":3737,"npi":3738,"pp":3739,"reel":3740,"so":3741,"simplified":3742,"ting":3743,"uB":3744,"um":3745,"vB":3746,"vd":3747,"vg":3748,"variation":3749,"zA":3750,"Ġli":3751,"Ġpl":3752,"Ġkey":3753,"Ġdaf":3754,"ĠdDE":3755,"Ġdad":3756,"ĠAede":3757,"ĠAEEE":3758,"ĠAfff":3759,"ĠBFGB":3760,"ĠBFAG":3761,"Ġebg":3762,"Ġecdc":3763,"ĠcEF":3764,"ĠcGG":3765,"ĠcfA":3766,"ĠGa":3767,"ĠGcd":3768,"ĠGGAB":3769,"ĠGGEC":3770,"ĠfF":3771,"ĠfcB":3772,"ĠfBce":3773,"ĠgGA":3774,"ĠgAA":3775,"Ġggff":3776,"ĠFBc":3777,"ĠFFG":3778,"ĠEef":3779,"ĠEEF":3780,"ĠEdc":3781,"Ġal":3782,"Ġaede":3783,"Ġaua":3784,"ĠDcB":3785,"ĠDdA":3786,"ĠDAFD":3787,"edd":3788,"edce":3789,"BAc":3790,"BABc":3791,"BAFD":3792,"Ġeded":3793,"ĠBAdc":3794,"ĠBAAF":3795,"ĠBAAe":3796,"Ġbee":3797,"Ġbefg":3798,"Ġbfgf":3799,"ĠbfdB":3800,"Ġbefa":3801,"Ġbdgb":3802,"ĠdccA":3803,"ĠcAEF":3804,"ĠdBE":3805,"ĠdBef":3806,"fgd":3807,"fgag":3808,"cAce":3809,"ĠfdeB":3810,"cdG":3811,"ĠAGGG":3812,"ĠCz":3813,"ĠCDF":3814,"agfe":3815,"ĠBGBc":3816,"ĠBGGE":3817,"ĠBGDE":3818,"ĠBGdg":3819,"Ġcdcc":3820,"\"^,\"":3821,"\"^~\"":3822,"ĠFAf":3823,"ĠFAcd":3824,"ĠFABd":3825,"ĠFAAG":3826,"Ġefef":3827,"ĠefAB":3828,"ĠABFE":3829,"Ġ.^":3830,"Ġ{=":3831,"ĠcBAe":3832,"ĠBcG":3833,"ĠdefA":3834,"Ġegaf":3835,"ĠdeBA":3836,"ĠAcC":3837,"ĠAcF":3838,"Ġfeeg":3839,"ĠFDCB":3840,"ĠFDGD":3841,"Ġefgd":3842,"Ġ\"^*":3843,"Ġ\"^..\"":3844,"Ġ\"^+\"":3845,"Ġ\"^^\"":3846,"Dmaj":3847,"ĠceG":3848,"ĠceBd":3849,"Ġcegf":3850,"Ġceac":3851,"Ġceea":3852,"Ġgega":3853,"1646":3854,"BbB":3855,"ĠGBF":3856,"ĠGBBd":3857,"ĠGBgB":3858,"ĠGEEG":3859,"ĠfaA":3860,"Ġfaab":3861,"ceA":3862,"Ġaffd":3863,"Ġaffa":3864,"ĠTED":3865,"ĠeacA":3866,"GEG":3867,"ĠFGAf":3868,"Addc":3869,"ĠFGBA":3870,"ĠFGef":3871,"ĠAGFB":3872,"ĠADFE":3873,"Ġabf":3874,"ĠeABc":3875,"ĠeAcd":3876,"ĠeAdB":3877,"ĠeAgA":3878,"ĠEGcd":3879,"8037":3880,"FDAB":3881,"ĠDFAg":3882,"ĠdAFG":3883,"ĠdAGF":3884,"Ġgaed":3885,"efga":3886,"Ġgbb":3887,"Ġgbef":3888,"ĠDFEF":3889,"ĠDFFE":3890,"ĠBEe":3891,"ĠBEGE":3892,"gaa":3893,"ĠAABA":3894,"ĠGGBG":3895,"ĠGGGB":3896,"Ġ!>![":3897,"bar":3898,",/=":3899,"3215":3900,"3257":3901,"3292":3902,"706":3903,"7090":3904,"7045":3905,"ĠBBBd":3906,"ĠBBgB":3907,")\"_":3908,"Ġbaga":3909,"Ġbagd":3910,"ĠcAAE":3911,"cccc":3912,"7252":3913,"7276":3914,"1348":3915,"ĠEAFA":3916,"ĠBGGg":3917,"8870":3918,"8836":3919,"2078":3920,"ABcB":3921,"]\"^(":3922,"179":3923,"ĠeeBA":3924,"6769":3925,"4596":3926,"3081":3927,"6956":3928,"6954":3929,"6951":3930,"4085":3931,"4091":3932,"Ġedea":3933,"1954":3934,"8210":3935,"8262":3936,"8257":3937,"8223":3938,"8273":3939,"8293":3940,"8540":3941,"8557":3942,"Ġaeef":3943,"Ġaeec":3944,"Ġaeae":3945,"351":3946,"3516":3947,"3563":3948,"3912":3949,"4966":3950,"4959":3951,"6217":3952,"6228":3953,"6294":3954,"4229":3955,"7933":3956,"ĠGDGB":3957,"fedB":3958,"ĠdAFd":3959,"843":3960,"848":3961,"8414":3962,"ĠGcef":3963,"ĠDDEF":3964,"2560":3965,"2529":3966,"2552":3967,"8735":3968,"ĠFDDe":3969,"ĠfAg":3970,"ĠfAde":3971,"ĠFEFB":3972,"Ġggga":3973,"347":3974,"3436":3975,"ĠfBec":3976,"ĠcBcdec":3977,"Ġgefe":3978,"Ġacec":3979,"Ġacac":3980,"Ġgcac":3981,"8649":3982,"8636":3983,"3631":3984,"ĠCEC":3985,"ĠCEGE":3986,"ĠBgec":3987,"5513":3988,"\"^(*)\"":3989,"ĠAEcB":3990,"Ġada":3991,"Ġfecf":3992,"ĠABGF":3993,"5041":3994,"5772":3995,"5782":3996,"5736":3997,"5773":3998,"ĠEFAG":3999,"ĠEFAd":4000,"5959":4001,"4687":4002,"4681":4003,"ĠFdcd":4004,"ĠFdFd":4005,"3369":4006,"Ġcae":4007,"Ġcaec":4008,"ĠBFBd":4009,"ĠeGBG":4010,"Ġfcag":4011,"ĠBeeB":4012,"ĠcEGB":4013,"ĠuB":4014,"ĠuF":4015,"ĠaAcA":4016,"4813":4017,"ĠAeed":4018,"'>\"^":4019,"Ġfagb":4020,"778":4021,"ĠAaBa":4022,"6386":4023,"7820":4024,"ĠBDAF":4025,"2332":4026,"7366":4027,"Ġbffe":4028,"2000":4029,"Ġbeef":4030,"5332":4031,"Ġbdaf":4032,"ĠDGBe":4033,"ĠBEEd":4034,"ĠBEEe":4035,"5810":4036,"ĠdecB":4037,"Ġdece":4038,"ĠfBBe":4039,"7187":4040,"fefd":4041,"ĠEDCF":4042,"2329":4043,"ĠEEEE":4044,"3201":4045,"ĠEGGc":4046,"and":4047,"ĠeEAc":4048,"ĠeEeE":4049,"Ġebge":4050,"Ġbabf":4051,"1158":4052,"ĠBgBg":4053,"Ġegcg":4054,"Ġecdf":4055,"4008":4056,"4169":4057,"6157":4058,"2301":4059,"3621":4060,"4752":4061,"Ġeze":4062,"2191":4063,"3456":4064,"5801":4065,"7459":4066,"7796":4067,"7799":4068,"2256":4069,"4704":4070,"7803":4071,"7702":4072,"Ġnot":4073,"4909":4074,"5609":4075,"7129":4076,"ĠTBABc":4077,"6162":4078,"8393":4079,"etting":4080,"Ġline":4081,"Ġeegg":4082,"Ġdaad":4083,"ĠdEdE":4084,"imated":4085,"Allegro":4086,"Dolce":4087,"npipe":4088,"!^":4089,"!>(!":4090,"\"(":4091,"'_":4092,"(_":4093,",(":4094,"-(":4095,"-\"^/":4096,"/\"^/\"":4097,"182":4098,"1871":4099,"2177":4100,"2481":4101,"339":4102,"3101":4103,"465":4104,"4846":4105,"546":4106,"5101":4107,"680":4108,"646":4109,"618":4110,"6377":4111,"6378":4112,"7377":4113,"7177":4114,"812":4115,"890":4116,"872":4117,"811":4118,"8371":4119,"8348":4120,"948":4121,"<)":4122,"AR":4123,"Al":4124,"AFG":4125,"AdB":4126,"ADD":4127,"BC":4128,"Bee":4129,"BDG":4130,"BGAG":4131,"BEAE":4132,"CFA":4133,"CFG":4134,"DAG":4135,"DGG":4136,"DEG":4137,"EFA":4138,"EED":4139,"EEF":4140,"ECE":4141,"Fdc":4142,"FdF":4143,"Gi":4144,"GdB":4145,"GDG":4146,"GBdB":4147,"Gdim":4148,"GgBg":4149,"Hm":4150,"Hor":4151,"Iris":4152,"Key":4153,"MB":4154,"MD":4155,"Mc":4156,"Pc":4157,"Sc":4158,"To":4159,"TGF":4160,"Tdc":4161,"TAG":4162,"Ver":4163,"VAR":4164,"])(":4165,"]/\"":4166,"]/>":4167,"aF":4168,"ai":4169,"aAA":4170,"ave":4171,"bge":4172,"bab":4173,"bba":4174,"ced":4175,"ccB":4176,"dge":4177,"dBAG":4178,"dcde":4179,"dcAF":4180,"ebd":4181,"fD":4182,"fab":4183,"fefe":4184,"gC":4185,"gfge":4186,"gedB":4187,"her":4188,"moderate":4189,"nat":4190,"oi":4191,"our":4192,"ted":4193,"tin":4194,"uE":4195,"une":4196,"vG":4197,"vc":4198,"xp":4199,"zE":4200,"zF":4201,"{.":4202,"}!":4203,"ĠJ":4204,"ĠL":4205,"ĠO":4206,"ĠdEE":4207,"Ġdafa":4208,"ĠAfg":4209,"ĠAge":4210,"ĠAafa":4211,"ĠBFA":4212,"ĠBDF":4213,"ĠBac":4214,"ĠBEFE":4215,"Ġeefe":4216,"ĠeAdA":4217,"Ġcfe":4218,"Ġccd":4219,"ĠcEG":4220,"ĠcEA":4221,"ĠcBGB":4222,"ĠcFFF":4223,"ĠcDAD":4224,"ĠcCEC":4225,"ĠcCEG":4226,"ĠGBcd":4227,"ĠGDD":4228,"ĠGdef":4229,"ĠGCEG":4230,"ĠGCC":4231,"Ġffg":4232,"ĠfAB":4233,"ĠfAc":4234,"Ġfba":4235,"ĠffdB":4236,"ĠfBbB":4237,"Ġggf":4238,"Ġgce":4239,"Ġggfe":4240,"Ġgddd":4241,"ĠgBde":4242,"ĠFGG":4243,"ĠFcAF":4244,"ĠEf":4245,"ĠEec":4246,"ĠEED":4247,"ĠEAd":4248,"ĠEgfe":4249,"ĠEBGE":4250,"Ġaz":4251,"Ġaaf":4252,"Ġade":4253,"Ġadf":4254,"Ġadeg":4255,"ĠDz":4256,"ĠDef":4257,"ĠDdcd":4258,"BABd":4259,"BcF":4260,"BcBA":4261,"Ġedgf":4262,"Ġeddd":4263,"ĠedgB":4264,"efed":4265,"efge":4266,"efgf":4267,"ĠBAce":4268,"ĠBAdF":4269,"Ġbgf":4270,"ĠdccB":4271,"Ġdcce":4272,"ĠdcTBA":4273,"GAe":4274,"ĠcAEG":4275,"ĠcABF":4276,"ĠcAaA":4277,"ĠdBD":4278,"ĠdBfd":4279,"ĠdBFD":4280,"ĠdBdf":4281,"fgfe":4282,"fgfg":4283,"Ġ::\"_":4284,"cABG":4285,"cAAG":4286,"cAeB":4287,"ĠfdAB":4288,"cdg":4289,"ĠAGcA":4290,"ĠCBA":4291,"ĠCFD":4292,"ĠCBAG":4293,"ĠCCD":4294,"ĠCEB":4295,"ĠCoda":4296,"agb":4297,"agd":4298,"ĠBGed":4299,"ĠBGFA":4300,"ĠBGcB":4301,"ĠBGdc":4302,"ĠGAFA":4303,"ĠGAag":4304,"Ġcdd":4305,"ĠcdBA":4306,"Ġcdcd":4307,"ĠcdAF":4308,"ĠcdAe":4309,"ĠBdcd":4310,"ĠBddG":4311,"ĠBdEd":4312,"ĠBdGABd":4313,"ĠAFM":4314,"ĠAFFG":4315,"ecB":4316,"ecec":4317,"fdd":4318,"fded":4319,"/))":4320,"\"^?\"":4321,"cBBA":4322,"BGGA":4323,"ĠFAfe":4324,"ĠFAce":4325,"ĠFAEG":4326,"ĠFAca":4327,"Ġfgfg":4328,"Ġfgeg":4329,"ĠefA":4330,"ĠABe":4331,"ĠABFA":4332,"ĠABBB":4333,"Ġgffdfa":4334,"Amdim":4335,"ĠcBABcd":4336,"ĠBcef":4337,"ĠGFFG":4338,"ĠGFDB":4339,"ĠAdg":4340,"ĠAded":4341,"ĠAdce":4342,"ĠABcf":4343,"Ġdefb":4344,"deed":4345,"degd":4346,"Ġecf":4347,"Ġeccd":4348,"Ġecfd":4349,"Ġecaf":4350,"ĠAca":4351,"ĠAcfg":4352,"ĠAccc":4353,"ĠAcac":4354,"Ġdfce":4355,"Ġdffa":4356,"ĠdffA":4357,"Ġdfbf":4358,"Ġfeag":4359,"ĠFDEG":4360,"dcBd":4361,"ĠceAB":4362,"ĠceAa":4363,"ĠgeB":4364,"ĠgeAF":4365,"Ġgeba":4366,"][_":4367,"168":4368,"1636":4369,"1656":4370,"ĠecAa":4371,"ĠecAg":4372,"gee":4373,"geaf":4374,"ĠGBef":4375,"ĠdBAe":4376,"ĠDEB":4377,"ĠDEBE":4378,"ĠEDGD":4379,"1294":4380,"Ġfab":4381,"ĠfaAa":4382,"ĠdBGD":4383,"ĠdBGc":4384,"Gmaj":4385,"Ġafbg":4386,"ĠTBAB":4387,"ĠTBAF":4388,"ĠABAB":4389,"ĠABAf":4390,"abag":4391,"abaf":4392,"GEE":4393,"Ġdga":4394,"Ġdgec":4395,"Ġdgge":4396,"Ġgedf":4397,"Ġdedd":4398,"Adim":4399,"ĠFGD":4400,"ĠedcF":4401,"1040":4402,"1077":4403,"1099":4404,"Ġafdc":4405,"Ġafdg":4406,"Ġbgfe":4407,"ĠeAfe":4408,"ĠeAde":4409,"egc":4410,"ĠEGED":4411,"ĠEGDB":4412,"ĠgdBc":4413,"Ġgdef":4414,"Ġgdde":4415,"ĠgddB":4416,"ĠDGGE":4417,"faA":4418,"ĠDFAG":4419,"ĠcBcF":4420,"ĠdAfe":4421,"Ġddg":4422,"ĠdddB":4423,"Ġdddc":4424,"Ġ]\"^(":4425,"Ġgaea":4426,"efgabg":4427,"Ġgbdg":4428,"ĠBABe":4429,"ĠcccA":4430,"Ġccce":4431,"ĠcccBc":4432,"ĠDFd":4433,"ĠDFEG":4434,"ĠDFFD":4435,"ĠDFdA":4436,"dfB":4437,"ĠAABc":4438,"ĠdGdG":4439,"ĠEFGF":4440,"bad":4441,"9045":4442,"ĠGFGF":4443,"ĠAGEc":4444,"1519":4445,"3267":4446,"3287":4447,"ĠcAFE":4448,"1439":4449,"ĠBeB":4450,"ĠBegf":4451,"cBAF":4452,"ĠBBFB":4453,"6012":4454,"6051":4455,"Ġbagabg":4456,"ĠcAAa":4457,"8816":4458,"8889":4459,"8881":4460,"8868":4461,"]\"^\\\"":4462,"1712":4463,"1736":4464,"1791":4465,"Ġeeec":4466,"6760":4467,"6782":4468,"456":4469,"4526":4470,"3040":4471,"3025":4472,"693":4473,"696":4474,"DGGA":4475,"DGBG":4476,"DGGF":4477,"4072":4478,"4096":4479,"8237":4480,"8244":4481,"8569":4482,"ĠaeA":4483,"3972":4484,"3968":4485,"\"_#\"":4486,"6265":4487,"6233":4488,"6241":4489,"dAf":4490,"7589":4491,"7531":4492,"ĠeBBc":4493,"ĠeBfa":4494,"Ġgagd":4495,"ĠffF":4496,"Ġfffg":4497,"Ġfffd":4498,"ĠageA":4499,"8992":4500,"Ġfafa":4501,"Ġfafc":4502,"4284":4503,"7994":4504,"ĠeAAd":4505,"ĠGDED":4506,"ĠGFGABc":4507,"ĠBABcde":4508,"Ġcdefed":4509,"ĠAddg":4510,"ĠfgaB":4511,"Ġfgaefa":4512,"ĠDDFD":4513,"2521":4514,"2524":4515,"878":4516,"8742":4517,"ĠdFED":4518,"ĠFDDB":4519,"ĠFDDf":4520,"GAGFG":4521,"ĠfAf":4522,"ĠfAec":4523,"ĠfAaA":4524,"ĠDBDB":4525,"FBF":4526,"Ġggag":4527,"ard":4528,"arg":4529,"666":4530,"ĠGBAB":4531,"ĠGBAd":4532,"ĠfBg":4533,"ĠfBFB":4534,"acac":4535,"Ġdfea":4536,"ĠAAAd":4537,"ĠEECF":4538,"Ġvf":4539,"bagfe":4540,"Ġacfa":4541,"Ġacfc":4542,"863":4543,"ĠBgAf":4544,"ĠBgGgBg":4545,"ĠFFEF":4546,"5559":4547,"ĠBcAE":4548,"ĠdBce":4549,"ĠgBg":4550,"ĠgBBA":4551,"ĠgBgB":4552,"DBD":4553,"Ġaaag":4554,"5026":4555,"5783":4556,"592":4557,"4642":4558,"4641":4559,"3367":4560,"3362":4561,"ĠcaAe":4562,"ĠcaBe":4563,"ĠafeA":4564,"ĠAffd":4565,"ĠFAdF":4566,"4412":4567,"4413":4568,"ĠBFFE":4569,"ĠeGg":4570,"ĠeGdf":4571,"5270":4572,"5230":4573,">.^":4574,"\"{^":4575,"ĠFAAf":4576,"ĠcEBG":4577,"Ġaeceae":4578,"ĠuG":4579,"ĠGdFd":4580,"ĠGdDd":4581,"ĠaAge":4582,"ĠaAfA":4583,"EFGE":4584,"7770":4585,"7782":4586,"ĠAaaf":4587,"Ġ([_":4588,"1810":4589,"ĠGgbg":4590,"BeB":4591,"ĠCDC":4592,"7612":4593,"ĠGBGE":4594,"ĠBDFA":4595,"bdbd":4596,"ĠAFFe":4597,"ĠPc":4598,"ĠPart":4599,"2872":4600,"4185":4601,"){/":4602,"2212":4603,"6489":4604,"3835":4605,"ĠEccd":4606,"ĠEcEc":4607,"FdD":4608,"Fdim":4609,"Ġbbfb":4610,"2487":4611,"ĠdDGB":4612,"ĠdDAF":4613,"Ġdbgd":4614,"Ġdbbd":4615,"ĠEGBE":4616,"ĠEGBe":4617,"BDGB":4618,"Ġ:\"^\\\"":4619,"ĠBdgdb":4620,"9116":4621,"Ġdan":4622,"cBcA":4623,"({^":4624,"Ġst":4625,"fcaf":4626,"Slowish":4627,"ĠEEEe":4628,"Ġefgfba":4629,",,]/":4630,"derly":4631,"ĠBffe":4632,"3206":4633,"andan":4634,"BaB":4635,"Fmin":4636,"ĠgGGF":4637,"ĠaAAG":4638,"ĠBcBGDG":4639,"ĠFEFAGE":4640,"Ġmaj":4641,"Ġfdgeaf":4642,"ĠBbfd":4643,"2402":4644,"ĠdFAFed":4645,"ĠBegB":4646,"ĠEdBA":4647,"Moderately":4648,"uet":4649,"ĠBaag":4650,"ĠgdeB":4651,"8000":4652,"2881":4653,"bagfed":4654,"piz":4655,"9003":4656,"3495":4657,"EAAG":4658,"ĠgeBege":4659,"4163":4660,"7352":4661,"3693":4662,"3697":4663,"6153":4664,"GBAFA":4665,"ĠeBGBeB":4666,"3623":4667,"ĠGzG":4668,"Animated":4669,"ĠaBgB":4670,"Ġthe":4671,"Ġgcca":4672,"ĠgfgbdB":4673,"1721":4674,"4692":4675,"4698":4676,"7695":4677,"8624":4678,"ĠGBEg":4679,"3674":4680,"3899":4681,"4725":4682,"5341":4683,"cEEA":4684,"cdedcd":4685,",]/[":4686,"Edited":4687,"3756":4688,"5198":4689,"8696":4690,"ĠAzF":4691,"Ġeeff":4692,"3301":4693,"5326":4694,"6724":4695,"5729":4696,"nell":4697,"ĠBBdd":4698,"3408":4699,"Ġcfac":4700,"ĠĠĠĠĠĠĠĠ":4701,"5358":4702,"otted":4703,"2271":4704,"6844":4705,"Minuet":4706,"'<.":4707,"INE":4708,"fully":4709,"GABcdef":4710,"ĠMcMc":4711,"aintively":4712,"Play":4713,"Ġdaded":4714,"Giga":4715,"Hornpipe":4716,"Irish":4717,"Very":4718,"]/>[":4719,"nate":4720,"tino":4721,"ĠGDDG":4722,"ĠCFDG":4723,"Ġmajor":4724,"\"\"^*\"":4725,"##":4726,"'\"^":4727,")[":4728,")\"\"":4729,",[":4730,",{":4731,",/)(":4732,"-=":4733,"-\"^(":4734,".[":4735,".)\"":4736,"1130":4737,"1850":4738,"284":4739,"2180":4740,"246":4741,"233":4742,"2160":4743,"243":4744,"2831":4745,"2658":4746,"2361":4747,"312":4748,"337":4749,"3143":4750,"3373":4751,"3127":4752,"3102":4753,"3378":4754,"3149":4755,"3873":4756,"3138":4757,"486":4758,"446":4759,"4140":4760,"4600":4761,"4159":4762,"4652":4763,"4368":4764,"4141":4765,"4374":4766,"4106":4767,"512":4768,"581":4769,"5108":4770,"5148":4771,"5152":4772,"5159":4773,"5871":4774,"687":4775,"636":4776,"644":4777,"6110":4778,"6200":4779,"6177":4780,"6877":4781,"6344":4782,"6111":4783,"6431":4784,"7160":4785,"7150":4786,"7144":4787,"7720":4788,"7159":4789,"7871":4790,"7831":4791,"7838":4792,"7102":4793,"7176":4794,"7663":4795,"833":4796,"8300":4797,"8376":4798,"8664":4799,"910":4800,"982":4801,"975":4802,"984":4803,"978":4804,"923":4805,"931":4806,"958":4807,"971":4808,"998":4809,"9152":4810,"9145":4811,":\"_":4812,"AP":4813,"BFF":4814,"Bis":4815,"CBA":4816,"CGE":4817,"CDD":4818,"Con":4819,"CDF":4820,"Cres":4821,"DCE":4822,"DFAF":4823,"EAB":4824,"Ff":4825,"Fdd":4826,"FBB":4827,"FGAG":4828,"FINE":4829,"GGA":4830,"GcB":4831,"GEF":4832,"GGE":4833,"GfA":4834,"GDBg":4835,"Larg":4836,"Pfe":4837,"Pag":4838,"Pgf":4839,"RE":4840,"Tag":4841,"Taf":4842,"TAF":4843,"TBAG":4844,"Voi":4845,"[=":4846,"]>)":4847,"az":4848,"ace":4849,"aea":4850,"aug":4851,"br":4852,"by":4853,"cBd":4854,"cGE":4855,"cfa":4856,"coda":4857,"dfg":4858,"dAG":4859,"dAd":4860,"dAdf":4861,"duc":4862,"eag":4863,"eaf":4864,"eaa":4865,"eedB":4866,"fr":4867,"fcA":4868,"fin":4869,"fBB":4870,"ffer":4871,"fig":4872,"gfd":4873,"gAA":4874,"hli":4875,"hak":4876,"ia":4877,"ir":4878,"leg":4879,"lang":4880,"nderly":4881,"om":4882,"oo":4883,"oy":4884,"ri":4885,"ru":4886,"rath":4887,"ss":4888,"see":4889,"sus":4890,"sam":4891,"uBc":4892,"verse":4893,"wor":4894,"with":4895,"zB":4896,"}.":4897,"}=":4898,"}^":4899,"Ġ'":4900,"ĠH":4901,"ĠR":4902,"ĠV":4903,"Ġj":4904,"Ġis":4905,"ĠQuick":4906,"ĠReel":4907,"Ġrepeat":4908,"ĠdFG":4909,"ĠdGE":4910,"ĠdFD":4911,"ĠdDEF":4912,"ĠdEFG":4913,"ĠdDd":4914,"ĠdFDF":4915,"ĠdDBD":4916,"ĠAfd":4917,"ĠAAF":4918,"ĠAEB":4919,"ĠAfge":4920,"ĠAaaa":4921,"ĠAEFE":4922,"ĠAage":4923,"ĠAfdB":4924,"ĠAAFD":4925,"ĠAfAf":4926,"ĠAEDB":4927,"ĠBfd":4928,"ĠBefg":4929,"ĠBDE":4930,"ĠBagf":4931,"ĠBgd":4932,"ĠBFED":4933,"ĠBBAB":4934,"ĠBage":4935,"ĠeGB":4936,"ĠeEFG":4937,"Ġeede":4938,"Ġcfg":4939,"Ġcge":4940,"ĠcDE":4941,"Ġcba":4942,"Ġccde":4943,"Ġcgef":4944,"ĠcGGG":4945,"Ġcaaa":4946,"ĠcDFA":4947,"Ġcaga":4948,"Ġcage":4949,"ĠcfdB":4950,"ĠcFAB":4951,"ĠcgBg":4952,"ĠGef":4953,"ĠGcA":4954,"ĠGeg":4955,"ĠGbag":4956,"ĠGFAF":4957,"ĠGece":4958,"ĠGaag":4959,"ĠfAF":4960,"Ġfce":4961,"Ġfor":4962,"ĠfABc":4963,"Ġfbag":4964,"ĠfBAB":4965,"Ġfzd":4966,"Ġfro":4967,"ĠgF":4968,"Ġgcde":4969,"ĠgBGB":4970,"Ġgze":4971,"Ġgcea":4972,"ĠFed":4973,"ĠFBG":4974,"ĠFFD":4975,"ĠFdcB":4976,"ĠFBBB":4977,"ĠFzd":4978,"ĠFFAB":4979,"ĠEcBA":4980,"ĠEedc":4981,"ĠEgfg":4982,"ĠEEFE":4983,"ĠEBAF":4984,"Ġacd":4985,"Ġaedc":4986,"Ġaaaa":4987,"Ġaaga":4988,"Ġaefd":4989,"ĠDcd":4990,"ĠDec":4991,"ĠDABc":4992,"ĠDdcB":4993,"ĠDcBc":4994,"edA":4995,"edec":4996,"BcdB":4997,"ĠedGB":4998,"ĠBAD":4999,"ĠBAde":5000,"ĠBAGAB":5001,"Ġby":5002,"Ġbba":5003,"Ġbff":5004,"Ġbefe":5005,"Ġbut":5006,"GABA":5007,"ĠcAa":5008,"ĠcAfe":5009,"ĠcAED":5010,"ĠcAaf":5011,"ĠcAde":5012,"ĠcAGG":5013,"ĠcAeg":5014,"ĠdBa":5015,"ĠdBfe":5016,"fgef":5017,"cABc":5018,"cAcA":5019,"cAAc":5020,"Ġfdce":5021,"Ġfdbd":5022,"ĠfdAf":5023,"cdAG":5024,"Bdgd":5025,"ĠAGGc":5026,"FAcA":5027,"ĠCe":5028,"ĠCEc":5029,"ĠCFAd":5030,"ĠBGee":5031,"ĠBGDC":5032,"ĠGAd":5033,"ĠGAAA":5034,"ĠGAdB":5035,"ĠGAce":5036,"ĠGABcd":5037,"ĠGAdd":5038,"ĠGAEG":5039,"ĠGAca":5040,"ĠBdA":5041,"ĠBdD":5042,"ĠBdb":5043,"ĠBdfe":5044,"ĠBddA":5045,"ĠBdFBdB":5046,"ĠAFf":5047,"ecBG":5048,"fddc":5049,"/)!":5050,"\"^:":5051,"\"^^\"":5052,"EDEF":5053,"FGe":5054,"BGed":5055,"BGdG":5056,"ĠFAE":5057,"ĠFAa":5058,"ĠFAag":5059,"ĠFAAd":5060,"ĠFAfB":5061,"ĠFAcF":5062,"Ġfedcde":5063,"Ġefb":5064,"Ġefab":5065,"ĠefAc":5066,"Ġefedc":5067,"ĠeffA":5068,"ĠABef":5069,"ĠABFG":5070,"EFD":5071,"Ġgfag":5072,"Ġgfaf":5073,"Ġgfbf":5074,"ĠcBAcBA":5075,"ĠBced":5076,"ĠBcBc":5077,"ĠBccd":5078,"ĠBcBAG":5079,"ĠAdeg":5080,"Ġdefc":5081,"Ġdefge":5082,"deB":5083,"Ġecfe":5084,"Ġegab":5085,"Ġegbe":5086,"Ġdegg":5087,"ĠAcae":5088,"Ġdffg":5089,"Ġdfcf":5090,"ĠdfBa":5091,"GFB":5092,"GFF":5093,"GFGA":5094,"ĠFDG":5095,"ĠFDAG":5096,"ĠFDFD":5097,"ĠFDEc":5098,"ĠefgB":5099,"Ġefgg":5100,"ĠgeBG":5101,"Ġgeae":5102,"1614":5103,"1685":5104,"1662":5105,"1689":5106,"1642":5107,"1629":5108,"1659":5109,"1673":5110,"1653":5111,"gea":5112,"Bbb":5113,"Bbdim":5114,"ĠGBge":5115,"ĠGBgf":5116,"ĠDEE":5117,"ĠDEED":5118,"ĠDECE":5119,"ĠgfeB":5120,"Ġgfea":5121,"ĠGEGB":5122,"ĠGEAF":5123,"gfa":5124,"gffe":5125,"Ġ!>(!":5126,"ĠEDBA":5127,"ĠEDDd":5128,"126":5129,"1249":5130,"1257":5131,"1281":5132,"1238":5133,"1261":5134,"1271":5135,"1292":5136,"Ġfae":5137,"Ġfaba":5138,"ĠfaAg":5139,"AFDF":5140,"ĠdBGG":5141,"cee":5142,"Bcdec":5143,"Ġafb":5144,"Ġgfgag":5145,"ĠEFBF":5146,"ĠAFDB":5147,"ĠAFDf":5148,"ĠTD":5149,"ĠTfe":5150,"ĠTgf":5151,"ĠTFEF":5152,"ĠTfec":5153,"ĠTime":5154,"ĠTedef":5155,"ĠABAE":5156,"ĠABAc":5157,"ĠABAFDF":5158,"Ġeaed":5159,"Ġeaaa":5160,"ĠdgBA":5161,"Ġdgag":5162,"Ġgedd":5163,"ĠGBdA":5164,"ĠFEcB":5165,"ĠFGGF":5166,"ĠAGFC":5167,"1014":5168,"1088":5169,"1084":5170,"1029":5171,"ĠafdA":5172,"Ġafda":5173,"Ġbga":5174,"Ġbged":5175,"Ġbgfd":5176,"Ġbggb":5177,"ĠADDD":5178,"ĠADDB":5179,"ĠADDC":5180,"Ġabga":5181,"Ġabbc":5182,"ĠeAa":5183,"ĠeAc":5184,"egb":5185,"ĠEGBA":5186,"ĠEGBc":5187,"ĠEGGA":5188,"8013":5189,"8088":5190,"8077":5191,"8026":5192,"Ġgdga":5193,"ĠDGFA":5194,"ĠFEDd":5195,"ĠAGAA":5196,"ĠAGAE":5197,"FDC":5198,"FDEF":5199,"facd":5200,"Ġdcdefg":5201,"ĠDFAA":5202,"ĠDFAD":5203,"ĠcBcde":5204,"1202":5205,"1205":5206,"ĠdAeA":5207,"Ġddf":5208,"ĠddBG":5209,"Ġddde":5210,"Ġ]!":5211,"Ġgaa":5212,"Ġgae":5213,"Ġgafd":5214,"Ġgbeb":5215,"DEGA":5216,"ĠDFFB":5217,"ĠDFCF":5218,"ĠBEcE":5219,"dfb":5220,"ĠcdeB":5221,"ĠAAGA":5222,"ĠAAGB":5223,"ĠGGcA":5224,"ĠGGFG":5225,"ĠcBAGFG":5226,"908":5227,"9080":5228,"9031":5229,"9091":5230,"9095":5231,"ĠGFGD":5232,"ĠAGEd":5233,",/>":5234,"1530":5235,"1542":5236,"1566":5237,"1586":5238,"1531":5239,"321":5240,"3290":5241,"3217":5242,"3234":5243,"3258":5244,"1460":5245,"1440":5246,"1446":5247,"1452":5248,"1454":5249,"1481":5250,"ĠBecA":5251,"7017":5252,"7079":5253,"7021":5254,"7031":5255,"Ġfeff":5256,"Ġbac":5257,"Ġbaaf":5258,"ĠBBe":5259,"FEFG":5260,"6014":5261,"6084":5262,"6066":5263,"6046":5264,"ĠfdBf":5265,"ĠfdBg":5266,"7210":5267,"7215":5268,"7217":5269,"7219":5270,"7235":5271,"7239":5272,"7249":5273,"7234":5274,"7248":5275,"7238":5276,"1315":5277,"1332":5278,"1372":5279,"1382":5280,"1336":5281,"1355":5282,"1359":5283,"1392":5284,"ĠEAD":5285,"ĠEAec":5286,"ĠEAeE":5287,"8880":5288,"8849":5289,"8811":5290,"8826":5291,"ĠBAFF":5292,"207":5293,"2020":5294,"2036":5295,"2046":5296,"2098":5297,"1714":5298,"1730":5299,"1787":5300,"1776":5301,"1793":5302,"1799":5303,"ĠeeB":5304,"ĠeeBB":5305,"Ġeeeg":5306,"6712":5307,"6790":5308,"6717":5309,"6784":5310,"6748":5311,"6778":5312,"6774":5313,"6771":5314,"4572":5315,"4567":5316,"4537":5317,"4566":5318,"4555":5319,"4552":5320,"4518":5321,"4553":5322,"4561":5323,"307":5324,"308":5325,"3019":5326,"3085":5327,"3035":5328,"3011":5329,"3028":5330,"3051":5331,"3094":5332,"697":5333,"6984":5334,"6929":5335,"6986":5336,"6983":5337,"6911":5338,"6927":5339,"6976":5340,"6921":5341,"6941":5342,"6991":5343,"407":5344,"4069":5345,"4042":5346,"4029":5347,"4043":5348,"4073":5349,"4068":5350,"4092":5351,"EAcA":5352,"195":5353,"1960":5354,"1962":5355,"1989":5356,"1946":5357,"1926":5358,"1993":5359,"657":5360,"6579":5361,"6546":5362,"6511":5363,"6548":5364,"6568":5365,"8219":5366,"8279":5367,"8247":5368,"8256":5369,"8241":5370,"8231":5371,"8253":5372,"8291":5373,"8297":5374,"857":5375,"858":5376,"8580":5377,"8590":5378,"8535":5379,"8547":5380,"8552":5381,"8554":5382,"8574":5383,"8551":5384,"Ġaeed":5385,"Ġaege":5386,"3512":5387,"3515":5388,"3534":5389,"3546":5390,"3524":5391,"3591":5392,"3598":5393,"395":5394,"3960":5395,"3989":5396,"3927":5397,"3928":5398,"3941":5399,"3931":5400,"3992":5401,"ĠBGEC":5402,"\"_(":5403,"\"_=":5404,"4932":5405,"4970":5406,"4945":5407,"4962":5408,"4933":5409,"4981":5410,"623":5411,"6216":5412,"6232":5413,"6270":5414,"6249":5415,"758":5416,"7534":5417,"7544":5418,"7543":5419,"7554":5420,"7591":5421,"ĠeBg":5422,"ĠeBBd":5423,"ĠeBFE":5424,"Ġefedce":5425,"8980":5426,"8965":5427,"8984":5428,"8928":5429,"8981":5430,"8961":5431,"ĠBAGFED":5432,"426":5433,"4212":5434,"4290":5435,"4245":5436,"4273":5437,"792":5438,"7934":5439,"7952":5440,"7948":5441,"7977":5442,"7956":5443,"ĠeAAg":5444,"Ġdefdec":5445,"ĠGDg":5446,"ĠGDBG":5447,"ĠGDDE":5448,"ĠGFGABG":5449,"ĠEAAA":5450,"3713":5451,"3735":5452,"3718":5453,"8470":5454,"8442":5455,"8487":5456,"8466":5457,"8443":5458,"8473":5459,"ĠGced":5460,"ĠGcBd":5461,"ĠGccB":5462,"ĠGcEC":5463,"ĠDDGA":5464,"252":5465,"258":5466,"2520":5467,"2548":5468,"8717":5469,"8745":5470,"8762":5471,"8789":5472,"8786":5473,"8776":5474,"8731":5475,"CDEF":5476,"FEDE":5477,"ĠfAfg":5478,"]/-":5479,"Ġggb":5480,"Ġggdd":5481,"6616":5482,"6682":5483,"6639":5484,"6634":5485,"6683":5486,"6641":5487,"341":5488,"3430":5489,"3435":5490,"3437":5491,"3466":5492,"3434":5493,"3411":5494,"3476":5495,"aca":5496,"296":5497,"2988":5498,"2927":5499,"2973":5500,"2953":5501,"2958":5502,"trin":5503,"trit":5504,"DEFD":5505,"ĠEEED":5506,"ĠEEEF":5507,"ĠvC":5508,"ĠvF":5509,"Ġvariations":5510,"Ġacf":5511,"ĠECGE":5512,"ĠECDE":5513,":\"\"^":5514,"8665":5515,"8635":5516,"8642":5517,"8638":5518,"1800":5519,"3612":5520,"3670":5521,"3630":5522,"3682":5523,"3684":5524,"3636":5525,"3643":5526,"ĠCEGA":5527,"ĠCEGB":5528,"ĠCEAF":5529,"ĠFFEG":5530,"5532":5531,"5567":5532,"5577":5533,"5531":5534,"5591":5535,"ĠBcAG":5536,"ĠFBF":5537,"ĠFBEB":5538,"ĠAFEC":5539,"ĠAEC":5540,"ĠAEEF":5541,"4715":5542,"4739":5543,"4738":5544,"ĠgBeB":5545,"ĠgfdFdF":5546,"505":5547,"507":5548,"5015":5549,"5045":5550,"5059":5551,"5056":5552,"5770":5553,"5761":5554,"5915":5555,"5920":5556,"5939":5557,"5950":5558,"5923":5559,"5999":5560,"ĠGFEDEF":5561,"4612":5562,"4680":5563,"4670":5564,"4688":5565,"4682":5566,"4647":5567,"ĠFdF":5568,"ĠFdAd":5569,"eak":5570,"eaaf":5571,"3370":5572,"3372":5573,"3330":5574,"Ġafea":5575,"gfga":5576,"gfgd":5577,"ĠAfc":5578,"ĠAfef":5579,"ĠDAD":5580,"4480":5581,"4415":5582,"4445":5583,"8380":5584,"8367":5585,"8386":5586,"1116":5587,"1110":5588,"1182":5589,"ĠcfcA":5590,"Ġcfag":5591,"Ġabagfe":5592,"gefd":5593,"5212":5594,"5210":5595,"5282":5596,"5266":5597,"Ġfca":5598,"Ġfcef":5599,"Ġfcaf":5600,"\"{_":5601,"Ġdfdc":5602,"Ġ(.!":5603,"Ġaeca":5604,"4315":5605,"4319":5606,"4365":5607,"4381":5608,"ĠuE":5609,"Ġud":5610,"ĠGdEd":5611,"Ġfgfefe":5612,"2732":5613,"2783":5614,"2776":5615,"2774":5616,"ĠaAa":5617,"ĠaAaf":5618,"ĠaAce":5619,"4869":5620,"4833":5621,"ĠBAAf":5622,"7745":5623,"ĠGged":5624,"ĠGggf":5625,"5690":5626,"5618":5627,"7616":5628,"7639":5629,"7649":5630,"7684":5631,"7644":5632,"')\"^":5633,"6313":5634,"6339":5635,"6366":5636,"781":5637,"7816":5638,"7870":5639,"7840":5640,"7839":5641,"2113":5642,"5414":5643,"5445":5644,"5469":5645,"5465":5646,"2369":5647,"2336":5648,"ĠPBA":5649,"ĠPcB":5650,"ĠPgf":5651,"ĠPFE":5652,"ĠTfef":5653,"2880":5654,"2832":5655,"2834":5656,"7490":5657,"1105":5658,"261":5659,"2665":5660,"2682":5661,"2687":5662,"7362":5663,"8116":5664,"ĠBAGABG":5665,"4182":5666,"gagede":5667,"2284":5668,"2287":5669,"2263":5670,"6410":5671,"6442":5672,"ĠdddF":5673,"Ġdddf":5674,"3867":5675,"ĠEcBc":5676,"6814":5677,"6817":5678,"6875":5679,"3189":5680,"ĠCAFA":5681,"Ġbfab":5682,"liam":5683,"ĠcFc":5684,"ĠcFdF":5685,"ĠcFcF":5686,"5312":5687,"5319":5688,"Ġbbgf":5689,"Ġbbbagf":5690,"2412":5691,"2480":5692,"2420":5693,"2483":5694,"Ġ]:\"^":5695,"retto":5696,"ĠdDFD":5697,"5812":5698,"1405":5699,"Tempo":5700,"Tenderly":5701,"ĠcGEC":5702,"ĠfBBf":5703,"ĠAGGD":5704,"use":5705,"Ġgddg":5706,"Ġedegfe":5707,"GFGD":5708,"2324":5709,"Ġsh":5710,"Ġsetting":5711,"ĠgggB":5712,"ĠEEEAG":5713,"GBdg":5714,"veuf":5715,"3200":5716,"3208":5717,"ĠEAcE":5718,"lyd":5719,"ĠdAdA":5720,"ĠEDDe":5721,"ĠDDDGF":5722,"Ġagfgfg":5723,"Fmix":5724,"Ġfgabag":5725,"]-[":5726,"ĠgGBGed":5727,"ĠFGEG":5728,"ĠaAAB":5729,"ĠcBGc":5730,"ĠfGeG":5731,"/\"^$\"":5732,"Ġpfig":5733,"ĠFFFC":5734,"1153":5735,"ĠGBce":5736,"ĠFEEe":5737,"Ġcefa":5738,"Ġcefc":5739,"Ġdgbgbg":5740,"ĠBbaf":5741,"ĠBbge":5742,"1704":5743,"1706":5744,"1707":5745,"1708":5746,"ĠFBdf":5747,"8502":5748,"6675":5749,"6679":5750,"ritten":5751,"ĠBaBB":5752,"ĠBaBa":5753,"8003":5754,"6001":5755,"6003":5756,"4002":5757,"4005":5758,"4500":5759,"4502":5760,"5297":5761,"6701":5762,"6706":5763,"6708":5764,"6709":5765,"ress":5766,"3602":5767,"3604":5768,"3605":5769,"3608":5770,"ĠFCFG":5771,"7208":5772,"7357":5773,"ĠFBAc":5774,"Ġfeedef":5775,"6501":5776,"2102":5777,"2675":5778,"2676":5779,"2305":5780,"4755":5781,"7821":5782,"ĠcBdc":5783,"ĠGzga":5784,"ĠAddddd":5785,"1889":5786,"2196":5787,"3658":5788,"5806":5789,"7453":5790,"7458":5791,"8103":5792,"8106":5793,"ĠdcecAF":5794,"1197":5795,"2253":5796,"4883":5797,"4353":5798,"8322":5799,"8325":5800,"8702":5801,"8707":5802,"8207":5803,"Ġthis":5804,"ĠGddG":5805,"ĠgBcg":5806,"ĠCcBd":5807,"Ġuave":5808,"1724":5809,"2807":5810,"3883":5811,"3885":5812,"3888":5813,"4403":5814,"5821":5815,"5824":5816,"7888":5817,"7889":5818,"7696":5819,"8621":5820,"2791":5821,"2799":5822,"2294":5823,"3901":5824,"3907":5825,"3671":5826,"3673":5827,"3897":5828,"4322":5829,"4729":5830,"4896":5831,"4897":5832,"6905":5833,"7904":5834,"ĠddBB":5835,"ĠBDDB":5836,"Ġegbgd":5837,"2164":5838,"2901":5839,"2902":5840,"3197":5841,"3759":5842,"4906":5843,"5704":5844,"5402":5845,"5405":5846,"7163":5847,"7165":5848,"ĠdzB":5849,"7501":5850,"2858":5851,"3353":5852,"3791":5853,"4808":5854,"4873":5855,"4874":5856,"5796":5857,"7724":5858,"7729":5859,"8305":5860,"8309":5861,"8359":5862,"Ġaega":5863,"5504":5864,"PMTuCOMA":5865,"Andantino":5866,"2353":5867,"2623":5868,"2896":5869,"5695":5870,"5697":5871,"5894":5872,"6691":5873,"6427":5874,"7302":5875,"7395":5876,"8404":5877,"vfug":5878,"ĠAEGD":5879,"3403":5880,"3854":5881,"4607":5882,"4203":5883,"6306":5884,"6198":5885,"7601":5886,"7863":5887,"ayed":5888,"chnell":5889,"ĠAbcd":5890,"Ġcddddd":5891,"ternate":5892,"3722":5893,"3821":5894,"4155":5895,"4453":5896,"6626":5897,"7327":5898,"cresc":5899,"dgfedc":5900,"ĠBBcc":5901,"instrum":5902,"PMTCOM":5903,"Ġnotes":5904,"4629":5905,"7471":5906,"Minore":5907,"ĠGggG":5908,"ĠaAca":5909,"7000":5910,"3165":5911,"7757":5912,"Ġdiffer":5913,"ĠDadd":5914,"ental":5915,"7109":5916,"Ġlib":5917,"Ġplayed":5918,"Ġbeea":5919,"ĠCzzF":5920,"Ġ\"^**\"":5921,"3392":5922,"5464":5923,"Alternate":5924,"ĠcEGc":5925,"andante":5926,"Playfully":5927,"APhli":5928,"Fddddd":5929,"Voice":5930,"break":5931,"frAPhli":5932,"hake":5933,"rather":5934,"Ġfrom":5935,"triton":5936,"instrumental":5937,"!_":5938,"!\"^":5939,"'{":5940,"'/.":5941,"'\"_>":5942,"((":5943,"(([":5944,")=":5945,")\"^*\"":5946,")}\"^":5947,",!":5948,",)(":5949,",,/":5950,",>^":5951,",\"_":5952,"--\"":5953,".=":5954,"114":5955,"183":5956,"1320":5957,"1146":5958,"1877":5959,"1174":5960,"1859":5961,"1831":5962,"1145":5963,"2100":5964,"286":5965,"218":5966,"263":5967,"228":5968,"2200":5969,"2140":5970,"2144":5971,"2377":5972,"2124":5973,"2877":5974,"2174":5975,"2652":5976,"2178":5977,"2127":5978,"2363":5979,"384":5980,"387":5981,"3150":5982,"3850":5983,"3650":5984,"3146":5985,"3877":5986,"3859":5987,"3350":5988,"3135":5989,"3141":5990,"3668":5991,"3133":5992,"3181":5993,"3863":5994,"437":5995,"484":5996,"4400":5997,"4108":5998,"4144":5999,"4900":6000,"4877":6001,"4424":6002,"4831":6003,"4105":6004,"4131":6005,"4864":6006,"5120":6007,"514":6008,"5100":6009,"584":6010,"587":6011,"5110":6012,"5720":6013,"5650":6014,"5877":6015,"5125":6016,"5859":6017,"5178":6018,"5658":6019,"5363":6020,"5868":6021,"5481":6022,"5873":6023,"5861":6024,"5848":6025,"660":6026,"6100":6027,"634":6028,"6160":6029,"648":6030,"6652":6031,"6847":6032,"6424":6033,"6658":6034,"6118":6035,"6868":6036,"6173":6037,"6181":6038,"6147":6039,"6134":6040,"6136":6041,"714":6042,"713":6043,"7100":6044,"736":6045,"744":6046,"711":6047,"743":6048,"748":6049,"7800":6050,"7142":6051,"7399":6052,"7124":6053,"7148":6054,"7652":6055,"7344":6056,"7133":6057,"8160":6058,"8150":6059,"8104":6060,"8399":6061,"8148":6062,"8152":6063,"8159":6064,"8127":6065,"8175":6066,"916":6067,"980":6068,"914":6069,"945":6070,"930":6071,"987":6072,"966":6073,"983":6074,"911":6075,"943":6076,"963":6077,"9142":6078,"9101":6079,"9106":6080,"9134":6081,":\"\"":6082,"<\"^":6083,"Afe":6084,"Ade":6085,"Agf":6086,"Acde":6087,"AfA":6088,"Aad":6089,"Aaga":6090,"ABde":6091,"Anot":6092,"AzB":6093,"Bef":6094,"BEE":6095,"BCB":6096,"BBGG":6097,"Bug":6098,"Bold":6099,"Ch":6100,"CEF":6101,"CDG":6102,"CEDB":6103,"DM":6104,"DAA":6105,"Eag":6106,"EBG":6107,"EBAG":6108,"Exp":6109,"Fa":6110,"Fed":6111,"For":6112,"FFD":6113,"Fcec":6114,"FfF":6115,"FBdc":6116,"Gl":6117,"Gr":6118,"GBAG":6119,"Gcde":6120,"GEDE":6121,"GTG":6122,"GzA":6123,"Hur":6124,"II":6125,"JH":6126,"Last":6127,"MC":6128,"MIN":6129,"More":6130,"Or":6131,"ORE":6132,"Ped":6133,"Pba":6134,"Part":6135,"Pia":6136,"Ref":6137,"Rak":6138,"See":6139,"Spi":6140,"Sold":6141,"TFE":6142,"TABc":6143,"Taga":6144,"Tue":6145,"Tune":6146,"UC":6147,"Vi":6148,"Vari":6149,"]!":6150,"]=":6151,"]{":6152,"]{/":6153,"]([":6154,"aD":6155,"aBc":6156,"afe":6157,"aeg":6158,"afec":6159,"bE":6160,"bfa":6161,"bbf":6162,"ck":6163,"co":6164,"ccA":6165,"ccd":6166,"cFA":6167,"cba":6168,"ccBA":6169,"cGAB":6170,"cac":6171,"cBcB":6172,"cgc":6173,"czd":6174,"chorus":6175,"che":6176,"ccdd":6177,"dS":6178,"dBc":6179,"daf":6180,"dat":6181,"dba":6182,"dcdB":6183,"dcAG":6184,"dcAc":6185,"dBcA":6186,"dfeg":6187,"dzc":6188,"eed":6189,"eage":6190,"eTf":6191,"eho":6192,"fE":6193,"ffa":6194,"fba":6195,"ffed":6196,"fcAF":6197,"fol":6198,"gh":6199,"gBG":6200,"gGB":6201,"ggf":6202,"gBB":6203,"gagf":6204,"gga":6205,"gedc":6206,"gabc":6207,"gTg":6208,"hig":6209,"ie":6210,"ier":6211,"ka":6212,"kin":6213,"lA":6214,"llo":6215,"land":6216,"mpl":6217,"ner":6218,"ou":6219,"ow":6220,"olo":6221,"oso":6222,"ock":6223,"pr":6224,"rd":6225,"rr":6226,"rw":6227,"rain":6228,"se":6229,"sf":6230,"sq":6231,"su":6232,"sed":6233,"sto":6234,"sem":6235,"spo":6236,"ster":6237,"setting":6238,"sai":6239,"shake":6240,"th":6241,"tion":6242,"tly":6243,"time":6244,"this":6245,"uF":6246,"un":6247,"ued":6248,"ucB":6249,"uagf":6250,"uDEF":6251,"und":6252,"vD":6253,"vCE":6254,"var":6255,"vfgf":6256,"vaba":6257,"vace":6258,"was":6259,"written":6260,"yle":6261,"zb":6262,"{_":6263,"}[":6264,"}\"_":6265,"Ġ&":6266,"Ġ5":6267,"Ġ7":6268,"Ġ9":6269,"Ġ49":6270,"Ġ33":6271,"Ġ*\"":6272,"ĠVersion":6273,"ĠKey":6274,"ĠUC":6275,"ĠdGA":6276,"Ġdor":6277,"ĠdAc":6278,"ĠdDF":6279,"Ġdbg":6280,"ĠdEB":6281,"Ġdaga":6282,"ĠdFGB":6283,"ĠdFAG":6284,"Ġdotted":6285,"ĠAeg":6286,"ĠAAc":6287,"ĠAefg":6288,"ĠAbag":6289,"ĠAefe":6290,"ĠAcdB":6291,"ĠAAdf":6292,"ĠACEC":6293,"ĠAzd":6294,"ĠAEcE":6295,"ĠAaca":6296,"ĠBFG":6297,"ĠBBG":6298,"ĠBaf":6299,"ĠBEG":6300,"ĠBfa":6301,"ĠBDG":6302,"ĠBDEF":6303,"ĠBBdB":6304,"ĠBfB":6305,"ĠBBAF":6306,"ĠBaga":6307,"ĠBTc":6308,"ĠBfdB":6309,"ĠBafd":6310,"ĠBDFB":6311,"ĠBFGE":6312,"ĠBzG":6313,"ĠBfde":6314,"ĠeBA":6315,"Ġeab":6316,"ĠeAd":6317,"Ġeedc":6318,"ĠeGFE":6319,"Ġeaba":6320,"ĠeedB":6321,"ĠeFAc":6322,"Ġeece":6323,"ĠeCEG":6324,"ĠeBdg":6325,"ĠeGAe":6326,"ĠcGA":6327,"ĠccA":6328,"ĠcGB":6329,"Ġcagf":6330,"ĠcGAB":6331,"ĠcGFE":6332,"ĠcEc":6333,"Ġccdc":6334,"ĠccAc":6335,"Ġcbe":6336,"Ġcggg":6337,"ĠcFAd":6338,"Ġcoda":6339,"Ġccdec":6340,"ĠcGAc":6341,"ĠcFAG":6342,"Ġchan":6343,"ĠGS":6344,"ĠGec":6345,"ĠGde":6346,"ĠGga":6347,"ĠGcde":6348,"ĠGgB":6349,"ĠGfge":6350,"ĠGDDD":6351,"ĠGcAc":6352,"ĠGBcA":6353,"ĠGFAc":6354,"ĠGCEC":6355,"ĠGGFD":6356,"ĠGFAG":6357,"ĠfC":6358,"ĠfBc":6359,"ĠfDD":6360,"ĠfcBA":6361,"ĠfBBB":6362,"Ġfze":6363,"ĠfBdc":6364,"ĠgBA":6365,"ĠgAAA":6366,"ĠgBAB":6367,"Ġgig":6368,"Ġgzd":6369,"ĠgAAB":6370,"Ġggaa":6371,"ĠFU":6372,"ĠFg":6373,"ĠFz":6374,"ĠFfg":6375,"ĠFcB":6376,"ĠFGB":6377,"ĠFcc":6378,"ĠFgfe":6379,"ĠFfed":6380,"ĠFdG":6381,"ĠFff":6382,"ĠFddd":6383,"ĠFFAF":6384,"ĠFGGG":6385,"ĠFecA":6386,"ĠFCDE":6387,"ĠFTED":6388,"ĠFFBF":6389,"Ġ((":6390,"Ġ({/":6391,"Ġ(([":6392,"ĠEcd":6393,"ĠEdd":6394,"ĠEEA":6395,"ĠEEB":6396,"ĠEcdB":6397,"ĠEeB":6398,"ĠEzd":6399,"ĠEEDE":6400,"ĠEAdA":6401,"ĠEnd":6402,"ĠEgec":6403,"ĠEzG":6404,"ĠEcdf":6405,"ĠEzE":6406,"ĠaBc":6407,"Ġafg":6408,"ĠaBB":6409,"Ġaefg":6410,"ĠaAb":6411,"ĠaBAB":6412,"Ġaceg":6413,"Ġave":6414,"Ġaafa":6415,"ĠaCEG":6416,"ĠaBaB":6417,"ĠDm":6418,"ĠDfe":6419,"ĠDfd":6420,"ĠDAB":6421,"ĠDAc":6422,"ĠDCE":6423,"ĠDgfe":6424,"ĠDaa":6425,"ĠDfed":6426,"ĠDGFE":6427,"ĠDBAB":6428,"ĠDcAc":6429,"edG":6430,"eded":6431,"edBd":6432,"Bced":6433,"Bcdc":6434,"Ġedfe":6435,"Ġedfa":6436,"ĠeddF":6437,"ĠzA":6438,"eff":6439,"efag":6440,"ĠBAf":6441,"ĠBAcd":6442,"ĠBAED":6443,"ĠBAEF":6444,"ĠBAEG":6445,"ĠBADG":6446,"Ġbef":6447,"ĠbAd":6448,"Ġbfed":6449,"Ġbfge":6450,"ĠbBAB":6451,"ĠbBdf":6452,"Ġdcfe":6453,"Ġdccd":6454,"ĠdcAA":6455,"GAE":6456,"GAfe":6457,"GAGF":6458,"GAdA":6459,"GAdg":6460,"ĠcAg":6461,"ĠcAac":6462,"ĠcAae":6463,"ĠdBF":6464,"ĠdBaf":6465,"ĠdBga":6466,"ĠdBFBdB":6467,"ĠdBTAF":6468,"fgB":6469,"fgc":6470,"fgab":6471,"fgfed":6472,"fgabc":6473,"Ġ::({/":6474,"cAa":6475,"cAe":6476,"cAdA":6477,"cAeA":6478,"cABE":6479,"ĠfdBb":6480,"Ġfdga":6481,"Ġfdba":6482,"Ġfdbg":6483,"ĠfdgB":6484,"ĠfdAa":6485,"cdE":6486,"cdBA":6487,"Bdd":6488,"BdBA":6489,"BddB":6490,"BdAB":6491,"Bdim":6492,"ĠAGd":6493,"ĠAGe":6494,"ĠAGGAG":6495,"ĠAGcG":6496,"FAAG":6497,"FAcf":6498,"ĠCa":6499,"ĠCED":6500,"ĠCFG":6501,"ĠCEF":6502,"ĠCAF":6503,"ĠCGAG":6504,"ĠCAAA":6505,"ĠCDDC":6506,"ĠCGEG":6507,"agab":6508,"agdBd":6509,"ĠBGgf":6510,"ĠBGDF":6511,"ĠGAfd":6512,"ĠGAFE":6513,"ĠGAEA":6514,"ĠGAeA":6515,"ĠGAdF":6516,"ĠGAgG":6517,"ĠcddB":6518,"ĠcdAG":6519,"Ġcdefg":6520,"Ġcddg":6521,"ĠcdGc":6522,"ĠcdcBAF":6523,"ĠBdF":6524,"ĠBdfg":6525,"ĠBdga":6526,"ĠBdgfg":6527,"ĠAFC":6528,"ĠAFcd":6529,"ĠAFBd":6530,"ĠAFEB":6531,"ĠAFCF":6532,"ĠAFTED":6533,"Ġagb":6534,"ĠagdB":6535,"Ġagga":6536,"Ġaggg":6537,"ĠaggBd":6538,"ecBc":6539,"fdBd":6540,"fdec":6541,"fdcB":6542,"fdAA":6543,"fddd":6544,"/)!<)!":6545,"\"^!":6546,"\"^[":6547,"\"^~~\"":6548,"\"^->":6549,"cBB":6550,"cBe":6551,"cBg":6552,"FGD":6553,"FGc":6554,"FGg":6555,"BGFA":6556,"BGDG":6557,"ĠFAef":6558,"ĠFAED":6559,"ĠFAEF":6560,"ĠFAFE":6561,"ĠFABF":6562,"ĠFABE":6563,"ĠFADC":6564,"ĠfedF":6565,"Ġfedefg":6566,"ĠfedcAe":6567,"Ġfgd":6568,"ĠfgdB":6569,"Ġfgdc":6570,"Ġfgba":6571,"Ġeffa":6572,"Ġefac":6573,"ĠABE":6574,"ĠABBc":6575,"ĠABFB":6576,"Ġgfcd":6577,"Ġgfefga":6578,"GBed":6579,"GBeg":6580,"Ġ{/^":6581,"ĠcBAC":6582,"ĠcBAd":6583,"ĠcBAf":6584,"ĠcBAGFE":6585,"ĠcBABcA":6586,"ĠBcgc":6587,"AAF":6588,"AAG":6589,"ĠGFB":6590,"ĠGFFD":6591,"ĠGFGAB":6592,"ĠGFDA":6593,"ĠAdT":6594,"ĠAda":6595,"ĠAdBG":6596,"ĠAdgf":6597,"ĠAdDE":6598,"ĠAddf":6599,"ĠAdFE":6600,"ĠAdfA":6601,"ĠAdeA":6602,"ĠAdff":6603,"ĠAdBF":6604,"ĠABcde":6605,"ĠABcdB":6606,"Ġdefede":6607,"Ġecee":6608,"ĠecGe":6609,"ĠegG":6610,"Ġegdf":6611,"Ġegba":6612,"Ġeggd":6613,"ĠegBe":6614,"Ġegbb":6615,"intro":6616,"Ġdea":6617,"Ġdeag":6618,"ĠdegB":6619,"Ġdecdef":6620,"dBF":6621,"dBg":6622,"dBBA":6623,"dBfd":6624,"ĠAcE":6625,"ĠAcG":6626,"ĠAccB":6627,"ĠAcGF":6628,"ĠAcfA":6629,"ĠAcFc":6630,"ĠdfBb":6631,"ĠdfAd":6632,"Ġdfac":6633,"ĠdfAf":6634,"Ġfeae":6635,"ĠfeCA":6636,"Ġfebe":6637,"GFEF":6638,"GFEG":6639,"ĠFDCE":6640,"ĠFDFB":6641,"Ġefgfed":6642,"Ġefgabc":6643,"Ġefgefd":6644,"Ġefgabg":6645,"dcG":6646,"dcc":6647,"dcr":6648,"dccB":6649,")({=":6650,"Ġ\"^=\"":6651,"Ġ\"^$\"":6652,"Ġ\"^\\\"":6653,"ĠcBBd":6654,"ĠcBDF":6655,"ĠceB":6656,"ĠceBc":6657,"ĠceAG":6658,"ĠceAF":6659,"ĠceeA":6660,"ĠceBe":6661,"ĠceAf":6662,"ĠceFcec":6663,"ĠceBGFA":6664,"ĠBcdA":6665,"ĠgeA":6666,"ĠgeBA":6667,"Ġgeee":6668,"169":6669,"1667":6670,"1679":6671,"1654":6672,"1623":6673,"1664":6674,"1651":6675,"1696":6676,"ĠecAE":6677,"gem":6678,"geBG":6679,"getr":6680,"Bblyd":6681,"ĠGBBc":6682,"ĠGBED":6683,"ĠGBgd":6684,"ĠdBAD":6685,"ĠDEC":6686,"ĠGEcA":6687,"ĠGEec":6688,"ĠGEdA":6689,"ĠGEAE":6690,"ĠGEze":6691,"gfedc":6692,"ABGA":6693,"ĠEDGA":6694,"ĠEDFD":6695,"ĠEDDD":6696,"ĠEDEE":6697,"ĠEDEc":6698,"ĠEDCA":6699,"1265":6700,"1234":6701,"1229":6702,"1244":6703,"1283":6704,"1227":6705,"1256":6706,"1278":6707,"1241":6708,"1222":6709,"1224":6710,"1251":6711,"AGG":6712,"AGFG":6713,"AGGAB":6714,"Ġfade":6715,"Ġface":6716,"Ġfaaa":6717,"ĠfaAf":6718,"Ġfaster":6719,"AFTE":6720,"ceag":6721,"ceAc":6722,"ĠBAGd":6723,"ĠBAGBAG":6724,"Ġaffg":6725,"Ġaffb":6726,"Ġgfgab":6727,"Ġgfgbag":6728,"Ġgfgabc":6729,"ĠEFed":6730,"ĠEFDG":6731,"ĠEFdF":6732,"ĠAFDC":6733,"ĠTb":6734,"ĠTFG":6735,"ĠTEF":6736,"ĠTFE":6737,"ĠTfed":6738,"ĠTede":6739,"ĠTune":6740,"ĠTGFB":6741,"ĠTGFGD":6742,"ĠABAA":6743,"ĠABAGF":6744,"abfb":6745,"Ġead":6746,"Ġeaea":6747,"Ġeacf":6748,"ĠeaAa":6749,"Ġeaue":6750,"GEFG":6751,"GGf":6752,"GGGGG":6753,"ĠdgBc":6754,"Ġdgef":6755,"Ġdgcd":6756,"Ġdgdc":6757,"Ġdgbd":6758,"ddf":6759,"ĠFGAD":6760,"ĠFGAd":6761,"ĠFGAe":6762,"ĠdcBe":6763,"ĠdedcBA":6764,"Ġdedcdc":6765,"ĠdededB":6766,"AdcA":6767,"ĠFEc":6768,"ĠFEd":6769,"ĠFEGE":6770,"ĠFEEA":6771,"ĠFEdA":6772,"ĠFEEB":6773,"ĠFGDA":6774,"Ġedcc":6775,"Ġedcg":6776,"1012":6777,"1082":6778,"1062":6779,"1089":6780,"1025":6781,"1055":6782,"1033":6783,"1027":6784,"1054":6785,"1074":6786,"1038":6787,"1092":6788,"1094":6789,"1095":6790,"ordat":6791,"Ġafdd":6792,"Ġbgdc":6793,"Ġbgge":6794,"Ġbgda":6795,"ĠADB":6796,"ĠADc":6797,"ĠADBA":6798,"ĠADdc":6799,"ĠADAc":6800,"ĠADFB":6801,"ĠADAD":6802,"ĠADEFGA":6803,"Ġabfe":6804,"Ġabab":6805,"Ġabgb":6806,"BBBA":6807,"ĠeABd":6808,"ĠeAgf":6809,"ĠeAcf":6810,"ĠeATcA":6811,"eged":6812,"egdg":6813,"ĠEGdc":6814,"ĠEGCE":6815,"ĠEGDd":6816,"eer":6817,"ato":6818,"804":6819,"8090":6820,"8067":6821,"8085":6822,"8029":6823,"8047":6824,"8057":6825,"8033":6826,"8048":6827,"8063":6828,"8023":6829,"8028":6830,"8073":6831,"8041":6832,"8031":6833,"8095":6834,"Ġgfedef":6835,"Ġgfedga":6836,"AcBA":6837,"Accc":6838,"Ġgdfg":6839,"Ġgdge":6840,"Ġgdgb":6841,"ĠGABg":6842,"ĠAGAG":6843,"FDCE":6844,"FDCD":6845,"fac":6846,"ĠedcBg":6847,"Ġdcdef":6848,"ĠAFAg":6849,"ĠcBcc":6850,"ĠcBccBc":6851,"ĠdcBAGA":6852,"ĠdcBAGF":6853,"ĠdABA":6854,"ĠdAef":6855,"ĠdAcd":6856,"ĠdAce":6857,"ĠdADE":6858,"ĠdAfA":6859,"Ġddgd":6860,"Ġddad":6861,"Ġ]{=":6862,"Ġgafe":6863,"Ġgbde":6864,"Ġgbgf":6865,"Ġgbbg":6866,"Ġgbbf":6867,"DEGAB":6868,"ĠBABf":6869,"ĠBABg":6870,"ĠDFBA":6871,"ĠDFBc":6872,"ĠDFEC":6873,"ĠDFFd":6874,"ĠDFBf":6875,"ĠBEA":6876,"ĠBEBd":6877,"ĠBEcB":6878,"Ġagfb":6879,"Ġagfc":6880,"ĠcdeA":6881,"ĠcdeS":6882,"Ġcdeefe":6883,"ĠcdecdB":6884,"ĠAAD":6885,"ĠAAE":6886,"ĠAABd":6887,"ĠAAEF":6888,"ĠAAdd":6889,"ĠAAaA":6890,").^":6891,"ĠdGGA":6892,"ĠdGFA":6893,"ĠdGdB":6894,"ĠdGcG":6895,"ĠGGD":6896,"ĠGGdG":6897,"ĠGGeG":6898,"ĠGEDD":6899,"ĠGEDF":6900,"ĠGEDg":6901,"Ġ!>!.":6902,"Ġ!>!=":6903,"Ġefea":6904,"Ġefeg":6905,"ĠEFGd":6906,"CEB":6907,"CEAG":6908,"CEGE":6909,"bass":6910,"ĠcAGD":6911,"ĠcAGd":6912,"907":6913,"9016":6914,"9017":6915,"9067":6916,"9069":6917,"9082":6918,"9062":6919,"9047":6920,"9050":6921,"9053":6922,"9024":6923,"9097":6924,"DDA":6925,"DDF":6926,"DDGA":6927,"ĠGFGc":6928,"ĠGFGe":6929,"ĠAGEE":6930,"ĠAGEf":6931,",/^":6932,"1514":6933,"1588":6934,"1585":6935,"1534":6936,"1552":6937,"1554":6938,"1571":6939,"3214":6940,"3272":6941,"3213":6942,"3240":6943,"3249":6944,"3244":6945,"3252":6946,"3256":6947,"3261":6948,"3291":6949,"3271":6950,"3298":6951,"ĠcAFB":6952,"1480":6953,"1467":6954,"1419":6955,"1449":6956,"1425":6957,"1466":6958,"1429":6959,"1476":6960,"1478":6961,"1441":6962,"1422":6963,"1491":6964,"1471":6965,"ĠBege":6966,"ĠBeGe":6967,"705":6968,"7032":6969,"7070":6970,"7039":6971,"7033":6972,"7044":6973,"7054":6974,"7064":6975,"7096":6976,"cBAS":6977,"cBAcBA":6978,"Ġfefagf":6979,"Ġbae":6980,"Ġbar":6981,"6032":6982,"6072":6983,"6088":6984,"6045":6985,"6065":6986,"6039":6987,"6037":6988,"6047":6989,"6023":6990,"6038":6991,"6071":6992,"6093":6993,"6095":6994,"ĠfdBF":6995,"ĠfdBe":6996,"723":6997,"7212":6998,"7232":6999,"7245":7000,"7269":7001,"7265":7002,"7266":7003,"7286":7004,"7227":7005,"7256":7006,"7226":7007,"7258":7008,"7251":7009,"1362":7010,"1389":7011,"1386":7012,"1378":7013,"1354":7014,"1374":7015,"1373":7016,"1341":7017,"1353":7018,"1351":7019,"1393":7020,"1396":7021,"ĠEAGB":7022,"ĠEADA":7023,"Ġgecf":7024,"Ġgecg":7025,"ĠgecGEC":7026,"ĠBGGD":7027,"ĠBGGc":7028,"886":7029,"8812":7030,"8815":7031,"8867":7032,"8852":7033,"8821":7034,"8873":7035,"8896":7036,"8897":7037,"8895":7038,"ĠBAFf":7039,"ĠfddBAF":7040,"gfec":7041,"201":7042,"204":7043,"208":7044,"2010":7045,"2060":7046,"2013":7047,"2089":7048,"2087":7049,"2057":7050,"2081":7051,"2064":7052,"2061":7053,"ABcde":7054,"]\"^->":7055,"1716":7056,"1785":7057,"1737":7058,"1744":7059,"1711":7060,"1752":7061,"1763":7062,"1774":7063,"1738":7064,"1751":7065,"1795":7066,"Ġeeed":7067,"Ġeeab":7068,"678":7069,"679":7070,"6737":7071,"6757":7072,"6743":7073,"6756":7074,"6773":7075,"6781":7076,"6731":7077,"6793":7078,"6799":7079,"ĠGFEB":7080,"454":7081,"458":7082,"4512":7083,"4569":7084,"4565":7085,"4575":7086,"4521":7087,"4593":7088,"4594":7089,"ĠdefgdB":7090,"306":7091,"3013":7092,"3065":7093,"3042":7094,"3036":7095,"3033":7096,"3027":7097,"3048":7098,"3074":7099,"3041":7100,"3053":7101,"3058":7102,"3092":7103,"DFF":7104,"694":7105,"6932":7106,"6913":7107,"6988":7108,"6945":7109,"6975":7110,"6979":7111,"6947":7112,"6944":7113,"6926":7114,"6953":7115,"6958":7116,"DGBd":7117,"DGFG":7118,"4060":7119,"4039":7120,"4089":7121,"4055":7122,"4050":7123,"4041":7124,"edcF":7125,"ĠedecdE":7126,"gdgd":7127,"193":7128,"1972":7129,"1913":7130,"1988":7131,"1930":7132,"1940":7133,"1965":7134,"1985":7135,"1966":7136,"1950":7137,"1943":7138,"1948":7139,"1977":7140,"1918":7141,"1921":7142,"1964":7143,"1968":7144,"1971":7145,"1951":7146,"1995":7147,"654":7148,"6514":7149,"6570":7150,"6588":7151,"6530":7152,"6562":7153,"6536":7154,"6583":7155,"6552":7156,"6543":7157,"6518":7158,"6563":7159,"6594":7160,"821":7161,"824":7162,"825":7163,"826":7164,"8230":7165,"8249":7166,"8266":7167,"8259":7168,"8252":7169,"8221":7170,"8226":7171,"8222":7172,"8298":7173,"851":7174,"852":7175,"8586":7176,"8550":7177,"8559":7178,"8526":7179,"8541":7180,"8522":7181,"8564":7182,"Ġaecd":7183,"Ġaeab":7184,"353":7185,"3569":7186,"3519":7187,"3575":7188,"3566":7189,"3556":7190,"3576":7191,"3578":7192,"3553":7193,"391":7194,"3916":7195,"3970":7196,"3913":7197,"3967":7198,"3930":7199,"3935":7200,"3933":7201,"3952":7202,"3918":7203,"3926":7204,"3981":7205,"3938":7206,"3991":7207,"3951":7208,"491":7209,"4910":7210,"4960":7211,"4985":7212,"4937":7213,"4925":7214,"4944":7215,"4954":7216,"4926":7217,"6214":7218,"6245":7219,"6282":7220,"6279":7221,"6225":7222,"6263":7223,"6226":7224,"6281":7225,"6231":7226,"6271":7227,"dAGF":7228,"753":7229,"7516":7230,"7590":7231,"7570":7232,"7517":7233,"7540":7234,"7519":7235,"7537":7236,"7566":7237,"7586":7238,"7511":7239,"7556":7240,"7574":7241,"7541":7242,"7568":7243,"7593":7244,"7594":7245,".\"\"^":7246,"ĠeBef":7247,"ĠeBgf":7248,"ĠgagB":7249,"Ġfffe":7250,"Ġffaf":7251,"ĠffAB":7252,"ĠefedcB":7253,"8960":7254,"8930":7255,"8969":7256,"8936":7257,"8955":7258,"8944":7259,"8943":7260,"8974":7261,"8973":7262,"8924":7263,"8991":7264,"8951":7265,"8997":7266,"8999":7267,"4216":7268,"4215":7269,"4288":7270,"4267":7271,"4269":7272,"4262":7273,"4242":7274,"4287":7275,"4236":7276,"4278":7277,"4226":7278,"4291":7279,"aaag":7280,"794":7281,"798":7282,"7980":7283,"7970":7284,"7930":7285,"7986":7286,"7950":7287,"7957":7288,"7946":7289,"7943":7290,"7928":7291,"7931":7292,"7953":7293,"ĠdBdG":7294,"cdeB":7295,"ĠeAAF":7296,"Ġdefdgf":7297,"gBD":7298,"gBDG":7299,"ĠGDBd":7300,"ĠGDAD":7301,"1005":7302,"1007":7303,"1009":7304,"fede":7305,"fedf":7306,"Ġgabb":7307,",>).":7308,"ĠGFGAAB":7309,"ĠEAAAGA":7310,"dGBG":7311,"ĠAddF":7312,"fAeA":7313,"Ġfgad":7314,"Ġfgae":7315,"3782":7316,"3749":7317,"3789":7318,"3737":7319,"3783":7320,"3763":7321,"3778":7322,"3774":7323,"8412":7324,"8480":7325,"8472":7326,"8482":7327,"8485":7328,"8449":7329,"8475":7330,"8483":7331,"8464":7332,"8461":7333,"ĠGcEc":7334,"ĠDDA":7335,"ĠDDED":7336,"251":7337,"257":7338,"2580":7339,"2567":7340,"2545":7341,"2549":7342,"2537":7343,"2587":7344,"2586":7345,"2557":7346,"2559":7347,"2544":7348,"2543":7349,"2527":7350,"2577":7351,"2576":7352,"2578":7353,"2522":7354,"2538":7355,"2593":7356,"2595":7357,"8739":7358,"8775":7359,"8733":7360,"8718":7361,"8763":7362,"8774":7363,"8771":7364,"ĠdFB":7365,"ĠdFd":7366,"ĠdFGA":7367,"ĠdFcB":7368,"ĠdFdF":7369,"ĠGABGBc":7370,"CDFA":7371,"eAe":7372,"FEDF":7373,"ĠdcAg":7374,"ĠDEDF":7375,"dggf":7376,"ĠfAef":7377,"ĠfAdc":7378,"ĠfAce":7379,"ĠfAfa":7380,"ĠfAfA":7381,"ĠDBFB":7382,"ĠDBFBdc":7383,"Ġggec":7384,"are":7385,"arp":7386,"6660":7387,"6630":7388,"6669":7389,"6636":7390,"6647":7391,"6643":7392,"6648":7393,"3413":7394,"3488":7395,"3420":7396,"3482":7397,"3489":7398,"3477":7399,"3474":7400,"3481":7401,"ĠDCC":7402,"/.^":7403,"Ġfdfb":7404,"ĠGBAGF":7405,"ĠGBAcBe":7406,"ĠfBe":7407,"ĠfBf":7408,"ĠfBed":7409,"ĠfBBc":7410,"ĠfBef":7411,"acua":7412,"ackin":7413,"298":7414,"299":7415,"2916":7416,"2912":7417,"2972":7418,"2913":7419,"2917":7420,"2967":7421,"2949":7422,"2925":7423,"2934":7424,"2957":7425,"2952":7426,"2956":7427,"2976":7428,"2954":7429,"2938":7430,"2961":7431,"treb":7432,"trio":7433,"train":7434,"ĠefdA":7435,"Ġafdfaf":7436,"Ġafdfab":7437,"Ġgefa":7438,"ĠEEGB":7439,"ĠEEdc":7440,"ĠvD":7441,"Ġvb":7442,"ĠvdBfd":7443,"bage":7444,"Ġacfe":7445,"ĠacfA":7446,"Ġacbc":7447,"ĠaccBBA":7448,"ĠcdecBA":7449,"adb":7450,"ĠECC":7451,"ĠECcB":7452,"ĠECDG":7453,"ĠECCC":7454,"ĠECFC":7455,"Ġgced":7456,"Ġgcef":7457,"8660":7458,"8667":7459,"8619":7460,"8689":7461,"8684":7462,"8687":7463,"8634":7464,"8633":7465,"1809":7466,"ĠBcBa":7467,"3665":7468,"3689":7469,"3637":7470,"ĠCEED":7471,"ĠCEEG":7472,"Ġdfafaf":7473,"ĠBgfd":7474,"ĠBgge":7475,"ĠBggd":7476,"ĠFFcB":7477,"557":7478,"558":7479,"559":7480,"5510":7481,"5572":7482,"5589":7483,"5579":7484,"5547":7485,"5556":7486,"5541":7487,"5561":7488,"5592":7489,"5599":7490,"ĠFBE":7491,"ĠFBfe":7492,"ĠFBDB":7493,"ĠFBeB":7494,"ĠAFEe":7495,"ĠadBd":7496,"Ġadab":7497,"Ġadgd":7498,"4712":7499,"4770":7500,"4745":7501,"4734":7502,"4786":7503,"4781":7504,"4764":7505,"4731":7506,"Ġfecc":7507,"ĠfecFcF":7508,"ĠdBBa":7509,"ĠdBBe":7510,"ĠGEEg":7511,"ĠABAGFG":7512,"ĠABGG":7513,"Ġaaea":7514,"Ġaaeaa":7515,"5014":7516,"5040":7517,"5049":7518,"5029":7519,"5046":7520,"5078":7521,"5058":7522,"5099":7523,"577":7524,"5788":7525,"5769":7526,"5733":7527,"5774":7528,"5768":7529,"ĠEFAe":7530,"594":7531,"5912":7532,"5917":7533,"5942":7534,"5987":7535,"5934":7536,"5957":7537,"5956":7538,"5928":7539,"5958":7540,"5993":7541,"5998":7542,"5995":7543,"4610":7544,"4637":7545,"4684":7546,"4648":7547,"ĠFdAc":7548,"ĠFdEc":7549,"eaag":7550,"3310":7551,"3332":7552,"3317":7553,"3319":7554,"3384":7555,"3366":7556,"3338":7557,"Ġcaed":7558,"Ġcafe":7559,"Ġcafd":7560,"ĠcadB":7561,"Ġcaea":7562,"ĠcaBg":7563,"Ġafee":7564,"gfgb":7565,"!>!^":7566,"ĠEFGABc":7567,"ĠAffe":7568,"ĠAfGA":7569,"ĠAfAA":7570,"ĠFAda":7571,"ĠDAde":7572,"4490":7573,"4488":7574,"4420":7575,"4462":7576,"4434":7577,"4436":7578,"4447":7579,"4443":7580,"4431":7581,"ĠBFd":7582,"ĠBFFA":7583,"ĠBFdc":7584,"ĠBFcF":7585,"/)({":7586,"8312":7587,"8379":7588,"8366":7589,"8336":7590,"1132":7591,"1170":7592,"1119":7593,"Ġcfef":7594,"ĠcfAc":7595,"Ġcfcf":7596,"524":7597,"526":7598,"528":7599,"5288":7600,"5267":7601,"5262":7602,"5279":7603,"5278":7604,"ĠfcBc":7605,"\"{=":7606,"ĠcdcG":7607,"ĠcdcBAG":7608,"ĠcdcBcA":7609,"ĠFAAa":7610,"ĠGGGd":7611,"ĠcEBc":7612,"ĠcEEF":7613,"ĠcEAB":7614,"Ġaecf":7615,"ĠDGGc":7616,"ĠDGGg":7617,"4380":7618,"4370":7619,"4330":7620,"4340":7621,"4339":7622,"4375":7623,"4389":7624,"4379":7625,"ĠcGBc":7626,"ĠcGdG":7627,"ĠGdBc":7628,"ĠGdGB":7629,"2780":7630,"2769":7631,"2740":7632,"2762":7633,"2789":7634,"2742":7635,"2779":7636,"2746":7637,"2764":7638,"2768":7639,"ĠaAdc":7640,"ĠaAeA":7641,"ĠaAgA":7642,"4890":7643,"4832":7644,"4860":7645,"4866":7646,"4834":7647,"4811":7648,"ĠdedcBd":7649,"ĠBAAE":7650,"ĠAcBAGF":7651,"ĠEFEC":7652,"cEGE":7653,"Ġfagbc":7654,"773":7655,"7719":7656,"7787":7657,"7766":7658,"7733":7659,"7748":7660,"7763":7661,"7781":7662,"7738":7663,"7731":7664,"7771":7665,"BFdB":7666,"ĠAaab":7667,"ĠAadd":7668,"ĠDEGD":7669,"ĠDEGc":7670,"1815":7671,"1817":7672,"1869":7673,"1835":7674,"1839":7675,"ĠEBed":7676,"ĠEBef":7677,"ĠEBDB":7678,"cGe":7679,"ĠGgag":7680,"ĠGgdB":7681,"568":7682,"5612":7683,"5660":7684,"5672":7685,"5669":7686,"5644":7687,"5648":7688,"7615":7689,"7613":7690,"7669":7691,"7682":7692,"imo":7693,"ĠEFGEAG":7694,"aesto":7695,"fBD":7696,"fBf":7697,"Ġgfefd":7698,"ĠdBcABG":7699,"ECA":7700,"6310":7701,"6315":7702,"6340":7703,"6382":7704,"6375":7705,"6384":7706,"7849":7707,"ĠBDef":7708,"ĠBcBAGF":7709,"bdad":7710,"ĠfbB":7711,"Ġfbf":7712,"Ġfbfd":7713,"Ġfbea":7714,"ĠAFFd":7715,"2112":7716,"2115":7717,"2170":7718,"2187":7719,"541":7720,"5412":7721,"5490":7722,"5470":7723,"5435":7724,"5484":7725,"5466":7726,"238":7727,"2360":7728,"2317":7729,"2375":7730,"2386":7731,"Ġfdcfdc":7732,"ĠPA":7733,"ĠPJH":7734,"ĠTempl":7735,"2814":7736,"2817":7737,"2830":7738,"2835":7739,"2879":7740,"2811":7741,"7416":7742,"7465":7743,"7479":7744,"7487":7745,"Ġgagfef":7746,"Ġgbgb":7747,"Ġgbgbgb":7748,"2616":7749,"2688":7750,"2645":7751,"2639":7752,"2644":7753,"BEED":7754,"cfc":7755,"cfaf":7756,"Ġgfgeag":7757,"7390":7758,"7317":7759,"7369":7760,"7375":7761,"7342":7762,"7311":7763,"8170":7764,"8172":7765,"8188":7766,"ĠcecB":7767,"1504":7768,"4132":7769,"4113":7770,"4117":7771,"4184":7772,"gaga":7773,"gage":7774,"gagfe":7775,"222":7776,"2216":7777,"2290":7778,"2270":7779,"2260":7780,"2272":7781,"2235":7782,"6472":7783,"6413":7784,"6484":7785,"3814":7786,"3879":7787,"3837":7788,"6812":7789,"6862":7790,"gbaf":7791,"gbfb":7792,"3112":7793,"3115":7794,"3186":7795,"Ġbfb":7796,"2009":7797,"ĠcFBA":7798,"Ġbeed":7799,"Ġbeeg":7800,"ĠDEFDFG":7801,"5314":7802,"5313":7803,"5330":7804,"5335":7805,"5339":7806,"5362":7807,"5336":7808,"Affe":7809,"Ġbbba":7810,"Ġbdfa":7811,"ĠDGBD":7812,"ĠDGBg":7813,"2416":7814,"2414":7815,"2472":7816,"2489":7817,"2446":7818,"2418":7819,"ĠcAdE":7820,"rest":7821,"retrin":7822,"ĠdDc":7823,"ĠdDAB":7824,"Ġdbb":7825,"Ġdbaf":7826,"Ġdbge":7827,"Ġdbab":7828,"ĠEGBg":7829,"{/_":7830,"5860":7831,"6115":7832,"6132":7833,"6114":7834,"6172":7835,"6188":7836,"AECE":7837,"ĠDdfd":7838,"ĠDdBG":7839,">)=":7840,"ĠcedcBA":7841,"ĠMB":7842,"ĠMal":7843,"ĠMEAAB":7844,"ĠMGABG":7845,"1408":7846,"ĠADDg":7847,"ited":7848,"Ġeccg":7849,"9114":7850,"ĠdaB":7851,"Ġdaag":7852,"ĠdaAad":7853,"ĠcGEc":7854,"7184":7855,"fefa":7856,"5117":7857,"5187":7858,"GFGB":7859,"cBce":7860,"2326":7861,"DFAf":7862,"ĠGEGe":7863,"Ġsee":7864,"Ġsam":7865,"Ġsour":7866,"Ġschnell":7867,"ĠEGEB":7868,"Aaub":7869,"ĠBGGAGG":7870,"ily":7871,"illiam":7872,"ĠgAg":7873,"ĠgAaA":7874,"ĠgAgA":7875,"ĠCBed":7876,"Slowly":7877,"])[^":7878,"plaintively":7879,"ĠBfbf":7880,"beE":7881,"bfb":7882,"ĠFADc":7883,"ĠFADf":7884,"ĠFADg":7885,"igh":7886,"ĠEecA":7887,"CFc":7888,"Ġcgfd":7889,"Ġegfaga":7890,"ĠceacBg":7891,"1307":7892,"ĠEGAE":7893,"ĠEDDg":7894,"ant":7895,"anspo":7896,"ĠBggc":7897,"ĠCCCB":7898,"ĠEGDf":7899,"3003":7900,"ĠAcdf":7901,"ĠeEEF":7902,"Ġececec":7903,"ĠAgfd":7904,"agen":7905,"style":7906,"ĠGDGd":7907,"ĠaAAc":7908,"Ġadda":7909,"ĠBdGGAG":7910,"Ġdeeb":7911,"ĠceAcBA":7912,"1129":7913,"Geed":7914,"ecAE":7915,"Ġebec":7916,"Ġebba":7917,"ĠfdABcd":7918,"Ġpol":7919,"ĠFFFEF":7920,"1152":7921,"AGAc":7922,"AGABAG":7923,"Ġmar":7924,"Ġman":7925,"Ġmoderate":7926,"ĠdABF":7927,"ĠdABg":7928,"alleg":7929,"ĠBGGGGG":7930,"CCC":7931,"ĠBbgf":7932,"2407":7933,"ĠFBdfd":7934,"ĠEdEd":7935,"ĠDAAF":7936,"ĠDAAG":7937,"ĠceAg":7938,"Ġbgdb":7939,"Ebmix":7940,"8500":7941,"8501":7942,"8504":7943,")!<)!":7944,")!<(!":7945,"ĠBAcAFA":7946,"Bbmaj":7947,"ĠBCd":7948,"ĠBCde":7949,"/!<)!":7950,"rited":7951,"ritard":7952,"ĠBaB":7953,"ĠdBdeB":7954,"abgec":7955,"8004":7956,"8006":7957,"8007":7958,"6008":7959,"4007":7960,"4501":7961,"2751":7962,"2752":7963,"5901":7964,"5904":7965,"5298":7966,"6705":7967,"ĠdDDg":7968,"Ġgegege":7969,"resto":7970,"\"\"_*\"":7971,"\"\"_?\"":7972,"9000":7973,"9002":7974,"9009":7975,"3492":7976,"3493":7977,"3497":7978,"3499":7979,"ĠSig":7980,"ĠSolo":7981,"ĠFCFE":7982,"7203":7983,"7204":7984,"2201":7985,"2204":7986,"4164":7987,"4165":7988,"4167":7989,"7350":7990,"7354":7991,"7359":7992,"ĠAaaA":7993,"ĠEBBe":7994,"ĠCEAe":7995,"ĠCEAcBG":7996,"6504":7997,"6507":7998,"3695":7999,"3696":8000,"3698":8001,"6155":8002,"crs":8003,"crot":8004,"Ġdbdb":8005,"ĠeBGE":8006,"2671":8007,"2306":8008,"3628":8009,"4754":8010,"4758":8011,"7828":8012,"Transpo":8013,"ĠGzGE":8014,"Ġfdbfdf":8015,"1904":8016,"1907":8017,"1908":8018,"1885":8019,"2199":8020,"3451":8021,"3655":8022,"5803":8023,"7451":8024,"7455":8025,"7798":8026,"8101":8027,"ĠIV":8028,"Ġffeg":8029,"/\"_>":8030,"/\"_?\"":8031,"2491":8032,"2423":8033,"2427":8034,"2255":8035,"4702":8036,"4703":8037,"4709":8038,"4889":8039,"4356":8040,"6881":8041,"6884":8042,"6888":8043,"8705":8044,"8706":8045,"8208":8046,"hetto":8047,"ĠAeAe":8048,"ĠGddddd":8049,"Ġgccg":8050,"Ġdfbfdf":8051,"Ġdfbabg":8052,"1726":8053,"2803":8054,"3889":8055,"4405":8056,"4406":8057,"5823":8058,"5829":8059,"7801":8060,"7694":8061,"7697":8062,"8622":8063,"oftly":8064,"Ġwon":8065,"ĠdBgdBG":8066,"ĠAcFAcA":8067,"3500":8068,"3501":8069,"3507":8070,"ĠECEGce":8071,"2605":8072,"3801":8073,"3802":8074,"3807":8075,"3909":8076,"3700":8077,"3704":8078,"3705":8079,"3707":8080,"4126":8081,"4321":8082,"4898":8083,"5204":8084,"5207":8085,"5347":8086,"6903":8087,"6904":8088,"7901":8089,"7905":8090,"7908":8091,"8602":8092,"8604":8093,"8606":8094,"8609":8095,"ufvd":8096,"ĠeFdF":8097,"2162":8098,"2907":8099,"3193":8100,"3196":8101,"3751":8102,"4823":8103,"5701":8104,"5706":8105,"5708":8106,"5605":8107,"5404":8108,"5192":8109,"5195":8110,"7166":8111,"7121":8112,"7123":8113,"8692":8114,"8695":8115,"CGr":8116,"ĠdzF":8117,"ĠAzA":8118,"ĠAza":8119,"ĠAzAG":8120,"ĠBFDE":8121,"Ġbegb":8122,"7503":8123,"2502":8124,"2506":8125,"1329":8126,"2851":8127,"2852":8128,"2856":8129,"3351":8130,"3352":8131,"3796":8132,"3798":8133,"4804":8134,"4422":8135,"4429":8136,"5323":8137,"6167":8138,"6725":8139,"6405":8140,"6892":8141,"6896":8142,"6898":8143,"7674":8144,"7676":8145,"7679":8146,"7422":8147,"7425":8148,"7428":8149,"8352":8150,">\"_*\"":8151,"ende":8152,"ĠdEcd":8153,"ĠAEEA":8154,"ĠGdBg":8155,"5506":8156,"Ġspiri":8157,"PMTuCOMB":8158,"2705":8159,"2352":8160,"2621":8161,"2624":8162,"2893":8163,"4671":8164,"4674":8165,"4675":8166,"5162":8167,"5163":8168,"5165":8169,"5726":8170,"5856":8171,"5896":8172,"5256":8173,"6459":8174,"6828":8175,"6829":8176,"6426":8177,"6429":8178,"7307":8179,"7393":8180,"8801":8181,"8808":8182,"8405":8183,"8494":8184,"8498":8185,"Gffe":8186,"Verses":8187,"\\\"\"\"^":8188,"ass":8189,"etwas":8190,"minim":8191,"ĠAEGC":8192,"ĠegceAc":8193,"ĠdAfAdA":8194,"Ġvaufvd":8195,"1854":8196,"2723":8197,"2728":8198,"4791":8199,"5131":8200,"5134":8201,"5398":8202,"5626":8203,"5758":8204,"6192":8205,"7609":8206,"7898":8207,"ura":8208,"Ġonce":8209,"ĠAAGG":8210,"Ġcfad":8211,"ĠFDDDAB":8212,"terwor":8213,"Introduc":8214,"Figures":8215,"1874":8216,"2452":8217,"2457":8218,"2391":8219,"3822":8220,"4157":8221,"4305":8222,"5153":8223,"5158":8224,"5673":8225,"6203":8226,"6208":8227,"6653":8228,"6657":8229,"6351":8230,"6352":8231,"7154":8232,"7322":8233,"7195":8234,"7199":8235,"7853":8236,"7856":8237,"8459":8238,"ĠggBf":8239,"ĠdgBdcB":8240,"5000":8241,"5004":8242,"ĠCDEDCB":8243,"ĠIII":8244,"4858":8245,"5881":8246,"5887":8247,"5459":8248,"5653":8249,"5421":8250,"5422":8251,"6843":8252,"7651":8253,"7626":8254,"7473":8255,"7461":8256,"9126":8257,"ess":8258,"ĠAeca":8259,"Ġeeca":8260,"Ġfzg":8261,"Ġfzfe":8262,"Ġassai":8263,"ĠDGEG":8264,"ĠbBbB":8265,"ĠcdBdAG":8266,"7009":8267,"2651":8268,"3327":8269,"5443":8270,"6322":8271,"6852":8272,"7331":8273,"7338":8274,"8195":8275,"8654":8276,"8794":8277,"8797":8278,"utterwor":8279,"ĠBzAB":8280,"ĠgzdB":8281,"ĠbAaA":8282,"ĠGEBGGF":8283,"ĠTdcdA":8284,"ĠeaaccA":8285,"aintive":8286,"2122":8287,"2154":8288,"2825":8289,"2874":8290,"4471":8291,"4338":8292,"8153":8293,"8673":8294,"Ġligh":8295,"ĠgAAf":8296,"ĠCzC":8297,"ĠfaAafa":8298,"andard":8299,"1829":8300,"6805":8301,"8121":8302,"8906":8303,"Scordat":8304,"ccBB":8305,"xpress":8306,"ĠJoy":8307,"ĠLass":8308,"ĠBacon":8309,"ĠGCCC":8310,"Ġazg":8311,"ĠDzD":8312,"ĠCCDC":8313,"Ġdance":8314,"Ġstave":8315,"Ġstandard":8316,"5123":8317,"Larghetto":8318,"azf":8319,"aughan":8320,"final":8321,"irst":8322,"langsam":8323,"ruhig":8324,"Ġjig":8325,"Ġrepeated":8326,"ĠGABcdg":8327,"ĠaAaG":8328,"Ġsharp":8329,"Ġdifferant":8330,"frAPhlich":8331,"Another":8332,"Bugle":8333,"Boldly":8334,"Cheer":8335,"DMAC":8336,"Glackin":8337,"Hurretrin":8338,"MINORE":8339,"Refrain":8340,"Rakes":8341,"Spirited":8342,"Soldier":8343,"Vivace":8344,"ehouse":8345,"ffedef":8346,"llop":8347,"rwin":8348,"semi":8349,"undotted":8350,"}\"_>\"":8351,"ĠBDGd":8352,"ĠeAdg":8353,"ĠcEcf":8354,"Ġchange":8355,"ĠFccF":8356,"ĠFdGd":8357,"ĠaBcaBc":8358,"ĠaAbA":8359,"ĠCEDF":8360,"ĠCAFC":8361,"ĠBdgfgB":8362,"ĠaggBdg":8363,"getragen":8364,"ĠeaAaea":8365,"ĠfddBAFdA":8366,"treble":8367,"Ġaaeaae":8368,"aestoso":8369,"ĠTemplehouse":8370,"ĠMallow":8371,"ĠdaAada":8372,"Ġsame":8373,"Ġsource":8374,"Ġschneller":8375,"illiams":8376,"Ġpolka":8377,"allegretto":8378,"Transposed":8379,"Ġspirito":8380,"Introduction":8381,"utterworth":8382,"Ġlighter":8383,"Scordatura":8384}